54
41
47
41
47
54
41
47
41
54
41
41
54
43
41
41
47
43
47
54
61
67
67
43
41
43
54
41
41
54
43
41
47
47
54
47
41
41
41
47
54
54
47
61
67
67
54
54
43
47
41
47
47
43
47
54
43
41
54
43
41
54
41
47
43
47
61
67
67
43
54
47
47
47
54
43
43
54
47
41
47
47
43
43
54
54
47
41
54
61
67
67
41
41
41
43
41
41
54
43
41
54
47
43
43
43
54
54
54
43
43
41
61
67
67
41
41
41
54
47
54
41
54
54
47
43
47
47
47
47
41
43
43
43
43
61
67
67
54
54
41
47
41
41
41
41
54
41
41
41
41
54
41
43
47
41
54
54
61
67
67
54
41
43
43
54
54
41
41
54
54
43
41
41
43
47
41
47
41
47
43
61
67
67
43
47
54
54
41
43
47
43
54
41
43
43
43
43
43
47
41
47
54
41
61
67
67
41
54
54
47
43
54
43
43
43
54
41
41
41
41
47
43
43
54
47
43
61
67
67
41
47
43
43
43
54
41
43
54
43
43
54
54
43
47
41
41
41
43
43
61
67
67
41
43
43
47
54
47
41
41
43
47
47
43
54
43
43
41
54
54
41
47
61
67
67
54
54
41
43
54
54
47
43
54
43
47
47
47
41
54
41
41
43
41
54
61
67
67
47
47
54
47
47
43
41
47
41
54
43
47
47
43
43
54
47
47
47
47
61
67
67
54
47
54
43
47
43
43
54
47
43
43
41
41
54
41
41
41
47
43
43
61
67
67
41
47
47
41
43
43
41
43
54
54
43
43
41
54
47
54
41
54
47
41
61
67
67
47
54
41
54
47
47
41
43
43
43
41
54
41
43
54
41
54
43
43
54
61
67
67
41
43
47
47
41
41
47
54
41
43
47
43
41
43
41
43
54
54
47
43
61
67
67
54
41
47
41
41
41
41
41
54
54
43
54
47
41
54
41
54
41
47
47
61
67
67
41
54
43
41
43
54
54
43
54
47
47
43
54
43
47
47
54
54
41
41
61
67
67
41
47
54
41
41
43
43
47
54
41
54
54
41
54
54
43
43
47
41
43
61
67
67
54
54
41
54
54
47
41
47
41
54
41
54
41
41
54
41
47
47
43
47
61
67
67
47
43
54
54
43
41
47
47
41
43
43
47
47
43
41
47
47
43
43
43
61
67
67
47
43
47
47
41
41
41
54
41
43
47
47
47
47
54
41
43
47
47
47
61
67
67
47
41
47
54
41
54
47
41
47
43
54
54
54
47
43
47
47
41
41
54
61
67
67
47
54
47
41
41
54
47
47
47
54
47
54
54
41
43
41
43
43
41
54
61
67
67
43
43
54
54
41
43
41
47
41
47
43
41
43
47
43
47
41
43
54
41
61
67
67
41
54
54
54
41
54
54
43
41
43
43
41
43
47
43
54
54
54
43
47
61
67
67
54
54
54
41
41
43
54
43
41
54
47
41
54
43
43
43
47
43
43
47
61
67
67
47
41
47
54
43
47
54
41
43
41
54
54
54
47
43
54
47
54
47
54
61
67
67
41
41
41
43
54
41
43
43
54
41
41
41
54
41
41
54
47
43
47
54
61
67
67
54
47
54
54
41
54
43
41
47
47
43
41
54
41
54
54
43
43
43
41
61
67
67
41
47
43
54
47
41
54
43
43
43
43
41
41
41
47
47
43
47
47
43
61
67
67
54
47
41
43
41
43
47
54
41
54
47
47
41
41
47
47
54
41
47
41
61
67
67
54
54
43
47
43
54
41
41
43
47
54
41
54
47
54
54
47
43
41
41
61
67
67
54
54
47
41
43
47
47
41
43
54
43
41
41
43
54
43
54
41
41
54
61
67
67
47
43
41
54
41
43
41
41
41
54
43
43
47
43
43
54
41
43
47
41
61
67
67
47
54
54
54
41
41
54
54
43
41
43
41
54
43
43
54
41
54
54
43
61
67
67
41
54
43
41
54
43
43
41
41
41
43
54
47
43
54
54
43
47
54
47
61
67
67
54
54
41
43
43
47
43
41
41
54
43
43
54
54
54
54
43
41
43
47
61
67
67
43
43
47
54
54
54
43
41
41
43
41
41
41
47
54
43
43
43
54
41
61
67
67
41
54
47
54
41
54
47
47
47
43
47
41
43
54
47
54
47
41
41
41
61
67
67
41
43
47
54
54
43
47
41
43
47
43
41
54
43
43
43
41
54
41
41
61
67
67
43
47
43
54
43
54
54
43
43
41
47
47
41
54
41
41
54
47
47
41
61
67
67
41
54
47
41
54
41
43
47
41
41
54
47
47
41
41
47
54
54
54
43
61
67
67
54
47
54
54
43
43
54
41
47
41
41
43
54
43
54
43
54
41
41
47
61
67
67
47
43
41
47
54
47
41
54
47
43
41
54
43
43
41
41
43
43
54
41
61
67
67
43
54
43
47
43
41
43
41
54
43
43
41
41
54
47
54
41
41
47
43
61
67
67
41
47
43
41
43
41
47
47
47
54
54
47
54
47
54
54
41
47
54
41
61
67
67
43
43
54
41
54
41
41
54
41
54
47
41
47
41
47
43
47
41
47
54
61
67
67
43
41
43
43
47
43
41
43
54
43
43
41
43
43
41
54
43
41
43
54
61
67
67
43
41
47
43
41
54
47
54
41
41
41
43
47
43
41
43
41
47
47
54
61
67
67
43
47
47
43
41
43
47
54
43
54
43
47
54
43
54
41
47
41
43
54
61
67
67
47
43
47
47
54
41
41
41
47
54
47
43
41
41
47
41
41
54
41
54
61
67
67
41
47
47
41
47
54
41
43
41
41
41
47
43
43
54
54
41
47
47
54
61
67
67
47
54
43
47
41
43
41
47
54
41
41
43
41
47
43
41
41
47
47
47
61
67
67
43
41
54
54
41
43
43
47
41
43
47
54
47
54
41
41
41
41
54
47
61
67
67
47
43
47
54
47
54
43
47
54
47
43
41
43
41
54
41
47
43
47
54
61
67
67
43
54
41
43
47
47
47
43
54
43
47
43
54
47
47
54
41
47
41
43
61
67
67
41
41
41
43
54
41
41
41
47
47
47
47
41
47
54
43
43
43
41
43
61
67
67
43
43
41
41
41
41
43
43
47
43
47
54
41
41
43
41
54
54
41
54
61
67
67
54
47
54
54
43
47
43
47
41
54
54
43
54
47
47
41
43
41
43
41
61
67
67
41
41
43
43
41
54
54
43
41
54
54
43
54
43
54
41
47
54
41
47
61
67
67
41
43
47
43
47
54
54
54
43
41
43
41
41
54
43
47
54
43
41
54
61
67
67
47
43
43
47
54
54
41
43
47
47
41
54
43
47
41
54
43
41
41
54
61
67
67
47
43
41
41
41
54
47
41
54
41
43
47
41
43
41
54
43
43
47
54
61
67
67
41
47
41
41
54
41
54
43
47
47
47
54
41
47
54
47
43
54
47
47
61
67
67
54
41
47
43
43
47
43
47
47
54
54
47
41
54
43
47
47
54
54
54
61
67
67
47
54
47
43
41
47
43
54
54
43
41
47
41
43
43
47
41
47
47
47
61
67
67
47
47
43
47
54
43
41
47
54
43
41
43
54
41
54
54
41
54
54
47
61
67
67
54
54
41
47
43
47
41
43
54
41
41
43
43
47
54
47
41
43
54
47
61
67
67
43
43
54
54
47
41
43
54
43
54
54
54
54
41
41
47
54
41
54
54
61
67
67
54
47
47
54
43
43
41
43
43
43
41
43
47
41
41
43
47
54
41
41
61
67
67
41
43
54
41
43
43
41
43
47
43
47
43
43
43
41
47
47
47
54
43
61
67
67
47
54
41
41
54
41
54
41
54
54
47
43
41
43
54
47
47
43
54
54
61
67
67
43
41
47
47
41
47
47
43
54
43
47
54
43
41
47
47
54
43
54
54
61
67
67
47
43
41
54
54
47
43
54
43
54
47
54
47
43
47
43
54
54
54
47
61
67
67
47
43
41
47
43
47
41
54
41
41
43
47
47
43
43
47
47
47
47
47
61
67
67
47
41
47
54
43
41
41
41
43
43
47
54
43
43
47
54
54
54
54
54
61
67
67
47
43
41
47
41
41
43
47
43
54
41
54
47
43
43
54
54
41
47
41
61
67
67
41
41
41
47
41
43
41
43
41
41
47
41
47
41
41
43
47
43
47
41
61
67
67
47
47
54
43
54
43
47
41
41
47
43
41
54
47
41
43
54
41
54
47
61
67
67
54
47
41
43
54
47
47
54
54
43
43
43
47
54
41
43
47
43
54
47
61
67
67
43
43
47
54
54
43
54
47
47
43
43
54
41
54
54
47
43
43
41
43
61
67
67
43
43
47
54
43
43
47
43
54
41
47
43
41
43
43
41
47
47
54
41
61
67
67
54
43
43
54
41
43
43
41
47
43
43
47
54
47
41
41
41
47
54
47
61
67
67
54
47
41
41
43
54
41
47
43
41
47
54
47
41
41
43
43
54
47
54
61
67
67
43
54
43
43
43
43
54
41
41
41
41
41
47
43
54
43
43
41
47
54
61
67
67
41
43
54
47
47
43
47
54
54
41
43
43
41
41
54
54
43
43
43
41
61
67
67
43
47
47
43
41
41
43
43
47
54
47
43
41
54
54
41
54
41
41
41
61
67
67
47
41
47
41
41
43
41
43
43
43
41
54
41
43
43
47
54
54
43
54
61
67
67
47
41
41
41
47
47
41
43
54
54
41
54
43
54
41
54
54
43
41
43
61
67
67
41
43
47
41
54
54
54
41
54
43
43
43
41
54
43
41
47
54
43
41
61
67
67
43
54
41
41
43
47
41
54
43
41
47
41
41
43
47
41
41
41
47
54
61
67
67
54
41
47
47
43
47
41
41
47
54
47
41
43
54
43
43
54
41
43
54
61
67
67
43
54
41
43
54
41
54
47
41
47
54
47
41
47
43
43
54
47
54
43
61
67
67
41
43
43
54
47
47
47
41
43
41
41
41
54
43
41
41
47
41
41
47
61
67
67
47
47
47
41
43
47
41
41
54
47
54
41
54
41
47
43
41
47
47
41
61
67
67
43
43
54
54
43
47
54
43
43
54
41
54
54
43
43
43
43
43
41
47
61
67
67
43
43
41
54
47
54
47
41
54
47
41
41
43
43
43
47
43
43
43
41
61
67
67
47
54
47
54
47
43
47
54
47
54
43
54
54
47
41
47
43
47
54
54
61
67
67
47
41
41
41
54
54
54
41
41
47
43
47
47
47
41
47
54
47
47
54
61
67
67
54
41
41
47
54
47
41
54
43
41
47
54
54
43
54
43
41
41
43
54
61
67
67
41
54
54
47
41
41
43
47
41
54
54
47
47
43
43
47
47
47
43
54
61
67
67
43
47
43
41
43
41
43
47
54
43
47
54
43
43
47
54
54
54
47
54
61
67
67
54
47
54
54
43
43
54
54
41
54
41
47
47
41
43
54
43
43
43
41
61
67
67
54
43
41
41
47
54
43
43
47
43
47
47
47
54
54
47
54
43
47
47
61
67
67
41
54
54
47
47
43
43
54
54
47
43
54
47
43
41
54
43
43
47
41
61
67
67
43
47
43
43
43
54
41
54
47
47
41
41
47
47
54
43
47
41
54
43
61
67
67
54
47
41
54
43
47
47
41
54
47
54
47
47
43
47
54
41
41
43
41
61
67
67
41
41
47
43
47
43
41
41
43
54
47
54
41
54
41
43
47
54
54
54
61
67
67
41
43
47
43
54
47
41
41
43
43
54
43
43
54
47
43
54
43
41
54
61
67
67
47
41
54
43
54
43
41
41
54
41
43
54
47
41
47
54
54
41
41
43
61
67
67
54
41
41
54
41
41
47
54
41
47
41
54
43
41
54
43
43
41
54
47
61
67
67
54
43
41
43
47
41
54
41
47
54
43
47
54
41
47
41
43
41
47
47
61
67
67
54
43
54
47
47
54
54
41
41
43
54
47
41
47
54
47
54
41
54
41
61
67
67
41
47
54
54
43
43
43
43
41
54
41
47
47
54
54
47
47
41
43
54
61
67
67
47
41
41
43
47
47
41
41
41
41
54
54
41
54
47
41
43
47
47
54
61
67
67
54
47
54
41
43
43
54
41
43
47
41
41
41
43
41
43
47
41
47
54
61
67
67
47
43
54
41
43
54
43
47
47
43
47
54
41
47
54
47
43
41
43
41
61
67
67
47
43
54
47
43
47
47
41
41
54
54
41
54
41
47
47
41
41
47
54
61
67
67
43
54
54
43
41
47
54
43
47
43
41
47
47
54
43
43
41
54
54
41
61
67
67
41
54
41
47
54
41
54
54
54
41
41
41
43
43
41
47
43
47
41
54
61
67
67
54
41
47
41
43
47
47
43
47
54
41
41
41
43
43
54
41
47
43
43
61
67
67
41
43
43
47
54
41
43
54
54
47
54
43
41
41
47
47
43
47
43
43
61
67
67
54
54
41
54
47
41
47
41
54
43
41
41
54
41
47
41
43
43
43
54
61
67
67
54
47
47
54
54
54
47
43
43
41
54
54
47
54
41
41
54
54
43
43
61
67
67
43
43
43
47
43
41
47
47
54
47
43
54
47
54
54
43
41
41
47
54
61
67
67
41
47
54
47
54
47
47
54
41
41
43
47
41
43
54
41
47
54
54
47
61
67
67
41
47
41
47
47
41
54
41
54
43
47
47
43
41
43
47
41
43
54
41
61
67
67
43
47
43
41
43
41
41
54
41
47
41
54
47
54
43
47
43
47
43
43
61
67
67
41
47
54
43
47
43
41
54
47
43
47
41
47
41
47
43
41
43
47
54
61
67
67
41
54
43
47
41
41
41
43
41
47
54
47
54
41
43
47
47
43
43
41
61
67
67
54
41
47
43
43
41
41
43
47
54
54
41
43
54
43
47
41
54
41
43
61
67
67
47
41
41
54
54
47
54
54
41
47
54
41
54
43
41
41
47
54
54
47
61
67
67
54
47
47
43
43
41
47
43
43
43
47
47
54
54
43
43
43
47
54
43
61
67
67
47
47
47
54
47
54
41
54
54
43
54
54
41
41
54
41
41
43
54
54
61
67
67
47
54
41
41
54
54
47
47
43
54
43
47
41
41
47
43
54
43
54
43
61
67
67
41
54
43
54
54
41
41
54
47
41
54
41
47
43
47
41
47
43
47
41
61
67
67
43
43
54
41
41
47
43
47
43
41
54
47
47
54
47
54
41
54
41
47
61
67
67
54
54
47
54
54
41
43
47
43
41
47
47
54
41
41
41
43
41
43
54
61
67
67
47
47
47
47
47
54
47
54
47
43
43
54
43
43
54
54
47
43
41
41
61
67
67
54
47
43
54
43
41
43
41
41
41
41
47
47
41
43
54
41
41
47
43
61
67
67
41
41
43
41
43
54
47
54
43
54
54
43
41
47
41
47
54
43
41
47
61
67
67
54
43
43
47
41
54
54
54
41
41
43
47
54
43
41
47
41
43
43
54
61
67
67
43
43
54
54
54
43
41
47
47
54
47
43
41
43
54
43
43
41
43
43
61
67
67
54
41
41
43
41
43
41
47
41
41
47
41
54
43
47
43
43
41
41
43
61
67
67
47
41
47
41
54
41
41
43
54
43
41
54
41
54
41
47
41
47
47
41
61
67
67
54
54
43
54
41
43
43
47
54
41
54
41
41
47
54
47
54
41
47
47
61
67
67
47
47
47
43
43
47
54
54
54
43
54
54
54
41
43
41
47
43
54
47
61
67
67
54
41
41
41
43
43
43
41
47
54
47
47
54
43
41
47
43
47
47
43
61
67
67
41
47
47
54
47
54
47
47
47
54
47
47
41
47
54
43
54
47
47
54
61
67
67
41
41
43
47
47
47
43
41
41
43
54
47
43
43
43
41
54
43
43
41
61
67
67
41
54
41
54
43
47
54
41
54
43
47
54
54
43
43
41
47
54
47
41
61
67
67
54
54
54
41
41
47
41
41
47
54
54
41
43
41
47
43
41
54
43
47
61
67
67
54
41
54
54
47
54
54
47
43
54
54
47
43
41
43
47
54
47
54
41
61
67
67
43
54
47
54
43
43
41
47
54
54
43
54
54
43
54
54
47
43
47
47
61
67
67
54
41
47
47
43
43
41
41
41
43
41
41
43
47
41
47
47
54
41
47
61
67
67
54
47
43
43
43
41
54
47
41
43
54
54
54
54
43
47
47
54
41
54
61
67
67
43
43
43
54
41
41
47
54
54
54
47
54
43
41
43
47
41
54
47
54
61
67
67
47
54
54
43
54
47
43
47
54
43
54
43
41
54
47
41
43
41
47
41
61
67
67
43
47
43
54
47
47
54
41
43
41
43
41
41
41
43
43
54
47
54
43
61
67
67
47
41
41
47
41
43
54
41
47
54
47
41
43
54
43
41
43
43
54
41
61
67
67
54
47
41
47
41
54
47
54
47
41
43
41
43
43
43
47
54
54
43
54
61
67
67
43
41
54
43
47
47
41
41
54
43
43
41
43
41
47
43
54
43
47
41
61
67
67
54
54
41
47
41
43
54
41
47
41
47
43
47
54
41
47
41
47
41
47
61
67
67
54
54
47
41
41
43
54
43
43
54
41
41
43
41
54
47
41
54
41
47
61
67
67
47
54
41
54
41
41
41
43
47
43
41
43
54
43
47
47
41
43
41
54
61
67
67
41
54
47
54
43
41
47
41
47
43
47
41
41
47
43
41
47
47
43
54
61
67
67
43
54
43
41
43
54
54
41
41
47
47
41
54
41
41
41
54
43
43
43
61
67
67
54
54
43
43
43
47
41
47
43
43
41
47
54
41
43
47
47
41
43
43
61
67
67
43
47
43
43
47
54
43
43
43
54
43
47
43
41
43
43
54
43
41
41
61
67
67
54
41
54
43
47
47
54
43
43
47
43
43
54
41
47
43
54
47
43
43
61
67
67
41
54
41
41
43
54
47
54
54
41
54
43
47
54
41
54
47
54
47
43
61
67
67
41
47
41
43
41
54
43
54
41
43
47
43
54
54
43
47
43
41
43
41
61
67
67
47
41
41
43
54
43
54
54
41
47
43
47
54
43
43
47
41
47
54
43
61
67
67
54
47
47
54
47
47
43
54
54
43
41
43
47
47
54
43
43
47
47
41
61
67
67
54
41
43
43
41
47
47
41
54
47
47
54
43
54
47
54
43
47
43
47
61
67
67
54
43
47
47
54
41
47
43
43
54
41
47
43
41
47
41
54
41
54
54
61
67
67
43
43
41
54
43
41
54
54
41
54
54
54
43
54
41
43
54
43
47
43
61
67
67
54
41
43
54
47
47
43
54
54
43
47
54
47
54
43
41
43
47
54
43
61
67
67
54
41
41
47
43
47
54
43
41
54
47
43
47
47
43
54
43
47
54
54
61
67
67
43
54
41
43
47
47
47
43
41
54
41
54
47
43
47
47
54
47
54
43
61
67
67
43
43
41
47
43
47
43
43
47
43
47
43
41
47
47
47
54
41
47
43
61
67
67
54
41
41
41
47
43
43
54
47
41
43
54
41
47
41
54
41
54
47
43
61
67
67
41
43
41
41
47
54
54
47
41
43
41
43
43
47
41
43
41
47
54
41
61
67
67
47
47
47
54
47
47
41
43
43
43
43
54
43
41
54
41
54
47
47
54
61
67
67
54
41
54
54
41
47
47
54
41
47
41
54
47
47
43
47
43
43
47
47
61
67
67
41
41
41
43
47
47
54
54
41
47
43
54
41
41
54
43
43
54
41
41
61
67
67
41
43
54
43
43
43
54
43
41
41
47
47
41
54
41
43
47
43
43
54
61
67
67
47
54
43
43
41
41
41
47
54
41
43
43
54
41
43
47
41
54
47
43
61
67
67
54
47
41
41
43
54
41
47
41
41
54
47
47
47
54
41
47
41
54
54
61
67
67
47
47
41
47
47
54
41
43
47
41
41
43
41
54
43
43
47
47
41
41
61
67
67
43
43
41
41
41
43
41
47
43
47
43
54
41
41
43
41
43
47
41
43
61
67
67
41
47
41
43
43
43
41
43
47
43
47
47
47
43
41
41
47
54
54
41
61
67
67
47
41
43
43
54
41
47
41
54
41
43
47
54
41
47
43
43
41
54
54
61
67
67
43
41
47
43
43
41
41
41
47
47
47
54
54
47
47
43
47
43
43
43
61
67
67
47
41
47
43
54
43
41
43
54
47
54
54
54
54
41
54
43
47
43
43
61
67
67
43
43
43
54
41
54
41
41
43
43
54
43
43
43
43
47
41
43
54
47
61
67
67
54
47
43
41
47
47
47
43
54
43
47
43
41
41
54
43
41
54
47
43
61
67
67
41
54
47
47
47
43
41
54
41
47
41
54
43
47
47
47
47
47
54
41
61
67
67
41
41
54
41
41
54
43
47
54
43
41
41
54
54
47
54
47
41
43
54
61
67
67
43
41
43
41
43
43
47
54
41
41
43
41
47
47
47
41
41
41
43
54
61
67
67
47
47
41
41
41
43
41
43
54
47
41
43
54
54
47
41
41
43
54
54
61
67
67
43
41
41
41
54
54
47
54
43
41
47
43
41
41
54
41
54
47
41
41
61
67
67
54
41
41
54
41
41
54
54
43
47
41
41
47
47
43
43
43
41
43
47
61
67
67
41
41
43
41
41
54
43
54
47
41
54
54
41
47
54
41
43
54
41
41
61
67
67
47
47
41
54
47
47
41
54
47
47
41
43
43
47
43
54
43
41
41
47
61
67
67
43
41
41
41
54
41
41
47
47
43
54
47
41
43
41
54
47
43
54
43
61
67
67
47
41
43
41
43
54
41
43
54
54
54
47
41
54
41
43
41
47
54
54
61
67
67
47
47
41
41
41
43
41
41
47
47
43
41
41
41
47
54
54
43
47
43
61
67
67
43
54
43
54
41
43
41
41
54
54
43
43
54
47
43
43
47
47
41
41
61
67
67
47
47
43
43
43
41
41
43
47
41
47
54
41
54
47
47
41
47
47
54
61
67
67
47
43
41
54
47
47
47
41
43
43
41
54
43
41
54
43
43
41
47
54
61
67
67
47
43
41
41
41
54
41
41
54
54
41
47
43
47
54
47
54
41
54
41
61
67
67
47
41
54
43
43
43
47
47
47
43
41
43
54
54
43
47
43
43
47
41
61
67
67
41
47
47
54
41
41
41
47
41
41
54
47
43
41
41
43
43
41
54
47
61
67
67
54
54
54
54
41
41
41
41
47
47
54
43
47
54
54
41
43
47
41
41
61
67
67
47
54
47
41
43
43
41
47
41
47
43
43
41
41
47
47
41
41
47
41
61
67
67
47
41
54
54
47
47
41
47
41
54
47
47
47
43
41
54
47
54
41
41
61
67
67
43
43
47
43
43
54
54
47
41
47
41
41
47
41
43
43
54
41
41
47
61
67
67
47
54
47
47
43
41
41
54
54
54
47
41
54
54
47
43
54
54
43
43
61
67
67
47
41
54
47
54
41
43
43
41
54
47
54
41
43
43
54
41
54
41
43
61
67
67
41
54
43
41
41
41
41
47
43
41
41
43
54
54
41
41
43
41
54
47
61
67
67
43
43
54
43
47
54
54
47
47
41
41
43
41
43
54
41
54
54
43
41
61
67
67
43
54
41
47
54
41
54
43
43
47
41
43
47
43
43
54
43
43
54
54
61
67
67
54
54
54
41
41
43
54
47
43
43
41
43
43
43
47
43
43
54
47
54
61
67
67
43
41
47
54
43
54
43
43
43
41
43
47
47
47
41
43
47
54
54
43
61
67
67
43
43
41
54
41
41
54
41
43
41
41
41
47
41
54
54
43
43
54
47
61
67
67
43
54
43
47
54
43
47
41
47
43
47
54
54
43
47
41
54
54
43
47
61
67
67
41
43
41
47
54
47
54
41
47
43
43
54
41
47
43
41
43
43
54
54
61
67
67
47
43
41
54
54
47
41
47
47
47
41
43
43
47
43
41
43
47
43
43
61
67
67
54
43
41
41
47
43
43
43
47
43
47
41
47
43
54
47
54
54
54
47
61
67
67
54
41
41
54
47
47
41
54
47
41
47
43
41
47
47
47
47
47
54
43
61
67
67
43
41
43
54
41
41
43
47
41
54
47
43
54
43
41
41
41
54
47
54
61
67
67
41
41
41
41
54
47
41
54
54
43
54
43
54
41
47
41
41
41
47
43
61
67
67
54
54
54
54
47
54
41
43
47
41
43
47
54
47
43
54
54
54
47
47
61
67
67
47
43
41
54
43
43
47
47
54
43
47
54
41
41
43
43
41
54
54
54
61
67
67
54
43
54
47
43
47
54
54
54
47
43
54
54
54
54
43
47
54
54
43
61
67
67
41
47
41
41
41
43
41
41
41
54
47
47
43
43
47
43
41
43
54
41
61
67
67
47
43
54
41
43
43
47
43
41
41
41
41
47
47
41
41
41
47
47
43
61
67
67
54
43
54
54
54
41
43
43
47
41
41
41
54
47
41
47
47
41
54
43
61
67
67
47
54
43
47
54
54
43
43
43
47
41
41
54
47
41
43
43
47
41
43
61
67
67
54
47
47
47
54
43
43
43
47
54
54
54
43
43
43
43
43
47
54
43
61
67
67
54
47
41
43
54
54
43
41
43
43
41
43
47
43
47
54
43
41
43
41
61
67
67
54
41
43
54
47
54
47
47
41
54
47
41
47
54
54
43
43
43
54
47
61
67
67
43
43
54
43
54
43
54
41
47
41
47
41
43
47
47
41
47
54
41
43
61
67
67
41
54
41
43
43
41
54
54
47
47
54
43
41
41
43
41
41
47
54
41
61
67
67
43
54
43
54
43
41
43
47
43
43
47
47
43
54
41
43
43
47
47
41
61
67
67
54
43
43
43
41
47
47
54
41
41
54
54
54
54
47
43
47
41
43
54
61
67
67
43
43
41
47
43
54
47
54
41
41
41
54
47
47
43
47
54
43
47
47
61
67
67
43
47
54
47
54
43
41
43
41
41
47
41
47
41
43
47
47
43
43
47
61
67
67
47
41
41
54
43
54
47
41
54
43
47
43
41
41
41
43
41
43
54
43
61
67
67
47
54
43
54
47
41
43
43
41
47
54
41
54
47
43
43
43
47
47
41
61
67
67
47
47
54
43
54
41
41
41
47
43
41
47
47
47
54
47
41
41
54
41
61
67
67
43
41
43
41
41
54
54
54
43
41
47
43
54
47
43
47
41
41
41
54
61
67
67
41
47
54
54
47
43
41
41
54
54
43
47
54
41
41
41
43
47
41
47
61
67
67
41
47
54
41
47
47
47
41
47
54
47
41
43
41
41
54
41
41
47
43
61
67
67
54
54
47
41
54
47
54
41
41
47
43
43
41
47
54
41
47
54
43
54
61
67
67
43
43
54
41
54
41
47
47
47
43
41
47
43
41
54
41
47
47
54
47
61
67
67
54
47
54
43
54
41
41
47
43
47
41
43
47
41
54
47
41
41
54
43
61
67
67
43
54
43
43
43
47
43
47
43
47
41
47
54
54
54
47
47
41
54
47
61
67
67
47
54
47
41
47
54
43
47
43
47
41
43
47
54
54
54
47
43
54
47
61
67
67
41
54
54
54
54
43
47
41
41
43
47
47
47
47
54
41
54
41
43
47
61
67
67
47
43
43
41
54
41
43
47
54
54
54
54
47
43
43
43
54
54
54
43
61
67
67
41
41
54
43
43
54
43
43
54
41
43
54
41
43
54
54
47
54
41
54
61
67
67
54
41
54
43
54
47
47
41
41
47
47
54
41
43
43
41
47
47
54
41
61
67
67
54
47
47
47
41
41
54
54
54
43
41
43
41
43
41
47
54
41
43
43
61
67
67
54
43
54
43
41
54
41
47
43
43
47
54
43
41
54
43
54
43
41
54
61
67
67
41
41
41
41
54
54
47
54
47
47
43
41
47
54
54
43
41
43
54
54
61
67
67
47
47
54
41
43
54
41
47
47
54
54
43
54
54
43
54
54
41
47
47
61
67
67
54
54
41
43
54
43
54
47
41
41
43
47
47
54
54
41
41
47
47
54
61
67
67
47
41
47
41
47
54
47
41
54
47
41
54
47
47
47
43
47
41
54
43
61
67
67
47
43
54
54
43
43
47
41
47
41
43
43
47
54
43
41
43
47
41
43
61
67
67
54
43
47
47
43
41
43
54
41
54
41
41
47
41
41
54
54
43
43
43
61
67
67
43
54
43
54
43
43
47
41
41
43
47
47
43
41
47
54
43
54
41
43
61
67
67
54
47
43
41
47
54
41
41
43
54
47
47
41
43
47
43
54
41
54
47
61
67
67
47
54
47
41
43
54
47
43
41
47
54
43
41
54
47
54
54
47
41
54
61
67
67
41
43
54
43
47
47
47
41
43
54
43
43
47
43
54
47
43
41
41
54
61
67
67
47
41
41
43
54
41
41
47
41
54
47
54
47
43
41
43
41
41
43
47
61
67
67
47
41
43
54
47
41
47
47
54
54
41
47
47
41
47
47
41
43
43
41
61
67
67
41
41
54
41
54
54
54
54
54
43
47
41
41
41
54
41
47
43
43
41
61
67
67
41
43
54
43
54
54
41
43
47
54
54
43
43
54
41
54
43
54
47
47
61
67
67
54
47
41
47
43
41
54
43
43
41
47
47
43
54
41
54
47
47
41
47
61
67
67
47
47
41
54
54
47
54
41
47
54
43
54
47
43
41
47
41
43
41
47
61
67
67
54
41
54
47
54
41
47
54
43
54
54
41
43
54
47
43
54
43
54
41
61
67
67
41
54
43
41
54
43
54
41
47
54
43
43
41
47
54
41
54
43
54
47
61
67
67
47
41
43
41
54
47
41
54
41
54
41
41
41
41
41
41
47
41
43
54
61
67
67
54
41
43
41
47
41
43
54
47
43
41
41
47
47
47
54
54
41
54
54
61
67
67
47
54
54
47
41
43
54
41
41
47
47
47
54
54
43
54
43
43
43
43
61
67
67
54
43
47
41
43
47
43
47
41
43
41
54
47
41
54
47
41
47
41
54
61
67
67
47
47
41
41
43
54
54
54
47
47
47
54
47
47
41
43
43
43
43
54
61
67
67
43
41
47
47
43
43
43
54
43
54
54
54
43
43
43
47
41
41
47
41
61
67
67
54
41
41
47
41
43
54
43
54
54
54
41
54
54
41
43
54
41
43
41
61
67
67
54
41
41
47
47
47
41
54
43
54
43
43
41
43
41
47
43
47
47
43
61
67
67
41
47
54
54
41
47
47
43
47
47
43
43
47
54
43
54
41
54
47
43
61
67
67
47
47
43
43
54
54
43
54
41
47
43
41
47
43
41
41
54
54
43
43
61
67
67
54
43
47
41
43
41
41
54
41
54
54
43
54
43
43
47
41
54
54
54
61
67
67
47
47
54
47
43
41
54
41
41
41
54
43
47
43
43
47
47
41
54
54
61
67
67
47
41
47
54
54
54
41
47
43
47
41
47
43
43
43
41
43
47
54
43
61
67
67
43
43
41
47
54
54
43
47
54
47
43
47
43
47
43
41
54
47
47
43
61
67
67
47
54
47
47
47
43
41
54
43
41
43
41
47
43
41
54
41
47
47
47
61
67
67
54
47
43
43
43
41
47
54
54
43
41
47
43
43
41
54
54
43
41
43
61
67
67
54
47
43
41
54
41
41
54
47
47
41
43
47
41
43
43
41
43
43
41
61
67
67
41
43
43
41
43
43
47
43
43
54
43
43
54
47
47
43
47
54
54
47
61
67
67
41
43
43
41
47
47
41
43
43
54
41
54
43
54
43
41
41
54
43
41
61
67
67
41
43
41
47
41
41
47
43
54
54
41
54
41
43
47
43
47
47
41
54
61
67
67
54
54
47
41
54
54
43
47
54
54
43
43
54
47
43
54
54
41
47
43
61
67
67
41
54
43
54
54
43
43
54
41
47
47
43
47
54
47
54
54
54
43
43
61
67
67
43
54
43
41
43
47
43
54
43
41
43
43
54
43
41
43
54
54
41
43
61
67
67
47
41
43
41
54
54
47
43
43
47
54
41
41
47
47
54
43
54
54
54
61
67
67
41
43
47
47
54
54
54
54
54
43
47
41
41
41
54
43
43
41
43
54
61
67
67
47
47
41
41
47
47
54
43
43
54
41
47
47
41
41
54
41
47
47
54
61
67
67
54
41
41
41
43
54
47
54
43
47
47
54
47
41
43
47
47
47
41
54
61
67
67
41
43
41
54
43
43
47
54
41
47
54
47
54
43
47
43
43
54
43
41
61
67
67
43
41
47
54
43
54
41
43
47
43
54
41
43
41
54
41
54
47
43
47
61
67
67
54
47
47
41
47
47
47
41
54
54
41
54
47
47
41
47
41
43
41
41
61
67
67
54
47
54
43
43
54
47
47
47
54
43
43
41
54
54
41
54
43
41
43
61
67
67
54
41
43
54
41
41
54
41
41
54
47
54
54
47
43
47
54
43
43
47
61
67
67
54
54
41
43
47
41
43
43
41
47
41
47
43
54
54
47
41
47
54
43
61
67
67
41
47
41
54
41
41
47
41
43
41
47
43
41
41
43
54
43
54
54
43
61
67
67
54
43
43
41
47
43
41
43
43
47
47
41
43
41
43
47
54
47
54
43
61
67
67
41
43
54
43
54
43
54
47
41
54
41
43
47
54
43
43
43
41
47
47
61
67
67
47
41
43
54
47
43
54
41
43
54
41
41
43
47
41
41
43
47
47
41
61
67
67
54
43
41
54
41
43
41
43
43
47
41
47
54
54
41
47
43
41
43
54
61
67
67
54
41
54
47
47
43
47
47
43
41
41
54
54
41
54
41
43
54
43
47
61
67
67
47
43
54
47
41
47
47
43
41
54
43
43
43
41
41
41
47
47
47
43
61
67
67
47
47
43
47
47
47
54
43
47
41
54
54
54
47
54
54
54
54
43
41
61
67
67
41
47
54
54
47
54
41
41
43
43
54
54
54
41
43
43
41
54
47
43
61
67
67
54
54
41
43
43
43
41
47
43
47
54
41
41
47
41
43
47
54
43
43
61
67
67
47
41
47
54
41
43
47
41
41
54
47
54
54
43
41
47
54
43
43
54
61
67
67
47
41
54
47
47
54
41
41
47
41
54
47
43
47
54
47
54
43
41
54
61
67
67
54
43
41
41
41
41
54
54
43
54
54
54
43
43
54
43
54
43
47
47
61
67
67
54
54
41
43
54
47
54
47
41
41
54
47
47
41
47
54
41
54
41
43
61
67
67
47
54
41
54
54
54
43
43
47
43
47
41
41
41
54
47
43
47
54
41
61
67
67
43
43
54
41
43
54
43
41
47
54
43
54
41
41
43
43
47
47
54
54
61
67
67
41
43
41
47
54
41
54
43
41
41
47
47
47
41
43
41
41
41
47
54
61
67
67
47
47
43
54
41
43
41
54
41
47
43
41
54
43
47
41
47
43
54
41
61
67
67
47
54
41
41
54
41
54
47
47
54
43
41
54
43
43
43
43
47
43
47
61
67
67
41
54
41
43
54
54
47
41
47
43
43
43
54
41
43
47
54
54
41
43
61
67
67
54
43
54
54
47
47
43
54
47
54
43
43
47
54
54
43
43
54
41
41
61
67
67
43
41
43
47
47
47
54
47
41
43
41
41
47
47
43
47
43
41
41
41
61
67
67
43
41
47
43
41
47
43
47
54
54
54
43
43
47
54
47
54
43
54
43
61
67
67
47
54
47
43
47
43
41
43
47
54
43
41
54
47
43
54
43
47
41
41
61
67
67
41
47
54
54
54
41
43
43
47
54
54
47
54
43
43
47
43
41
41
54
61
67
67
41
54
43
43
43
41
41
41
54
41
47
54
47
47
47
54
47
47
47
54
61
67
67
54
54
41
54
47
41
43
43
43
43
54
41
54
47
43
41
41
54
54
47
61
67
67
41
43
54
43
54
54
41
43
47
43
41
47
47
43
43
41
54
43
47
43
61
67
67
54
41
43
54
47
54
47
43
43
43
54
43
41
54
43
54
54
47
41
47
61
67
67
47
41
43
41
47
54
41
41
43
43
54
43
43
43
47
54
47
43
47
47
61
67
67
43
54
47
43
41
43
41
47
47
41
43
54
41
54
47
54
41
41
47
41
61
67
67
54
43
43
43
41
41
43
47
54
41
54
41
47
43
41
41
47
41
41
54
61
67
67
43
54
54
54
41
54
47
54
43
41
41
47
54
43
41
47
47
54
41
47
61
67
67
43
54
54
47
47
54
41
54
47
43
43
47
54
41
47
47
41
47
43
54
61
67
67
43
54
47
43
41
54
43
41
54
54
47
47
43
47
41
41
41
54
41
47
61
67
67
47
41
43
54
43
54
47
47
54
43
41
41
54
43
47
41
54
47
43
41
61
67
67
43
54
47
54
54
43
43
43
47
47
41
41
43
47
47
54
54
43
47
41
61
67
67
54
54
41
43
43
43
41
54
41
47
43
43
43
41
41
41
43
43
47
41
61
67
67
43
41
54
41
43
54
43
43
47
43
43
43
43
41
43
41
54
54
43
41
61
67
67
54
41
43
54
47
47
43
54
54
47
47
43
54
43
47
47
54
47
41
41
61
67
67
54
41
41
47
47
47
41
47
43
47
41
47
54
54
41
43
47
43
41
54
61
67
67
47
41
54
47
54
43
47
47
47
43
54
41
43
43
41
41
41
47
41
41
61
67
67
54
41
54
54
41
41
54
41
54
54
54
54
41
43
47
54
41
41
43
54
61
67
67
41
43
43
41
47
47
41
54
47
47
47
47
54
41
41
43
43
43
41
43
61
67
67
41
54
41
43
43
43
54
43
54
47
47
41
54
41
43
41
41
54
47
47
61
67
67
47
43
43
41
47
41
41
41
41
54
43
47
41
41
47
47
41
41
47
47
61
67
67
41
43
41
47
47
54
43
54
54
47
43
43
43
47
47
47
43
43
43
41
61
67
67
47
54
41
43
41
47
54
54
47
47
43
43
43
54
47
54
43
54
54
41
61
67
67
54
47
54
41
54
41
41
54
54
47
47
54
41
41
47
43
54
54
54
47
61
67
67
54
43
41
41
41
54
54
54
43
54
47
43
47
47
43
54
41
43
47
47
61
67
67
41
47
54
47
54
43
54
54
43
41
54
54
43
41
41
43
41
54
43
47
61
67
67
43
41
43
54
43
54
43
54
54
41
54
41
41
43
47
43
41
54
54
41
61
67
67
54
43
47
47
47
43
43
47
41
43
41
41
41
47
47
54
54
41
47
47
61
67
67
54
43
43
43
43
41
54
54
54
47
43
41
47
43
43
54
41
54
47
43
61
67
67
41
54
43
41
47
41
43
54
43
41
43
41
41
41
41
54
43
54
47
41
61
67
67
47
47
41
47
54
54
43
47
41
41
41
54
47
43
43
43
41
43
43
54
61
67
67
43
47
41
41
41
47
47
43
41
41
43
54
54
43
41
43
43
47
47
41
61
67
67
47
47
43
47
41
41
47
41
41
54
43
47
54
43
47
41
47
43
54
54
61
67
67
47
43
47
41
47
54
54
47
41
47
54
47
43
54
47
54
54
47
47
41
61
67
67
43
54
54
54
43
43
43
41
41
47
41
43
47
54
54
47
41
54
43
47
61
67
67
47
41
41
54
41
47
47
43
47
43
54
47
54
54
43
54
41
54
41
47
61
67
67
47
54
43
43
41
41
47
47
47
47
41
54
43
47
41
41
43
47
41
47
61
67
67
43
43
47
43
41
54
43
54
41
43
47
41
41
47
43
47
43
41
47
41
61
67
67
54
41
54
41
47
47
43
43
41
43
47
43
54
41
47
41
43
47
43
54
61
67
67
54
47
47
54
54
54
47
41
41
54
47
41
54
43
54
43
54
41
54
43
61
67
67
43
41
47
47
54
47
47
41
47
41
54
43
47
47
47
54
54
47
41
54
61
67
67
41
43
43
47
41
43
54
43
47
47
47
54
43
47
43
43
54
54
54
41
61
67
67
43
47
54
47
43
41
54
47
47
54
54
41
47
54
43
43
43
54
47
41
61
67
67
54
41
47
43
43
54
54
43
41
43
43
41
43
47
54
54
47
47
43
43
61
67
67
54
41
43
47
47
41
41
43
54
54
43
41
47
41
47
47
41
43
43
43
61
67
67
43
43
47
47
43
43
47
47
41
54
54
43
43
54
43
41
41
54
41
43
61
67
67
54
54
43
47
47
54
54
43
54
47
54
41
41
47
43
54
41
43
41
43
61
67
67
41
47
41
54
54
43
54
54
54
47
54
43
41
41
47
54
47
41
47
54
61
67
67
43
54
54
54
47
54
47
54
47
54
54
47
47
47
54
41
41
41
41
41
61
67
67
47
54
43
41
41
41
41
47
47
54
43
47
54
47
47
54
41
54
43
54
61
67
67
47
41
43
43
54
54
47
54
41
41
47
47
43
43
43
43
43
41
41
43
61
67
67
43
47
47
54
54
41
47
54
41
43
47
43
54
47
54
43
41
47
47
54
61
67
67
41
54
47
43
41
41
54
43
41
47
41
41
47
54
41
54
43
54
47
54
61
67
67
47
41
43
47
54
54
41
43
43
54
47
47
41
41
47
41
47
41
41
41
61
67
67
47
47
43
47
47
41
43
54
43
41
43
54
41
54
41
47
41
47
41
47
61
67
67
47
47
43
54
47
54
43
43
43
47
54
43
43
43
54
43
47
43
43
54
61
67
67
54
43
47
47
43
41
41
54
41
43
41
43
41
41
43
47
54
47
47
43
61
67
67
47
47
54
54
47
41
47
43
43
47
54
41
41
47
43
43
41
47
43
54
61
67
67
43
41
54
47
47
54
54
43
54
54
41
54
47
54
47
54
41
43
54
47
61
67
67
43
41
41
41
41
43
47
41
54
47
41
54
43
54
41
47
41
47
47
41
61
67
67
47
54
47
47
43
47
41
41
47
43
41
54
54
54
43
47
47
43
54
47
61
67
67
54
54
47
47
41
43
41
54
43
43
54
43
41
43
41
41
43
41
43
41
61
67
67
41
54
41
54
54
47
54
43
43
41
43
43
47
47
41
54
41
41
47
54
61
67
67
43
47
43
41
43
47
47
41
47
54
47
47
41
54
43
41
47
47
47
54
61
67
67
54
54
47
41
47
54
47
54
41
41
43
54
43
47
54
47
41
43
47
41
61
67
67
47
54
47
54
43
47
41
43
43
54
47
43
43
41
43
41
43
47
54
43
61
67
67
43
43
43
47
47
47
54
54
47
41
54
43
43
47
47
47
47
47
41
54
61
67
67
43
41
54
41
54
43
41
43
43
43
54
43
54
54
43
47
47
41
41
54
61
67
67
41
43
41
43
47
41
47
54
47
41
43
43
47
47
54
41
54
47
47
41
61
67
67
41
54
41
41
54
41
43
41
47
43
54
47
43
47
54
43
54
43
54
54
61
67
67
54
47
43
47
41
43
47
47
43
41
47
43
43
47
41
54
54
47
54
54
61
67
67
47
47
43
54
54
41
41
43
43
41
54
43
43
43
43
54
41
41
47
41
61
67
67
54
54
47
41
41
54
41
41
41
43
43
41
43
43
47
54
43
41
41
43
61
67
67
41
43
43
41
41
47
41
47
47
41
54
41
43
47
47
47
41
43
43
47
61
67
67
47
54
43
47
54
47
41
41
47
43
47
41
47
47
47
54
47
47
43
47
61
67
67
43
47
41
54
54
54
54
54
43
47
54
47
43
41
47
43
54
43
43
54
61
67
67
41
43
54
54
54
47
43
43
43
41
54
41
41
54
41
54
41
47
54
41
61
67
67
47
54
41
43
43
43
54
54
47
41
43
47
47
41
54
54
43
41
47
41
61
67
67
43
47
43
47
41
41
41
47
41
41
41
43
43
54
43
41
41
54
43
41
61
67
67
43
47
43
54
41
41
47
47
43
41
54
41
43
47
41
47
41
54
54
43
61
67
67
47
47
41
41
47
47
41
43
43
54
47
47
43
47
47
43
54
41
47
54
61
67
67
54
54
41
54
47
43
54
43
41
47
47
43
54
41
43
47
47
54
41
47
61
67
67
54
43
47
43
47
43
41
43
47
47
41
41
47
47
47
54
54
43
47
43
61
67
67
41
43
41
47
47
41
54
47
43
41
47
43
41
43
43
54
41
41
41
54
61
67
67
47
43
47
43
54
47
41
54
41
41
43
41
54
47
47
41
41
47
54
41
61
67
67
54
54
43
41
41
41
47
43
43
41
47
54
43
47
47
54
54
47
54
47
61
67
67
41
54
43
54
47
43
43
47
54
47
41
47
41
41
41
54
47
41
43
41
61
67
67
43
43
47
43
43
54
43
41
43
47
43
41
41
47
47
47
41
47
43
54
61
67
67
43
43
47
54
54
54
41
41
54
41
43
54
43
47
43
43
47
54
41
47
61
67
67
54
43
41
47
54
54
47
43
43
54
43
43
47
47
41
43
54
43
43
47
61
67
67
47
47
41
54
41
41
43
54
41
54
41
47
41
41
47
43
41
47
47
54
61
67
67
54
41
54
47
54
43
54
43
43
43
54
54
43
41
41
41
54
54
43
43
61
67
67
54
54
41
43
47
41
43
41
41
54
43
41
54
43
54
43
41
41
54
43
61
67
67
41
47
43
43
43
41
54
41
41
41
47
47
41
54
41
43
43
54
43
43
61
67
67
41
54
41
47
47
47
43
47
54
47
43
41
54
41
47
54
43
47
43
47
61
67
67
47
43
43
54
41
43
41
43
43
47
43
47
47
47
41
41
47
54
41
47
61
67
67
54
54
43
47
47
43
54
54
54
54
43
43
54
47
41
41
47
43
54
43
61
67
67
47
54
43
43
41
43
54
54
54
47
47
54
41
47
47
47
54
43
41
41
61
67
67
41
47
47
41
47
41
41
43
43
41
47
47
47
43
47
43
47
43
41
43
61
67
67
54
43
43
43
43
54
47
43
41
47
47
47
54
47
47
54
47
43
54
47
61
67
67
54
43
54
54
54
47
41
43
47
47
54
41
54
47
41
43
47
54
41
41
61
67
67
54
47
41
54
54
47
47
47
43
47
41
47
54
43
43
54
43
41
47
41
61
67
67
43
54
54
54
54
41
47
47
41
54
43
54
54
47
54
43
43
41
41
41
61
67
67
54
54
47
43
41
41
41
54
41
54
54
47
43
43
54
47
41
47
43
43
61
67
67
41
41
43
47
43
41
47
41
47
43
54
41
47
43
47
54
54
43
43
54
61
67
67
41
43
54
54
54
47
43
54
43
54
54
43
43
43
47
43
43
43
47
54
61
67
67
41
47
54
41
43
54
43
41
54
43
47
47
54
41
43
43
54
47
43
54
61
67
67
54
54
47
47
54
43
54
47
54
43
43
43
54
54
54
47
41
47
43
41
61
67
67
43
47
43
47
47
43
54
41
43
43
47
41
54
47
54
54
54
43
47
43
61
67
67
43
41
43
54
47
47
47
54
47
54
43
54
47
43
54
41
43
47
47
43
61
67
67
43
54
43
54
47
43
54
54
54
54
54
43
41
43
43
47
47
54
43
43
61
67
67
54
54
41
54
43
47
54
47
41
41
54
47
41
47
54
54
47
54
47
47
61
67
67
54
41
43
47
47
47
47
43
41
43
47
54
43
43
47
41
47
54
47
43
61
67
67
41
43
54
54
41
41
54
47
43
41
54
54
47
54
47
41
41
47
47
41
61
67
67
41
47
41
43
47
41
54
41
41
54
43
43
43
47
47
47
47
54
54
43
61
67
67
54
54
47
43
54
54
54
41
54
43
41
54
54
47
43
41
54
41
47
47
61
67
67
41
41
54
54
43
43
43
54
54
41
54
43
41
54
41
43
54
54
41
47
61
67
67
47
43
47
47
54
54
47
41
43
47
54
54
41
47
43
41
41
47
54
43
61
67
67
54
43
43
54
47
47
54
43
47
43
54
47
47
47
41
43
54
41
43
47
61
67
67
47
47
47
43
41
54
41
47
41
41
41
41
47
54
54
41
47
54
41
41
61
67
67
41
54
41
54
41
47
43
54
41
43
41
47
43
54
43
41
47
43
43
43
61
67
67
54
47
43
54
54
41
41
41
43
54
54
43
47
54
41
54
54
43
54
43
61
67
67
54
41
43
41
43
47
54
43
54
43
47
43
43
54
47
47
47
41
47
43
61
67
67
41
41
41
47
41
43
54
43
47
54
41
54
47
43
43
54
41
47
47
47
61
67
67
43
43
47
43
41
43
47
41
41
47
54
43
54
54
47
43
54
43
47
47
61
67
67
43
43
47
47
41
41
47
41
47
54
54
43
43
47
54
47
43
43
47
41
61
67
67
43
41
41
47
41
43
47
41
43
43
47
43
43
54
43
43
47
41
54
47
61
67
67
54
41
54
41
54
41
47
41
43
41
47
47
41
47
47
47
41
54
43
47
61
67
67
41
54
43
41
54
47
54
41
41
43
54
54
54
41
41
43
43
41
54
41
61
67
67
54
47
43
47
43
43
47
41
41
47
41
43
41
41
43
54
47
47
41
54
61
67
67
54
47
43
47
41
54
43
41
54
47
43
41
47
54
47
43
41
47
54
43
61
67
67
47
54
41
43
47
47
47
43
41
47
43
54
43
54
43
47
43
43
43
54
61
67
67
54
47
43
54
43
41
47
41
41
54
41
47
47
54
43
47
47
41
54
41
61
67
67
41
43
41
47
54
47
43
43
43
43
54
43
43
54
54
47
43
41
43
47
61
67
67
47
54
54
54
47
54
47
43
41
41
43
41
43
54
41
41
54
47
41
41
61
67
67
54
43
43
54
54
54
47
54
54
47
41
54
47
47
41
54
47
41
54
47
61
67
67
54
41
43
41
43
41
47
47
54
47
43
54
41
41
43
47
43
54
54
47
61
67
67
47
43
41
54
47
43
54
43
41
47
54
47
54
41
54
47
47
43
54
41
61
67
67
43
54
47
54
54
41
41
47
54
43
43
47
43
41
54
47
41
43
41
47
61
67
67
54
54
54
54
41
47
47
41
43
41
41
54
54
54
43
41
47
47
54
54
61
67
67
54
43
43
54
41
54
43
54
54
47
41
47
47
41
54
43
54
47
54
47
61
67
67
54
54
43
47
43
54
54
54
43
54
47
41
47
54
43
54
43
47
54
47
61
67
67
43
47
43
47
47
41
43
47
47
54
43
47
54
43
43
47
43
47
54
43
61
67
67
43
47
54
47
41
43
43
47
54
43
41
54
54
47
54
47
43
54
41
41
61
67
67
43
54
54
41
41
41
43
41
54
54
47
41
47
47
43
41
54
41
54
41
61
67
67
41
43
54
47
43
43
41
47
43
47
47
54
43
47
54
54
54
41
47
43
61
67
67
47
41
54
43
41
47
47
47
54
41
47
41
47
47
47
41
43
47
43
41
61
67
67
47
54
47
47
54
43
54
54
47
41
43
54
43
41
41
47
41
54
41
47
61
67
67
47
47
41
41
47
41
47
47
43
43
47
43
47
54
41
47
47
47
47
54
61
67
67
43
54
41
43
43
43
43
54
41
54
54
54
43
54
43
41
54
43
41
47
61
67
67
54
54
54
41
43
43
43
41
41
54
47
47
43
43
47
54
54
41
54
43
61
67
67
54
41
47
43
47
41
54
41
43
54
54
43
54
54
43
54
47
47
54
47
61
67
67
54
43
47
47
47
47
54
41
54
54
41
43
47
54
47
41
41
47
41
43
61
67
67
47
43
43
54
54
54
43
54
47
43
47
47
47
54
47
54
43
43
47
47
61
67
67
41
47
43
41
43
54
47
54
47
43
41
43
47
41
54
47
47
41
41
41
61
67
67
47
54
43
47
54
47
41
47
47
41
47
41
43
47
43
47
41
47
47
54
61
67
67
47
43
47
41
43
43
54
43
43
54
41
41
54
41
41
47
41
47
54
47
61
67
67
54
54
41
41
43
54
54
43
54
47
41
54
43
43
43
43
41
41
41
47
61
67
67
47
54
47
41
47
54
41
43
41
43
43
54
54
41
41
47
54
47
54
54
61
67
67
41
43
54
41
43
41
41
41
47
43
41
43
47
43
54
54
41
54
43
54
61
67
67
43
43
43
41
54
43
54
41
41
47
47
41
54
47
41
43
43
54
41
47
61
67
67
54
41
47
47
54
41
47
43
54
47
41
54
47
54
47
47
41
41
54
41
61
67
67
47
47
47
43
47
43
41
43
43
47
43
47
54
41
54
47
43
43
47
43
61
67
67
54
41
54
47
43
41
41
47
41
43
47
41
47
43
41
43
41
41
47
47
61
67
67
47
43
41
41
47
54
54
54
43
54
47
47
54
43
54
54
41
47
47
54
61
67
67
41
47
54
47
47
41
41
43
43
41
41
54
43
54
43
41
43
41
47
43
61
67
67
47
43
54
43
43
54
43
43
41
54
43
47
43
54
54
41
54
43
54
43
61
67
67
43
47
54
41
41
43
43
43
54
43
54
54
43
43
47
54
41
41
54
41
61
67
67
47
54
41
43
54
41
41
47
41
47
41
54
47
47
41
43
43
43
43
43
61
67
67
54
47
54
43
41
41
54
47
43
54
41
54
43
41
47
47
43
54
47
43
61
67
67
43
47
54
47
47
47
47
54
47
54
41
41
47
41
54
54
54
54
43
47
61
67
67
47
54
47
43
47
47
54
41
41
41
54
41
54
47
41
43
54
47
54
43
61
67
67
47
41
47
54
47
54
41
41
43
41
54
43
41
54
54
47
43
43
54
41
61
67
67
41
41
54
47
43
41
54
43
47
54
41
41
41
47
41
47
43
41
54
54
61
67
67
47
47
47
54
54
47
54
43
47
47
47
54
54
47
47
43
54
54
43
43
61
67
67
47
54
41
54
54
54
54
54
47
41
47
47
41
41
41
54
47
54
47
47
61
67
67
41
41
47
43
47
54
54
41
47
43
54
41
54
47
43
54
43
54
41
41
61
67
67
43
47
41
54
54
54
41
43
47
54
41
47
43
47
43
43
47
41
54
47
61
67
67
54
41
41
43
47
54
54
43
41
47
41
43
43
43
54
47
54
54
43
43
61
67
67
43
43
54
47
43
54
43
43
54
54
47
41
54
41
41
43
43
43
47
47
61
67
67
47
54
47
41
41
54
54
47
41
41
43
43
43
43
41
54
43
43
41
54
61
67
67
47
41
41
47
47
54
47
47
54
41
47
43
54
43
43
47
43
43
41
43
61
67
67
54
43
47
41
47
41
47
54
54
54
43
47
54
47
41
43
47
43
47
43
61
67
67
47
54
47
47
54
54
43
43
43
47
47
54
47
47
43
47
54
54
41
43
61
67
67
54
54
41
54
43
54
47
43
47
47
41
47
47
43
47
54
43
47
54
47
61
67
67
41
41
43
54
43
41
54
41
43
47
54
54
41
41
47
54
41
54
54
43
61
67
67
54
54
43
47
54
54
41
41
54
47
41
54
41
47
54
47
43
54
54
41
61
67
67
41
47
43
41
43
43
54
47
47
54
54
47
54
54
47
41
54
54
41
47
61
67
67
47
47
54
47
54
43
41
41
47
47
54
54
54
41
43
43
54
47
54
41
61
67
67
47
47
43
43
43
54
41
43
41
47
41
47
41
41
43
47
54
43
43
41
61
67
67
47
54
54
54
41
54
54
41
43
54
47
43
47
41
43
43
43
54
43
47
61
67
67
41
54
47
47
43
43
43
43
54
43
41
43
41
54
54
41
47
43
41
41
61
67
67
43
47
41
54
43
54
54
54
43
43
54
47
41
41
54
47
41
41
43
41
61
67
67
41
41
41
54
47
47
54
47
54
47
41
47
41
43
41
47
41
54
54
47
61
67
67
43
43
43
54
47
54
54
47
43
41
47
54
47
54
47
54
54
54
41
41
61
67
67
43
41
54
47
41
43
41
43
54
47
47
41
47
47
43
47
47
41
54
47
61
67
67
41
43
41
47
54
41
43
47
47
47
47
43
41
54
41
47
54
43
41
54
61
67
67
43
47
54
54
47
41
47
41
43
41
43
43
41
41
43
43
54
43
47
41
61
67
67
47
54
41
43
47
41
54
47
54
54
47
43
41
54
54
43
43
41
47
41
61
67
67
41
41
54
43
43
54
43
47
41
43
54
43
41
43
47
47
41
54
43
47
61
67
67
43
47
43
41
47
47
43
54
54
43
54
54
43
47
54
41
43
54
41
54
61
67
67
41
43
43
43
47
41
54
43
41
54
41
41
54
47
41
43
54
41
41
47
61
67
67
54
47
41
54
47
41
47
43
47
41
47
41
41
41
47
41
54
41
43
41
61
67
67
47
43
54
47
54
43
47
41
47
41
54
41
54
47
47
54
41
54
43
47
61
67
67
47
43
47
43
43
47
43
41
54
47
47
43
43
54
41
47
41
54
54
54
61
67
67
47
47
47
41
43
47
43
47
47
43
47
47
41
41
47
43
54
41
54
43
61
67
67
43
41
41
41
47
54
43
54
41
54
41
43
41
54
54
41
41
43
43
54
61
67
67
43
43
43
47
47
47
47
47
43
41
43
43
54
43
54
54
47
43
41
43
61
67
67
47
43
54
47
43
43
47
43
47
47
41
47
43
43
41
54
41
43
41
43
61
67
67
41
54
43
41
47
54
43
41
47
54
43
54
47
41
43
47
43
47
41
47
61
67
67
54
41
43
47
54
41
47
41
41
41
41
47
54
43
54
43
47
47
47
41
61
67
67
43
43
47
41
41
54
43
54
54
47
41
43
43
54
41
43
43
43
41
43
61
67
67
47
41
43
47
41
43
47
47
41
41
43
41
41
41
47
41
43
54
43
43
61
67
67
43
41
54
43
54
43
54
47
54
47
54
54
47
43
41
41
41
43
47
47
61
67
67
43
41
54
41
54
47
54
43
41
54
47
41
47
54
41
41
47
43
47
43
61
67
67
47
43
43
47
47
41
41
41
41
54
54
47
43
54
43
43
41
47
41
41
61
67
67
41
41
41
41
43
43
43
41
41
43
54
54
47
47
54
41
41
47
43
41
61
67
67
41
47
54
54
47
54
41
54
43
41
47
43
47
54
43
43
43
54
54
54
61
67
67
43
47
47
47
43
54
41
41
41
41
43
47
43
54
47
41
43
54
54
47
61
67
67
43
43
54
54
43
54
41
54
54
54
43
54
47
54
41
43
43
47
47
41
61
67
67
47
43
43
47
47
41
41
43
41
54
54
47
47
43
43
54
41
41
54
41
61
67
67
43
47
54
41
43
41
43
41
54
41
47
54
47
47
41
41
47
54
54
54
61
67
67
41
41
47
47
47
47
47
41
43
47
54
54
54
43
54
43
41
47
54
41
61
67
67
54
54
47
54
43
41
43
54
43
54
54
43
47
47
47
47
43
47
43
54
61
67
67
54
43
43
43
54
54
43
41
41
41
54
54
54
54
41
54
47
41
54
43
61
67
67
47
43
43
54
41
41
47
43
54
41
43
47
54
41
47
47
47
43
41
43
61
67
67
54
54
54
43
54
41
54
41
41
41
54
54
41
41
43
47
43
47
43
47
61
67
67
54
41
41
43
47
54
41
47
43
41
43
47
41
41
47
43
41
41
41
41
61
67
67
41
54
41
47
41
54
54
41
41
41
41
47
41
54
43
47
54
54
54
54
61
67
67
41
41
41
41
54
41
47
41
47
47
54
47
43
54
41
41
47
54
54
41
61
67
67
41
43
54
43
43
41
41
43
41
47
43
54
54
43
43
43
47
41
41
41
61
67
67
43
47
43
43
41
43
54
41
54
43
43
54
54
43
43
43
54
41
47
43
61
67
67
47
43
41
47
43
47
43
43
54
47
47
54
47
43
43
43
54
47
47
43
61
67
67
41
54
54
43
47
41
41
41
47
43
54
41
47
47
54
54
54
41
43
54
61
67
67
47
47
41
54
47
43
43
41
54
41
41
54
47
43
47
41
54
41
54
47
61
67
67
47
41
54
43
47
47
54
54
43
41
47
43
47
41
41
43
41
54
47
47
61
67
67
54
47
43
54
54
47
43
47
43
43
43
54
47
41
41
54
43
54
54
43
61
67
67
43
43
54
43
41
41
41
54
41
43
54
43
54
54
54
41
54
43
43
43
61
67
67
41
54
43
41
41
41
41
47
47
43
41
47
43
41
41
43
43
41
41
47
61
67
67
41
54
41
41
54
47
43
41
54
41
47
41
54
43
47
47
47
41
47
43
61
67
67
41
43
54
41
47
43
41
41
47
41
47
43
41
54
41
41
47
43
54
47
61
67
67
47
43
43
54
41
43
47
43
41
43
41
41
41
54
54
47
43
54
47
54
61
67
67
54
54
41
54
47
43
47
54
54
41
41
43
47
54
47
54
54
54
54
43
61
67
67
43
54
54
41
43
41
54
41
54
54
41
41
54
54
54
41
54
54
41
47
61
67
67
41
47
47
41
54
47
43
47
43
47
41
43
43
54
43
41
43
54
47
43
61
67
67
41
54
41
41
43
41
54
41
43
47
43
54
54
41
47
47
47
47
54
43
61
67
67
41
41
47
43
43
41
43
54
47
47
47
43
43
54
43
54
47
41
47
54
61
67
67
43
47
54
43
41
47
47
41
54
41
43
41
47
47
41
43
47
47
54
41
61
67
67
54
41
41
54
54
43
41
41
47
47
54
41
41
54
54
43
41
54
47
41
61
67
67
41
43
43
54
54
54
41
43
43
47
54
43
43
41
47
41
43
43
54
47
61
67
67
54
41
47
41
54
43
47
54
41
47
47
43
41
54
54
54
41
54
47
41
61
67
67
54
47
43
54
54
41
47
54
41
54
47
54
47
47
41
41
47
47
47
41
61
67
67
54
47
54
47
41
47
54
41
43
43
43
43
47
54
54
47
54
54
41
47
61
67
67
47
43
41
41
47
41
43
43
47
54
47
43
54
47
47
43
43
47
47
43
61
67
67
47
47
54
41
47
41
43
41
43
54
41
47
54
43
47
41
54
41
54
47
61
67
67
54
47
54
43
47
54
43
41
41
41
43
47
43
43
41
43
41
47
43
54
61
67
67
43
43
54
54
41
41
47
47
41
47
41
54
47
41
47
41
43
41
43
43
61
67
67
43
54
47
41
43
47
41
41
41
54
43
43
54
43
41
47
54
41
43
47
61
67
67
43
47
47
41
54
43
47
47
54
54
41
41
41
41
41
43
43
47
43
41
61
67
67
43
54
43
41
54
47
41
54
47
43
43
47
54
54
47
47
43
47
43
54
61
67
67
54
41
54
54
41
54
41
54
43
43
41
47
54
41
54
47
54
47
41
47
61
67
67
47
41
47
43
43
47
47
47
54
47
54
47
47
47
47
54
54
47
54
54
61
67
67
54
54
47
43
41
47
47
47
47
54
41
54
47
47
43
47
47
54
43
41
61
67
67
43
54
54
47
47
43
41
41
47
41
41
43
47
54
54
41
54
41
43
47
61
67
67
54
41
43
43
41
43
47
43
54
54
41
47
41
43
41
43
54
43
47
43
61
67
67
47
54
54
41
41
54
54
43
41
47
47
41
47
41
47
41
43
54
41
41
61
67
67
41
41
54
43
54
54
43
41
41
43
54
41
41
47
43
54
47
54
41
54
61
67
67
54
54
43
41
54
47
41
43
47
47
41
41
43
43
41
43
41
41
47
41
61
67
67
43
43
54
41
47
47
41
47
41
54
41
41
47
54
43
43
47
47
47
54
61
67
67
54
47
54
54
43
43
47
43
54
41
41
54
43
47
43
43
54
41
54
54
61
67
67
43
43
47
43
47
47
54
43
43
47
43
41
43
47
54
41
47
43
41
43
61
67
67
43
41
47
54
54
41
54
43
43
43
54
54
41
54
47
43
41
47
41
43
61
67
67
41
47
47
41
54
54
41
54
41
47
43
47
54
47
41
47
47
41
54
41
61
67
67
47
41
43
41
43
41
47
47
43
43
41
47
54
41
54
43
41
47
47
43
61
67
67
54
41
43
41
47
54
41
41
43
41
43
41
43
41
47
47
47
43
41
43
61
67
67
47
43
54
43
47
54
41
43
47
43
43
47
47
41
43
47
41
41
41
41
61
67
67
43
43
47
54
43
41
41
54
54
47
43
47
54
47
54
47
47
41
43
43
61
67
67
43
41
41
47
43
47
43
54
41
54
54
54
43
54
47
47
41
47
43
47
61
67
67
43
47
43
41
54
41
43
54
47
47
41
47
54
54
47
47
41
47
41
41
61
67
67
43
43
43
43
47
47
47
47
43
43
54
41
47
54
43
43
47
41
47
41
61
67
67
47
43
47
54
41
43
43
54
41
47
54
54
54
54
41
47
47
54
43
47
61
67
67
41
54
47
47
47
47
54
43
47
54
41
47
43
43
43
43
47
41
54
43
61
67
67
54
54
47
41
41
41
43
43
41
41
43
41
43
47
43
47
41
43
47
41
61
67
67
43
54
54
47
47
47
41
43
47
41
47
41
54
47
43
41
54
43
47
41
61
67
67
47
41
41
47
41
41
47
43
41
47
41
41
41
41
47
43
41
41
41
54
61
67
67
54
41
43
41
47
41
47
41
41
43
54
54
47
43
47
41
47
47
47
54
61
67
67
43
41
47
47
43
43
41
54
47
54
41
43
54
41
41
41
43
41
47
43
61
67
67
43
47
54
47
43
41
41
54
47
43
47
54
47
41
41
41
47
47
54
47
61
67
67
41
41
47
54
54
43
54
47
41
54
41
41
41
54
41
43
54
54
41
54
61
67
67
43
47
43
47
47
54
43
54
41
41
43
41
41
47
47
54
47
54
47
41
61
67
67
54
43
47
54
47
43
54
54
43
43
41
47
54
54
43
54
43
54
43
41
61
67
67
54
41
43
43
54
54
43
54
54
41
43
43
47
47
43
47
41
47
43
54
61
67
67
54
47
41
41
47
43
41
47
47
41
41
54
47
41
54
47
43
43
43
41
61
67
67
47
47
47
47
54
41
47
43
47
47
43
54
47
43
47
41
47
43
41
54
61
67
67
43
54
47
47
43
54
43
47
54
47
54
41
54
41
54
43
43
41
41
54
61
67
67
54
41
43
41
47
54
47
41
54
43
41
41
41
43
47
41
43
41
54
47
61
67
67
47
41
41
41
43
43
54
41
47
41
43
43
43
43
43
43
54
47
41
47
61
67
67
54
43
43
54
47
47
47
41
41
54
47
43
47
43
47
41
54
47
43
54
61
67
67
47
54
54
41
54
47
41
43
41
47
54
43
54
41
47
54
43
47
54
47
61
67
67
47
54
41
47
47
41
41
54
41
47
54
54
43
47
41
47
43
47
43
41
61
67
67
41
54
41
41
54
47
43
43
41
43
47
54
41
43
41
54
54
43
43
43
61
67
67
43
43
54
41
41
41
41
41
54
41
54
43
41
47
43
41
47
47
41
43
61
67
67
43
41
43
47
47
41
41
47
47
41
41
47
54
54
43
47
41
47
47
47
61
67
67
43
54
47
41
54
54
54
47
41
47
41
54
47
41
54
43
47
54
41
43
61
67
67
43
41
54
47
47
41
43
47
43
43
47
47
54
54
54
43
47
54
43
47
61
67
67
43
47
47
54
43
54
47
54
47
41
54
54
47
41
41
47
54
43
41
54
61
67
67
43
43
54
47
54
41
41
41
43
41
54
47
47
47
54
54
41
43
54
54
61
67
67
41
54
41
54
41
41
47
54
41
43
41
54
54
41
54
54
47
54
54
43
61
67
67
47
54
41
43
43
41
43
54
54
41
41
41
41
43
43
54
43
54
47
41
61
67
67
43
47
47
43
47
54
47
54
47
54
41
41
43
47
41
41
47
47
43
43
61
67
67
41
43
43
47
43
54
47
47
43
47
43
54
43
47
43
54
47
43
43
47
61
67
67
41
41
54
47
41
47
41
41
54
47
47
43
41
41
43
47
43
47
41
54
61
67
67
41
54
54
43
43
41
43
43
54
43
43
47
54
47
43
54
54
41
41
43
61
67
67
54
47
54
47
54
41
47
54
41
54
54
43
47
54
54
47
41
54
47
43
61
67
67
47
41
43
43
41
54
41
43
41
43
47
43
47
41
41
47
41
47
43
41
61
67
67
54
47
41
41
47
41
41
41
43
43
41
47
54
41
54
47
41
43
54
54
61
67
67
43
41
41
54
54
54
47
43
54
41
54
43
54
41
41
41
54
54
47
47
61
67
67
41
41
43
43
43
41
47
41
47
41
43
43
54
47
43
43
47
47
54
47
61
67
67
41
54
41
41
47
54
41
43
54
47
54
41
43
43
43
54
43
43
43
41
61
67
67
41
41
41
47
41
54
54
47
41
47
43
54
54
47
54
43
43
41
54
41
61
67
67
47
54
43
47
43
43
43
54
47
41
54
43
43
41
54
54
47
47
54
43
61
67
67
54
43
47
43
47
47
43
41
41
43
47
47
43
41
43
47
43
47
43
41
61
67
67
41
47
47
54
41
43
41
43
41
47
47
41
54
41
47
54
47
54
41
47
61
67
67
54
43
54
54
47
43
54
47
54
43
54
41
41
47
47
54
54
54
54
41
61
67
67
47
47
41
43
54
54
41
47
54
47
54
47
41
43
54
54
43
54
43
54
61
67
67
41
47
54
41
43
43
54
43
47
54
41
47
41
43
47
41
43
43
54
43
61
67
67
54
41
54
54
43
47
43
41
54
41
41
47
41
41
54
43
41
41
47
47
61
67
67
41
43
43
43
43
47
47
41
47
54
54
54
41
43
43
41
47
41
47
41
61
67
67
43
54
47
54
43
41
54
41
47
54
43
54
41
54
41
41
47
47
41
41
61
67
67
47
54
54
47
41
41
41
43
47
41
54
54
43
54
47
41
41
41
47
54
61
67
67
43
43
47
43
43
43
41
54
41
47
47
41
41
54
47
54
54
47
47
47
61
67
67
54
41
43
41
41
41
47
47
41
47
47
47
41
47
54
54
41
43
47
43
61
67
67
47
41
54
41
41
43
41
54
41
43
43
41
54
43
54
54
43
43
54
47
61
67
67
43
54
41
54
47
43
54
54
54
47
41
43
43
41
41
54
41
43
43
47
61
67
67
43
41
41
54
54
41
43
43
54
41
54
54
47
43
43
41
41
54
43
54
61
67
67
47
43
54
54
43
47
43
54
43
54
43
47
47
43
41
54
54
43
41
43
61
67
67
41
54
54
47
47
43
47
54
47
54
43
54
41
41
54
43
47
41
54
43
61
67
67
43
41
43
41
43
54
43
41
47
43
43
47
41
41
43
43
41
54
47
54
61
67
67
41
43
41
47
54
54
43
47
43
41
43
43
41
41
47
43
47
43
41
54
61
67
67
43
43
41
47
54
47
54
54
43
47
54
47
54
47
41
54
54
41
54
54
61
67
67
54
47
43
43
54
41
41
43
43
47
43
54
41
41
54
43
41
54
41
41
61
67
67
47
47
43
54
41
41
41
41
41
41
47
54
43
54
41
41
47
43
47
41
61
67
67
54
54
54
54
41
41
43
43
43
54
47
41
41
41
54
43
47
41
54
47
61
67
67
41
54
43
54
43
47
41
43
47
54
41
47
41
54
41
54
43
47
47
47
61
67
67
47
47
54
41
47
43
43
54
54
47
41
54
43
43
41
41
54
47
43
41
61
67
67
41
54
43
41
54
47
54
41
41
43
47
47
47
43
54
54
43
41
43
54
61
67
67
47
54
43
54
54
41
43
43
41
41
54
41
54
43
47
47
43
54
54
54
61
67
67
47
54
41
54
43
43
47
43
54
54
47
41
47
47
54
54
41
47
41
54
61
67
67
41
47
41
43
41
43
54
43
54
41
47
41
43
54
54
47
41
54
41
41
61
67
67
41
41
54
54
47
47
47
47
54
43
41
54
41
43
43
54
43
47
43
43
61
67
67
54
54
54
43
54
54
41
54
43
54
43
43
43
47
54
54
43
43
47
41
61
67
67
47
47
41
54
54
54
41
41
54
41
43
54
54
54
54
47
47
54
47
47
61
67
67
43
47
43
41
54
41
43
41
43
54
41
47
41
54
54
47
47
47
43
43
61
67
67
47
54
54
54
43
47
47
43
47
43
54
47
43
54
43
54
41
43
47
43
61
67
67
47
54
41
43
54
41
47
47
47
41
43
47
54
43
54
43
41
54
43
47
61
67
67
47
47
41
43
41
41
54
54
41
54
41
54
54
41
43
41
41
43
54
43
61
67
67
54
47
47
54
43
54
43
47
54
43
43
41
47
43
47
54
47
41
54
41
61
67
67
43
43
54
43
47
47
41
43
47
43
54
54
43
54
43
43
41
47
54
54
61
67
67
54
43
47
54
47
43
41
43
47
47
43
41
54
47
41
54
47
54
47
43
61
67
67
41
47
54
41
54
41
54
41
54
41
43
41
54
47
47
41
43
54
41
54
61
67
67
47
54
47
54
43
43
43
41
54
47
54
41
47
41
41
54
43
54
43
47
61
67
67
47
43
47
47
54
43
43
41
43
41
47
41
43
54
41
43
41
43
54
47
61
67
67
54
43
54
47
41
54
41
54
54
47
41
41
43
47
41
43
43
47
43
47
61
67
67
41
41
41
54
47
43
41
41
41
54
43
43
41
47
41
41
54
41
54
41
61
67
67
54
47
47
47
54
41
47
54
41
54
43
47
47
41
47
47
43
43
41
43
61
67
67
41
43
54
43
43
47
41
47
41
54
41
54
41
47
41
41
43
54
47
43
61
67
67
47
43
43
41
41
43
43
54
43
41
41
43
41
43
41
43
41
47
47
47
61
67
67
43
41
47
43
47
41
43
54
54
43
43
43
54
41
41
47
41
47
41
43
61
67
67
41
47
41
43
54
47
43
54
43
54
41
54
54
47
41
43
43
47
43
41
61
67
67
47
43
41
54
41
43
54
43
54
47
47
54
54
41
47
54
41
54
54
41
61
67
67
47
41
41
54
43
47
41
43
43
54
43
47
47
43
47
47
43
54
41
41
61
67
67
47
54
43
43
54
41
47
41
41
41
54
54
41
47
43
43
47
43
43
47
61
67
67
54
47
43
41
54
41
47
41
54
41
41
43
54
43
47
47
54
47
43
41
61
67
67
47
54
41
41
43
43
54
41
41
54
54
43
47
54
47
41
54
54
41
54
61
67
67
47
47
54
41
47
41
41
43
47
43
54
43
43
47
41
54
54
54
47
41
61
67
67
41
41
54
41
41
41
43
41
47
47
41
47
43
41
47
47
47
54
47
47
61
67
67
54
47
47
43
54
41
41
54
47
41
54
41
47
41
43
41
54
47
43
54
61
67
67
43
43
47
54
41
47
41
47
41
41
47
54
41
41
43
54
43
47
41
54
61
67
67
47
41
41
43
54
47
54
43
41
41
47
47
43
41
41
54
54
41
41
41
61
67
67
54
41
41
41
47
47
54
43
41
54
43
41
41
54
54
41
43
43
47
54
61
67
67
47
47
47
54
43
47
41
47
43
54
54
47
47
41
43
54
54
47
43
41
61
67
67
41
54
41
54
41
41
54
43
47
54
47
47
41
54
47
43
43
41
47
54
61
67
67
54
43
54
47
43
43
47
47
41
54
41
43
47
41
47
43
43
54
54
47
61
67
67
54
43
43
43
43
41
43
54
54
47
54
41
43
41
41
54
43
43
54
54
61
67
67
41
43
43
41
47
43
54
41
47
47
54
41
54
47
41
54
43
54
41
47
61
67
67
47
47
43
54
47
54
43
54
41
54
43
47
41
43
43
54
43
47
47
41
61
67
67
41
43
54
43
43
43
47
47
43
43
43
43
54
43
41
41
43
47
43
54
61
67
67
41
41
43
43
54
47
41
43
54
41
54
54
54
47
41
43
54
54
43
47
61
67
67
47
43
54
54
47
43
41
47
54
43
47
43
54
54
41
41
54
41
47
47
61
67
67
47
43
43
47
47
47
54
54
54
54
47
54
47
47
43
47
43
54
47
47
61
67
67
54
54
41
43
41
43
54
54
54
43
54
47
54
47
47
47
41
41
47
41
61
67
67
47
54
47
54
41
41
54
47
47
43
43
47
41
47
54
47
41
54
41
47
61
67
67
43
54
47
47
43
54
54
47
54
54
47
47
43
54
41
54
43
43
41
41
61
67
67
41
43
47
41
43
43
43
54
43
54
43
41
54
54
43
43
47
47
54
47
61
67
67
41
47
43
54
54
47
54
43
41
54
47
47
54
41
47
41
43
41
43
43
61
67
67
47
43
43
47
54
41
41
41
47
47
43
54
54
43
43
43
41
43
54
43
61
67
67
41
47
43
47
47
41
43
41
43
47
47
41
43
43
41
43
54
43
41
54
61
67
67
41
41
41
41
47
54
41
43
47
47
54
54
43
54
47
43
54
43
41
47
61
67
67
41
54
41
43
43
43
54
41
47
43
47
41
43
43
47
41
47
47
41
54
61
67
67
41
41
47
43
54
41
54
41
47
54
43
41
41
47
54
41
54
54
43
41
61
67
67
47
47
54
41
47
41
41
43
41
43
41
41
41
43
43
54
54
54
47
54
61
67
67
54
47
54
41
47
47
41
54
43
47
47
43
41
54
41
43
47
43
47
54
61
67
67
47
54
47
47
43
41
43
47
47
41
47
41
47
43
54
54
47
47
43
43
61
67
67
47
54
41
47
41
47
47
43
41
54
54
54
54
43
54
47
41
47
47
41
61
67
67
54
54
47
41
43
54
43
41
43
43
54
54
47
54
41
43
47
54
54
43
61
67
67
47
54
54
54
41
54
41
47
54
54
41
54
41
43
54
47
54
43
47
41
61
67
67
47
41
43
47
41
54
43
43
43
47
41
47
47
41
41
47
43
54
47
41
61
67
67
43
43
54
47
47
54
43
41
54
41
43
47
41
47
47
47
54
47
47
54
61
67
67
54
41
47
43
41
47
54
41
41
41
47
41
54
47
41
47
54
41
47
47
61
67
67
43
54
43
47
47
41
54
54
41
41
43
41
47
41
47
54
54
54
54
43
61
67
67
54
41
47
41
47
43
43
47
47
43
43
47
43
47
54
54
43
43
54
43
61
67
67
43
47
54
54
54
47
54
41
41
43
41
41
47
41
54
41
43
47
54
54
61
67
67
41
43
43
41
47
43
43
43
43
43
41
43
43
47
43
54
54
41
54
43
61
67
67
47
54
54
41
54
54
54
47
54
47
54
54
54
43
43
47
43
54
41
54
61
67
67
41
43
43
47
41
41
43
47
41
43
43
43
43
43
43
43
41
54
47
47
61
67
67
41
54
43
43
54
43
43
43
41
54
47
43
43
41
47
41
54
41
47
41
61
67
67
47
54
43
54
43
41
41
47
47
43
41
41
41
54
43
47
41
54
43
47
61
67
67
41
54
41
54
41
54
54
43
41
41
41
54
54
43
47
54
41
47
43
41
61
67
67
43
54
43
43
41
43
47
54
47
43
54
47
54
41
43
41
43
41
47
54
61
67
67
47
47
47
43
43
41
41
54
43
54
41
47
54
41
43
54
43
41
54
41
61
67
67
43
54
47
41
54
54
47
41
43
54
47
54
54
41
41
43
43
47
41
41
61
67
67
54
41
54
54
54
43
47
43
54
41
43
47
43
54
43
41
47
47
47
47
61
67
67
54
54
54
47
43
54
47
54
41
47
41
43
41
41
47
54
54
54
43
47
61
67
67
54
43
41
41
47
43
43
54
47
41
54
43
43
43
47
47
54
54
43
47
61
67
67
43
41
54
43
43
43
43
54
47
41
54
41
54
41
54
47
47
43
43
54
61
67
67
54
54
54
43
43
47
47
54
54
43
41
43
41
41
43
43
41
43
47
41
61
67
67
47
41
47
47
43
43
43
47
47
43
43
54
43
43
41
41
47
47
54
54
61
67
67
41
54
47
43
47
41
41
54
43
54
47
41
54
43
41
43
47
41
54
47
61
67
67
41
54
54
54
43
54
43
54
47
41
47
47
43
41
47
41
43
54
43
41
61
67
67
43
47
41
43
43
47
54
41
47
43
47
47
41
54
54
47
47
47
41
54
61
67
67
54
54
54
41
41
54
43
41
43
47
43
43
43
43
41
47
54
41
54
47
61
67
67
41
41
43
43
41
41
41
47
43
41
47
54
47
47
47
41
43
43
41
41
61
67
67
43
43
54
43
47
47
41
54
54
54
54
43
54
41
54
43
47
54
43
43
61
67
67
54
41
54
41
43
47
54
47
43
43
41
54
47
54
47
54
54
47
54
54
61
67
67
54
43
41
54
41
43
41
54
43
47
41
47
47
41
41
41
54
54
43
43
61
67
67
47
47
47
43
54
47
41
41
54
54
54
47
41
54
47
43
43
54
47
41
61
67
67
43
47
43
41
54
54
43
43
41
43
41
41
47
54
43
41
43
47
54
41
61
67
67
47
41
54
41
54
43
43
47
47
47
43
43
43
43
54
43
54
41
47
41
61
67
67
43
43
43
54
47
41
54
43
41
41
54
54
54
54
41
47
54
47
54
43
61
67
67
43
47
54
43
54
54
47
41
54
41
43
43
41
41
47
47
54
54
41
54
61
67
67
41
41
41
41
41
41
54
47
43
47
43
47
43
47
41
54
41
47
54
54
61
67
67
41
43
54
41
54
54
41
47
54
41
43
41
43
43
47
43
41
41
43
47
61
67
67
41
54
41
43
47
54
47
47
54
47
41
47
43
41
54
47
47
43
54
43
61
67
67
54
43
47
47
43
41
54
54
41
43
41
41
41
43
47
54
54
54
54
41
61
67
67
54
43
54
47
47
54
47
47
47
43
54
41
54
43
54
41
54
43
41
47
61
67
67
54
47
43
54
41
54
43
41
54
41
54
43
47
47
41
47
47
54
41
43
61
67
67
47
43
47
54
41
43
43
47
41
54
54
41
54
54
41
47
43
43
43
54
61
67
67
41
54
43
41
41
43
41
47
43
47
41
54
43
47
41
54
54
41
41
54
61
67
67
54
43
54
43
41
54
41
41
54
47
47
54
47
47
43
47
41
43
43
43
61
67
67
47
41
43
54
47
43
41
41
43
43
41
54
43
47
47
43
41
54
41
43
61
67
67
47
54
43
43
54
43
41
47
43
41
47
43
43
54
54
41
47
43
54
43
61
67
67
54
54
47
43
43
54
54
43
43
43
54
43
43
47
54
47
41
47
54
43
61
67
67
47
54
54
47
41
54
47
41
43
47
54
41
54
54
41
54
43
43
43
43
61
67
67
47
43
47
54
41
47
43
43
43
54
47
43
47
43
43
47
43
54
43
54
61
67
67
41
43
43
47
54
54
43
47
47
43
41
43
43
41
41
43
54
47
43
41
61
67
67
54
41
43
43
54
43
41
43
43
47
41
54
47
43
54
47
54
47
54
41
61
67
67
43
47
54
54
54
47
41
54
54
54
54
41
43
54
47
43
54
54
47
43
61
67
67
47
47
41
54
54
47
54
47
43
41
47
41
54
47
43
41
43
47
43
41
61
67
67
47
41
43
47
41
43
43
54
41
43
54
43
54
43
54
47
54
47
41
54
61
67
67
54
47
43
54
43
41
47
54
41
54
54
54
54
43
43
54
43
47
41
43
61
67
67
43
47
47
43
43
47
41
47
41
54
47
41
41
54
47
47
43
43
43
54
61
67
67
54
47
41
43
43
43
54
47
47
41
54
47
43
41
54
47
54
54
41
54
61
67
67
41
54
41
43
47
54
54
47
54
43
43
41
47
54
43
41
41
41
43
47
61
67
67
47
54
47
54
47
47
43
43
47
43
41
41
43
41
54
41
47
54
43
41
61
67
67
43
43
54
43
47
41
47
41
54
41
41
43
47
43
54
54
54
54
43
41
61
67
67
41
41
47
54
41
47
43
47
54
54
41
41
54
54
43
54
43
41
54
41
61
67
67
43
41
47
47
47
47
54
43
54
41
47
47
41
41
54
47
54
47
54
47
61
67
67
43
47
43
54
54
41
54
43
43
54
54
47
41
47
43
41
41
54
47
54
61
67
67
54
43
43
43
41
54
54
43
47
47
41
43
43
41
54
41
43
41
41
43
61
67
67
47
54
41
43
54
47
47
54
43
54
54
41
41
54
43
47
54
54
43
43
61
67
67
54
54
54
43
54
47
47
43
47
41
47
41
43
47
47
47
43
43
43
43
61
67
67
54
47
54
43
47
47
41
41
41
41
43
43
54
54
47
47
41
43
41
41
61
67
67
47
54
47
47
54
47
43
54
43
47
43
41
54
41
41
47
54
41
41
41
61
67
67
43
47
54
47
54
54
41
43
47
47
43
41
41
41
41
41
54
43
47
47
61
67
67
54
43
43
41
47
43
43
47
54
41
54
41
41
43
47
54
47
54
43
41
61
67
67
41
41
43
43
41
43
41
47
54
41
47
41
47
47
54
43
43
41
41
41
61
67
67
54
41
54
41
54
54
43
43
54
47
41
41
43
41
54
41
41
41
41
43
61
67
67
41
47
41
43
43
47
43
47
43
47
41
41
43
43
54
43
43
54
43
43
61
67
67
47
41
41
54
54
47
54
54
54
41
54
47
54
43
43
54
54
47
43
43
61
67
67
41
41
41
43
54
54
43
54
47
41
54
41
43
54
43
43
41
54
43
47
61
67
67
54
41
41
54
54
47
43
47
47
47
47
41
41
47
54
43
41
54
54
47
61
67
67
43
41
54
47
47
43
41
47
54
43
41
43
43
47
41
54
54
43
41
54
61
67
67
54
47
47
41
41
41
54
47
43
47
41
43
41
41
47
47
54
47
54
54
61
67
67
54
54
41
47
41
47
43
43
43
41
43
41
41
54
47
43
41
54
54
47
61
67
67
41
43
54
41
43
47
43
43
54
54
43
54
41
47
54
43
43
43
41
47
61
67
67
54
41
54
41
47
41
41
43
54
47
47
47
41
41
43
54
54
54
41
47
61
67
67
43
43
54
47
43
43
54
43
47
47
47
41
54
47
43
47
54
43
41
41
61
67
67
54
43
54
54
43
41
43
41
47
43
47
41
41
43
54
43
54
41
47
47
61
67
67
47
41
54
54
43
41
54
54
47
54
54
54
47
41
54
54
54
54
54
54
61
67
67
47
41
43
41
54
47
47
54
54
47
54
43
43
41
47
41
47
43
47
43
61
67
67
54
54
47
54
47
54
41
47
41
41
41
47
41
54
43
47
54
54
47
43
61
67
67
54
41
41
47
54
43
41
47
54
54
47
54
41
54
54
41
43
54
54
41
61
67
67
41
41
41
47
47
43
54
43
47
41
41
41
43
47
41
41
41
47
54
43
61
67
67
43
54
54
47
54
43
41
43
47
54
43
54
43
43
43
43
54
43
43
54
61
67
67
54
43
43
54
43
41
54
47
54
41
47
47
47
41
41
41
47
41
41
54
61
67
67
54
47
41
47
54
41
43
43
43
54
41
47
43
54
54
43
47
47
47
47
61
67
67
43
47
47
41
54
43
54
47
47
43
41
54
41
43
43
41
54
41
47
47
61
67
67
54
43
54
54
54
54
41
41
43
54
54
43
54
41
43
54
47
54
41
41
61
67
67
43
47
47
47
47
47
41
41
54
43
41
43
43
47
41
41
43
41
41
47
61
67
67
47
43
47
47
54
43
54
54
41
47
47
47
54
41
47
41
43
47
43
47
61
67
67
43
54
43
47
47
54
43
47
47
47
43
43
41
43
54
54
47
43
54
54
61
67
67
47
54
54
54
41
43
54
43
47
41
41
54
41
41
43
54
41
47
47
43
61
67
67
54
41
41
47
47
43
41
41
47
47
41
54
41
43
47
54
54
54
41
43
61
67
67
43
54
54
43
54
47
43
54
43
54
43
41
41
47
54
54
43
41
41
47
61
67
67
41
54
41
47
47
41
43
43
54
43
54
43
43
47
54
54
41
43
43
47
61
67
67
43
54
41
54
43
47
43
47
54
54
41
54
43
43
47
47
54
47
43
41
61
67
67
43
41
41
41
54
47
41
43
43
41
43
41
47
41
43
54
47
41
54
54
61
67
67
41
54
43
41
43
54
43
43
47
47
43
54
43
54
54
43
41
43
47
41
61
67
67
43
41
47
43
43
43
47
47
43
43
54
41
54
41
43
54
43
41
54
47
61
67
67
54
47
54
41
43
47
54
43
41
54
54
43
47
54
47
43
54
41
47
41
61
67
67
41
47
54
41
41
43
43
47
47
54
43
43
43
47
47
43
41
54
47
54
61
67
67
47
47
43
54
54
47
41
41
41
43
43
43
54
47
41
47
47
47
41
43
61
67
67
47
43
41
47
43
43
41
54
43
47
41
47
54
43
41
47
54
41
54
43
61
67
67
43
43
41
43
47
54
41
47
47
41
47
41
43
43
47
43
41
54
43
43
61
67
67
47
41
54
47
47
54
41
54
41
43
41
41
43
41
41
54
47
47
43
43
61
67
67
41
43
41
47
43
41
47
43
54
47
43
54
41
47
41
43
54
47
41
47
61
67
67
54
47
41
54
47
43
47
41
43
54
47
43
43
54
54
47
47
41
47
43
61
67
67
41
47
47
41
43
41
43
41
43
54
47
47
47
43
54
54
47
47
54
54
61
67
67
47
41
47
54
47
54
41
47
54
41
41
43
47
41
41
47
54
41
47
47
61
67
67
47
41
41
47
41
47
54
43
47
41
41
43
41
47
54
54
54
47
54
54
61
67
67
54
43
43
43
43
54
47
47
43
41
41
47
47
54
43
41
47
43
43
54
61
67
67
47
41
47
41
43
47
41
43
54
43
43
47
54
47
54
41
41
43
43
47
61
67
67
47
43
54
54
43
43
47
47
47
54
54
41
47
43
54
47
47
47
41
54
61
67
67
47
43
41
41
41
43
41
47
54
47
54
54
47
43
43
47
47
43
47
47
61
67
67
43
41
47
54
54
41
54
47
43
43
43
47
43
54
41
54
47
47
41
41
61
67
67
47
43
54
47
43
47
47
47
43
54
41
43
47
41
43
54
54
41
41
43
61
67
67
47
47
47
54
43
43
41
54
43
47
43
41
54
54
41
47
41
54
43
41
61
67
67
43
47
54
41
47
54
43
54
47
54
41
54
41
47
41
47
43
47
54
41
61
67
67
43
54
43
41
47
43
54
54
54
41
43
54
43
41
43
54
43
54
41
54
61
67
67
54
54
41
41
41
41
41
43
47
47
41
54
43
43
43
54
47
54
47
47
61
67
67
47
41
41
54
47
54
54
54
47
54
54
47
47
47
47
41
54
47
47
43
61
67
67
47
47
47
54
47
54
54
41
43
43
54
47
41
43
54
43
41
47
47
47
61
67
67
43
47
54
54
54
54
43
41
54
47
41
43
54
43
41
43
43
54
47
43
61
67
67
43
47
43
43
43
41
54
47
47
41
47
43
47
41
54
43
54
41
54
47
61
67
67
41
54
54
47
54
41
54
41
47
54
43
41
47
54
41
41
47
47
47
47
61
67
67
41
43
43
54
41
43
41
47
54
43
41
54
41
41
47
43
41
43
41
54
61
67
67
41
54
47
41
43
43
43
47
41
54
41
43
47
47
43
43
43
41
54
54
61
67
67
47
47
54
54
47
41
43
41
54
43
41
47
41
41
47
43
54
43
54
47
61
67
67
43
41
47
54
54
41
43
54
54
43
54
47
47
43
54
43
41
43
41
43
61
67
67
47
43
41
41
43
54
54
43
47
41
47
47
41
47
47
41
43
54
47
54
61
67
67
54
43
54
54
54
54
54
43
43
41
43
43
47
43
54
43
43
47
54
47
61
67
67
43
41
41
47
41
43
43
43
41
54
41
47
41
41
41
41
43
43
47
47
61
67
67
54
41
41
41
41
54
47
41
47
54
54
41
54
43
47
47
54
41
43
41
61
67
67
54
54
41
41
54
47
47
43
47
43
41
54
54
41
54
47
54
54
43
47
61
67
67
43
47
47
47
43
54
43
47
43
43
54
47
54
41
54
43
54
41
47
54
61
67
67
47
41
47
54
47
54
47
43
41
41
54
41
41
47
43
41
41
41
54
43
61
67
67
41
54
47
41
54
47
47
43
47
54
41
41
47
43
47
47
54
41
54
41
61
67
67
54
43
47
43
43
47
43
41
47
47
47
41
54
43
47
43
43
41
54
43
61
67
67
47
54
54
54
54
54
54
47
41
41
47
47
54
47
54
43
54
47
54
47
61
67
67
54
54
41
54
54
47
43
41
54
41
54
43
43
47
43
47
47
41
47
54
61
67
67
47
41
47
54
43
47
43
54
47
47
54
54
41
41
54
47
47
47
41
41
61
67
67
43
41
41
47
54
43
43
47
54
54
43
41
54
43
47
41
43
43
47
41
61
67
67
43
41
41
47
47
43
47
41
41
47
43
54
43
54
54
47
47
47
41
47
61
67
67
43
43
47
47
41
43
43
54
47
43
54
54
54
41
43
47
43
41
43
47
61
67
67
47
41
41
54
41
47
41
43
47
41
43
47
41
54
47
43
54
43
43
43
61
67
67
47
43
41
47
43
54
43
54
43
54
47
47
41
41
54
54
47
43
43
41
61
67
67
47
41
41
41
43
47
47
47
47
41
54
43
41
47
41
47
41
41
41
54
61
67
67
43
41
54
54
54
41
54
43
41
43
43
54
47
47
43
41
43
43
47
43
61
67
67
41
47
47
41
47
43
47
54
43
43
41
41
43
43
54
43
43
47
54
41
61
67
67
41
54
54
41
41
43
47
54
41
43
43
43
47
47
54
47
41
54
41
41
61
67
67
47
54
54
43
47
47
43
41
54
41
47
43
41
54
41
43
47
41
47
43
61
67
67
43
54
41
54
54
47
54
43
54
43
43
47
41
43
43
41
47
41
54
54
61
67
67
41
47
43
47
43
54
41
54
43
54
54
43
47
54
43
41
41
47
54
47
61
67
67
43
47
41
47
41
41
54
54
47
41
47
54
43
54
43
43
47
47
41
43
61
67
67
43
43
41
41
54
41
54
41
47
43
54
43
43
47
43
54
47
47
41
43
61
67
67
54
47
43
54
41
43
43
54
54
41
54
43
43
41
47
41
54
43
41
47
61
67
67
43
41
54
43
43
47
47
47
47
43
47
41
41
54
47
43
54
41
41
43
61
67
67
41
41
54
43
43
54
54
41
41
41
43
47
47
43
41
43
47
54
43
41
61
67
67
41
43
41
43
43
54
43
47
47
54
43
47
54
54
54
54
43
47
47
47
61
67
67
41
47
43
41
43
54
41
43
54
43
43
41
54
54
54
47
54
54
54
43
61
67
67
47
54
43
54
43
41
41
47
43
41
54
47
47
47
47
43
47
54
41
54
61
67
67
43
43
54
41
43
41
54
54
47
41
47
41
41
54
43
41
47
41
41
54
61
67
67
41
43
47
43
54
47
41
43
54
47
43
54
54
43
43
43
54
54
47
47
61
67
67
47
43
47
54
43
43
43
41
54
43
54
41
41
47
41
54
54
41
54
47
61
67
67
41
54
47
47
47
54
54
43
54
54
54
41
47
43
47
41
43
41
41
54
61
67
67
47
41
43
54
41
47
43
41
41
41
54
54
41
43
43
54
47
54
43
41
61
67
67
43
47
47
47
47
41
43
54
41
54
47
43
41
54
43
41
54
43
47
47
61
67
67
54
41
43
54
41
43
41
54
47
47
54
47
41
47
54
43
43
41
43
54
61
67
67
54
41
41
41
41
54
47
43
47
43
43
43
54
41
47
54
43
41
43
54
61
67
67
47
47
54
43
43
41
43
43
43
47
47
41
47
54
41
43
54
41
43
47
61
67
67
43
41
43
54
43
47
54
54
41
47
41
43
54
54
54
54
43
41
54
47
61
67
67
47
43
47
47
47
54
54
41
41
43
47
41
43
54
54
43
54
47
43
47
61
67
67
41
41
43
47
54
43
47
43
41
43
43
41
41
54
54
47
41
41
41
41
61
67
67
54
43
47
41
47
43
43
41
47
41
43
54
47
43
54
54
41
47
47
47
61
67
67
41
54
54
41
41
41
43
43
47
54
54
43
41
41
43
54
43
54
41
54
61
67
67
43
43
47
47
54
54
43
54
41
47
54
54
43
47
54
43
41
41
43
41
61
67
67
47
54
41
43
47
54
41
47
43
54
41
54
47
54
43
54
41
47
41
47
61
67
67
43
41
41
47
41
41
47
41
47
47
41
43
47
43
43
54
41
54
47
47
61
67
67
41
54
41
43
43
47
47
54
54
54
41
41
54
54
47
41
54
43
41
43
61
67
67
41
43
43
43
43
43
47
43
41
43
41
43
43
47
43
54
43
43
47
47
61
67
67
41
54
47
47
47
41
41
54
43
43
41
43
54
43
54
43
47
47
41
41
61
67
67
43
41
47
43
47
47
47
43
54
41
54
47
41
54
54
54
47
43
47
43
61
67
67
41
43
43
41
41
54
41
41
41
43
54
47
54
41
43
43
54
43
47
54
61
67
67
41
43
41
54
54
47
54
41
54
41
47
43
47
43
47
47
47
41
54
54
61
67
67
47
43
47
54
43
47
41
47
54
54
47
43
47
43
47
41
47
43
54
43
61
67
67
41
47
41
47
41
47
41
43
43
47
41
47
41
43
43
41
41
47
54
41
61
67
67
41
41
43
41
41
54
41
43
43
47
43
43
47
41
47
41
43
43
47
41
61
67
67
43
43
43
54
54
43
54
47
43
41
47
43
43
41
54
54
41
41
47
47
61
67
67
54
41
54
41
47
41
54
41
47
43
47
41
41
47
41
47
41
41
43
54
61
67
67
54
41
47
47
47
41
54
54
41
54
47
54
47
54
54
41
54
41
54
47
61
67
67
54
41
43
41
43
43
41
41
47
41
47
54
43
41
47
41
47
54
54
54
61
67
67
54
47
47
41
54
54
47
43
43
43
43
47
41
47
43
43
54
41
54
41
61
67
67
54
41
43
43
43
47
43
43
54
54
54
41
43
54
54
43
47
41
47
41
61
67
67
54
41
43
47
54
43
43
54
47
41
43
41
47
54
41
41
54
41
47
43
61
67
67
43
43
54
41
41
47
54
47
54
54
47
43
54
43
41
47
43
41
43
54
61
67
67
41
47
43
54
41
47
41
43
47
54
41
54
41
41
54
54
54
47
41
43
61
67
67
47
47
41
43
54
41
47
54
41
41
43
43
43
47
54
43
41
54
43
47
61
67
67
43
43
54
43
41
43
41
41
41
41
47
54
47
43
54
41
43
43
43
43
61
67
67
47
41
43
43
54
41
41
54
41
54
54
43
54
41
47
54
41
54
54
54
61
67
67
43
43
54
43
54
43
47
54
54
43
43
43
43
41
41
47
47
54
41
47
61
67
67
43
41
54
54
54
43
41
54
43
41
54
43
43
47
43
47
54
41
54
41
61
67
67
41
47
43
54
47
41
47
43
43
41
41
54
54
43
47
47
41
47
54
47
61
67
67
41
54
54
54
47
43
47
41
54
47
41
47
47
47
47
43
41
54
54
47
61
67
67
43
54
43
41
54
47
43
47
43
43
54
43
41
47
41
41
54
47
47
41
61
67
67
54
43
47
43
43
41
41
43
43
54
43
47
54
47
43
47
47
41
41
41
61
67
67
43
43
43
43
54
41
43
47
47
47
41
43
47
47
54
47
43
41
41
47
61
67
67
47
54
43
47
41
54
54
54
41
43
54
41
41
54
41
54
41
54
41
41
61
67
67
43
41
47
43
43
41
54
47
47
43
47
41
41
47
43
54
47
43
41
41
61
67
67
54
41
41
47
41
47
43
41
41
41
54
43
43
54
54
47
47
41
43
43
61
67
67
47
41
47
41
43
41
41
47
54
54
47
47
54
43
41
47
41
43
41
47
61
67
67
47
41
41
47
47
41
54
43
47
41
47
54
41
41
43
43
41
47
43
41
61
67
67
43
43
41
41
47
54
41
41
43
43
54
47
47
43
54
54
47
43
43
43
61
67
67
47
54
43
47
43
54
54
54
54
43
54
47
47
43
43
54
43
43
43
47
61
67
67
54
41
41
54
47
43
54
47
47
43
43
41
47
54
43
41
54
41
47
41
61
67
67
41
47
41
41
43
43
54
43
47
43
41
41
47
54
47
47
47
54
43
54
61
67
67
54
47
41
47
47
41
47
54
43
54
41
43
54
43
47
54
47
43
43
41
61
67
67
54
41
47
54
54
47
43
41
47
54
47
54
41
54
43
54
43
41
41
43
61
67
67
41
47
41
41
54
43
47
41
41
43
43
47
54
54
41
41
43
54
43
43
61
67
67
47
54
54
41
41
54
41
43
47
54
47
54
54
54
54
54
54
54
43
43
61
67
67
43
54
43
41
43
47
41
43
54
47
41
47
47
54
54
43
43
41
54
47
61
67
67
54
54
47
43
43
54
43
43
41
41
43
41
54
43
43
41
54
43
54
43
61
67
67
54
54
43
47
54
43
43
43
47
41
54
41
54
41
47
43
41
43
43
47
61
67
67
43
41
41
41
41
43
47
41
43
47
47
54
54
43
47
41
54
47
47
47
61
67
67
41
47
47
47
43
43
54
43
41
54
41
43
41
43
47
43
47
41
47
43
61
67
67
54
43
54
41
47
41
54
43
43
47
54
41
47
41
43
43
41
54
47
54
61
67
67
47
41
43
47
41
41
41
41
54
41
41
54
41
41
43
47
54
54
54
54
61
67
67
47
41
47
47
43
43
43
47
41
43
47
47
54
41
41
43
54
54
43
54
61
67
67
54
54
54
47
47
41
43
47
43
54
41
43
54
43
43
47
54
47
47
54
61
67
67
47
43
47
47
54
54
43
41
54
47
43
41
43
47
41
54
41
43
47
43
61
67
67
41
54
43
41
54
47
43
41
41
41
47
47
41
41
54
47
41
43
47
47
61
67
67
47
54
47
54
47
47
41
54
41
43
41
54
47
54
41
41
54
54
43
41
61
67
67
43
47
41
54
47
41
43
41
47
47
43
41
41
47
54
41
54
43
47
41
61
67
67
47
41
41
54
54
54
41
41
43
41
47
43
54
47
54
47
41
43
43
43
61
67
67
47
54
47
43
43
54
54
41
54
47
41
47
41
43
41
54
43
47
41
47
61
67
67
54
43
41
47
54
47
47
54
43
47
54
41
47
47
41
54
43
54
54
47
61
67
67
41
54
43
41
41
54
41
41
47
47
41
47
47
47
41
47
43
43
54
41
61
67
67
54
43
54
47
47
54
41
47
54
47
54
47
47
43
47
47
43
43
43
41
61
67
67
43
54
54
47
41
47
41
47
43
47
47
43
41
54
47
54
43
43
47
41
61
67
67
54
47
47
47
47
43
43
43
54
47
43
54
43
41
54
41
43
47
41
54
61
67
67
47
41
41
54
54
47
41
54
43
41
41
41
54
47
54
43
54
41
41
47
61
67
67
41
43
47
54
43
43
54
41
54
54
43
41
54
54
43
54
41
41
54
54
61
67
67
54
47
54
47
41
41
54
47
54
43
41
41
41
41
41
41
43
54
43
43
61
67
67
54
43
47
47
47
47
41
47
47
43
43
54
47
54
41
41
47
54
41
47
61
67
67
43
41
43
54
54
47
43
43
43
47
47
41
47
41
43
54
47
41
43
41
61
67
67
41
54
47
47
54
54
41
41
41
43
41
47
47
41
43
43
43
41
41
47
61
67
67
43
47
41
47
41
41
54
47
54
54
47
54
54
41
54
43
41
47
54
47
61
67
67
41
54
47
43
41
47
47
41
41
41
54
41
41
54
43
43
43
41
41
47
61
67
67
47
41
47
43
54
54
54
47
43
47
54
47
47
47
54
41
43
54
41
54
61
67
67
41
47
41
43
47
41
47
54
47
54
41
54
47
43
47
47
47
43
54
41
61
67
67
43
41
41
54
47
54
54
41
43
47
47
43
41
43
43
54
54
43
43
43
61
67
67
41
47
54
41
43
43
43
47
47
41
47
54
43
41
41
54
47
54
54
54
61
67
67
41
47
41
54
47
47
41
47
43
54
54
43
43
43
54
41
41
47
41
47
61
67
67
41
54
47
47
54
47
43
43
54
41
41
41
41
47
47
41
43
54
43
41
61
67
67
47
43
47
54
43
54
54
54
54
43
54
41
54
43
43
41
47
43
41
47
61
67
67
43
47
43
47
41
43
54
41
54
41
43
41
43
41
41
47
47
47
54
54
61
67
67
54
43
47
43
47
54
41
47
47
41
54
47
54
43
47
43
41
43
54
41
61
67
67
54
41
54
43
54
41
47
54
47
43
54
41
41
47
41
43
41
43
43
43
61
67
67
43
54
47
47
41
47
47
54
54
41
41
41
41
41
54
47
47
41
43
43
61
67
67
54
41
47
41
41
47
54
43
47
47
43
54
54
47
41
41
41
43
47
41
61
67
67
43
41
41
54
43
47
43
47
43
47
47
47
43
47
47
47
54
54
47
43
61
67
67
47
41
54
54
43
54
54
41
41
54
54
47
41
43
43
41
54
47
41
41
61
67
67
41
47
47
43
54
41
41
54
41
54
43
54
54
54
43
43
47
41
43
43
61
67
67
54
41
47
43
43
43
41
41
43
43
47
41
41
47
43
47
47
47
54
43
61
67
67
54
43
54
54
43
47
54
41
54
41
54
41
54
54
43
54
47
47
47
43
61
67
67
43
41
54
41
47
41
54
43
54
54
54
43
47
54
43
41
41
43
43
47
61
67
67
43
47
41
41
47
41
47
54
43
43
54
41
47
47
41
54
41
54
47
43
61
67
67
41
54
47
43
43
43
41
43
47
41
54
47
41
41
54
41
54
47
54
47
61
67
67
43
54
54
47
43
41
43
43
43
41
43
54
54
54
43
47
41
54
47
43
61
67
67
47
47
54
43
47
47
54
47
54
54
43
54
41
54
41
47
41
47
54
54
61
67
67
47
43
47
41
54
41
47
43
41
54
41
47
43
41
43
54
47
47
43
43
61
67
67
43
47
43
43
47
47
54
41
54
54
41
43
41
43
47
54
54
41
47
54
61
67
67
41
41
54
43
41
43
54
54
54
47
54
47
43
43
54
47
41
47
43
41
61
67
67
41
41
54
54
47
54
43
47
43
41
41
47
41
47
54
47
47
43
41
43
61
67
67
43
54
47
41
47
54
43
47
47
43
41
54
47
43
54
43
43
54
47
47
61
67
67
47
43
41
43
41
47
54
47
43
54
47
43
47
47
47
43
41
54
43
41
61
67
67
43
54
41
43
47
47
47
47
43
43
41
41
47
54
54
43
41
54
43
47
61
67
67
47
41
43
54
43
54
54
54
43
47
47
41
41
54
47
54
54
54
41
43
61
67
67
54
43
43
47
47
47
41
43
47
47
47
47
43
47
54
41
54
54
54
47
61
67
67
47
54
54
47
43
41
41
47
43
47
54
41
54
43
41
47
54
43
41
47
61
67
67
54
47
47
54
43
54
47
47
54
47
43
43
54
47
47
41
54
47
43
54
61
67
67
43
47
43
43
54
54
41
43
47
43
41
54
43
41
47
43
43
41
54
54
61
67
67
54
41
43
47
43
47
41
54
41
54
43
43
41
43
41
41
43
41
47
43
61
67
67
41
43
54
43
43
54
47
54
41
47
47
41
54
41
54
47
54
54
41
47
61
67
67
43
43
54
54
54
47
47
41
54
43
54
47
43
41
43
54
47
54
54
54
61
67
67
47
47
41
47
54
41
54
43
47
43
54
41
41
41
43
41
47
41
41
43
61
67
67
43
43
54
41
43
43
54
47
47
41
43
41
47
54
54
43
41
54
54
54
61
67
67
47
43
43
47
47
47
54
47
41
43
43
47
54
47
54
47
41
47
54
43
61
67
67
41
43
43
43
54
54
41
43
47
41
47
41
43
41
43
54
43
47
41
43
61
67
67
47
41
41
41
54
47
47
43
54
47
47
43
43
47
54
41
41
41
54
47
61
67
67
41
47
43
43
43
43
54
54
41
43
54
41
43
47
47
41
41
47
41
47
61
67
67
47
54
43
43
43
41
54
47
54
47
41
54
43
54
41
47
41
47
43
43
61
67
67
47
47
54
47
47
54
54
54
41
47
47
54
47
47
54
47
41
41
43
54
61
67
67
47
54
43
43
41
41
54
41
41
54
41
43
43
41
47
47
41
41
41
43
61
67
67
41
41
47
54
47
41
41
54
47
54
43
47
47
47
54
47
41
43
54
47
61
67
67
47
47
41
41
54
47
54
54
43
41
41
54
41
43
47
43
54
47
54
43
61
67
67
54
47
43
54
41
47
54
47
43
43
41
41
43
54
54
47
54
47
41
43
61
67
67
43
43
43
41
54
54
41
47
41
43
41
41
41
47
47
54
47
47
43
41
61
67
67
47
54
41
43
43
41
43
41
41
54
43
43
47
54
43
47
41
43
54
43
61
67
67
41
43
54
43
47
41
54
54
43
47
41
54
43
47
54
54
43
41
54
54
61
67
67
47
43
47
47
43
43
54
41
43
47
41
47
54
54
41
47
54
41
54
54
61
67
67
43
41
41
43
54
54
43
54
54
54
47
41
43
54
47
43
47
41
47
54
61
67
67
47
43
41
41
41
43
47
47
43
43
43
41
43
43
54
41
47
41
41
47
61
67
67
43
41
47
43
47
43
43
41
41
47
41
54
47
41
54
43
43
54
41
41
61
67
67
41
47
47
54
47
43
54
47
47
41
41
43
47
43
54
54
47
43
47
43
61
67
67
47
54
54
43
47
47
41
47
54
43
54
47
47
43
47
54
41
41
47
41
61
67
67
47
43
41
47
41
43
47
43
54
41
47
43
43
43
41
54
43
47
43
54
61
67
67
41
47
47
43
43
43
43
47
54
54
41
54
54
54
43
41
54
54
54
47
61
67
67
47
43
43
43
43
43
47
41
41
47
47
41
43
47
41
54
47
54
47
47
61
67
67
43
41
41
54
43
54
54
43
43
43
43
47
54
54
41
54
41
54
54
41
61
67
67
47
54
47
43
43
54
47
43
43
54
54
41
43
47
41
43
43
54
47
54
61
67
67
43
43
43
54
41
41
47
43
47
43
54
47
54
43
47
54
54
43
54
41
61
67
67
43
43
47
54
47
41
41
54
41
47
47
47
54
43
54
41
43
54
41
47
61
67
67
41
43
54
47
43
47
43
54
41
43
43
47
41
47
41
54
43
41
43
47
61
67
67
47
41
54
43
47
43
43
43
54
54
41
41
47
54
41
54
54
54
47
43
61
67
67
47
43
43
47
47
41
47
54
41
54
41
54
54
41
43
54
54
47
41
54
61
67
67
47
41
41
41
43
47
43
47
47
54
54
47
41
43
54
41
43
43
41
43
61
67
67
43
47
54
41
47
47
43
47
43
47
47
43
54
43
47
54
43
43
41
54
61
67
67
41
43
47
47
41
41
47
54
54
43
47
54
47
41
43
41
47
47
54
43
61
67
67
43
47
41
41
43
54
54
47
54
41
54
54
54
41
43
43
41
47
47
43
61
67
67
43
54
54
43
47
54
54
47
41
41
47
47
47
41
43
41
54
41
41
47
61
67
67
47
43
43
43
41
47
41
47
41
43
43
43
43
54
43
47
43
47
47
41
61
67
67
43
47
41
54
54
43
54
41
43
43
41
47
41
43
54
41
47
43
47
41
61
67
67
47
54
43
43
43
47
43
54
47
43
41
43
47
41
43
47
41
43
47
43
61
67
67
54
41
54
43
43
54
43
41
54
43
47
41
43
47
43
43
43
47
54
54
61
67
67
43
43
43
47
54
54
47
41
47
41
54
47
43
43
47
41
54
54
43
41
61
67
67
54
54
47
47
54
41
43
54
54
54
54
54
41
43
47
54
43
41
47
43
61
67
67
43
47
41
47
54
54
47
47
54
41
43
47
54
54
47
54
54
47
47
47
61
67
67
47
54
43
43
43
47
41
54
54
43
47
47
47
43
47
41
43
54
47
47
61
67
67
43
43
43
43
47
41
41
54
54
41
47
43
47
43
54
54
47
41
47
47
61
67
67
54
43
43
47
54
47
47
43
47
54
43
47
54
47
54
54
47
43
43
43
61
67
67
47
41
43
41
43
54
54
54
43
43
43
54
43
54
47
47
41
47
54
41
61
67
67
41
47
41
47
47
47
54
43
43
47
54
43
54
54
54
54
54
43
41
54
61
67
67
41
41
54
54
54
43
41
41
41
41
54
54
47
54
41
54
43
47
41
43
61
67
67
41
54
47
47
47
54
41
47
54
41
47
41
54
54
47
47
47
54
54
54
61
67
67
41
43
54
43
43
43
47
43
54
47
41
43
43
54
47
41
47
47
41
41
61
67
67
43
41
54
47
41
54
43
54
41
47
54
54
43
41
43
54
43
47
41
43
61
67
67
41
41
43
43
41
43
54
47
41
43
41
43
54
41
43
43
43
41
47
41
61
67
67
47
43
47
43
54
47
54
47
47
54
54
43
54
54
47
43
41
47
41
41
61
67
67
41
41
43
43
41
54
43
43
43
41
54
47
54
54
54
54
43
47
54
47
61
67
67
54
47
43
54
54
47
41
54
41
54
54
41
41
47
47
41
43
41
54
41
61
67
67
47
41
41
41
47
41
47
47
47
47
41
43
47
41
47
41
54
54
43
47
61
67
67
43
54
43
54
43
54
54
41
43
47
47
54
54
43
47
41
54
43
47
43
61
67
67
54
41
47
54
47
43
43
54
47
47
54
47
43
41
54
54
47
54
41
54
61
67
67
43
47
54
41
41
41
47
54
47
54
43
47
41
41
54
43
41
41
41
54
61
67
67
43
41
47
54
47
54
41
54
54
54
41
47
47
43
41
47
47
47
41
41
61
67
67
47
47
47
47
41
41
54
54
43
43
43
47
43
43
54
54
43
43
47
43
61
67
67
47
47
41
43
47
54
41
54
41
47
47
43
47
43
43
47
41
47
41
54
61
67
67
54
47
43
41
47
43
54
41
47
41
41
43
54
43
47
41
47
54
41
41
61
67
67
47
54
41
43
54
41
41
54
54
54
43
54
41
41
54
43
43
54
43
47
61
67
67
47
47
43
47
41
41
54
54
43
54
41
41
41
47
41
54
43
41
43
54
61
67
67
47
47
41
43
41
41
54
43
54
43
54
54
41
41
43
54
43
41
47
47
61
67
67
41
43
47
54
54
54
54
43
47
47
41
41
41
47
54
43
41
43
41
47
61
67
67
54
43
41
43
47
47
43
47
47
54
43
54
47
41
41
41
43
41
43
41
61
67
67
47
47
47
43
41
54
47
43
47
43
54
43
54
43
41
43
41
47
43
47
61
67
67
43
43
47
43
47
43
41
43
43
54
41
54
54
41
47
47
47
43
41
43
61
67
67
47
54
43
47
41
41
47
43
41
41
47
47
43
41
47
54
41
43
43
47
61
67
67
43
43
47
43
41
43
54
54
47
43
47
47
47
54
43
47
41
41
41
54
61
67
67
41
47
41
43
43
43
54
47
54
54
41
43
54
41
54
41
47
43
43
47
61
67
67
41
43
43
41
47
47
47
41
43
47
47
41
54
47
41
47
43
43
47
54
61
67
67
43
54
43
54
54
43
47
41
54
54
41
41
43
47
41
54
43
41
54
54
61
67
67
54
43
54
47
41
41
43
41
41
43
43
54
54
47
47
54
47
43
41
54
61
67
67
47
43
41
43
54
41
54
41
54
41
54
54
47
43
47
43
41
41
43
43
61
67
67
54
43
41
43
54
54
41
43
43
41
47
41
54
47
43
54
41
54
47
41
61
67
67
43
43
47
54
54
54
43
41
43
43
41
43
43
47
43
54
41
54
54
43
61
67
67
47
47
41
54
43
41
41
54
54
47
43
43
47
54
54
47
43
43
54
41
61
67
67
54
54
43
41
41
47
41
47
54
47
54
54
47
54
54
43
41
43
54
43
61
67
67
41
41
41
41
41
47
43
41
54
43
47
43
43
41
54
43
54
43
47
41
61
67
67
41
41
54
43
47
41
43
41
43
47
54
54
54
54
47
43
41
43
43
47
61
67
67
43
47
43
41
54
47
43
41
47
54
54
47
47
41
47
47
47
41
41
47
61
67
67
43
47
41
47
41
41
41
41
43
47
47
54
41
47
54
41
41
43
47
54
61
67
67
41
43
43
47
54
43
47
54
43
43
54
43
43
43
43
54
43
41
41
54
61
67
67
54
54
43
47
41
43
41
43
41
43
47
47
54
43
41
43
47
54
54
41
61
67
67
54
54
54
41
47
54
41
41
41
41
47
41
47
54
41
41
47
54
47
41
61
67
67
43
54
43
41
43
41
47
43
47
41
43
43
47
47
41
54
54
41
43
41
61
67
67
54
41
41
43
41
41
43
54
54
41
47
41
54
47
41
54
41
41
43
41
61
67
67
41
43
41
54
47
47
43
54
43
54
54
43
54
47
43
43
43
41
54
43
61
67
67
54
41
41
43
47
54
41
54
41
54
41
47
47
47
47
43
41
43
41
54
61
67
67
47
41
43
43
47
54
41
41
41
47
41
47
43
43
47
54
47
43
47
41
61
67
67
47
54
41
54
43
54
43
43
54
47
41
47
41
47
54
47
47
43
43
43
61
67
67
41
54
47
54
41
47
41
41
41
41
41
54
47
47
54
54
54
54
43
54
61
67
67
47
47
54
47
43
54
47
54
47
41
54
43
47
47
54
47
54
41
47
41
61
67
67
41
47
54
54
47
43
47
41
43
47
43
41
54
41
54
54
54
54
47
43
61
67
67
47
54
43
47
47
54
47
47
41
47
47
47
47
43
43
43
43
41
47
47
61
67
67
47
54
54
54
54
41
43
47
43
47
43
43
41
47
47
43
54
43
54
54
61
67
67
54
47
54
41
41
41
43
43
54
54
54
47
41
41
47
43
43
47
41
54
61
67
67
54
43
47
47
54
47
41
43
43
47
54
43
41
41
47
43
54
47
43
43
61
67
67
47
43
43
54
41
54
54
43
41
47
41
41
54
54
43
54
47
41
54
54
61
67
67
41
47
54
54
54
43
54
47
47
43
43
47
47
54
43
41
41
41
54
43
61
67
67
43
47
43
41
47
54
47
43
41
47
41
41
54
47
41
43
41
43
54
54
61
67
67
43
41
54
41
47
47
41
43
41
41
41
54
43
54
54
47
43
41
54
41
61
67
67
43
47
47
54
47
54
54
47
41
41
41
43
41
54
54
54
47
47
43
41
61
67
67
43
47
47
54
47
41
43
54
47
47
47
54
47
41
43
54
43
41
41
41
61
67
67
47
41
47
41
41
47
43
47
41
47
43
41
43
43
43
47
54
41
41
41
61
67
67
43
47
54
43
47
47
41
43
54
54
54
54
47
54
47
54
41
43
41
47
61
67
67
54
43
54
47
54
47
47
54
47
43
41
41
47
43
47
47
54
47
47
41
61
67
67
47
41
47
54
54
43
47
47
54
47
47
54
54
41
43
54
47
43
54
54
61
67
67
41
54
54
47
47
47
54
43
47
41
43
54
41
47
47
47
47
54
43
41
61
67
67
41
43
41
47
41
54
54
47
41
47
47
54
43
54
41
43
54
47
43
43
61
67
67
47
43
43
43
47
54
54
47
47
47
41
54
54
43
47
47
43
47
43
54
61
67
67
47
43
47
54
43
54
47
54
54
43
47
43
43
41
43
43
41
43
47
47
61
67
67
41
43
54
54
41
41
43
54
43
41
47
54
47
41
47
54
54
47
41
54
61
67
67
41
47
41
43
43
41
43
41
47
43
43
47
41
43
43
54
54
54
47
41
61
67
67
43
54
54
54
54
54
54
41
54
47
54
41
54
54
54
41
54
43
41
41
61
67
67
41
54
47
54
43
47
43
43
43
41
41
47
43
43
43
41
54
47
47
47
61
67
67
47
41
54
54
41
41
47
54
54
43
43
47
47
43
43
47
54
41
43
41
61
67
67
54
41
43
47
47
41
41
43
41
54
54
41
41
43
54
54
43
54
47
41
61
67
67
41
54
41
43
54
41
43
54
43
47
43
41
43
41
43
43
41
54
43
47
61
67
67
54
47
41
47
54
43
41
47
54
54
47
43
41
47
47
41
47
47
54
41
61
67
67
54
54
47
41
41
54
47
41
41
54
54
43
47
47
54
41
54
43
43
47
61
67
67
43
47
47
41
43
43
47
43
47
41
54
54
47
54
41
47
54
54
47
47
61
67
67
47
47
43
43
43
41
47
54
43
41
54
47
41
47
43
41
41
41
41
47
61
67
67
41
47
43
54
47
41
47
54
41
41
54
47
43
41
43
41
43
54
54
43
61
67
67
43
54
54
47
54
43
43
47
43
41
54
54
54
54
43
41
41
41
47
41
61
67
67
43
47
41
54
43
41
47
54
47
43
54
47
41
54
41
41
47
47
47
41
61
67
67
47
43
43
41
43
41
47
54
41
54
54
47
54
54
54
41
41
54
47
54
61
67
67
41
41
47
47
41
54
43
54
43
43
41
41
43
41
41
54
43
54
41
47
61
67
67
54
54
41
47
54
41
43
54
47
41
54
47
47
43
54
47
47
41
54
47
61
67
67
41
43
47
54
54
43
54
54
47
54
54
43
43
43
47
54
41
43
41
47
61
67
67
47
47
41
41
47
54
41
43
54
41
41
54
54
47
41
47
47
47
47
41
61
67
67
47
54
47
47
54
47
47
43
47
47
47
41
41
47
54
54
54
54
54
41
61
67
67
54
54
41
43
43
47
43
47
47
54
43
43
54
41
54
47
47
54
41
47
61
67
67
43
43
47
43
43
41
47
47
41
41
43
43
54
43
54
47
54
41
43
47
61
67
67
54
41
41
47
43
47
43
43
47
54
54
41
43
54
43
41
41
41
47
47
61
67
67
43
54
43
41
41
47
54
41
47
54
47
54
54
47
47
54
54
43
54
54
61
67
67
41
54
47
43
47
54
47
43
43
41
41
54
41
47
54
41
41
47
43
54
61
67
67
54
47
43
47
43
54
41
43
47
41
47
41
43
47
43
54
41
43
41
47
61
67
67
54
41
41
43
41
43
54
47
54
41
47
41
41
41
43
54
47
54
54
41
61
67
67
41
43
54
43
41
43
43
43
47
41
43
43
41
43
41
47
41
41
54
43
61
67
67
43
47
41
43
41
47
47
54
54
43
41
43
43
54
47
43
47
41
47
41
61
67
67
43
41
47
54
47
43
47
54
47
47
41
47
47
41
47
41
47
43
47
43
61
67
67
47
54
54
43
43
47
47
54
41
47
41
54
41
47
41
41
41
54
43
54
61
67
67
47
54
41
43
47
54
47
43
47
41
41
41
54
43
47
41
47
47
43
47
61
67
67
47
54
41
41
54
54
54
41
47
43
47
54
41
43
41
41
54
43
47
41
61
67
67
41
43
43
43
43
47
43
41
41
47
47
43
54
54
43
47
54
41
47
54
61
67
67
54
47
43
47
41
43
54
41
41
54
41
43
54
41
47
43
41
54
47
54
61
67
67
54
47
41
41
43
54
54
54
41
43
54
43
47
54
54
43
54
43
43
54
61
67
67
43
43
43
54
54
54
47
41
43
41
41
47
41
47
43
43
43
54
43
54
61
67
67
47
41
43
47
43
41
54
41
43
43
41
41
47
47
41
41
43
54
54
41
61
67
67
54
54
41
47
47
47
47
43
41
43
43
54
41
41
43
43
47
54
41
43
61
67
67
43
41
41
43
54
54
41
41
54
43
47
54
54
43
41
54
43
47
47
54
61
67
67
54
54
54
54
43
41
47
54
41
47
43
47
54
54
54
41
43
47
41
47
61
67
67
47
41
43
47
41
54
43
54
47
47
47
41
43
54
47
47
54
54
41
54
61
67
67
41
54
54
41
47
47
41
41
47
41
47
47
41
43
41
47
54
47
47
47
61
67
67
54
41
41
47
41
54
47
43
41
43
47
43
47
41
43
41
47
54
41
43
61
67
67
47
43
47
41
47
47
54
41
43
41
43
54
54
41
54
54
43
54
41
43
61
67
67
47
47
54
41
41
41
43
47
47
41
43
41
43
54
41
54
47
47
54
41
61
67
67
43
43
43
43
47
54
54
54
41
43
54
54
47
47
47
43
47
47
43
47
61
67
67
43
54
41
54
43
47
54
47
41
43
41
54
54
41
41
47
54
41
41
47
61
67
67
41
47
54
47
47
54
47
41
54
47
54
47
43
47
41
41
54
47
47
41
61
67
67
43
43
54
54
41
47
41
41
43
54
43
43
54
43
41
54
43
43
43
47
61
67
67
47
54
43
47
41
54
41
41
41
47
41
54
54
43
43
41
43
54
47
54
61
67
67
54
54
47
47
43
54
43
43
41
54
41
54
41
43
43
41
41
54
47
54
61
67
67
47
47
41
54
43
41
54
54
41
43
54
47
43
41
43
47
43
47
41
41
61
67
67
43
54
47
41
47
47
43
54
43
41
43
41
43
47
41
43
43
47
54
41
61
67
67
41
47
54
41
47
41
41
43
41
41
54
43
54
47
54
54
43
41
54
41
61
67
67
47
54
43
47
43
54
47
47
41
43
41
54
47
47
54
54
43
54
47
47
61
67
67
43
47
47
43
47
54
43
54
47
41
43
41
47
47
43
43
54
43
47
54
61
67
67
47
47
43
47
41
43
43
41
54
47
43
54
41
54
41
43
41
41
47
54
61
67
67
47
41
41
47
43
54
43
54
54
47
41
47
43
43
47
43
43
47
41
47
61
67
67
47
43
41
43
41
43
43
54
41
41
47
41
47
43
47
43
43
41
41
43
61
67
67
43
54
47
43
54
54
47
43
41
47
47
54
41
54
47
41
47
54
54
54
61
67
67
47
41
47
54
41
54
41
41
41
41
47
54
54
47
41
41
41
54
41
54
61
67
67
43
41
41
47
41
54
54
41
54
47
41
41
47
41
54
43
41
54
47
54
61
67
67
47
41
47
54
43
43
41
41
41
43
54
41
41
54
47
43
54
43
43
54
61
67
67
41
41
41
41
47
54
47
47
47
47
54
47
41
54
54
54
43
47
41
47
61
67
67
43
43
54
43
54
43
43
41
47
47
47
43
41
43
41
41
47
41
54
47
61
67
67
47
54
41
43
47
43
43
43
54
41
43
54
47
41
54
47
54
41
54
54
61
67
67
43
43
43
41
43
47
41
54
43
54
47
54
43
54
41
43
47
43
47
54
61
67
67
43
47
47
54
54
41
47
47
54
41
41
41
47
47
47
43
54
54
54
54
61
67
67
41
43
43
47
47
43
54
43
41
47
47
41
43
41
41
54
47
43
47
41
61
67
67
54
47
41
47
54
47
54
47
41
41
41
54
43
43
41
54
43
43
43
54
61
67
67
54
43
54
41
41
54
41
54
43
47
54
47
41
41
47
43
41
41
43
43
61
67
67
54
54
41
47
41
54
41
43
47
47
47
43
54
54
47
43
41
54
47
47
61
67
67
41
47
47
54
54
43
47
41
47
41
54
43
41
54
47
54
43
43
47
47
61
67
67
54
54
47
54
41
43
54
43
47
41
47
43
54
43
47
54
41
41
47
43
61
67
67
47
47
47
43
47
47
41
41
43
47
47
47
43
41
47
43
43
47
43
47
61
67
67
43
47
43
54
43
54
47
43
54
54
54
54
47
41
47
41
41
47
54
41
61
67
67
41
47
47
47
54
47
54
54
54
41
43
41
54
41
43
43
43
54
47
47
61
67
67
43
47
54
47
54
43
43
47
41
54
43
43
54
47
41
43
43
41
54
54
61
67
67
54
43
41
43
47
54
41
54
43
54
54
43
43
43
43
43
41
43
43
43
61
67
67
41
41
43
41
41
41
47
47
41
43
41
43
54
47
43
47
54
41
47
43
61
67
67
54
47
54
47
47
43
41
54
41
47
41
41
41
43
54
54
41
41
43
41
61
67
67
47
47
54
47
47
43
41
54
47
47
41
54
43
41
41
41
54
54
43
41
61
67
67
47
41
41
41
47
47
43
41
47
47
47
43
54
41
41
41
43
41
54
47
61
67
67
41
43
41
43
47
47
47
41
47
41
41
43
47
41
54
54
54
54
54
54
61
67
67
54
41
47
47
54
47
43
47
47
47
43
43
54
41
54
41
41
41
41
47
61
67
67
47
43
54
41
43
54
54
43
41
41
43
43
43
41
54
47
47
47
47
43
61
67
67
43
47
47
47
54
47
41
41
43
54
43
43
41
43
54
54
54
54
43
41
61
67
67
47
54
54
41
43
43
41
54
47
47
41
43
47
41
43
47
47
47
54
54
61
67
67
41
43
47
41
47
47
41
43
47
54
47
47
43
43
54
47
43
43
41
41
61
67
67
43
41
41
41
47
41
54
43
54
54
54
43
41
54
41
43
43
43
54
43
61
67
67
43
41
54
47
41
47
47
41
47
43
43
43
47
41
47
47
54
41
54
41
61
67
67
47
47
43
54
54
41
43
54
43
41
43
43
47
41
47
43
41
47
43
47
61
67
67
41
41
54
54
54
47
47
47
43
41
41
41
47
43
41
54
47
41
43
41
61
67
67
47
41
43
54
54
54
47
54
47
47
41
54
43
54
47
41
47
41
54
43
61
67
67
54
54
43
54
54
41
54
41
47
54
54
54
47
54
41
47
54
41
47
54
61
67
67
54
41
43
43
41
43
43
41
43
47
54
47
54
54
47
43
54
41
54
47
61
67
67
41
41
41
54
47
47
43
41
41
47
47
54
41
47
47
54
54
47
47
47
61
67
67
41
54
43
41
47
43
41
41
43
47
47
43
54
47
43
43
54
54
41
47
61
67
67
47
41
47
47
47
54
41
43
43
47
47
41
43
47
43
41
43
54
41
47
61
67
67
47
41
54
54
43
54
41
43
41
43
41
47
47
47
43
54
54
47
41
47
61
67
67
47
54
54
54
47
54
41
41
43
43
41
54
54
54
47
41
43
43
47
47
61
67
67
54
41
43
41
41
43
43
41
43
54
47
41
43
54
47
47
41
54
47
41
61
67
67
47
54
43
41
47
54
41
41
54
41
41
43
43
43
43
54
41
41
47
43
61
67
67
43
54
43
43
47
43
41
47
43
47
43
47
41
47
47
47
54
41
54
47
61
67
67
43
43
43
54
54
47
43
54
41
43
43
47
43
43
47
47
47
43
54
43
61
67
67
47
54
41
41
43
47
43
47
54
54
54
41
54
54
41
41
43
43
41
54
61
67
67
47
54
43
54
54
47
47
47
41
43
54
41
54
41
41
43
41
43
43
41
61
67
67
43
41
54
43
54
43
47
47
43
43
41
47
54
47
43
54
41
41
41
43
61
67
67
43
41
41
41
47
43
47
54
54
41
47
41
43
43
54
43
43
47
41
47
61
67
67
54
43
47
43
41
54
41
54
47
54
43
47
47
54
47
41
47
43
41
43
61
67
67
54
54
54
54
43
54
54
41
43
47
43
41
54
47
43
43
43
41
54
47
61
67
67
47
41
54
47
41
54
54
43
43
47
47
43
47
41
47
41
41
43
43
41
61
67
67
47
47
43
47
47
47
43
41
54
54
43
43
54
41
47
41
43
47
43
54
61
67
67
47
47
47
47
54
41
41
43
47
47
43
41
43
54
54
43
54
54
43
47
61
67
67
54
47
41
54
47
43
43
43
43
43
47
47
41
47
43
54
41
41
43
43
61
67
67
54
41
47
54
54
43
41
47
43
41
47
41
47
41
47
47
43
54
41
43
61
67
67
47
47
54
43
47
41
54
47
54
54
54
54
54
54
47
47
41
54
41
47
61
67
67
54
43
47
47
43
47
47
43
41
47
43
54
54
43
43
41
54
54
47
41
61
67
67
54
43
41
43
43
41
43
54
41
54
43
47
54
47
47
41
43
54
41
47
61
67
67
47
54
43
41
54
47
41
41
43
41
41
54
54
54
41
43
41
47
47
41
61
67
67
54
43
47
54
41
43
41
41
47
47
47
41
54
43
47
54
54
41
41
47
61
67
67
54
47
54
41
41
41
47
43
47
43
47
41
41
54
47
43
43
54
43
54
61
67
67
47
47
47
47
47
54
43
47
43
54
54
54
43
47
47
43
54
47
54
54
61
67
67
47
47
41
47
54
41
47
43
47
43
41
54
41
41
47
41
43
47
54
43
61
67
67
54
43
47
47
43
47
54
47
41
47
41
43
43
54
54
47
43
54
54
47
61
67
67
41
43
47
47
43
41
54
47
41
47
47
54
41
47
41
47
43
41
47
47
61
67
67
47
54
41
43
43
41
41
54
54
41
43
47
54
54
41
41
41
43
47
41
61
67
67
43
54
41
47
47
43
41
43
41
47
43
47
54
47
47
47
47
43
43
54
61
67
67
43
47
54
47
47
41
47
47
47
43
47
43
41
43
43
41
54
43
54
43
61
67
67
41
43
43
47
47
47
54
54
47
54
47
41
43
43
54
47
47
43
41
43
61
67
67
54
47
47
41
47
47
41
54
47
41
43
54
54
47
41
43
41
41
43
47
61
67
67
47
43
47
43
41
43
47
54
43
41
43
47
41
43
47
54
43
54
43
41
61
67
67
41
47
54
47
54
47
43
54
43
54
54
47
43
54
41
43
43
43
54
41
61
67
67
41
54
47
54
54
47
54
54
41
43
41
47
47
43
54
47
47
43
47
43
61
67
67
47
41
43
41
41
54
47
47
41
47
47
47
47
54
41
41
41
54
47
47
61
67
67
47
54
41
47
43
54
41
43
41
47
54
54
43
41
43
43
43
43
43
41
61
67
67
54
41
54
54
54
43
43
47
47
43
41
41
43
47
43
47
47
54
47
43
61
67
67
47
41
54
54
43
54
47
54
41
43
47
47
54
43
54
54
41
47
47
47
61
67
67
41
54
54
41
41
47
41
47
41
43
54
54
54
47
47
43
54
43
41
43
61
67
67
43
47
41
41
54
54
43
41
47
54
41
43
41
41
41
41
47
41
47
41
61
67
67
54
43
41
43
43
43
54
41
43
41
54
47
43
47
54
54
47
47
43
54
61
67
67
43
54
41
47
41
41
43
54
43
43
54
43
43
43
54
54
47
47
43
54
61
67
67
47
41
43
54
47
41
54
54
54
47
43
43
54
41
41
43
47
47
47
41
61
67
67
54
54
54
54
41
47
47
47
43
43
47
54
54
54
43
41
41
54
41
47
61
67
67
43
47
47
47
54
47
47
54
41
41
41
47
47
41
47
54
41
41
43
43
61
67
67
54
47
54
47
54
47
41
54
41
47
47
47
54
47
54
43
54
41
54
54
61
67
67
43
47
43
54
43
47
41
41
43
43
54
41
41
43
54
47
47
54
41
41
61
67
67
54
41
54
47
47
54
43
41
43
54
43
41
41
43
54
54
41
43
54
43
61
67
67
41
54
43
43
43
41
43
43
43
47
41
47
41
41
47
47
43
41
43
54
61
67
67
47
54
54
47
54
41
54
47
41
43
47
47
41
43
47
54
43
41
41
43
61
67
67
41
43
43
43
43
47
41
43
43
43
47
41
43
47
47
41
41
41
41
54
61
67
67
41
47
41
43
43
54
47
41
43
47
54
41
54
41
47
54
54
54
47
43
61
67
67
43
41
43
41
41
47
47
41
43
43
41
43
41
47
54
54
41
47
54
43
61
67
67
41
54
43
47
41
43
41
47
47
47
54
41
54
47
43
47
41
43
47
54
61
67
67
43
47
47
41
41
47
47
43
41
47
54
41
54
43
41
43
47
47
54
43
61
67
67
54
41
47
47
54
41
47
41
43
41
47
54
47
43
54
47
47
43
43
43
61
67
67
43
47
47
41
54
41
41
54
54
41
54
47
47
43
47
54
47
43
54
54
61
67
67
43
43
54
54
41
47
43
54
43
43
41
47
41
43
54
41
54
54
43
54
61
67
67
41
41
43
47
41
54
47
43
41
43
54
54
54
43
54
47
54
47
47
43
61
67
67
54
43
54
54
41
54
47
41
54
41
54
54
54
41
41
47
47
43
41
43
61
67
67
43
54
54
54
43
47
41
54
54
54
47
43
54
43
47
47
47
43
43
47
61
67
67
41
41
41
41
41
54
54
47
47
47
54
43
43
41
47
54
43
54
41
47
61
67
67
54
43
41
47
47
43
47
41
43
47
41
43
41
41
54
43
47
43
47
54
61
67
67
41
43
54
47
41
54
47
41
54
47
47
54
41
43
43
43
43
43
41
41
61
67
67
54
41
47
47
47
43
47
47
43
43
43
41
47
41
43
43
43
41
41
41
61
67
67
43
43
43
47
47
43
54
43
47
54
41
47
54
54
41
43
43
54
41
41
61
67
67
47
47
43
47
47
47
43
47
47
54
41
54
41
43
43
54
43
43
41
47
61
67
67
54
54
41
41
47
43
41
54
54
41
41
47
47
43
41
47
54
41
54
54
61
67
67
41
41
43
41
41
41
43
43
54
54
54
54
41
41
43
41
43
43
43
47
61
67
67
54
54
54
41
43
54
43
43
47
54
43
41
47
47
41
47
43
41
47
54
61
67
67
54
41
54
47
41
47
41
54
54
47
47
41
54
47
41
54
43
47
54
43
61
67
67
47
47
47
41
47
54
47
41
41
47
41
47
41
41
43
47
43
47
41
47
61
67
67
54
47
43
54
41
47
41
47
47
43
54
41
47
54
41
43
43
47
41
54
61
67
67
43
41
47
47
41
43
47
54
47
47
41
43
54
43
43
47
54
47
41
43
61
67
67
41
41
47
54
47
54
54
41
54
47
54
47
41
47
54
43
54
43
54
54
61
67
67
43
41
43
41
41
41
47
47
43
47
41
41
41
54
47
54
54
54
41
47
61
67
67
54
47
54
43
54
41
54
47
41
47
54
43
54
43
41
54
54
41
54
54
61
67
67
43
54
43
43
54
41
47
43
41
43
47
54
41
43
41
41
43
41
47
41
61
67
67
47
41
47
54
41
41
41
43
47
41
41
41
47
41
41
43
47
43
41
41
61
67
67
47
47
43
43
41
54
41
47
43
54
54
54
47
43
41
41
54
41
47
54
61
67
67
54
54
54
43
47
54
41
47
41
43
43
41
41
43
47
41
41
47
47
54
61
67
67
41
41
47
41
54
43
47
47
41
54
54
47
41
47
43
43
54
54
41
54
61
67
67
47
54
54
47
43
41
43
47
43
47
43
41
41
47
41
41
47
43
41
43
61
67
67
41
43
47
54
47
47
54
43
47
43
54
43
41
54
47
54
41
43
43
47
61
67
67
41
43
47
43
47
54
54
47
54
41
54
41
41
43
41
43
47
43
47
47
61
67
67
41
41
43
43
41
43
47
43
43
54
54
54
41
47
54
43
54
41
41
54
61
67
67
43
43
47
43
41
43
47
41
41
47
41
47
41
47
41
43
43
41
41
43
61
67
67
43
43
54
43
47
43
54
41
54
47
43
47
41
41
41
43
41
47
43
54
61
67
67
43
47
54
54
41
41
41
47
47
41
54
41
47
54
47
41
43
47
47
43
61
67
67
54
41
47
47
43
47
47
41
41
41
54
47
41
54
47
41
41
43
43
41
61
67
67
43
54
41
43
54
41
47
43
41
47
47
41
41
54
43
47
41
47
43
41
61
67
67
47
47
47
41
47
47
43
41
41
41
47
54
47
47
41
47
41
47
43
41
61
67
67
47
41
47
54
41
54
47
43
54
47
54
47
47
41
41
41
43
54
47
43
61
67
67
54
43
41
47
47
47
43
41
54
47
47
41
54
41
54
41
43
47
43
41
61
67
67
54
41
54
47
43
43
54
43
43
43
41
43
41
47
43
54
54
47
54
47
61
67
67
41
41
41
41
47
41
54
43
47
43
43
54
41
47
43
41
54
41
43
54
61
67
67
54
47
41
54
54
43
41
47
47
41
43
43
54
43
47
47
54
41
41
47
61
67
67
54
54
54
43
41
43
47
54
54
43
47
54
41
54
47
54
54
47
54
47
61
67
67
54
54
54
41
43
54
41
43
54
41
47
43
54
41
47
54
43
43
41
54
61
67
67
43
43
54
43
54
47
47
41
47
41
54
43
54
47
54
54
47
41
47
54
61
67
67
47
41
54
41
54
43
43
41
54
54
43
41
47
43
54
43
54
54
54
41
61
67
67
54
41
43
43
43
54
47
41
41
43
54
47
43
54
43
47
43
41
47
43
61
67
67
43
54
41
41
41
54
47
43
54
47
54
43
41
47
47
43
43
43
41
47
61
67
67
41
54
41
43
54
47
47
43
47
41
54
43
47
43
54
47
41
43
43
47
61
67
67
41
41
47
43
41
54
43
47
43
54
47
43
54
43
54
41
54
47
43
43
61
67
67
43
43
43
54
43
47
41
54
41
43
43
41
47
41
47
54
47
54
41
54
61
67
67
43
54
43
54
43
41
54
43
41
43
41
47
47
41
43
43
47
54
47
54
61
67
67
54
41
54
47
47
41
54
47
43
43
43
43
43
43
43
41
47
43
47
54
61
67
67
41
43
47
54
43
54
54
47
41
41
54
54
43
43
41
47
43
54
54
47
61
67
67
43
47
54
47
41
41
54
54
54
43
47
43
41
41
43
43
54
41
47
47
61
67
67
54
43
47
47
47
54
41
41
41
54
43
41
47
47
54
47
41
47
41
47
61
67
67
54
47
54
47
47
41
41
47
47
47
43
43
54
41
54
43
41
43
47
54
61
67
67
47
54
47
54
54
41
54
43
54
41
47
43
41
54
47
41
43
41
54
43
61
67
67
41
54
43
41
47
47
43
54
41
47
41
54
47
41
43
43
41
43
43
54
61
67
67
54
47
41
41
41
43
54
47
54
41
47
54
41
54
43
54
47
41
43
47
61
67
67
54
54
43
41
43
41
54
47
47
43
41
47
43
54
41
41
41
47
54
43
61
67
67
41
47
41
47
41
43
43
43
54
47
54
54
43
41
43
41
54
54
41
47
61
67
67
41
41
43
41
43
43
41
43
43
47
41
54
43
47
47
43
41
43
54
54
61
67
67
43
43
41
54
54
47
47
54
43
47
41
47
43
41
47
54
41
47
43
43
61
67
67
54
41
43
54
47
41
43
54
54
47
43
54
47
43
47
47
43
54
43
54
61
67
67
43
54
43
43
54
41
43
41
47
41
47
47
41
54
54
43
47
54
47
41
61
67
67
41
47
54
54
41
47
43
54
41
47
41
41
41
41
47
41
43
54
54
47
61
67
67
47
41
47
41
43
41
43
47
54
43
41
54
43
41
47
54
54
43
47
43
61
67
67
47
43
54
54
47
41
41
43
43
54
41
43
41
41
41
54
41
41
47
54
61
67
67
41
41
43
54
47
43
47
41
54
47
47
54
41
54
47
41
54
41
54
43
61
67
67
41
54
41
43
41
54
43
47
47
43
41
47
54
43
41
47
54
47
41
47
61
67
67
54
43
43
54
47
41
43
47
41
54
41
54
41
43
54
54
41
41
41
43
61
67
67
54
47
54
43
54
43
47
54
54
41
41
47
43
47
43
41
47
47
54
41
61
67
67
54
41
47
43
41
43
47
47
41
47
41
47
47
47
54
47
47
43
43
47
61
67
67
47
54
54
47
41
41
43
54
54
43
47
41
47
47
54
43
54
47
43
41
61
67
67
47
54
54
43
47
41
43
43
41
43
54
41
43
43
43
47
41
54
47
47
61
67
67
47
43
47
47
47
43
41
43
41
43
54
54
47
47
47
43
54
54
54
43
61
67
67
41
54
54
41
41
47
47
54
54
47
43
54
41
43
41
54
41
43
43
54
61
67
67
47
54
41
41
47
41
54
54
47
54
43
54
54
41
41
47
54
54
41
41
61
67
67
47
43
47
54
43
54
43
41
47
43
54
54
54
41
54
54
43
41
41
43
61
67
67
41
43
47
47
41
54
47
41
43
47
43
54
43
43
54
43
54
54
41
54
61
67
67
41
47
41
41
47
47
47
41
43
41
41
54
41
54
43
43
41
41
54
54
61
67
67
41
47
41
54
41
43
54
41
47
41
54
54
54
54
41
54
47
54
41
47
61
67
67
47
47
54
47
54
43
54
47
47
54
41
54
47
54
41
54
47
43
43
41
61
67
67
41
47
54
54
43
43
43
43
47
41
54
54
47
41
43
54
54
43
47
47
61
67
67
41
43
54
41
54
43
54
47
54
43
43
47
41
41
54
43
54
43
43
47
61
67
67
54
43
43
47
47
43
41
54
43
54
47
54
43
43
41
54
54
54
43
43
61
67
67
43
41
41
54
43
41
43
41
41
54
43
54
41
41
47
41
41
43
47
54
61
67
67
47
43
41
43
41
43
47
43
43
54
41
41
47
43
43
41
41
54
47
43
61
67
67
54
41
47
43
43
47
41
54
41
47
43
43
54
54
43
47
47
47
41
43
61
67
67
47
43
41
54
41
43
41
41
41
54
54
54
43
54
41
41
43
41
41
41
61
67
67
47
47
43
54
54
43
47
47
41
54
41
41
54
41
54
47
41
47
41
41
61
67
67
41
47
47
43
47
47
43
43
43
47
47
43
47
41
47
43
43
41
47
43
61
67
67
54
54
41
43
47
41
54
47
47
41
47
47
43
54
43
41
43
54
47
54
61
67
67
47
41
47
47
41
54
43
41
43
47
41
43
41
41
43
43
54
54
54
54
61
67
67
43
54
54
43
47
47
47
54
43
41
54
43
41
47
54
43
43
41
41
43
61
67
67
47
41
41
41
54
47
41
47
54
47
47
43
43
43
47
43
54
47
41
43
61
67
67
41
54
47
41
47
54
43
43
41
41
47
43
43
54
43
41
43
41
54
54
61
67
67
47
43
41
41
41
54
54
43
47
41
54
47
43
47
41
47
43
43
41
54
61
67
67
41
43
41
43
47
43
41
47
41
47
54
41
41
41
47
41
41
47
41
41
61
67
67
43
54
54
54
47
54
47
43
41
47
43
43
54
41
54
54
54
41
47
41
61
67
67
54
41
43
47
47
54
41
43
41
54
43
47
54
41
41
43
54
54
43
43
61
67
67
54
41
41
41
41
43
47
47
47
54
41
54
41
54
47
43
47
47
47
47
61
67
67
43
43
41
54
43
54
43
43
41
43
54
41
47
54
43
54
43
47
47
43
61
67
67
43
47
41
43
54
47
47
41
43
41
43
43
47
43
47
41
54
47
47
43
61
67
67
43
43
43
43
41
41
54
41
54
41
47
41
54
54
47
47
47
41
54
47
61
67
67
54
43
41
47
54
41
54
54
43
41
54
41
47
47
47
43
54
54
43
47
61
67
67
54
54
43
41
54
47
47
43
41
41
47
47
41
54
54
47
54
47
43
47
61
67
67
47
41
54
41
54
43
47
43
47
54
47
54
54
54
47
41
54
47
43
47
61
67
67
41
54
54
54
47
54
43
43
41
47
41
41
43
47
54
41
43
47
43
41
61
67
67
41
43
54
47
47
43
41
43
54
43
41
47
41
43
47
43
54
54
41
41
61
67
67
41
43
41
47
54
47
41
54
54
43
43
43
41
41
54
43
43
54
47
54
61
67
67
43
41
41
47
43
41
41
43
54
41
47
41
47
54
43
54
47
54
47
54
61
67
67
47
54
41
54
41
54
43
47
54
54
54
41
47
43
54
43
43
54
43
41
61
67
67
43
41
54
54
41
54
41
41
43
54
54
47
41
41
41
43
41
43
43
43
61
67
67
41
41
54
47
41
41
41
41
43
43
43
47
54
41
41
54
41
41
54
43
61
67
67
47
54
54
47
47
41
54
43
54
47
41
41
47
41
41
54
43
43
47
54
61
67
67
47
47
54
47
47
41
41
54
43
41
43
41
43
47
47
41
43
41
41
43
61
67
67
41
41
47
54
41
41
47
47
54
54
54
43
47
43
43
47
47
43
54
41
61
67
67
54
54
47
54
54
47
41
43
47
47
47
54
41
43
54
43
47
41
43
43
61
67
67
41
43
43
47
41
41
54
43
54
54
47
41
54
54
41
47
47
43
43
54
61
67
67
41
47
54
41
47
54
43
41
47
41
47
47
43
54
43
54
43
43
41
43
61
67
67
43
54
54
43
54
41
43
41
41
47
43
43
47
41
43
47
47
54
41
41
61
67
67
43
54
54
43
43
54
43
47
54
47
41
43
41
54
47
41
41
47
43
54
61
67
67
41
43
41
47
43
54
43
54
41
47
41
41
47
47
43
47
41
54
43
41
61
67
67
47
47
43
41
54
47
47
47
47
41
43
47
41
41
43
54
47
54
54
41
61
67
67
47
43
54
41
43
43
47
41
47
54
54
41
41
41
54
43
54
47
41
54
61
67
67
54
41
47
54
43
47
41
43
54
54
54
54
43
43
43
43
54
54
54
43
61
67
67
47
47
43
47
47
54
47
47
47
41
43
54
47
43
54
47
54
54
41
43
61
67
67
47
41
43
43
54
43
41
54
47
41
47
54
54
41
54
43
47
47
43
41
61
67
67
47
41
43
54
43
41
41
47
41
43
47
41
43
47
43
41
43
43
43
41
61
67
67
41
43
54
47
54
54
54
43
43
54
41
47
54
47
41
41
43
41
54
43
61
67
67
43
47
43
43
41
47
43
43
41
41
54
54
54
47
43
43
43
41
43
43
61
67
67
54
41
43
47
47
47
54
43
43
43
43
47
43
43
54
54
47
41
41
54
61
67
67
41
47
47
43
47
47
43
54
43
43
47
54
54
41
41
43
43
54
41
41
61
67
67
43
54
54
47
47
47
43
47
54
47
43
47
47
47
43
43
54
47
54
54
61
67
67
43
47
43
47
41
43
43
43
41
47
43
43
41
43
54
47
43
47
43
43
61
67
67
47
54
47
43
41
41
41
41
43
41
41
54
41
47
41
43
47
54
43
54
61
67
67
43
54
41
47
43
54
