53
79
6c
76
61
69
6e
2c
20
49
6e
67
72
69
64
4b
65
72
72
69
67
61
6e
2c
20
4d
69
6e
41
6e
67
77
69
6e
2c
20
48
65
74
74
69
65
54
79
2c
20
4f
6c
69
76
65
72
42
72
61
6e
6b
65
72
2c
20
52
61
66
61
65
6c
48
61
6e
73
2c
20
53
70
65
6e
63
65
72
44
6f
77
64
73
2c
20
57
69
6e
6f
6e
61
42
61
72
63
65
6c
6f
2c
20
44
6f
6e
6e
65
6c
6c
48
61
65
73
73
69
67
2c
20
48
61
72
6d
6f
6e
79
4d
63
6c
75
72
65
2c
20
4c
61
69
42
72
61
64
62
75
72
79
2c
20
4b
61
74
68
65
72
69
6e
61
43
6f
79
74
2c
20
4b
61
74
65
6c
69
6e
4d
61
72
73
68
61
6c
2c
20
41
6c
76
61
47
6f
75
6c
64
69
65
2c
20
4c
6f
72
65
6e
65
47
6c
65
61
76
65
2c
20
42
72
61
64
6c
79
50
68
69
62
62
73
2c
20
50
69
70
65
72
4d
6f
75
61
2c
20
5a
65
6e
61
43
69
70
72
69
61
6e
69
2c
20
4c
79
6c
65
47
61
7a
7a
6f
2c
20
45
6c
69
63
69
61
45
6e
64
65
72
6c
69
6e
2c
20
54
61
6d
6d
69
65
45
72
69
6b
73
73
6f
6e
2c
20
43
61
74
68
61
72
69
6e
65
4d
61
72
75
73
68
69
61
2c
20
59
75
6e
67
4b
6e
61
61
6b
2c
20
53
68
61
6e
6e
6f
6e
53
74
65
66
66
61
2c
20
4d
69
72
69
61
6e
47
6f
64
62
65
65
2c
20
4b
61
74
68
65
79
48
79
65
72
2c
20
44
65
6e
6e
79
54
65
69
63
68
72
6f
77
2c
20
54
69
6c
6c
69
65
48
75
67
67
65
72
2c
20
53
65
79
6d
6f
75
72
56
69
6c
74
7a
2c
20
46
72
61
6e
6b
6c
69
6e
4c
61
67
72
61
73
73
65
2c
20
4d
61
72
69
6c
75
43
6c
65
6e
64
65
6e
6f
6e
2c
20
5a
65
74
74
61
42
6f
62
6c
69
74
74
2c
20
53
6f
6f
6b
48
65
66
66
65
72
61
6e
2c
20
43
6f
72
72
69
6e
61
48
65
6e
63
68
65
63
6b
2c
20
42
75
6c
61
68
59
76
6f
6e
2c
20
47
65
6f
72
67
69
61
6e
6e
61
4c
6f
74
61
6e
2c
20
43
61
72
6c
74
6f
6e
42
61
6c
6c
6f
77
65
2c
20
48
79
75
6e
4e
6f
2c
20
53
68
61
6c
61
6e
64
61
56
65
72
6c
69
6e
67
2c
20
4c
69
6c
69
61
6e
61
44
61
76
69
61
75
2c
20
4d
65
6c
76
69
6e
57
6f
72
6b
73
2c
20
46
61
75
73
74
69
6e
6f
53
61
79
6b
6f
2c
20
4b
65
6e
6e
79
50
69
6e
74
6f
72
2c
20
4c
69
6e
77
6f
6f
64
54
61
64
64
2c
20
45
72
6e
61
4d
65
6d
6d
65
72
2c
20
45
72
69
63
6b
53
63
75
63
63
68
69
2c
20
4b
61
79
6c
65
65
56
61
6e
62
65
63
6b
2c
20
41
6e
69
73
68
61
53
65
6e
66
74
2c
20
4e
61
74
61
73
68
61
53
63
68
6f
70
2c
20
45
72
69
63
6b
61
53
74
65
66
66
65
73
2c
20
4c
6f
75
65
74
74
61
51
75
61
73
68
69
65
2c
20
54
6f
72
79
4c
6f
73
65
6b
65
2c
20
41
73
68
6c
65
79
54
75
6c
65
79
2c
20
43
61
72
6c
79
6e
50
61
6e
63
68
6f
2c
20
4b
65
76
69
6e
4d
75
6c
6b
69
6e
2c
20
4c
6f
75
69
73
61
50
61
72
72
69
6c
6c
2c
20
53
69
6e
61
50
6f
77
6c
65
73
2c
20
4c
69
7a
61
62
65
74
68
52
65
65
76
65
2c
20
56
65
6e
69
63
65
50
61
75
6b
65
72
74
2c
20
47
69
74
61
4c
65
6c
69
73
2c
20
41
6e
4b
6f
7a
75
62
2c
20
4d
61
72
61
4b
69
65
66
65
72
74
2c
20
54
79
73
6f
6e
4d
75
6d
66
6f
72
64
2c
20
42
6c
61
6b
65
42
65
6c
73
65
72
2c
20
57
65
73
46
72
65
65
73
65
2c
20
41
6e
67
65
6c
69
6e
65
50
6f
6b
6f
72
6e
79
2c
20
4a
6f
68
6e
43
61
6d
6d
61
72
6f
74
61
2c
20
4d
6f
6e
74
65
53
74
6f
62
69
65
2c
20
41
6c
65
78
61
6e
64
65
72
50
65
6e
77
65
6c
6c
2c
20
4d
75
69
5a
75
65
72
63
68
65
72
2c
20
53
61
6c
6c
79
47
6f
69
6e
2c
20
50
65
61
72
6c
69
65
42
61
6c
6c
6d
61
6e
6e
2c
20
43
68
61
6e
4d
61
6e
7a
75
65
74
61
2c
20
4b
61
72
6f
6c
54
72
75
73
74
79
2c
20
4d
6f
73
65
73
50
61
75
6c
61
2c
20
53
74
61
63
69
46
69
6e
6b
6c
65
61
2c
20
43
68
65
72
69
6c
79
6e
47
6f
72
63
7a
79
6e
73
6b
69
2c
20
46
72
61
6e
63
69
73
4c
65
61
63
68
6d
61
6e
2c
20
53
68
61
6c
6f
6e
64
61
47
61
72
76
69
6e
2c
20
41
73
68
6c
79
43
65
72
65
67
68
69
6e
6f
2c
20
54
6f
6d
65
6b
61
4d
69
6e
61
72
69
2c
20
56
61
6e
65
74
74
61
57
69
6e
67
65
2c
20
4e
61
74
61
6c
69
65
52
6f
68
72
64
61
6e
7a
2c
20
44
65
77
69
74
74
50
65
73
6b
69
6e
64
2c
20
4a
6f
73
65
42
6c
6f
6f
64
73
61
77
2c
20
53
68
61
6e
6e
61
42
6f
79
65
6e
67
61
2c
20
53
68
61
72
69
65
4b
61
65
61
2c
20
52
75
74
68
65
42
65
6e
61
73
68
65
72
2c
20
43
72
65
6f
6c
61
50
61
74
72
69
65
2c
20
53
68
69
72
6c
65
79
4d
61
63
6b
65
6e
7a
69
65
2c
20
48
69
6c
61
72
79
43
69
61
6e
63
69
6f
2c
20
54
6f
6d
4f
63
68
69
6c
74
72
65
65
2c
20
45
69
6c
65
65
6e
4e
75
6d
61
6e
2c
20
4d
61
74
68
61
42
69
6e
65
74
2c
20
54
61
72
65
6e
42
69
73
65
6c
2c
20
52
69
61
4c
61
6e
6d
61
6e
2c
20
4a
65
77
65
6c
4b
72
61
63
68
2c
20
4e
65
76
69
6c
6c
65
50
65
6e
77
61
72
64
65
6e
2c
20
4c
61
76
65
72
6e
61
50
61
6e
61
67
6f
73
2c
20
42
6c
6f
6e
64
65
6c
6c
4c
61
6c
61
74
61
2c
20
45
6c
73
65
42
61
63
68
65
72
74
2c
20
44
65
78
74
65
72
4f
6c
76
65
79
2c
20
4f
72
65
74
68
61
50
72
65
73
65
72
65
6e
2c
20
4c
61
75
6e
61
4d
65
73
65
6e
62
72
69
6e
67
2c
20
4a
65
72
72
6f
6c
64
4b
75
65
6e
73
74
6c
65
72
2c
20
53
75
73
61
6e
61
4d
75
6c
63
61
68
65
79
2c
20
4f
73
63
61
72
48
61
6e
6e
75
6c
61
2c
20
4b
69
74
74
79
4f
72
6c
6f
77
73
6b
69
2c
20
42
72
61
6e
64
6f
6e
52
69
78
2c
20
49
73
73
61
63
4a
6f
73
65
66
79
2c
20
41
6c
61
6e
65
44
72
6f
70
69
6e
73
6b
69
2c
20
4b
65
6e
6e
69
74
68
42
6f
6c
64
65
6e
6f
77
2c
20
44
65
6e
6e
79
57
61
73
68
6b
6f
2c
20
4d
61
74
69
6c
64
61
4d
65
61
64
65
2c
20
46
72
65
64
65
72
69
63
44
65
6c
61
63
75
65
73
74
61
2c
20
52
6f
73
65
74
74
65
4b
69
73
69
65
6c
65
77
73
6b
69
2c
20
59
6f
73
68
69
6b
6f
53
79
7a
64
65
6b
2c
20
4b
69
72
61
44
65
72
72
69
63
6f
2c
20
4b
65
6e
69
61
53
74
61
6b
65
72
2c
20
4c
6f
72
72
61
69
6e
65
44
72
61
69
6e
76
69
6c
6c
65
2c
20
47
6c
61
64
79
73
50
61
68
6d
65
69
65
72
2c
20
54
65
72
72
69
4d
6f
79
65
72
6d
61
6e
2c
20
44
69
63
6b
47
61
72
64
65
6e
61
73
2c
20
42
65
72
6e
61
64
69
6e
65
4f
6d
6c
69
6e
2c
20
56
6f
6e
6e
69
65
4d
61
72
72
61
62
6c
65
2c
20
44
65
62
62
79
47
72
61
6e
64
65
6c
2c
20
42
6f
6e
6e
79
45
61
73
74
6d
61
6e
2c
20
4d
61
63
6b
65
6e
7a
69
65
41
75
79
65
75
6e
67
2c
20
44
6f
72
72
69
73
4c
61
6e
73
64
6f
77
6e
65
2c
20
41
6e
74
68
6f
6e
79
53
6c
6f
77
6e
2c
20
4b
6f
72
79
53
68
6f
70
70
2c
20
56
61
6c
65
72
79
4f
73
62
65
72
67
2c
20
4c
6f
72
6e
61
4e
69
6c
6d
65
69
65
72
2c
20
52
6f
73
61
75
72
61
52
69
7a
7a
75
74
69
2c
20
44
61
72
77
69
6e
48
6f
72
76
61
74
2c
20
4a
6f
61
6e
6e
65
54
72
6f
6a
69
6c
6c
6f
2c
20
4d
61
72
63
65
6c
69
6e
65
53
74
6f
68
72
65
72
2c
20
4e
6f
72
69
6e
65
52
75
73
73
61
6b
2c
20
4c
69
65
73
65
6c
6f
74
74
65
57
69
63
6b
65
72
73
2c
20
43
61
72
6c
4e
75
72
6e
62
65
72
67
65
72
2c
20
4e
6f
76
65
6c
6c
61
47
61
6e
65
72
2c
20
41
6c
69
6e
61
48
6f
75
67
68
74
65
6c
6c
69
6e
67
2c
20
43
6f
6c
6c
65
74
74
65
53
70
6f
68
6e
68
6f
6c
7a
2c
20
43
61
74
68
65
79
46
6c
61
6d
6d
2c
20
4b
68
61
6c
69
6c
61
68
48
69
6e
74
65
72
67
61
72
64
74
2c
20
4d
6f
69
72
61
4d
65
65
2c
20
42
75
6c
61
68
53
65
74
6c
61
6b
2c
20
52
69
6c
65
79
4d
6f
72
72
65
61
6c
65
2c
20
49
73
72
61
65
6c
56
61
6e
64
65
72
73
63
68
61
65
67
65
2c
20
57
69
6c
62
65
72
74
50
6f
73
69
73
2c
20
43
6c
61
75
64
69
65
48
61
62
65
72
6b
61
6d
70
2c
20
41
6c
64
6f
59
6f
68
65
2c
20
53
68
6f
6e
6e
61
44
69
66
66
65
6e
64
61
6c
2c
20
4b
6f
72
74
6e
65
79
47
69
72
61
64
2c
20
56
69
6e
63
65
6e
7a
6f
4b
69
72
6b
65
79
2c
20
46
6c
6f
72
69
6e
65
43
72
6f
6f
6b
65
73
2c
20
4d
61
72
63
65
6c
6c
43
6f
75
73
61
69
6e
2c
20
41
6e
74
77
61
6e
4c
61
6e
64
61
6b
65
72
2c
20
4c
69
7a
61
62
65
74
68
53
74
65
6d
70
65
72
2c
20
43
68
61
73
58
69
6f
6e
67
2c
20
4d
61
67
65
6e
53
74
6f
6b
61
6e
2c
20
44
61
76
69
64
61
57
69
6e
74
6c
65
2c
20
41
6e
74
6f
6e
69
6f
53
65
6d
72
61
64
2c
20
4c
69
6c
6c
61
42
6f
75
72
6e
73
2c
20
4a
6f
68
6e
61
74
68
61
6e
44
61
6d
6f
72
6f
2c
20
4d
69
67
6e
6f
6e
4d
63
6b
65
72
6e
2c
20
56
61
6e
63
65
50
65
74
65
75
69
6c
2c
20
45
6c
6d
65
72
4c
65
67
65
74
74
65
2c
20
4d
61
72
67
69
65
4d
6f
64
64
65
6a
6f
6e
67
65
2c
20
52
6f
62
62
69
6e
48
69
70
73
68
65
72
2c
20
42
72
69
74
74
6e
79
4d
61
6c
61
62
65
79
2c
20
52
69
63
68
4d
61
67
69
6e
6e
2c
20
42
72
65
61
6e
6e
65
56
61
6e
70
65
6c
74
2c
20
43
61
72
79
48
75
73
61
72
2c
20
4c
61
75
72
69
6e
65
4a
61
76
69
73
2c
20
52
6f
6f
73
65
76
65
6c
74
4b
6f
77
61
6c
6c
69
73
2c
20
54
68
75
57
6f
6c
66
73
62
65
72
67
65
72
2c
20
43
6f
72
6e
65
6c
69
75
73
56
61
75
74
65
72
2c
20
47
61
72
72
79
4c
61
6d
62
6c
69
6e
2c
20
4d
61
72
6c
65
6e
61
4c
61
72
61
73
6f
6e
2c
20
4d
6f
64
65
73
74
61
50
65
74
72
69
2c
20
54
65
72
72
79
54
75
72
6e
71
75
69
73
74
2c
20
53
75
73
61
6e
6e
61
68
46
69
6e
63
68
61
6d
2c
20
42
72
61
69
6e
57
69
74
68
65
72
69
6e
67
74
6f
6e
2c
20
49
73
61
61
63
53
6b
6f
72
61
2c
20
54
61
62
69
74
68
61
43
61
64
61
2c
20
48
61
6e
68
48
6f
6c
6c
65
6e
2c
20
43
6f
72
79
50
72
69
74
63
68
65
74
74
2c
20
57
69
6c
6c
61
4d
63
63
6c
65
6e
64
6f
6e
2c
20
44
61
72
6c
65
6e
65
54
75
72
62
65
73
2c
20
41
6c
69
78
53
65
2c
20
56
61
6c
65
6e
74
69
6e
65
4a
65
66
66
72
65
79
73
2c
20
59
75
6b
69
43
69
62
72
69
61
6e
2c
20
42
72
69
74
74
6e
79
43
6c
61
72
6f
73
2c
20
4a
65
6e
69
66
66
65
72
56
65
72
6e
6f
79
2c
20
43
61
73
61
6e
64
72
61
42
75
67
61
72
65
77
69
63
7a
2c
20
4d
61
72
6b
69
74
61
43
75
62
69
6e
65
2c
20
53
74
61
63
69
4a
6f
68
61
72
2c
20
54
6f
6d
6f
6b
6f
59
67
6c
65
73
69
61
73
2c
20
47
65
72
6d
61
69
6e
65
48
6f
6c
74
68
61
75
73
2c
20
46
72
65
64
64
69
65
42
61
73
65
68
6f
72
65
2c
20
53
61
6c
76
61
74
6f
72
65
52
65
70
6c
6f
67
6c
65
2c
20
48
6f
6c
6c
79
42
72
61
63
6b
6c
69
6e
2c
20
50
65
72
63
79
54
75
72
6b
69
6e
2c
20
49
72
61
69
64
61
48
6f
73
61
63
6b
2c
20
4d
61
64
65
6c
69
6e
65
45
78
6c
65
72
2c
20
52
6f
62
79
6e
50
69
63
6b
65
74
74
65
2c
20
45
76
65
72
65
74
74
65
45
73
61
6e
6e
61
73
6f
6e
2c
20
41
6c
6c
69
73
6f
6e
59
6f
75
6e
67
73
74
72
6f
6d
2c
20
4d
79
72
74
61
44
6f
7a
6f
69
73
2c
20
53
68
65
69
6c
61
4c
61
6c
61
2c
20
4c
75
63
69
61
44
75
68
6c
2c
20
44
61
76
69
64
42
61
67
67
65
2c
20
41
72
69
61
6e
61
5a
61
6b
69
2c
20
49
6b
65
52
65
63
61
6c
64
65
2c
20
4a
6f
73
65
4b
65
6d
70
65
6c
2c
20
53
61
6e
74
6f
73
57
69
6e
73
6c
6f
77
2c
20
43
6f
72
79
4d
69
65
6c
65
73
2c
20
4a
65
6e
6e
61
48
6f
72
76
69
74
7a
2c
20
53
68
65
72
6f
6e
42
6f
62
73
65
69
6e
65
2c
20
4b
65
65
6e
61
53
6b
69
6c
64
75
6d
2c
20
4d
65
6c
61
6e
79
47
69
6c
68
6f
6f
6c
79
2c
20
43
68
65
72
72
79
48
61
6e
73
65
6c
6c
2c
20
54
6f
6e
69
74
61
47
61
7a
65
6c
6c
61
2c
20
44
61
77
6e
65
43
68
69
7a
2c
20
4d
61
74
68
65
77
4d
61
6e
64
2c
20
53
68
61
71
75
61
6e
61
48
61
75
70
74
6d
61
6e
6e
2c
20
53
68
61
77
6e
6e
61
4c
75
62
65
6c
73
6b
69
2c
20
4d
6f
6e
72
6f
65
43
69
61
6e
63
69
6f
6c
61
2c
20
45
64
69
65
44
75
62
65
6c
2c
20
52
65
61
67
61
6e
52
65
64
65
6d
65
72
2c
20
4d
61
72
69
65
6c
61
4e
69
6d
6d
65
72
2c
20
50
61
75
6c
65
74
74
61
4d
65
6e
61
2c
20
4a
61
6e
65
74
46
65
74
74
65
72
68
6f
66
66
2c
20
43
61
72
6c
6f
43
68
61
70
6d
6f
6e
64
2c
20
44
65
6e
69
73
4d
61
68
61
78
61
79
2c
20
45
62
6f
6e
69
53
63
68
75
65
72
6d
61
6e
6e
2c
20
4d
69
63
68
65
6c
42
61
74
65
73
2c
20
4d
69
63
6b
65
79
57
69
6e
74
65
72
62
65
72
67
2c
20
4c
61
6c
61
45
72
6d
69
74
61
6e
69
6f
2c
20
54
6f
62
79
4d
61
73
68
62
75
72
6e
2c
20
41
6e
6a
61
6e
65
74
74
65
43
61
72
64
6f
6e
2c
20
48
79
61
63
69
6e
74
68
4d
63
6b
65
72
6e
2c
20
4f
77
65
6e
46
72
65
64
65
72
69
63
6b
73
65
6e
2c
20
4b
72
69
73
74
65
6c
43
6c
6f
7a
7a
61
2c
20
59
75
6b
6f
44
61
71
75
69
6e
6f
2c
20
54
65
72
65
73
65
52
6f
73
65
62
61
75
67
68
2c
20
50
72
65
63
69
6f
75
73
51
75
61
74
72
61
72
6f
2c
20
45
63
68
6f
43
68
61
6e
63
65
79
2c
20
4c
61
74
72
69
6e
61
56
69
65
6e
2c
20
57
69
6c
62
75
72
6e
53
77
61
72
74
7a
65
6e
74
72
75
62
65
2c
20
4c
61
75
72
69
63
65
44
6f
6e
61
68
75
65
2c
20
43
61
6d
69
44
75
65
6e
65
73
2c
20
43
61
72
6c
74
6f
6e
4f
6c
63
75
73
2c
20
53
75
64
69
65
42
61
63
68
69
63
68
61
2c
20
41
73
75
6e
63
69
6f
6e
42
72
61
6e
64
65
72
2c
20
43
68
65
72
79
6c
65
43
61
74
61
6c
64
6f
2c
20
47
61
62
72
69
65
6c
6c
61
4c
61
6e
74
69
67
75
61
2c
20
51
75
69
6e
6e
4b
61
70
70
65
72
6d
61
6e
2c
20
47
65
72
74
72
75
64
69
73
46
69
75
6d
61
72
61
2c
20
4a
6f
68
6e
6e
79
44
65
74
75
72
65
6e
6e
65
2c
20
59
61
73
75
6b
6f
45
6b
6b
65
72
2c
20
4d
61
72
67
65
48
61
79
73
62
65
72
74
2c
20
43
72
69
73
74
6f
70
68
65
72
47
6f
61
72
64
2c
20
4b
6f
72
65
79
4c
6f
6d
61
63
6b
2c
20
48
6f
75
73
74
6f
6e
54
65
72
70
73
74
72
61
2c
20
53
6f
6e
61
54
61
72
6c
6f
77
2c
20
56
69
6b
69
4c
65
68
61
72
2c
20
45
6c
65
6f
6e
6f
72
65
50
6f
61
67
75
65
2c
20
48
65
61
74
68
65
72
43
72
65
65
63
68
2c
20
47
65
6f
72
67
69
65
47
6f
6c
61
2c
20
42
72
69
61
6e
42
65
72
73
6f
6e
2c
20
56
61
64
61
44
65
62
69
61
73
65
2c
20
43
61
72
73
6f
6e
42
72
6f
65
72
69
6e
67
2c
20
43
68
65
72
69
56
72
62
61
73
2c
20
54
68
6f
6d
61
73
42
6f
6e
6e
65
61
75
2c
20
43
6c
65
6d
65
6e
63
69
61
48
69
6e
73
65
79
2c
20
4c
61
79
6e
65
43
61
73
74
61
6e
65
64
6f
2c
20
43
6c
61
72
69
73
61
52
68
65
65
73
2c
20
52
6f
78
69
65
43
72
6f
75
73
6f
72
65
2c
20
41
75
64
72
69
65
46
6f
72
69
6e
67
65
72
2c
20
41
76
69
73
46
72
61
7a
65
72
2c
20
4d
61
65
43
69
74
72
6f
6e
69
2c
20
42
6c
61
69
6e
65
4b
61
77
61
69
61
65
61
2c
20
53
75
73
69
65
4d
61
75
66
66
72
61
79
2c
20
4d
65
67
61
6e
4c
65
61
76
65
6e
73
2c
20
4a
6f
65
6c
6c
65
6e
46
75
67
6c
65
2c
20
4b
72
69
73
48
65
61
67
6e
65
79
2c
20
4a
75
6c
65
4d
65
6e
73
65
6e
2c
20
4c
6f
79
63
65
56
6f
72
61
6e
2c
20
4c
69
6e
64
73
79
47
69
72
6f
6e
2c
20
57
69
6c
6c
65
74
74
65
4c
75
6b
69
6e
73
2c
20
44
69
6f
6e
6e
61
46
72
65
64
6c
75
6e
64
2c
20
43
6c
61
72
69
74
61
53
70
65
72
72
79
2c
20
53
68
65
6c
6c
65
79
53
68
75
6e
6b
2c
20
4c
61
6b
65
6e
79
61
44
69
6d
75
63
63
69
6f
2c
20
52
6f
73
61
6c
69
6e
61
42
69
64
64
75
6c
70
68
2c
20
45
73
74
65
6c
6c
65
44
69
6e
6f
2c
20
4b
61
74
68
65
72
69
6e
61
43
6c
61
70
68
61
6d
2c
20
4d
61
72
67
65
72
65
74
50
65
70
70
69
6e
2c
20
4c
75
65
44
65
67
72
65
65
2c
20
42
72
65
6e
74
6f
6e
4e
6f
74
69
73
2c
20
46
69
6c
69
62
65
72
74
6f
4d
6f
72
72
69
73
73
2c
20
4e
69
63
6f
6c
61
41
6e
69
64
69
2c
20
53
75
6d
69
6b
6f
4a
75
6e
69
6f
72
2c
20
43
68
61
72
6c
65
73
48
61
6e
73
2c
20
43
68
6f
6e
67
59
61
72
62
65
72
2c
20
41
75
74
75
6d
6e
4a
61
63
6f
6d
65
2c
20
50
61
75
6c
61
53
61
6e
63
65
6e
2c
20
4e
69
6c
73
61
54
69
6d
6d
65
72
6d
61
6e
6e
2c
20
4d
61
69
61
4c
6f
63
75
73
2c
20
52
6f
73
61
6c
69
61
4d
61
63
69
6e
61
2c
20
4c
61
77
61
6e
64
61
47
65
72
73
68
6d
61
6e
2c
20
57
69
6c
62
75
72
4e
65
65
2c
20
54
79
6e
69
73
68
61
4c
65
79
73
2c
20
4f
6b
47
69
6c
6c
69
6e
73
2c
20
41
6c
76
65
72
74
61
4d
65
6e
65
65
6c
79
2c
20
4c
65
61
68
50
68
65
61
73
61
6e
74
2c
20
42
65
72
74
69
65
41
72
75
6e
64
65
6c
2c
20
53
68
65
72
69
63
65
4d
6f
68
72
2c
20
43
68
65
72
65
4b
61
65
6c
6b
65
72
2c
20
44
65
72
72
69
63
6b
53
6f
6e
64
61
79
2c
20
4d
61
72
68
74
61
4d
61
72
74
69
6e
2c
20
4e
65
6c
69
64
61
4c
61
70
65
72
2c
20
4a
75
6c
69
65
74
59
61
67
69
6e
2c
20
4b
79
6f
6b
6f
4d
65
6c
6f
64
79
2c
20
4e
65
63
6f
6c
65
4d
63
6b
69
6c
6c
69
70
2c
20
51
75
69
6e
74
6f
6e
53
61
6e
74
6f
72
65
6c
6c
61
2c
20
43
61
72
79
6c
46
6c
65
69
73
6e
65
72
2c
20
4c
65
69
67
68
61
53
68
69
6e
6b
6f
2c
20
48
69
72
6f
6b
6f
54
72
65
6d
61
79
6e
65
2c
20
4a
61
63
71
75
65
6c
69
6e
4f
6c
76
65
79
2c
20
45
6c
6d
65
72
4d
61
64
65
6a
61
2c
20
43
68
65
72
79
6c
54
75
65
6c
6c
65
72
2c
20
4d
69
6b
6b
69
43
72
79
61
6e
2c
20
43
61
72
6d
65
6c
6f
4d
61
74
74
75
2c
20
4d
61
72
67
75
72
69
74
65
56
61
72
67
61
2c
20
42
72
79
6f
6e
47
61
69
65
74
74
6f
2c
20
4a
65
72
72
69
65
59
61
75
2c
20
4c
65
61
6e
6e
61
44
65
6c
61
6e
65
79
2c
20
44
65
6c
6f
72
61
44
69
72
6c
61
6d
2c
20
45
75
6c
61
46
72
61
6e
73
73
65
6e
2c
20
4b
61
74
65
72
69
6e
65
53
63
68
65
75
65
72
2c
20
4b
65
6d
62
65
72
6c
79
52
6f
75
74
6f
6e
2c
20
4b
61
74
68
79
4c
61
6e
64
62
6f
72
67
2c
20
4a
61
6e
79
63
65
41
6c
66
61
72
6f
2c
20
4c
61
6e
61
53
75
6d
6c
61
72
2c
20
50
68
79
6c
69
73
4d
61
73
6c
6f
77
73
6b
69
2c
20
4a
65
6e
61
4c
65
66
66
65
6c
6d
61
6e
2c
20
4d
61
72
65
6e
4f
72
6c
61
6e
64
6f
2c
20
53
68
69
72
6c
65
79
4d
69
79
61
7a
61
6b
69
2c
20
53
6f
6e
64
72
61
52
65
69
6c
79
2c
20
52
65
62
62
65
63
61
42
65
7a
7a
6f
2c
20
4c
61
74
69
6e
61
46
72
65
64
65
72
69
63
6b
73
65
6e
2c
20
4d
61
72
79
6c
69
6e
47
61
62
65
72
2c
20
53
65
70
74
65
6d
62
65
72
53
74
75
74
73
6d
61
6e
2c
20
57
69
6e
74
65
72
53
74
65
6e
64
61
6c
2c
20
44
61
72
65
6c
6c
47
6c
6f
77
73
6b
69
2c
20
4a
6f
64
79
42
65
72
6b
6d
61
6e
2c
20
43
61
72
6d
61
6e
52
69
6c
69
6e
67
2c
20
53
75
73
61
6e
47
75
65
72
65
74
74
61
2c
20
54
68
65
72
65
73
69
61
51
75
65
72
74
65
72
6d
6f
75
73
2c
20
43
61
72
6d
69
6e
65
43
6f
72
70
6f
72
61
6c
2c
20
4d
61
72
63
65
6c
6c
75
73
47
6f
6f
6c
73
62
79
2c
20
52
6f
62
62
79
52
61
6d
62
65
72
67
2c
20
41
6c
66
6f
6e
73
6f
53
63
69
61
6c
70
69
2c
20
4a
61
6e
65
61
6e
41
6c
74
79
2c
20
42
65
72
6e
65
69
63
65
43
61
62
62
65
6c
6c
2c
20
43
6c
61
72
69
73
4b
61
73
7a
69
6e
73
6b
69
2c
20
4c
79
6e
64
6f
6e
41
79
72
65
73
2c
20
44
65
6c
65
6e
61
48
6f
62
65
72
74
2c
20
43
61
70
72
69
63
65
57
65
6e
64
65
6c
6b
65
6e
2c
20
43
6f
72
69
6e
65
50
65
61
72
73
6f
6e
2c
20
41
6c
65
63
53
61
6c
6c
69
65
2c
20
4b
72
69
73
74
69
53
61
6e
74
75
63
63
69
2c
20
50
65
74
65
72
54
65
65
2c
20
43
72
79
73
74
6c
65
46
6c
61
64
75
6e
67
2c
20
43
61
74
61
6c
69
6e
61
43
61
76
69
63
63
68
69
2c
20
53
65
72
69
74
61
53
6c
75
6e
61
6b
65
72
2c
20
44
61
76
65
4d
61
68
61
6c
6c
2c
20
4e
61
6e
65
74
74
65
42
72
61
62
73
6f
6e
2c
20
4f
74
68
61
4d
69
6c
6c
61
72
64
2c
20
4b
61
74
68
61
72
79
6e
48
65
65
72
73
2c
20
47
75
73
73
69
65
52
75
70
70
2c
20
45
6c
6f
69
73
42
69
73
73
6f
6e
6e
65
74
74
65
2c
20
53
61
6d
4d
63
6b
69
6e
6e
79
2c
20
59
75
6f
6e
6e
65
50
69
6d
2c
20
43
61
72
69
73
61
53
74
72
69
74
74
6d
61
74
74
65
72
2c
20
54
6f
6e
69
61
51
75
61
72
74
61
72
61
72
6f
2c
20
4c
6f
75
65
74
74
61
47
75
65
63
68
6f
2c
20
44
65
6c
6f
72
65
73
4c
69
6d
62
65
72
67
2c
20
41
62
69
67
61
69
6c
54
6f
6e
63
68
65
2c
20
52
6f
6e
61
6c
64
4b
69
72
6f
76
61
63
2c
20
44
61
6e
41
76
69
6c
65
73
2c
20
4a
61
6e
69
53
63
68
6c
65
6e
7a
2c
20
4a
61
6e
69
63
65
47
65
6c
67
65
72
2c
20
4d
61
72
6b
65
74
74
61
46
65
64
72
69
63
6b
2c
20
41
6d
61
6c
69
61
46
69
6c
69
63
65
74
74
69
2c
20
4b
61
72
72
69
65
42
6f
6c
73
74
65
72
2c
20
4a
6f
76
61
6e
42
69
7a
7a
61
72
6f
2c
20
54
6f
62
69
52
69
68
65
72
64
2c
20
4f
6c
65
6e
65
44
65
6d
61
72
61
69
73
2c
20
4e
69
63
68
6f
6c
44
69
6c
6c
61
62
6f
75
67
68
2c
20
4c
6f
74
74
69
65
4b
65
61
6e
2c
20
4a
65
6e
65
56
61
6e
64
65
72
6e
6f
6f
74
2c
20
43
61
72
72
6f
6c
45
72
73
6b
69
6e
65
2c
20
45
76
61
54
65
72
61
6d
6f
74
6f
2c
20
43
6c
79
64
65
43
61
70
65
6c
6c
61
73
2c
20
44
65
6e
61
42
69
73
73
65
6c
2c
20
4b
65
72
61
4f
6c
69
6e
2c
20
54
61
6e
79
61
43
68
61
79
2c
20
52
6f
63
6b
79
4f
6c
6b
2c
20
4c
65
52
6f
63
63
68
69
2c
20
4e
69
63
6f
6c
65
53
77
61
74
73
77
6f
72
74
68
2c
20
56
61
6e
6e
65
73
73
61
42
61
72
62
65
74
74
61
2c
20
54
72
75
6c
61
48
61
72
61
6c
73
6f
6e
2c
20
43
61
70
72
69
63
65
53
61
72
61
69
76
61
2c
20
42
65
61
75
6c
61
68
4f
73
6d
75
6e
64
73
6f
6e
2c
20
4a
6f
65
74
74
61
4c
65
65
74
2c
20
44
6f
6d
6f
6e
69
71
75
65
5a
61
6c
64
69
76
61
72
2c
20
44
65
62
62
69
65
53
63
68
6f
70
6d
65
79
65
72
2c
20
41
72
6e
75
6c
66
6f
47
61
6d
61
67
65
2c
20
4c
69
73
73
61
42
61
72
65
73
69
2c
20
47
69
6c
64
61
53
63
68
72
61
6e
7a
2c
20
41
6e
61
62
65
6c
43
68
65
72
75
62
69
6e
6f
2c
20
44
61
6e
79
65
6c
53
63
68
69
66
66
6d
61
6e
2c
20
4c
6f
72
72
69
6e
65
47
61
6c
76
61
6e
69
2c
20
54
79
72
61
4d
65
64
69
2c
20
42
69
62
69
53
63
68
6c
69
63
6b
2c
20
4d
69
74
63
68
65
6c
6c
4d
63
63
61
75
6c
6c
65
79
2c
20
54
79
46
72
6f
6e
65
6b
2c
20
4d
69
74
73
75
65
50
6f
6b
6f
72
61
2c
20
44
6f
72
6c
61
4d
65
72
63
79
2c
20
52
6f
73
61
6d
61
72
69
61
50
6c
65
73
6e
61
72
73
6b
69
2c
20
45
6c
6c
61
53
61
79
65
72
2c
20
44
65
6c
63
69
65
50
61
72
61
74
2c
20
45
6c
65
61
6e
6f
72
61
53
75
6e
64
65
72
6d
65
79
65
72
2c
20
47
72
61
69
67
4c
75
6b
61
73
69
6b
2c
20
44
61
72
65
6e
5a
6e
69
64
61
72
73
69
63
2c
20
52
65
6e
65
65
4e
69
63
6f
64
65
6d
75
73
2c
20
4b
69
65
73
68
61
45
67
67
65
2c
20
4c
61
77
72
65
6e
63
65
4d
61
6e
6a
61
72
72
65
7a
2c
20
4c
61
64
79
4e
6f
61
63
6b
2c
20
4f
6c
6c
69
65
57
69
62
62
65
6e
73
2c
20
54
61
69
4d
61
67
64
61
6c
65
6e
6f
2c
20
57
69
6c
6c
69
73
56
61
6e
72
75
6c
65
72
2c
20
43
61
72
69
73
73
61
54
72
75
73
73
2c
20
4f
6c
79
6d
70
69
61
4d
6f
6e
74
69
65
2c
20
41
6e
64
72
65
61
52
75
62
65
72
74
2c
20
52
65
6e
61
65
47
68
61
6d
64
69
2c
20
44
61
72
6c
61
4d
6f
74
74
73
2c
20
4a
61
69
6d
65
52
75
64
69
67
2c
20
43
6c
61
72
69
73
73
61
41
6e
67
61
6c
69
63
68
2c
20
54
61
6d
61
54
72
69
74
74
2c
20
4b
61
72
69
6e
61
4d
65
73
65
72
76
65
2c
20
4c
75
69
73
50
61
72
73
65
6c
6c
73
2c
20
45
72
69
63
46
72
61
74
74
61
2c
20
42
65
73
73
53
65
69
73
6c
65
72
2c
20
4d
6f
6e
69
6b
61
59
6f
63
6f
6d
2c
20
4d
61
6a
6f
72
69
65
54
72
65
61
6d
65
72
2c
20
52
75
73
73
65
6c
6c
4d
75
67
67
6c
65
79
2c
20
45
6c
65
61
73
65
4e
65
65
6d
61
6e
6e
2c
20
45
6d
69
6c
69
6f
5a
69
64
65
2c
20
4a
6f
68
6e
52
75
62
65
72
74
2c
20
45
72
69
6e
4c
65
61
76
69
67
6e
65
2c
20
46
61
72
72
61
68
48
61
72
63
75
73
2c
20
43
61
72
65
79
44
69
7a
61
64
61
72
65
2c
20
50
72
6f
76
69
64
65
6e
63
69
61
44
65
64
6d
6f
6e
2c
20
43
61
72
72
6f
6c
43
6f
63
6f
7a
7a
61
2c
20
4a
65
72
6c
65
6e
65
53
65
74
74
6c
65
73
2c
20
56
61
6c
6f
72
69
65
57
61
6e
6b
2c
20
4c
69
6c
6c
69
50
61
63
6f
2c
20
41
6e
74
6f
6e
65
74
74
61
4d
69
7a
65
72
2c
20
4c
6f
72
65
74
61
44
6f
67
61
6e
2c
20
54
6f
6d
69
42
61
73
74
75
72
61
2c
20
44
65
6e
69
63
65
42
6c
61
6e
64
6f
6e
2c
20
43
61
6c
61
6e
64
72
61
4b
61
6e
7a
6c
65
72
2c
20
53
69
64
43
68
72
69
73
74
6f
70
68
65
2c
20
48
6f
6e
67
52
6f
75
74
6f
6e
2c
20
53
65
62
61
73
74
69
61
6e
50
6f
6c
76
69
6e
6f
2c
20
42
72
61
6e
64
6f
6e
50
6f
74
74
2c
20
4a
61
72
65
64
4e
65
75
6d
61
6e
2c
20
4b
61
72
69
6e
65
4d
63
63
75
6c
6c
61
72
2c
20
46
72
61
6e
63
65
6e
65
56
61
71
75
65
72
6f
2c
20
4c
69
6e
73
65
79
52
6f
73
6d
61
72
69
6e
2c
20
4b
61
72
72
65
6e
47
61
72
64
6c
65
79
2c
20
4a
65
6e
61
42
65
6e
77
61
72
64
2c
20
45
6c
6f
69
73
61
56
61
6e
68
6f
6f
7a
65
72
2c
20
43
61
72
6d
65
6c
69
74
61
50
65
73
6e
65
6c
6c
2c
20
4a
65
73
75
73
46
72
65
69
72
65
2c
20
4c
61
74
6f
73
68
61
50
61
75
6b
65
72
74
2c
20
53
68
69
72
6c
65
65
6e
5a
68
65
6e
67
2c
20
47
65
6e
65
52
6f
6c
6c
65
2c
20
52
6f
73
61
6c
62
61
44
65
6c
67
72
61
6e
64
65
2c
20
4e
65
73
74
6f
72
53
68
61
72
70
6e
61
63
6b
2c
20
4f
74
74
6f
57
69
6c
6c
69
66
6f
72
64
2c
20
52
6f
78
61
6e
65
53
61
6e
64
73
74
72
6f
6d
2c
20
4c
75
63
72
65
63
69
61
50
6c
79
65
72
2c
20
56
65
72
64
69
65
50
65
64
72
6f
7a
61
2c
20
43
61
72
6c
65
65
6e
4a
75
65
6c
66
73
2c
20
4c
65
61
74
72
69
63
65
42
6f
76
65
65
2c
20
54
75
41
70
6b
65
72
2c
20
4c
65
6f
6d
61
47
72
6f
6e
71
75
69
73
74
2c
20
44
6f
6c
6f
72
69
73
42
75
72
72
65
73
6f
6e
2c
20
44
6f
6e
67
46
72
69
64
61
6c
2c
20
4c
61
75
72
65
65
6e
43
72
6f
63
65
2c
20
45
6c
65
6f
6e
6f
72
4b
72
61
61
63
6b
2c
20
4d
69
67
6e
6f
6e
53
63
68
77
69
63
68
74
65
6e
62
65
72
2c
20
50
72
65
73
74
6f
6e
43
65
73
70
65
64
65
73
2c
20
4e
6f
6d
61
4d
65
68
6c
65
72
2c
20
4c
61
64
61
77
6e
50
69
67
6f
74
74
2c
20
4a
65
72
69
63
61
4d
61
64
67
65
2c
20
4b
79
6f
6e
67
54
69
70
70
69
6e
67
2c
20
4d
69
63
68
61
6c
65
53
68
65
72
6c
65
79
2c
20
4c
61
76
69
6e
61
46
61
63
65
72
2c
20
52
75
62
65
6e
4b
61
6e
6a
69
72
61
74
68
69
6e
67
61
2c
20
4e
69
67
65
6c
50
75
73
68
2c
20
47
6c
65
6e
6e
69
73
4e
65
73
73
65
6c
2c
20
45
64
67
61
72
64
6f
48
61
6e
7a
2c
20
47
72
61
68
61
6d
47
69
6c
6c
69
6e
67
73
2c
20
4d
61
72
67
75
72
69
74
65
53
6f
6f
68
6f
6f
2c
20
43
68
65
72
65
53
65
6e
73
65
6e
62
72
65
6e
6e
65
72
2c
20
43
68
72
69
73
74
6f
70
68
65
72
42
61
6c
7a
61
72
69
6e
65
2c
20
4a
61
72
72
6f
64
50
65
74
65
65
74
2c
20
56
65
72
6e
65
74
74
61
50
61
75
6c
6f
2c
20
4c
61
6c
61
48
75
64
6c
65
79
2c
20
4d
61
64
64
69
65
53
68
6f
77
64
65
6e
2c
20
54
61
62
61
74
68
61
52
61
69
6e
76
69
6c
6c
65
2c
20
43
68
61
72
6c
61
46
61
6c
6c
73
2c
20
4c
61
72
6f
6e
64
61
57
69
6e
62
65
72
67
2c
20
59
61
73
75
6b
6f
42
72
65
6e
67
6c
65
2c
20
4f
6c
79
6d
70
69
61
5a
65
61
6e
61
68
2c
20
53
68
61
73
74
61
44
75
6e
6e
2c
20
57
69
6e
69
66
72
65
64
48
65
79
6d
61
6e
2c
20
52
6f
62
65
72
74
6f
43
68
69
76
65
72
74
6f
6e
2c
20
44
65
6e
69
74
61
50
75
69
74
61
2c
20
4a
65
6e
65
6c
6c
65
49
76
65
73
74
65
72
2c
20
4d
65
72
72
69
6c
6c
54
61
63
6b
65
74
74
2c
20
44
61
72
79
6c
4d
65
6e
64
65
6e
2c
20
44
6f
6e
61
6c
64
4b
6c
65
6d
65
6e
74
2c
20
47
72
65
67
6f
72
69
6f
46
6f
78
6d
61
6e
2c
20
42
65
74
74
79
4c
65
64
6f
6e
6e
65
2c
20
43
61
72
6c
79
6e
53
63
68
77
69
6e
6e
2c
20
4c
69
6c
6c
61
4b
61
6c
6c
68
6f
66
66
2c
20
43
61
72
74
65
72
48
75
68
6e
2c
20
53
79
6c
76
69
61
48
6f
66
6d
61
6e
73
2c
20
44
65
6d
65
74
72
69
75
73
4f
70
65
6c
6c
2c
20
46
61
69
72
79
52
61
6d
73
69
65
72
2c
20
4c
6f
75
65
6c
6c
61
46
6c
6f
72
65
6e
2c
20
4e
69
63
68
6f
6c
61
73
53
6c
61
76
69
63
6b
2c
20
4c
65
73
6c
65
65
52
6f
68
72
69
67
2c
20
4d
69
6b
6b
69
43
61
72
62
61
63
6b
2c
20
54
61
4f
73
6f
6c
2c
20
4a
6f
61
6e
6e
65
47
72
75
64
65
6d
2c
20
54
79
72
6f
6e
65
41
64
64
69
65
2c
20
44
65
69
64
72
61
50
65
74
72
6f
63
63
6f
2c
20
48
6f
6d
65
72
54
79
70
68
61
69
72
2c
20
42
72
61
6e
64
6f
6e
46
6f
72
62
75
73
68
2c
20
4c
69
6c
6c
69
61
6e
61
53
74
6f
74
73
6b
79
2c
20
54
69
74
75
73
47
72
61
64
69
6c
6c
61
73
2c
20
50
68
79
6c
69
73
73
47
61
73
63
6f
6e
2c
20
4d
61
72
61
67
72
65
74
44
65
6d
61
72
69
6f
2c
20
44
69
78
69
65
52
6f
75
69
73
73
65
2c
20
4a
61
69
6d
65
48
61
6e
6f
2c
20
48
65
72
74
61
42
65
72
74
6f
76
69
63
68
2c
20
41
6e
64
72
65
77
42
69
6c
62
65
72
72
79
2c
20
45
70
69
66
61
6e
69
61
4c
61
67
61
6e
61
2c
20
4d
61
72
67
75
65
72
69
74
61
44
61
72
74
2c
20
53
61
72
61
68
48
65
6e
64
72
69
63
6b
2c
20
4a
65
61
6e
57
65
67
6c
61
67
65
2c
20
4b
65
69
73
68
61
42
65
6c
6f
66
66
2c
20
53
74
65
70
68
65
6e
4d
61
69
6c
6d
61
6e
2c
20
46
72
61
6e
6b
41
68
72
65
6e
73
74
6f
72
66
66
2c
20
45
76
65
6c
69
61
4d
61
67
6f
2c
20
4d
69
67
6e
6f
6e
47
6f
6c
64
62
61
75
6d
2c
20
4d
69
6e
6e
69
65
43
61
72
65
77
2c
20
43
68
72
69
73
74
69
61
51
75
69
6e
74
61
6e
61
2c
20
50
61
72
74
68
65
6e
69
61
43
72
61
76
65
79
2c
20
57
69
6c
6d
61
48
65
6d
72
79
2c
20
4b
61
74
72
69
63
65
46
65
69
6d
73
74
65
72
2c
20
44
65
6d
65
74
72
69
63
65
43
6f
67
6c
69
61
6e
6f
2c
20
50
61
6d
75
6c
61
4e
65
73
6c
61
6e
64
2c
20
50
61
75
6c
61
4e
6f
73
69
73
2c
20
4e
69
63
6f
6c
6c
65
43
61
73
74
69
6f
6c
61
2c
20
56
65
6e
61
42
72
7a
65
7a
69
63
6b
69
2c
20
4b
79
6c
61
57
69
6b
65
72
74
2c
20
4b
61
72
6d
65
6e
45
67
69
7a
69
2c
20
4c
6f
72
72
69
4e
65
79
68
61
72
74
2c
20
44
61
6e
69
63
61
4e
61
62
2c
20
53
61
6e
74
6f
4d
6f
6e
74
61
6c
67
6f
2c
20
4c
61
75
72
65
6e
63
65
43
61
73
74
65
6c
6c
61
6e
6f
73
2c
20
47
61
72
74
68
4b
75
6e
61
75
2c
20
58
61
76
69
65
72
4b
61
72
61
6d
2c
20
4d
61
72
67
6f
53
68
61
79
2c
20
52
6f
6e
6e
69
65
4b
6c
61
61
6d
65
79
65
72
2c
20
46
72
65
64
65
72
69
63
6b
61
42
6f
75
77
6b
61
6d
70
2c
20
4b
69
61
6e
61
43
69
61
6e
66
72
69
6e
69
2c
20
41
72
63
68
69
65
47
69
6c
67
61
6e
2c
20
54
6f
6d
6d
69
65
52
69
65
73
6b
65
2c
20
41
6c
65
65
6e
54
6f
70
61
6c
2c
20
4d
61
72
63
6f
48
65
72
6c
69
6e
65
2c
20
4a
61
6e
69
65
63
65
44
61
76
65
2c
20
52
6f
73
63
6f
65
4d
63
64
6f
6e
6e
65
6c
6c
2c
20
52
61
70
68
61
65
6c
48
65
61
64
69
6e
67
74
6f
6e
2c
20
45
6d
65
6c
79
45
69
64
65
6d
69
6c
6c
65
72
2c
20
54
77
61
6e
61
48
69
6c
63
68
65
79
2c
20
4b
61
74
68
61
72
69
6e
61
53
70
61
74
65
73
2c
20
52
65
75
62
65
6e
47
72
61
6e
65
79
2c
20
4b
61
72
79
6c
4b
6f
6f
69
73
74
72
61
2c
20
4c
65
6e
6f
72
61
4d
69
72
61
72
63
68
69
2c
20
4d
61
72
76
69
6e
48
61
6c
6c
69
63
6b
2c
20
4d
6f
6e
69
71
75
65
50
69
63
6f
74
2c
20
45
61
72
6e
65
73
74
69
6e
65
41
6c
6d
61
73
2c
20
43
75
72
74
69
73
50
69
74
74
61
2c
20
54
61
74
79
61
6e
61
54
65
6e
65
72
79
2c
20
57
65
73
6c
65
79
52
69
63
6b
65
72
6c
2c
20
52
65
6e
69
74
61
4c
61
6e
61
67
61
6e
2c
20
4c
61
64
6f
6e
6e
61
44
65
73
61
6e
74
69
2c
20
45
76
6f
6e
43
72
6f
77
73
6f
6e
2c
20
43
6f
72
61
6c
69
65
4d
63
62
65
61
6e
2c
20
59
61
73
75
6b
6f
56
69
6c
6c
65
64
61
2c
20
43
68
61
72
6c
65
73
43
68
61
73
73
2c
20
59
6f
6c
61
6e
64
6f
48
61
67
67
61
72
2c
20
4a
61
73
6f
6e
4c
69
6c
6a
61
2c
20
41
73
74
72
69
64
45
6c
73
62
72
65
65
2c
20
4d
69
6e
68
44
61
6a
61
6e
69
2c
20
4d
61
6e
75
65
6c
61
48
65
76
65
73
73
79
2c
20
47
69
6e
61
4d
61
68
6f
6e
79
2c
20
4a
61
6e
43
69
74
72
61
6e
6f
2c
20
41
72
6e
69
74
61
4a
61
6b
75
62
69
6b
2c
20
45
6c
77
6f
6f
64
4d
69
7a
65
6e
6b
6f
2c
20
53
74
65
77
61
72
74
4d
6f
72
69
6e
76
69
6c
6c
65
2c
20
4b
61
79
6c
65
65
6e
4d
61
6e
77
61
72
72
65
6e
2c
20
44
65
62
62
69
50
61
73
65
75
72
2c
20
4c
65
74
69
74
69
61
52
61
68
6d
61
6e
2c
20
55
6c
72
69
6b
65
44
69
61
73
2c
20
42
6f
6e
67
53
70
72
6f
77
6c
2c
20
41
73
61
42
6f
61
68
6e
2c
20
44
61
72
63
65
6c
53
63
68
75
62
61
63
68
2c
20
46
72
61
6e
44
69
63
6b
65
2c
20
52
6f
73
65
54
72
75
66
69
6e
2c
20
41
6d
65
72
69
63
61
45
73
63
68
65
6e
62
75
72
67
2c
20
43
61
72
6d
6f
6e
46
6c
6f
72
65
6b
2c
20
44
61
6c
65
42
6c
6f
63
6b
6c
69
6e
67
65
72
2c
20
41
62
65
42
61
63
63
68
69
2c
20
4a
69
6e
54
75
72
6b
65
6c
2c
20
4a
61
72
72
65
64
48
65
64
69
67
65
72
2c
20
4c
61
73
61
6e
64
72
61
43
75
74
72
6f
6e
61
2c
20
43
6f
79
57
69
6e
67
68
61
6d
2c
20
4a
61
6d
65
65
42
72
61
75
6e
65
72
2c
20
41
62
72
61
6d
42
69
72
65
6e
62
61
75
6d
2c
20
4c
61
6e
65
42
69
72
64
73
65
6c
6c
2c
20
52
75
62
69
6e
46
6f
75
6c
6b
65
2c
20
41
70
72
69
6c
49
6e
6e
6f
63
65
6e
74
2c
20
43
68
65
72
6c
79
4d
6f
74
74
6f
2c
20
4a
65
77
65
6c
6c
44
65
62
72
6f
74
2c
20
4c
65
6e
69
74
61
45
6e
63
61
6c
61
64
65
2c
20
45
72
6e
69
65
42
75
73
74
6f
2c
20
42
6c
61
69
6e
65
4c
75
65
68
72
69
6e
67
2c
20
56
69
42
61
72
61
6b
61
74
2c
20
56
65
72
65
6e
61
48
6f
6d
6d
65
6c
6c
2c
20
45
6c
72
6f
79
42
6c
69
6e
64
2c
20
4b
65
72
6d
69
74
53
74
65
65
64
2c
20
43
61
72
65
79
4d
63
63
61
72
72
61
68
65
72
2c
20
46
61
6e
6e
79
42
72
61
6e
61
67
61
6e
2c
20
44
69
6f
6e
65
43
65
72
72
69
6c
6c
6f
2c
20
48
65
69
64
65
56
61
73
74
61
6e
6f
2c
20
52
6f
62
62
79
42
61
72
75
66
66
61
2c
20
47
65
72
6d
61
69
6e
65
44
69
70
69
65
72
6f
2c
20
52
6f
79
57
65
79
6b
65
72
2c
20
4d
61
72
74
69
6e
65
44
61
72
63
61
6e
67
65
6c
6f
2c
20
44
65
6c
69
6c
61
68
53
69
6b
61
72
73
6b
69
65
2c
20
4d
61
67
65
6e
4d
61
6c
65
74
7a
2c
20
49
73
61
53
65
75
72
65
72
2c
20
53
61
6e
64
61
4b
68
61
6c
65
65
6c
2c
20
52
6f
73
61
6d
6f
6e
64
4c
79
6d
61
73
74
65
72
2c
20
4d
61
72
69
6e
61
4e
6f
67
61
6c
65
73
2c
20
4b
65
6e
64
61
6c
6c
48
69
6c
64
61
68
6c
2c
20
4a
61
6e
6e
65
74
48
69
62
64
6f
6e
2c
20
56
65
72
6e
65
74
74
61
48
75
69
73
68
2c
20
43
69
6e
64
69
42
61
62
62
73
2c
20
4a
6f
6e
65
6c
6c
4b
72
65
69
6e
68
61
67
65
6e
2c
20
42
72
69
74
74
6e
69
43
61
70
70
65
6c
6c
75
74
69
2c
20
4d
69
6b
65
6c
54
79
62
75
72
73
6b
69
2c
20
54
61
69
73
68
61
43
6f
6e
73
69
67
6c
69
2c
20
57
69
6e
64
79
42
69
61
67
69
2c
20
4d
69
6c
74
6f
6e
4f
72
73
6f
6e
2c
20
45
6c
69
73
65
6f
4e
65
77
6d
65
79
65
72
2c
20
4c
69
73
61
62
65
74
68
4b
6c
65
62
65
2c
20
42
65
6e
69
74
6f
47
72
61
6e
74
68
61
6e
2c
20
54
61
6e
65
73
68
61
48
65
6c
66
67
6f
74
74
2c
20
4e
6f
76
65
6c
6c
61
4d
63
6c
61
6e
61
68
61
6e
2c
20
43
68
61
6e
67
47
79
75
72
6b
6f
2c
20
4d
61
52
69
6e
6b
65
6c
2c
20
41
6e
74
69
6f
6e
65
53
6e
75
66
66
65
72
2c
20
48
65
73
74
65
72
42
72
61
75
6e
73
64
6f
72
66
2c
20
53
63
6f
74
4c
65
61
74
68
65
72
73
2c
20
4c
65
74
68
61
4b
61
74
63
68
65
72
2c
20
56
69
6f
6c
65
74
50
65
72
65
67
6f
2c
20
53
74
65
76
65
4d
63
63
61
73
6b
69
6e
2c
20
44
65
62
62
79
4e
61
6c
62
61
6e
64
69
61
6e
2c
20
42
61
72
62
72
61
42
61
6c
6f
77
73
6b
69
2c
20
48
65
6c
65
6e
4b
69
6d
6d
65
74
2c
20
4d
61
72
64
65
6c
6c
4b
72
61
6d
70
65
72
2c
20
4a
65
72
61
6d
79
41
72
72
65
79
2c
20
46
72
65
69
64
61
50
72
61
7a
61
6b
2c
20
4c
69
6e
77
6f
6f
64
4b
68
6f
75
2c
20
41
6e
6e
61
6d
61
72
69
61
50
72
75
64
6f
6d
2c
20
4e
65
72
65
69
64
61
45
62
65
72
73
6f
6c
2c
20
53
61
72
61
68
48
65
72
6e
61
6e
64
61
7a
2c
20
48
61
6c
65
79
47
6f
74
74
64
65
6e
67
65
72
2c
20
42
75
6e
6e
79
52
61
73
6b
65
2c
20
41
6c
61
69
6e
61
41
6d
61
6e
6e
2c
20
50
61
75
6c
4d
69
6e
67
65
2c
20
4d
61
72
69
65
74
74
65
48
6f
6c
6c
6d
61
6e
6e
2c
20
57
65
73
6c
65
79
59
6f
6e
74
73
2c
20
4d
61
72
79
61
6e
6e
65
48
65
61
72
6f
6e
2c
20
43
61
72
65
6e
46
6a
65
74
6c
61
6e
64
2c
20
44
6f
6e
61
6c
64
42
61
6e
65
72
6a
65
65
2c
20
45
75
6e
69
63
65
50
61
6a
74
61
73
2c
20
4d
65
67
68
61
6e
48
75
72
65
74
2c
20
4a
61
6e
65
6c
43
75
72
74
73
2c
20
42
65
76
65
72
6c
65
65
59
75
6e
67
62
6c
75
74
68
2c
20
4a
61
63
6b
65
6c
79
6e
44
69
70
61
6e
66
69
6c
6f
2c
20
44
61
6e
61
4e
6f
63
6b
65
6c
73
2c
20
54
6f
62
69
65
44
61
72
76
69
73
68
2c
20
53
6f
6e
6e
79
43
6f
6b
65
72
2c
20
45
6c
6f
64
69
61
47
6f
64
61
2c
20
4e
69
63
68
6f
6c
61
73
48
69
6e
63
68
65
79
2c
20
4d
61
72
6e
61
42
75
74
74
72
61
6d
2c
20
4d
6f
6e
74
65
50
72
6f
65
73
63
68
65
72
2c
20
52
6f
73
65
43
6f
6c
65
67
72
6f
76
65
2c
20
41
69
6c
65
65
6e
4d
61
73
69
6e
63
75
70
2c
20
41
6e
74
6f
6e
65
74
74
61
52
69
6e
64
65
72
6c
65
2c
20
46
6f
73
74
65
72
50
61
62
65
6c
69
63
6b
2c
20
4b
69
7a
7a
79
52
61
6d
6c
65
72
2c
20
4b
69
6d
62
65
72
42
75
72
74
73
63
68
69
2c
20
4d
69
73
73
4e
6f
76
69
6b
2c
20
43
61
72
72
6f
6c
42
61
64
61
6d
69
2c
20
4b
61
6e
64
69
63
65
53
65
6d
62
65
72
2c
20
49
6f
6e
65
50
6c
75
6d
62
65
72
2c
20
57
61
6e
69
74
61
4d
69
6e
2c
20
4e
69
63
6f
6c
65
4b
6f
72
6e
65
67
61
79
2c
20
53
68
61
6e
74
65
48
61
72
6e
64
65
6e
2c
20
52
61
79
43
6f
62
65
72
6c
65
79
2c
20
42
69
6c
6c
79
56
61
73
74
61
72
64
69
73
2c
20
4c
69
42
72
65
63
6b
65
6e
73
74
65
69
6e
2c
20
47
72
65
67
6f
72
79
50
6f
6c
65
6b
2c
20
49
64
65
6c
6c
61
42
72
65
7a
6e
61
79
2c
20
54
68
65
72
65
73
69
61
50
61
73
65
2c
20
44
65
61
6e
6e
65
4c
61
66
6f
75
6e
74
61
69
6e
2c
20
4a
61
6e
79
63
65
4a
69
61
75
2c
20
4a
65
73
75
73
53
6f
6c
69
64
2c
20
4a
6f
6e
4b
6f
70
65
72
73
6b
69
2c
20
52
65
62
62
65
63
61
42
75
72
72
69
65
73
63
69
2c
20
53
74
65
66
61
6e
69
65
4c
75
79
2c
20
4c
69
64
61
42
72
65
65
6e
2c
20
4a
75
6e
69
65
4d
65
61
6c
6f
72
2c
20
43
68
72
69
73
74
65
65
6e
56
69
6e
63
6b
2c
20
52
6f
73
61
6c
69
6e
64
53
65
6e
66
66
2c
20
4c
69
6c
69
61
52
75
69
76
6f
2c
20
4d
65
6c
6f
6e
79
42
61
2c
20
4b
6f
72
65
79
53
74
6f
65
73
73
65
72
2c
20
44
61
6e
65
74
74
65
53
74
69
6c
6c
65
79
2c
20
49
73
6f
62
65
6c
46
69
65
63
68
74
65
72
2c
20
44
65
6f
6e
56
61
6c
6c
61
6e
63
65
2c
20
4c
75
63
69
65
43
6f
6d
6d
65
73
2c
20
4a
65
61
6e
65
74
74
61
4d
61
72
74
69
6e
6f
76
2c
20
56
61
6e
65
73
61
56
65
72
6d
69
6c
79
65
61
2c
20
4f
6c
61
44
72
61
67
6e
61
2c
20
44
65
73
69
72
65
65
4e
69
70
2c
20
53
75
6e
67
46
65
64
6f
72
63
68
61
6b
2c
20
52
6f
6e
41
72
6e
73
70
69
67
65
72
2c
20
47
69
64
67
65
74
44
61
6e
67
6c
65
72
2c
20
53
69
64
6e
65
79
4c
61
67
75
65
72
72
65
2c
20
41
6e
64
72
65
77
53
74
65
66
61
6e
69
63
68
2c
20
54
6f
72
69
65
4d
65
74
69
65
72
2c
20
46
72
65
65
64
61
53
65
69
6c
73
2c
20
4f
72
65
74
68
61
4d
61
72
74
65
6e
65
79
2c
20
41
6c
65
78
61
6e
64
65
72
42
61
72
74
6f
6c
6f
6d
75
63
63
69
2c
20
4c
69
6e
67
56
6f
69
74
2c
20
44
65
6c
6c
47
65
6e
64
6c
65
72
2c
20
4d
61
72
6e
69
4e
61
74
61
6c
2c
20
57
61
6c
74
72
61
75
64
44
65
76
6c
69
6e
2c
20
57
61
6c
6b
65
72
4d
65
68
61
72
72
79
2c
20
46
72
61
6e
63
6f
69
73
65
53
74
72
61
73
73
65
6c
2c
20
4e
61
6f
6d
61
4d
72
61
77
2c
20
50
61
7a
4b
72
65
69
64
6c
65
72
2c
20
4c
69
61
6e
61
4d
61
6c
6c
61
6b
2c
20
53
6f
70
68
69
61
44
65
67
65
79
74
65
72
2c
20
52
65
62
61
4b
69
6e
73
6b
79
2c
20
52
65
67
65
6e
61
4d
69
6c
6c
6f
77
61
79
2c
20
41
75
73
74
69
6e
53
77
6f
72
64
2c
20
41
6e
64
72
65
4b
65
69
62
2c
20
59
61
73
6d
69
6e
65
50
61
72
6d
65
6c
79
2c
20
41
72
6c
65
61
6e
59
61
6e
6b
65
65
2c
20
52
61
6e
64
79
4a
6f
68
6e
73
74
6f
6e
62
61
75
67
68
2c
20
4a
61
6e
61
65
53
63
61
72
66
6f
6e
65
2c
20
43
79
72
73
74
61
6c
41
7a
75
72
65
2c
20
53
65
6c
69
6e
61
59
61
6e
74
69
73
2c
20
43
6f
72
65
74
74
61
42
61
63
61
2c
20
4c
69
6e
64
73
65
79
52
6f
6e
65
73
2c
20
54
69
6d
6f
74
68
79
44
6f
6e
68
6f
65
2c
20
52
69
6c
65
79
54
68
61
6e
61
73
6f
75
6b
2c
20
41
62
65
6c
52
6f
6d
61
6e
6f
2c
20
44
6f
6e
6e
79
48
6f
6c
6c
69
6e
67
77
6f
72
74
68
2c
20
59
61
6e
67
42
61
78
2c
20
54
72
69
73
74
61
6e
52
65
68
61
72
74
2c
20
4a
75
6c
69
61
6e
59
61
66
65
69
2c
20
59
65
65
47
72
69
62
62
6c
65
2c
20
4a
75
73
74
69
6e
4b
61
6c
65
72
74
2c
20
42
65
63
6b
69
65
4b
6e
6f
72
70
2c
20
48
61
79
6c
65
79
44
75
74
65
6c
2c
20
53
61
6d
61
6e
74
68
61
4f
63
6f
6e
6e
65
6c
6c
2c
20
48
79
6f
6e
43
7a
61
70
73
6b
69
2c
20
43
61
72
6c
6f
73
4d
65
72
72
79
6d
61
6e
2c
20
45
74
68
61
43
7a
61
63
68
6f
72
2c
20
53
68
61
77
6e
61
56
6f
6e
64
65
72
6b
65
6c
6c
2c
20
4c
79
6d
61
6e
48
61
6d
6d
6f
63
6b
2c
20
43
61
74
69
6e
61
4b
69
62
65
6c
2c
20
4a
65
72
72
69
53
6f
77
65
6c
73
2c
20
47
69
73
65
6c
61
4c
65
76
65
6e
64
6f
73
6b
79
2c
20
43
79
72
69
6c
46
6c
75
65
74
2c
20
54
61
6e
69
61
50
72
65
65
72
2c
20
56
65
72
6e
65
74
74
61
4d
75
6e
64
7a
2c
20
4c
69
6c
69
61
6e
61
4e
65
79
65
72
2c
20
45
6d
6d
61
6c
69
6e
65
54
72
61
62
65
72
2c
20
4a
6f
65
74
74
61
43
6f
73
61
6e
6f
2c
20
43
61
72
6c
74
6f
6e
44
6f
6c
6c
65
79
2c
20
4c
61
6e
65
54
6f
6c
6c
6d
61
6e
2c
20
53
75
73
61
6e
6e
65
44
61
73
65
6e
2c
20
48
77
61
4d
61
72
63
69
61
2c
20
44
65
6c
6f
72
61
53
61
63
68
61
72
2c
20
4a
61
6e
65
6c
52
65
79
6e
76
61
61
6e
2c
20
4d
65
6c
76
61
50
72
69
74
7a
65
6c
2c
20
57
69
6c
6c
65
6e
65
52
6f
7a
65
62
6f
6f
6d
2c
20
47
72
69
63
65
6c
64
61
53
74
65
72
62
61
2c
20
54
68
6f
6d
61
73
44
6f
6e
6e
61
6c
6c
79
2c
20
4d
61
72
79
6a
61
6e
65
53
61
6d
61
6e
6c
65
67
6f
2c
20
4a
61
6e
75
61
72
79
43
6f
72
74
69
6e
65
7a
2c
20
4a
61
6d
69
65
54
72
61
6e
65
72
2c
20
53
68
61
6e
61
65
50
6f
61
74
2c
20
4c
65
65
73
61
4a
61
73
73
2c
20
54
6f
72
72
69
4d
65
6c
6c
69
73
2c
20
44
61
70
68
69
6e
65
42
61
75
63
6f
6d
2c
20
4c
61
64
6f
6e
6e
61
4c
65
75
73
69
6e
6b
2c
20
47
6c
61
64
69
73
57
61
6e
6b
6f
2c
20
53
74
61
6e
74
6f
6e
4b
69
6e
67
68
6f
72
6e
2c
20
43
6c
61
72
69
73
53
6c
69
67
68
74
61
6d
2c
20
4e
75
6d
62
65
72
73
42
61
72
6e
68
61
72
64
74
2c
20
43
65
63
69
6c
56
6c
65
6d
69
6e
67
2c
20
41
6e
61
45
6e
67
6c
65
62
65
72
74
2c
20
47
6c
79
6e
69
73
4a
6f
6e
67
65
6c
69
6e
67
2c
20
42
72
65
6e
64
61
6e
4d
65
72
73
63
68
2c
20
4d
61
72
63
65
6c
69
6e
65
50
6f
73
74
6c
65
73
2c
20
48
75
69
4d
63
67
6f
65
79
2c
20
4a
61
6d
65
65
43
72
69
70
70
69
6e
2c
20
4a
61
6e
6e
65
74
74
65
57
6f
6e
2c
20
41
64
61
6c
62
65
72
74
6f
4c
75
6c
65
77
69
63
7a
2c
20
42
72
61
64
6c
79
50
61
62
69
63
68
2c
20
41
6c
6c
79
73
6f
6e
50
65
73
74
61
2c
20
53
68
61
72
6c
65
6e
65
42
65
72
74
72
61
6d
2c
20
4d
65
72
76
69
6e
4d
6f
65
73
63
68
2c
20
43
61
73
73
65
79
4b
6f
73
74
65
6c
65
63
6b
79
2c
20
41
73
68
6c
65
79
41
6e
73
65
6c
6c
2c
20
4f
6c
69
6d
70
69
61
43
68
65
65
76
65
73
2c
20
41
6e
61
73
74
61
63
69
61
43
6f
6e
6e
65
6c
6c
2c
20
58
69
6f
6d
61
72
61
42
65
6c
6c
6d
6f
72
65
2c
20
56
65
72
6e
6f
6e
4b
75
74
69
6c
2c
20
52
6f
73
61
6d
61
72
69
61
42
61
72
72
61
6e
63
6f
2c
20
4a
61
75
6e
69
74
61
48
65
77
73
2c
20
52
68
6f
6e
61
53
63
68
6f
6e
74
7a
2c
20
43
69
72
61
45
67
67
61
72
74
2c
20
42
75
6e
6e
79
4d
61
72
71
75
69
73
2c
20
53
61
6d
61
6e
74
68
61
4e
6f
72
65
6e
2c
20
49
6b
65
48
69
6c
6c
65
72
2c
20
50
68
69
6c
54
61
72
6e
6f
66
66
2c
20
4c
65
61
6e
64
72
61
48
61
6d
6d
65
64
2c
20
47
65
6e
65
4f
73
74
65
72
2c
20
4f
72
61
6c
65
65
4d
61
68
61
6e
6e
61
2c
20
54
65
6e
69
73
68
61
46
65
72
69
73
2c
20
56
65
72
6e
4f
75
72
61
64
61
2c
20
56
61
6e
65
73
73
61
46
72
6f
68
77
65
69
6e
2c
20
45
6c
65
61
73
65
52
65
63
6b
6e
65
72
2c
20
44
65
6c
69
73
61
53
65
76
65
72
69
6e
2c
20
4b
72
69
73
74
61
6c
42
61
74
72
69
63
68
2c
20
43
61
72
79
6c
6f
6e
52
61
67
61
6e
2c
20
41
6c
6f
6e
73
6f
52
69
64
65
6e
2c
20
42
72
69
74
74
61
6e
79
4f
6c
65
73
6b
69
65
77
69
63
7a
2c
20
43
61
73
73
79
47
6c
61
64
6e
65
79
2c
20
4a
69
4a
75
73
74
6d
61
6e
2c
20
52
6f
73
65
6c
6c
65
42
6f
72
74
69
67
6e
6f
6e
2c
20
4a
6f
79
65
44
65
6d
61
74
74
65
6f
2c
20
4a
6f
65
79
49
73
61
67
62
61
2c
20
53
65
62
72
69
6e
61
47
6f
73
69
65
72
2c
20
54
69
65
73
68
61
54
61
6b
65
6e
61
6b
61
2c
20
4b
61
74
68
79
72
6e
4c
61
6d
6d
65
79
2c
20
48
61
72
6c
61
6e
4d
61
6e
65
79
2c
20
4b
72
69
73
74
65
6e
42
75
66
6b
69
6e
2c
20
4c
69
6e
64
79
54
72
69
63
68
65
2c
20
54
69
6e
61
53
70
69
76
65
79
2c
20
53
61
6e
74
61
6e
61
48
61
64
6e
6f
74
2c
20
48
79
6f
6e
4c
61
68
61
6d
2c
20
54
79
6c
65
72
4b
69
6c
76
65
72
2c
20
4a
65
77
65
6c
52
75
6e
66
6f
6c
61
2c
20
4e
61
64
65
6e
65
4e
6f
79
65
72
2c
20
44
6f
6d
69
6e
69
71
75
65
4b
75
72
65
74
69
63
68
2c
20
46
72
65
64
64
79
4c
75
6e
67
73
74
72
6f
6d
2c
20
54
6f
6d
6d
79
65
4b
69
67
68
74
6c
69
6e
67
65
72
2c
20
41
6c
69
6e
61
52
61
6e
73
66
6f
72
64
2c
20
4e
61
42
6f
79
6c
61
6e
64
2c
20
43
61
6e
64
69
65
42
65
64
65
6c
6c
2c
20
42
72
6f
64
65
72
69
63
6b
53
76
61
79
2c
20
59
61
6e
69
72
61
54
61
72
64
75
6e
6f
2c
20
43
79
72
75
73
56
69
6c
6c
61
72
72
76
65
6c
2c
20
43
6f
75
72
74
6e
65
79
5a
65
6d
6b
65
2c
20
4d
61
72
71
75
69
73
53
63
68
61
75
73
2c
20
43
61
72
6f
6c
69
6e
47
75
6d
70
65
72
74
2c
20
4f
6c
69
6e
4f
75
72
79
2c
20
45
66
66
69
65
43
65
6c
75
63
68
2c
20
4d
6f
6e
74
79
51
75
65
6e
7a
65
6c
2c
20
4a
75
6c
69
75
73
43
72
61
62
69
6c
6c
2c
20
4c
61
72
61
65
4c
61
66
72
6f
6d
62
6f
69
73
65
2c
20
56
69
6f
6c
65
74
61
41
63
6b
6c
65
73
2c
20
45
6c
73
69
65
42
65
65
6d
6f
6e
2c
20
5a
65
6c
6d
61
4c
65
67
72
6f
2c
20
42
72
79
61
6e
6e
61
44
61
6d
65
77
6f
6f
64
2c
20
52
6f
62
62
69
65
41
6c
74
6f
6e
2c
20
4c
69
62
62
69
65
53
68
65
68
6f
72
6e
2c
20
53
68
61
6e
65
6c
6c
65
53
69
6c
76
65
72
2c
20
45
74
74
69
65
48
65
79
69
6e
67
2c
20
4b
61
74
68
72
69
6e
57
61
67
6e
65
72
2c
20
42
6f
6f
6b
65
72
4b
6f
63
6f
75
72
65
6b
2c
20
4e
6f
68
65
6d
69
41
75
79
6f
6e
2c
20
4b
65
65
6e
61
6e
56
61
6c
69
65
6e
74
65
2c
20
4d
61
6e
69
65
42
6f
74
68
77
65
6c
6c
2c
20
4f
64
65
74
74
65
52
75
73
73
65
6c
6c
6f
2c
20
41
6e
74
6f
6e
65
41
72
6d
77
6f
6f
64
2c
20
46
72
61
6e
6b
44
65
72
6f
73
69
65
72
2c
20
57
69
6c
66
72
65
64
44
6f
72
73
6f
6e
2c
20
4a
6f
68
6e
6e
79
43
68
61
72
6c
65
62
6f
69
73
2c
20
56
65
6c
6d
61
4b
69
6e
6c
6f
63
6b
2c
20
44
61
6e
69
61
47
61
67
6c
69
61
2c
20
53
68
61
72
69
65
43
61
73
74
6f
2c
20
52
68
65
74
74
42
6f
63
63
68
69
6e
6f
2c
20
42
65
72
6e
65
69
63
65
53
74
61
6e
73
62
65
72
72
79
2c
20
4d
61
75
72
69
63
65
52
65
76
61
6b
2c
20
56
61
6c
65
6e
74
69
6e
65
55
76
61
6c
6c
65
73
2c
20
55
6e
46
72
61
73
65
72
2c
20
53
68
61
6e
74
65
52
6f
63
6b
68
6f
6c
74
2c
20
4f
64
61
4c
69
6e
6e
65
6e
2c
20
45
61
72
6c
69
65
44
61
6e
63
6f
2c
20
54
68
65
6f
4f
75
7a
74
73
2c
20
45
6c
69
6e
6f
72
42
69
6c
6b
61
2c
20
45
64
77
69
6e
61
4d
75
6e
73
65
6c
6c
65
2c
20
47
61
72
79
51
75
69
6c
74
79
2c
20
4b
65
72
72
69
65
48
61
77
74
68
72
6f
6e
65
2c
20
42
65
72
6e
61
72
64
6f
54
75
72
70
69
61
6e
6f
2c
20
49
7a
6f
6c
61
49
61
6e
6e
61
63
63
6f
6e
65
2c
20
4d
61
72
69
73
73
61
56
69
6e
74
69
6c
61
2c
20
41
6c
79
63
65
53
75
6c
69
70
69
7a
69
6f
2c
20
4e
65
61
6c
45
67
75
63
68
69
2c
20
53
68
61
72
69
6b
61
48
61
72
74
65
61
75
2c
20
4d
61
72
71
75
65
72
69
74
65
4d
79
72
69
63
6b
2c
20
4d
69
6c
69
73
73
61
57
69
6c
64
65
79
2c
20
56
69
63
74
6f
72
69
6e
61
4a
61
63
6f
2c
20
4f
72
65
6e
47
6c
61
64
6c
65
2c
20
56
65
72
6f
6e
69
63
61
48
75
65
72
74
61
73
2c
20
4a
65
72
6f
6d
65
48
61
6e
6e
65
6d
61
6e
2c
20
43
68
61
6e
74
65
6c
6c
5a
6f
6d
65
72
2c
20
45
61
72
6c
4d
61
6e
6b
6f
2c
20
50
61
6f
6c
61
46
6f
6c
6c
65
74
74
2c
20
4c
6f
75
61
6e
6e
65
47
72
69
65
6d
65
2c
20
4b
61
6d
61
6c
61
44
65
73
63
68
61
6d
70
73
2c
20
4b
75
72
74
42
6f
73
6b
6f
2c
20
43
68
61
6e
64
61
54
69
6e
64
65
6c
6c
2c
20
43
65
63
69
6c
69
61
50
69
6c
6c
73
62
75
72
79
2c
20
44
6f
72
65
74
68
61
56
6f
6c
6b
65
6e
73
2c
20
4b
61
6e
64
61
63
65
4c
61
6d
75
6e
79
6f
6e
2c
20
43
68
61
64
77
69
63
6b
48
6f
6e
64
61
2c
20
44
61
72
62
79
4a
6f
72
72
69
73
63
68
2c
20
4b
65
6e
69
61
4d
6f
6c
65
73
6b
69
2c
20
43
6f
6c
65
65
6e
4c
61
68
61
79
65
2c
20
43
61
72
6c
6f
73
48
72
61
64
65
63
6b
79
2c
20
4c
69
7a
4c
6f
72
69
63
6b
2c
20
41
64
72
69
65
6e
65
52
69
7a
6f
72
2c
20
43
72
79
73
74
61
6c
43
61
62
65
7a
61
2c
20
4d
61
74
69
6c
64
65
4d
65
75
61
2c
20
52
65
62
65
63
6b
61
42
61
6b
65
6c
65
79
2c
20
4b
61
72
6c
79
50
65
6e
73
69
65
72
6f
2c
20
52
65
6e
65
4b
68
6f
6b
68
65
72
2c
20
4c
65
69
64
61
4c
6f
7a
65
61
75
2c
20
4d
65
67
61
6e
42
6f
72
64
65
6e
65
74
2c
20
46
6c
6f
72
69
6e
64
61
53
68
65
61
6c
79
2c
20
4b
61
6e
64
69
63
65
59
75
73
6b
6f
2c
20
5a
65
6c
6c
61
4d
61
73
73
69
6e
67
69
6c
6c
2c
20
4d
61
72
76
69
6e
50
72
63
68
6c
69
6b
2c
20
53
68
61
6e
64
69
4b
6f
68
73
2c
20
54
61
72
65
6e
53
63
68
6f
63
6b
6c
65
79
2c
20
41
75
72
6f
72
65
46
6f
6c
73
6f
6d
2c
20
4a
6f
68
61
6e
6e
65
4d
61
74
65
72
2c
20
52
6f
73
61
6d
6f
6e
64
52
65
6e
65
67
61
72
2c
20
4b
65
6c
6c
79
65
4c
65
72
6d
6f
6e
2c
20
46
6c
6f
72
65
6e
65
47
6f
65
72
74
7a
2c
20
4e
69
63
6b
69
65
42
72
61
6c
6c
65
79
2c
20
4d
61
78
69
65
48
65
66
66
65
72
6e
2c
20
54
75
44
75
73
68
6b
69
6e
2c
20
53
69
6c
76
69
61
42
6f
65
68
6d
6b
65
2c
20
4a
65
66
66
65
72
73
6f
6e
53
61
62
6f
72
69
6f
2c
20
4d
65
6c
6f
64
69
42
61
66
66
75
74
6f
2c
20
4d
61
62
65
6c
51
75
61
79
6c
65
2c
20
5a
6f
72
61
4d
63
67
72
61
6e
65
2c
20
44
6f
6e
6e
65
6c
6c
43
68
65
76
61
73
2c
20
52
6f
73
61
6c
69
65
45
73
73
65
73
2c
20
50
61
6d
41
63
6b
6c
65
6e
2c
20
54
6f
62
79
53
6c
6f
73
74
61
64
2c
20
43
61
72
6c
6f
73
44
61
6e
6f
66
66
2c
20
4a
75
6c
69
65
74
61
4a
61
6e
69
74
7a
2c
20
4d
69
6c
61
6e
57
69
63
68
72
6f
77
73
6b
69
2c
20
4d
61
6a
6f
72
69
65
57
68
69
74
74
69
65
2c
20
43
61
72
69
65
48
6f
6c
74
7a
65
6e
2c
20
53
68
61
72
69
53
65
61
62
6f
6c
64
2c
20
42
72
6f
64
65
72
69
63
6b
45
6c
6c
79
73
6f
6e
2c
20
4d
61
72
76
61
50
72
61
73
65
6b
2c
20
42
65
6e
6a
61
6d
69
6e
54
68
69
65
6d
2c
20
44
6f
74
74
79
47
72
61
6e
6f
2c
20
53
69
62
79
6c
42
6c
61
6e
67
61
2c
20
4f
70
61
6c
52
6f
64
6f
6c
70
68
2c
20
4e
69
63
68
6f
6c
65
57
65
73
73
65
6c
2c
20
52
65
69
6e
61
6c
64
6f
53
79
6c
65
72
2c
20
46
61
69
72
79
57
61
72
65
68
69
6d
65
2c
20
57
69
6c
62
75
72
42
72
75
64
6e
65
72
2c
20
45
6c
6c
69
65
52
6f
73
73
62
61
63
68
2c
20
48
61
6c
42
69
72
6b
65
79
2c
20
4b
61
6c
6c
69
65
4d
6f
74
74
72
61
6d
2c
20
41
6c
64
6f
53
74
6f
70
61
2c
20
45
6c
69
7a
61
41
6e
64
72
65
61
74
74
61
2c
20
44
61
6c
6c
61
73
50
61
72
74
69
62
6c
65
2c
20
54
65
72
69
73
61
41
6e
74
6f
6c
6f
73
2c
20
42
72
61
6e
64
61
53
63
68
6c
65
69
66
66
2c
20
47
65
6e
6e
69
65
4b
65
61
6e
75
2c
20
59
75
72
69
53
6f
6e
73
2c
20
47
72
69
73
65
6c
4a
6f
73
65
70
68
2c
20
47
65
6f
72
67
65
61
6e
6e
61
45
69
63
6b
68
6f
72
73
74
2c
20
4a
61
63
71
75
69
6c
69
6e
65
45
6c
6c
69
65
73
2c
20
41
6d
69
50
72
69
74
63
68
65
74
2c
20
4c
65
65
73
61
53
75
6d
65
72
69
73
6b
69
2c
20
44
61
6e
69
65
6c
6c
47
75
65
72
72
79
2c
20
4e
69
63
68
6f
6c
47
65
69
73
73
2c
20
45
6c
6f
75
69
73
65
53
74
66
6c
65
75
72
2c
20
4b
69
6d
62
65
72
6c
69
65
53
6f
65
6e
6b
73
65
6e
2c
20
48
61
6c
6c
69
65
4d
6f
6e
74
70
61
73
2c
20
4d
61
64
65
6c
79
6e
41
70
65
6c
61
2c
20
50
61
74
72
69
61
52
69
70
6b
61
2c
20
4e
61
6e
63
69
54
69
73
63
68
65
72
2c
20
54
6f
62
69
61
73
4b
61
75
6d
6f
2c
20
43
79
72
69
6c
4f
73
74
65
72
6d
61
6e
2c
20
4a
75
64
69
65
4c
61
72
65
6e
63
65
2c
20
58
69
61
6f
43
61
6c
64
61
72
65
72
61
2c
20
53
61
64
79
65
4b
79
7a
65
72
2c
20
4b
68
61
64
69
6a
61
68
4d
6f
72
64
69
6e
69
2c
20
4d
61
6c
69
73
73
61
54
6f
6e
67
2c
20
4b
65
69
74
68
43
79
70
68
65
72
74
2c
20
4b
69
61
72
61
52
65
6e
7a
75
6c
6c
6f
2c
20
57
69
6c
6c
6f
64
65
61
6e
41
6c
62
75
2c
20
43
68
65
72
69
73
65
50
65
72
72
69
63
6f
6e
65
2c
20
53
68
61
69
6e
61
54
61
72
74
65
2c
20
43
61
72
6f
6c
79
6e
65
42
69
73
6f
6e
2c
20
41
6c
65
78
61
6e
64
72
69
61
48
61
62
69
66
2c
20
42
69
61
6e
63
61
4c
61
74
75
6c
61
73
2c
20
54
79
65
73
68
61
4d
65
6e
74
69
6f
6e
2c
20
45
6c
74
6f
6e
52
61
6e
73
62
75
72
67
2c
20
45
6c
62
61
53
69
6d
6f
65
6e
73
2c
20
4d
61
72
74
69
6e
65
4b
6f
72
66
66
2c
20
43
6f
6e
63
68
61
4d
65
77
62
6f
75
72
6e
2c
20
44
6f
72
72
69
73
45
64
65
6c
2c
20
43
6f
64
69
47
72
61
67
65
64
61
2c
20
53
68
65
72
72
79
6c
54
61
6e
65
6e
62
61
75
6d
2c
20
50
6f
72
66
69
72
69
6f
44
75
6e
6b
61
6e
2c
20
46
65
72
6d
69
6e
61
4c
65
69
74
68
2c
20
4a
65
6e
65
6c
6c
65
50
65
6e
61
68
65
72
72
65
72
61
2c
20
4d
79
72
6c
42
65
6c
77
6f
6f
64
2c
20
54
6f
6e
61
4d
65
6d
6f
72
79
2c
20
43
68
72
69
73
74
69
6e
69
61
43
61
6e
63
72
6f
2c
20
42
6f
72
69
73
59
61
6e
6e
75
7a
7a
69
2c
20
43
61
72
6c
65
65
6e
44
65
6c
6d
6f
6e
74
65
2c
20
54
79
72
6f
6e
56
69
72
65
6c
6c
61
2c
20
53
6f
6d
6d
65
72
42
61
63
6d
61
6e
2c
20
48
61
6c
65
79
42
65
63
6e
65
6c
2c
20
4c
75
63
72
65
63
69
61
4d
6f
69
6e
65
2c
20
52
6f
63
69
6f
50
61
6e
6e
68
6f
66
66
2c
20
4b
65
6c
6c
69
65
53
75
70
70
61
2c
20
41
6e
74
68
6f
6e
79
44
75
6e
74
6c
65
79
2c
20
54
77
61
6e
64
61
41
76
61
6e
73
2c
20
4c
61
74
6f
72
69
61
53
77
69
6c
65
72
2c
20
41
6d
69
45
6c
6c
69
66
72
69
74
7a
2c
20
4c
79
64
69
61
41
6d
6f
72
65
6c
6c
6f
2c
20
44
65
61
6e
57
69
61
63
65
6b
2c
20
4a
75
6c
69
61
6e
6e
53
68
65
6c
6c
65
6e
62
61
72
67
65
72
2c
20
42
61
73
69
6c
42
65
65
73
6c
65
79
2c
20
48
61
6e
68
4c
69
67
68
74
6c
65
2c
20
53
74
61
6e
46
61
72
65
6e
2c
20
59
6f
6c
6f
6e
64
61
4a
6f
6e
64
6c
65
2c
20
41
6e
74
6f
6e
69
6f
4d
63
67
69
6e
6e
69
73
2c
20
42
6c
61
6b
65
4d
61
72
73
6f
6c
65
6b
2c
20
52
61
73
68
65
65
64
61
4e
6f
74
65
62
6f
6f
6d
2c
20
4d
6f
6e
73
65
72
72
61
74
65
4c
61
70
6f
72
74
61
2c
20
54
61
6e
6e
65
72
4f
72
69
74
69
2c
20
43
68
75
63
6b
54
72
75
6c
6f
63
6b
2c
20
45
6c
6d
69
72
61
42
65
6c
6b
61
2c
20
46
69
6c
6f
6d
65
6e
61
52
6f
62
69
6e
73
6f
2c
20
41
75
73
74
69
6e
46
65
6c
69
63
6f
2c
20
43
72
69
73
74
69
50
61
6c
65
61
61
65
2c
20
4b
69
73
68
61
42
61
74
74
61
67
6c
69
61
2c
20
4d
65
67
61
6e
59
6f
71
75
65
6c
65
74
2c
20
44
65
6a
61
50
69
65
63
75
63
68
2c
20
52
6f
6e
64
61
55
72
62
61
63
68
2c
20
4a
65
61
6e
65
6c
6c
65
46
65
61
7a
65
6c
6c
65
2c
20
4e
69
63
68
65
6c
6c
65
47
72
69
67
61
6c
69
75
6e
61
73
2c
20
44
6f
6e
69
74
61
53
75
66
66
72
69
64
67
65
2c
20
56
69
63
74
6f
72
69
61
47
75
69
6c
6c
69
61
6d
73
2c
20
43
61
74
65
72
69
6e
61
53
74
65
61
72
6e
65
73
2c
20
4d
69
72
61
6e
64
61
4d
61
6e
73
70
65
61
6b
65
72
2c
20
41
6e
64
72
61
4d
69
6c
6c
69
6d
61
6e
2c
20
53
68
65
72
72
79
44
69
70
61
6c
6d
61
2c
20
52
61
65
42
61
73
6b
65
74
74
65
2c
20
4f
74
65
6c
69
61
4c
65
66
6b
6f
77
69
74
7a
2c
20
53
74
65
70
68
69
6e
65
42
65
6e
6f
79
2c
20
5a
6f
72
61
4e
65
77
68
6f
75
73
65
2c
20
49
73
61
62
65
6c
6c
61
44
75
72
69
73
73
65
61
75
2c
20
46
65
64
65
72
69
63
6f
42
61
73
64
65
6e
2c
20
53
69
6d
6f
6e
65
52
65
62
75
63
6b
2c
20
52
61
6c
65
69
67
68
52
75
73
74
2c
20
41
6e
6e
65
48
61
68
6e
65
72
2c
20
43
65
63
69
6c
61
4b
72
6f
6c
61
6b
2c
20
4c
61
6e
6e
79
43
68
65
2c
20
4a
65
73
73
4c
75
63
65
79
2c
20
4c
69
61
6e
6e
65
43
65
6e
64
61
6e
2c
20
42
72
65
61
6e
6e
61
59
6f
75
2c
20
50
61
75
6c
65
6e
65
46
65
72
64
69
6e
61
6e
64
73
65
6e
2c
20
42
72
69
64
67
65
74
74
65
46
69
73
61
6e
69
63
6b
2c
20
4c
61
77
61
6e
64
61
47
6f
72
65
6e
63
65
2c
20
44
65
61
6e
67
65
6c
6f
48
79
70
70
6f
6c
69
74
65
2c
20
4d
61
72
79
6c
69
6e
53
6d
65
6c
74
7a
65
72
2c
20
44
61
76
69
64
43
68
6f
61
74
2c
20
54
79
6c
65
72
44
65
75
65
6c
6c
2c
20
47
69
74
61
53
74
65
69
64
6c
2c
20
45
61
72
6e
65
73
74
69
6e
65
56
61
73
74
61
2c
20
4c
6f
72
65
65
6e
47
72
61
76
65
6c
2c
20
44
61
6c
65
6e
65
42
6f
69
6c
65
73
2c
20
4e
6f
76
61
52
6f
6e
2c
20
4d
61
72
67
69
65
42
6f
63
6b
6c
61
67
65
2c
20
4a
75
6c
69
65
74
74
65
48
65
64
67
65
72
2c
20
44
6f
72
74
68
65
61
53
74
72
61
68
61
6e
2c
20
4d
61
75
72
61
41
6c
65
66
66
2c
20
42
72
69
63
65
41
63
63
6f
6c
61
2c
20
4d
61
72
69
73
73
61
50
72
7a
65
77
6f
7a
6d
61
6e
2c
20
52
6f
64
42
72
65
61
6e
2c
20
4f
64
65
73
73
61
53
65
61
72
6c
65
73
2c
20
4b
72
79
73
74
61
6c
4d
61
72
73
65
65
2c
20
45
62
6f
6e
79
47
75
61
6e
69
6f
2c
20
43
6f
79
46
72
65
63
68
2c
20
47
65
6e
65
76
69
65
76
65
52
61
6c
6c
69
73
6f
6e
2c
20
52
65
65
6e
61
56
6f
63
65
2c
20
4b
72
79
73
74
69
6e
4b
69
65
73
2c
20
43
68
61
72
6c
65
79
53
65
72
76
61
6e
2c
20
44
65
72
65
6b
53
61
6d
61
73
2c
20
45
6d
61
42
65
6c
6c
75
65
2c
20
4c
61
6b
65
73
68
61
4d
65
74
68
76
69
6e
2c
20
43
61
74
68
65
79
52
65
69
6e
69
6e
67
65
72
2c
20
47
65
6f
72
67
65
61
6e
6e
4a
61
63
6f
62
75
73
2c
20
41
6d
69
6e
61
4d
65
79
65
72
6f
77
69
74
7a
2c
20
4b
72
69
73
48
6f
67
73
65
74
74
65
2c
20
53
68
61
77
61
6e
61
56
69
74
61
6c
65
2c
20
52
6f
6c
61
6e
64
52
65
69
6c
79
2c
20
43
6f
6c
65
6d
61
6e
46
6c
65
6e
73
2c
20
48
65
6e
72
69
65
74
74
61
48
61
67
67
61
6e
73
2c
20
46
72
61
6e
6b
6c
69
6e
56
69
64
72
69
6f
2c
20
56
69
6e
6e
69
65
4d
61
6c
61
6e
64
72
61
2c
20
43
61
72
6f
6c
69
6e
53
6f
64
65
72
2c
20
4b
69
72
62
79
52
69
73
6b
61
2c
20
4c
65
74
74
69
65
50
61
74
74
65
72
73
6f
6e
2c
20
57
69
6e
6e
69
65
50
72
65
76
65
74
74
2c
20
4c
75
64
69
76
69
6e
61
48
65
72
72
2c
20
4b
72
69
73
74
79
53
77
61
72
74
7a
65
6e
64
72
75
62
65
2c
20
4f
6e
69
74
61
42
72
75
74
75
73
2c
20
45
76
65
72
65
74
74
4d
61
74
72
6f
73
2c
20
54
68
61
64
64
65
75
73
4d
65
61
72
69
6e
67
2c
20
41
6e
74
69
6f
6e
65
52
6f
64
72
69
71
75
65
73
2c
20
4d
61
72
67
61
72
65
74
61
50
72
65
73
74
61
2c
20
54
61
6d
65
6b
69
61
44
65
76
65
72
79
2c
20
42
61
72
62
65
72
61
44
65
73
70
61
69
6e
2c
20
45
75
6e
69
63
65
4b
6c
69
6e
65
66
65
6c
74
65
72
2c
20
43
6c
61
72
69
6e
64
61
4f
72
6f
75
6b
65
2c
20
44
6f
72
6c
61
44
65
6c
6c
69
76
65
6e
65
72
69
2c
20
43
69
63
65
6c
79
4b
75
6e
65
79
2c
20
43
65
6c
65
73
74
69
6e
61
4d
63
63
61
73
6b
69
6e
2c
20
46
72
65
64
64
69
65
53
68
61
72
69
66
69
2c
20
41
74
68
65
6e
61
4d
6f
6f
73
2c
20
4a
6f
73
65
66
69
6e
65
47
61
73
6b
69
6e
2c
20
59
75
6b
69
6b
6f
4b
61
6d
65
6c
61
6d
65
6c
61
2c
20
4c
6f
75
61
6e
6e
65
41
62
62
61
73
69
2c
20
41
67
6e
65
73
48
75
65
2c
20
53
68
61
72
6d
61
69
6e
65
4a
75
63
6b
65
74
74
2c
20
4c
79
64
61
4a
65
6e
72
65
74
74
65
2c
20
53
68
61
75
6e
42
65
65
68
6c
65
72
2c
20
4b
61
69
74
6c
79
6e
54
68
69
6c
6c
2c
20
43
61
6d
69
6c
6c
65
54
79
6b
73
69
6e
73
6b
69
2c
20
54
61
6c
69
73
68
61
4b
6f
72
6e
72
65
69
63
68
2c
20
42
6f
6e
6e
69
65
50
75
72
73
6c
6f
77
2c
20
4d
79
72
69
61
6d
53
61
6c
6c
69
65
2c
20
54
75
6c
61
53
63
68
6d
61
75
74
7a
2c
20
41
6e
74
6f
6e
69
61
50
68
61
72
69
73
73
2c
20
52
6f
62
62
79
47
72
65
6e
65
74
2c
20
50
61
69
67
65
53
74
65
69
74
7a
65
72
2c
20
50
61
75
6c
57
65
6e
74
7a
6c
61
66
66
2c
20
41
6c
65
63
44
65
70
70
69
6e
67
2c
20
53
68
61
77
61
6e
64
61
44
61
75
73
65
2c
20
46
61
65
44
65
62
6c
61
73
69
6f
2c
20
52
6f
72
79
42
6c
6f
73
65
2c
20
53
65
72
65
6e
61
41
6d
61
76
69
73
63
61
2c
20
4f
72
6c
61
6e
64
6f
4c
6f
71
75
65
2c
20
45
64
69
73
6f
6e
50
65
69
72
63
65
2c
20
52
6f
78
61
6e
61
57
69
70
70
65
72
74
2c
20
43
68
72
69
73
74
61
44
6f
6e
69
73
2c
20
41
73
68
6c
65
65
46
69
6e
63
68
2c
20
44
65
76
69
6e
57
61
6c
2c
20
4c
61
72
65
65
47
72
65
6e
64
61
2c
20
4c
61
6d
61
72
50
65
6e
71
75
69
74
65
2c
20
44
65
6e
6e
79
48
75
72
64
65
2c
20
43
61
72
65
79
4c
69
73
65
6e
62
79
2c
20
41
6c
76
69
6e
61
53
6f
6c
6f
6d
6f
6e
2c
20
43
68
61
6e
74
65
6c
6c
65
46
72
65
64
6c
65
79
2c
20
41
64
61
6d
4b
65
65
74
63
68
2c
20
44
72
75
63
69
6c
6c
61
44
6f
73
68
69
65
72
2c
20
45
72
6c
65
6e
65
53
74
65
6d
70
6c
65
2c
20
50
61
75
6c
69
6e
65
52
61
75
65
6c
6f
2c
20
4a
69
6d
4d
61
6e
69
67
6f
2c
20
43
61
72
6f
6c
69
6e
48
6f
6c
6c
69
77
61
79
2c
20
4b
65
65
6e
61
6e
4c
61
72
61
62
79
2c
20
4c
61
76
65
74
61
4e
65
79
65
72
2c
20
4a
75
64
73
6f
6e
41
75
67
6c
69
61
6e
6f
2c
20
54
68
65
72
65
73
73
61
52
65
6e
74
73
63
68
6c
65
72
2c
20
4d
6f
72
67
61
6e
52
65
79
6e
61
75
64
2c
20
4c
61
6b
69
61
54
73
75
74
73
75
69
2c
20
4e
6f
65
6d
69
44
61
72
6f
6e
2c
20
4c
6f
75
69
73
61
4d
63
66
61
6c
6c
2c
20
41
6e
6e
69
65
4c
79
74
65
72
2c
20
4a
6f
65
74
74
61
4b
75
63
68
65
6c
2c
20
41
64
61
68
48
65
6c
6c
69
77
65
6c
6c
2c
20
57
65
6e
64
69
65
42
75
73
73
6c
65
72
2c
20
4d
61
72
6e
69
65
46
69
6c
69
61
75
6c
74
2c
20
45
76
65
72
65
74
74
65
53
69
70
70
6c
65
2c
20
4d
61
72
79
6c
65
65
4d
75
72
61
77
73
6b
69
2c
20
4d
61
63
79
44
65
6c
68
6f
6d
6d
65
2c
20
4c
65
6f
74
61
44
6f
76
65
72
2c
20
44
6f
6d
69
6e
67
6f
46
6f
6f
74
6d
61
6e
2c
20
4d
61
79
6d
65
4d
65
64
69
6e
61
2c
20
4c
61
6e
65
6c
6c
59
61
6e
61
6e
2c
20
42
65
61
75
6c
61
68
48
75
63
6b
65
62
61
2c
20
50
68
79
6c
69
63
69
61
41
6e
74
69
6f
6e
65
2c
20
4b
61
79
6c
61
4d
63
63
6c
79
6d
6f
6e
64
73
2c
20
54
6f
79
61
54
79
73
6b
61
2c
20
52
6f
73
61
6c
69
6e
64
44
75
6e
61
68
6f
65
2c
20
53
61
6d
61
72
61
48
61
6e
73
65
6c
6d
61
6e
2c
20
42
61
6f
53
61
62
69
6f
2c
20
52
61
63
68
61
65
6c
57
65
69
68
6c
2c
20
45
6c
66
72
69
65
64
65
42
6c
6f
6f
64
77
6f
72
74
68
2c
20
48
61
79
77
6f
6f
64
44
6f
6f
73
65
2c
20
43
61
69
74
6c
69
6e
4e
61
65
68
65
72
2c
20
52
65
67
69
6e
65
43
6f
70
69
65
72
2c
20
53
68
61
65
50
61
72
6c
61
76
65
63
63
68
69
6f
2c
20
45
73
74
65
66
61
6e
61
52
61
77
73
6f
6e
2c
20
54
69
66
66
61
6e
65
79
53
70
69
74
73
62
65
72
67
2c
20
54
79
65
73
68
61
4c
6f
6e
67
68
75
72
73
74
2c
20
4b
72
79
73
74
61
6c
4e
65
74
2c
20
53
6f
6e
61
46
75
72
66
61
72
6f
2c
20
48
69
72
6f
6b
6f
53
63
68
69
66
66
6d
61
6e
6e
2c
20
4a
75
73
74
69
6e
65
50
72
6f
76
65
6e
63
61
6c
2c
20
4a
69
6d
4e
69
73
68
69
2c
20
4b
65
6c
6c
65
65
42
61
67
73
62
79
2c
20
44
61
72
69
6e
47
72
61
6e
73
74
72
6f
6d
2c
20
44
6f
6c
6c
69
65
48
65
72
6e
61
6e
64
65
72
2c
20
41
64
72
69
61
6e
6e
65
4d
69
6b
6f
6c
61
6a
63
7a
79
6b
2c
20
4b
69
61
72
61
52
69
63
68
65
2c
20
4d
6f
6e
74
79
57
68
69
72
72
79
2c
20
57
61
6e
56
65
72
67
61
6d
69
6e
69
2c
20
42
72
79
6f
6e
53
65
64
61
2c
20
59
76
6f
6e
6e
65
44
69
6d
61
69
6f
2c
20
4b
61
6e
64
69
63
65
53
74
6f
66
66
2c
20
4d
69
63
6b
65
79
4c
61
6e
67
68
61
72
74
2c
20
4a
65
73
73
69
63
61
53
61
77
65
72
2c
20
44
61
6e
65
53
69
70
70
6c
65
2c
20
44
6f
72
6f
74
68
61
50
72
65
76
6f
73
74
2c
20
45
6c
69
73
68
61
56
61
6e
68
61
6d
65
72
73
76
65
6c
64
2c
20
4d
61
79
6d
65
48
61
77
6b
65
79
2c
20
43
61
6e
64
69
73
50
61
73
74
72
61
6e
61
2c
20
4c
61
72
61
69
6e
65
46
6c
6f
74
2c
20
4c
6f
76
65
74
74
61
44
65
6c
61
67
6f
6c
2c
20
43
75
72
74
44
69
64
6f
6d
65
6e
69
63
6f
2c
20
46
72
65
69
64
61
50
69
6c
6c
65
79
2c
20
4a
65
73
73
69
61
52
69
7a
7a
75
74
6f
2c
20
45
72
69
6e
6e
53
68
61
6e
65
72
2c
20
41
6e
67
65
6c
6f
50
69
65
72
65
74
74
69
2c
20
4c
6f
75
69
73
65
42
6f
65
68
2c
20
56
69
63
74
6f
72
44
75
66
66
65
72
2c
20
4c
75
63
69
75
73
48
65
72
72
65
72
6f
2c
20
53
6f
4f
65
64
65
6b
65
72
6b
2c
20
42
65
6c
6b
69
73
50
69
6e
74
61
64
6f
2c
20
44
75
6c
63
69
65
54
61
72
61
73
2c
20
43
6c
65
6f
74
69
6c
64
65
5a
75
6c
66
65
72
2c
20
46
61
75
73
74
69
6e
6f
53
69
72
72
69
6e
65
2c
20
43
61
74
68
6c
65
65
6e
44
7a
69
6e
73
6b
69
2c
20
45
6c
69
63
69
61
4f
72
61
6d
61
2c
20
51
75
69
6e
63
79
47
75
7a
6d
64
6e
2c
20
45
74
68
65
6c
65
6e
65
41
73
68
65
2c
20
4d
61
72
79
61
6d
43
61
75
64
65
6c
6c
2c
20
42
72
65
65
4b
6e
65
73
65
6c
2c
20
54
61
6c
69
61
4c
65
63
61
74
6f
2c
20
44
61
6e
65
53
70
61
6b
65
2c
20
42
72
69
74
74
6e
69
4f
75
74
63
61
6c
74
2c
20
4d
69
71
75
65
6c
47
6f
64
6c
65
73
6b
69
2c
20
48
65
72
74
68
61
42
65
6e
61
76
69
64
65
73
2c
20
4e
65
64
4b
75
6b
61
2c
20
4d
6f
69
73
65
73
53
74
65
72
2c
20
43
6c
65
74
75
73
50
75
63
2c
20
47
61
79
6c
65
4b
65
6c
6c
69
6e
67
2c
20
43
61
72
6c
79
43
75
6c
6c
61
72
2c
20
5a
65
74
74
61
49
63
61
72
64
2c
20
45
6c
76
69
65
57
69
6e
73
74
6f
6e
2c
20
42
61
73
69
6c
69
61
53
74
61
6d
70
6c
65
79
2c
20
53
75
6d
6d
65
72
53
74
75
74
74
67
65
6e
2c
20
42
6f
6e
6e
79
42
75
72
67
65
2c
20
43
61
72
6f
6c
61
47
65
6c
65
72
74
65
72
2c
20
53
74
61
6e
66
6f
72
64
52
6f
68
72
73
2c
20
47
6c
69
6e
64
61
47
72
65
65
6e
62
6c
61
74
74
2c
20
44
6f
6e
6e
69
65
52
61
64
61
6b
65
72
2c
20
4d
61
72
76
69
73
53
68
6f
75
6d
61
6b
65
72
2c
20
43
68
61
72
69
73
42
75
74
63
68
6b
6f
2c
20
4d
61
72
63
6f
73
52
61
6d
65
6c
6c
69
2c
20
41
72
6c
69
65
4c
61
72
6f
73
65
2c
20
42
65
72
65
6e
69
63
65
45
75
67
65
6e
69
6f
2c
20
44
6f
6e
6e
49
6c
61
72
64
69
2c
20
4a
61
63
71
75
65
4f
64
65
74
74
65
2c
20
41
6c
66
72
65
64
61
48
65
65
62
6e
65
72
2c
20
45
72
69
63
47
6f
64
64
61
72
64
2c
20
4a
6f
6e
69
42
6f
68
6c
6d
61
6e
2c
20
4d
65
69
53
68
61
6e
6c
65
79
2c
20
41
6c
6c
61
6e
53
69
72
63
79
2c
20
59
65
6e
42
72
6f
7a
69
6e
61
2c
20
46
65
6c
69
63
69
61
4d
63
63
6c
65
73
74
65
72
2c
20
42
65
73
73
69
65
46
72
65
64
64
72
69
63
6b
2c
20
54
6f
6d
65
6b
61
43
6f
74
61
2c
20
4c
61
63
72
65
73
68
61
52
75
62
65
6f
2c
20
43
61
6d
65
72
6f
6e
52
65
61
73
2c
20
44
61
6c
65
6e
65
4b
65
6c
6c
69
65
2c
20
45
6c
6f
64
69
61
56
65
72
67
65
73
2c
20
41
6c
6c
79
73
6f
6e
53
75
6c
69
70
69
7a
69
6f
2c
20
54
61
69
53
63
68
65
63
68
2c
20
4f
6e
69
65
53
6b
72
65
74
6f
77
69
63
7a
2c
20
4b
65
72
72
79
54
61
6c
68
65
6c
6d
2c
20
41
6e
6e
61
6c
65
65
53
69
77
69
65
63
2c
20
53
68
61
76
6f
6e
43
6f
72
73
69
6e
69
2c
20
43
61
6e
64
61
6e
63
65
4d
69
73
6b
6f
2c
20
52
65
78
42
69
65
6c
73
65
72
2c
20
42
65
74
74
69
65
56
69
74
74
2c
20
4b
69
61
48
61
6e
6c
69
6e
65
2c
20
53
68
65
72
72
79
48
61
6d
69
6c
2c
20
4d
61
72
63
79
54
61
6d
6b
69
6e
2c
20
44
65
6e
6e
69
73
50
6f
64
65
6c
6c
2c
20
43
61
74
68
61
72
69
6e
65
41
73
6b
69
6e
2c
20
53
69
6f
62
68
61
6e
42
61
6e
63
72
6f
66
74
2c
20
42
65
72
72
79
4d
61
73
63
68
69
6e
6f
2c
20
45
75
6c
61
54
72
75
63
63
6f
2c
20
4e
65
72
69
73
73
61
48
75
74
7a
65
6c
2c
20
53
68
69
6e
46
72
65
69
73
65
2c
20
54
6f
76
61
43
75
65
2c
20
43
61
6c
65
62
42
6c
61
6e
71
75
61
72
74
2c
20
54
65
73
73
52
61
75
65
6c
6f
2c
20
4d
69
61
54
6f
65
6c
6b
65
2c
20
43
68
72
69
73
74
65
6e
4d
61
63
68
65
6e
72
79
2c
20
45
64
4c
61
77
61
6c
69
6e
2c
20
48
65
6c
61
69
6e
65
44
61
69
67
6c
65
2c
20
41
6c
6d
61
47
6c
61
6e
63
65
2c
20
46
72
69
74
7a
54
72
6f
73
74
6c
65
2c
20
49
73
61
75
72
61
45
63
6b
65
6c
2c
20
43
6f
6e
63
65
74
74
61
56
61
6c
6f
72
69
65
2c
20
4d
61
65
67
61
6e
41
72
6d
77
6f
6f
64
2c
20
44
65
6c
69
6e
64
61
45
6b
69
73
2c
20
53
68
61
77
6e
6e
61
42
72
61
64
64
6f
63
6b
2c
20
44
65
6c
6f
72
61
53
74
61
73
63
68
6b
65
2c
20
41
6e
6e
61
6d
61
72
69
61
53
68
65
61
72
64
2c
20
43
6c
61
75
64
65
74
74
65
44
69
63
61
70
75
61
2c
20
54
79
72
6f
6e
48
61
72
74
68
6f
72
6e
65
2c
20
5a
65
74
74
61
59
6f
75
6e
61
6e
2c
20
53
68
61
6e
57
65
72
6b
2c
20
43
6f
6e
73
75
65
6c
6f
44
65
6b
6c
65
2c
20
43
6f
6e
63
68
69
74
61
4d
61
79
62
75
72
79
2c
20
4a
61
73
6f
6e
53
6f
77
2c
20
4f
74
69
73
4d
61
77
68
6f
72
74
65
72
2c
20
41
6c
6c
61
6e
45
73
63
6f
72
63
69
61
2c
20
41
6c
74
61
4d
63
6b
69
6e
6e
79
2c
20
59
6f
6b
6f
47
6f
69
6e
73
2c
20
43
6f
72
64
65
6c
69
61
50
61
70
73
74
65
69
6e
2c
20
4d
65
6c
61
6e
69
61
43
68
72
69
73
74
2c
20
52
61
79
6d
6f
6e
64
65
45
6d
62
74
2c
20
4d
75
69
46
65
65
6c
65
79
2c
20
45
73
70
65
72
61
6e
7a
61
43
61
72
6f
6e
65
2c
20
4a
61
6d
61
72
46
72
69
73
63
68
2c
20
44
65
76
6f
72
61
68
4c
61
64
65
72
6d
61
6e
2c
20
4c
65
74
69
73
68
61
44
65
62
65
6c
6c
61
2c
20
43
68
61
6e
61
42
6f
68
6c
65
79
2c
20
57
61
6e
69
74
61
41
6d
77
65
67
2c
20
41
6e
69
6b
61
4c
61
6d
62
72
6f
73
2c
20
4d
69
67
75
65
6c
69
6e
61
53
6b
75
72
61
2c
20
47
75
64
72
75
6e
4c
65
69
65
72
2c
20
41
72
69
61
6e
65
43
68
68
6f
6e
2c
20
4d
61
67
64
61
6c
65
6e
45
69
66
65
72
74
2c
20
43
61
74
68
61
72
69
6e
65
48
75
67
75
73
2c
20
4e
79
64
69
61
43
61
62
72
65
72
61
2c
20
4d
65
72
6c
69
6e
42
75
72
73
63
68
2c
20
44
6f
6e
6e
69
65
43
75
62
69
74
2c
20
49
6e
6f
63
65
6e
63
69
61
46
61
67
65
6e
2c
20
4d
61
72
79
65
74
74
61
45
62
65
72
6c
79
2c
20
4d
65
6c
69
73
73
69
61
42
6f
72
69
73
2c
20
54
6f
6d
42
65
72
67
73
74
65
6e
2c
20
41
6c
66
6f
6e
73
6f
47
72
65
65
6e
6c
79
2c
20
53
68
69
72
6c
79
41
70
70
65
6e
7a
65
6c
6c
65
72
2c
20
4d
61
72
69
61
6e
65
6c
61
4d
61
64
72
75
67
61
2c
20
52
69
63
68
4c
6f
79
61
63
6b
2c
20
44
6f
6e
79
61
46
6f
72
74
6e
65
72
2c
20
43
6f
6c
65
6d
61
6e
48
61
6e
64
73
2c
20
54
61
6d
69
73
68
61
43
61
72
76
65
6c
2c
20
42
6c
61
6b
65
43
75
6d
69
6e
67
73
2c
20
4e
67
61
45
62
65
72
74
73
2c
20
42
72
65
61
6e
6e
4f
73
6f
6c
6c
6f
2c
20
49
6e
67
72
69
64
43
61
72
6c
79
65
2c
20
53
63
6f
74
74
79
46
65
72
6e
62
65
72
67
2c
20
50
72
65
73
74
6f
6e
56
61
6c
6f
74
2c
20
42
72
61
6e
64
69
65
50
61
6e
69
6b
2c
20
4c
79
6e
6e
4d
61
6c
61
77
79
2c
20
5a
65
6c
64
61
4d
61
6e
7a
61
6e
61
72
65
7a
2c
20
45
6d
6d
61
6c
69
6e
65
43
6f
70
65
6e
2c
20
4b
61
72
65
6e
42
6f
75
63
68
65
79
2c
20
4d
65
6c
69
6e
64
61
50
69
6e
6e
6f
63
6b
2c
20
48
65
61
74
68
65
72
47
69
61
6e
6e
65
74
74
69
2c
20
49
6c
75
6d
69
6e
61
64
61
41
75
73
74
69
6e
65
2c
20
4d
6f
6e
61
4d
61
73
63
61
6c
6c
2c
20
57
61
6c
6c
79
56
61
72
61
67
6f
6e
61
2c
20
45
6d
69
6c
65
48
79
6e
65
6b
2c
20
4b
61
72
6f
6c
69
6e
65
46
65
63
74
6f
2c
20
45
6c
76
69
6e
61
57
69
6e
63
68
2c
20
4d
6f
6e
69
71
75
65
52
69
73
62
65
63
6b
2c
20
4e
61
74
69
76
69
64
61
64
53
61
62
6c
65
73
2c
20
41
6e
74
77
61
6e
4b
72
69
62
73
2c
20
5a
61
6e
64
72
61
53
65
69
6c
2c
20
4a
65
74
74
69
65
53
63
69
63
75
74
65
6c
6c
61
2c
20
43
72
69
73
74
6f
70
68
65
72
50
65
61
6b
65
72
2c
20
54
61
62
61
74
68
61
44
6f
6c
6c
79
2c
20
56
61
6e
65
74
74
61
41
73
6e
65
72
2c
20
54
61
6e
64
79
55
6c
72
69
63
68
2c
20
45
73
74
65
6c
6c
65
43
6f
72
61
64
69
2c
20
4d
61
72
63
65
6c
4d
69
73
6d
69
74
2c
20
4a
75
61
6e
42
72
69
61
6e
73
2c
20
42
72
6f
6f
6b
73
42
65
72
72
69
61
6e
2c
20
41
6e
74
6f
69
6e
65
5a
75
6d
77
61
6c
74
2c
20
50
61
75
6c
65
74
74
61
4d
61
6e
6f
6b
65
79
2c
20
43
6c
61
72
69
63
65
53
65
77
79
65
72
64
2c
20
4c
6f
76
65
6c
6c
61
47
61
64
64
69
73
2c
20
44
6f
72
65
74
68
65
61
4d
61
72
73
68
61
6b
2c
20
43
68
72
69
73
74
69
6e
61
49
76
6f
72
79
2c
20
45
6d
69
6b
6f
52
75
64
64
6f
63
6b
2c
20
4d
61
72
79
6c
69
6e
4c
61
76
69
6e
65
2c
20
41
6c
65
63
69
61
42
65
6a
61
2c
20
4d
61
6e
75
65
6c
53
6d
61
6c
6c
69
64
67
65
2c
20
41
62
69
67
61
69
6c
4b
69
6d
62
6c
65
79
2c
20
4a
65
66
66
65
72
73
6f
6e
46
61
74
63
68
65
74
74
2c
20
44
61
6e
69
61
6c
52
65
69
64
65
6e
62
61
63
68
2c
20
53
75
6e
67
42
6c
6f
65
73
65
72
2c
20
4d
79
6c
65
73
45
6d
62
72
65
79
2c
20
4b
61
73
73
61
6e
64
72
61
44
65
72
6b
73
2c
20
4e
6f
6c
61
53
77
65
6e
6f
72
2c
20
41
72
64
61
74
68
44
69
67
69
6f
72
67
69
2c
20
52
75
65
62
65
6e
43
6c
75
6d
70
6e
65
72
2c
20
4b
69
74
74
69
65
4d
6f
6e
73
65
6e
2c
20
4c
65
6f
6e
61
4b
61
74
6f
2c
20
4a
61
63
6b
69
65
54
61
72
6b
6f
77
73
6b
69
2c
20
46
65
72
6e
61
6e
64
6f
53
68
65
6c
6c
68
61
61
73
2c
20
44
65
73
73
69
65
52
61
74
6c
69
66
66
2c
20
42
65
6e
69
74
61
43
68
6f
6c
65
77
69
6e
73
6b
69
2c
20
4c
65
65
61
6e
6e
65
57
61
6e
6b
65
6c
2c
20
4c
79
64
61
42
75
69
6b
65
2c
20
43
6f
6c
6c
65
6e
47
6f
72
64
69
6e
69
65
72
2c
20
41
79
61
6b
6f
53
75
65
72
6f
2c
20
4a
61
6e
65
6c
6c
43
72
75
69
7a
2c
20
57
69
6c
68
65
6c
6d
69
6e
61
42
69
67
66
6f
72
64
2c
20
56
69
6c
6d
61
57
69
6c
6c
62
61
6e
6b
73
2c
20
5a
65
6c
64
61
48
75
66
66
2c
20
42
72
69
74
74
65
6e
79
4c
61
73
74
65
6c
6c
61
2c
20
4d
65
65
53
68
6f
6e
65
73
2c
20
41
6e
61
4d
69
6c
61
6e
64
2c
20
59
65
73
65
6e
69
61
50
72
69
65
73
74
6c
65
79
2c
20
56
61
6c
4e
6f
6c
69
2c
20
54
61
6d
6d
65
72
61
45
61
67
6c
65
2c
20
52
65
6e
61
79
4b
69
6e
6e
65
62
72
65
77
2c
20
41
6e
67
65
6c
65
73
57
61
6c
64
68
61
75
73
65
72
2c
20
4c
61
73
68
75
6e
64
61
44
61
6e
6e
65
63
6b
65
72
2c
20
44
65
6c
6f
72
69
73
5a
61
77
61
73
6b
79
2c
20
44
61
76
69
64
53
74
61
76
65
2c
20
52
61
6e
65
65
41
73
73
61
65
6c
2c
20
44
6f
6d
65
6e
69
63
61
4c
69
65
73
73
2c
20
4a
75
64
79
48
65
72
72
65
72
61
73
2c
20
4c
61
75
72
69
63
65
50
75
74
7a
65
6c
2c
20
43
68
61
6e
74
65
53
63
68
65
70
70
2c
20
45
6e
61
4d
69
6e
73
68
61
6c
6c
2c
20
53
74
65
66
66
61
6e
69
65
42
69
73
61
72
64
2c
20
5a
69
74
61
53
63
68
6e
65
63
6b
6c
6f
74
68
2c
20
53
75
73
61
6e
4e
61
64
65
6c
62
61
63
68
2c
20
54
61
6e
79
61
46
6f
65
72
74
73
63
68
2c
20
52
65
6e
61
74
65
52
6f
63
6b
66
6f
72
64
2c
20
43
68
65
72
6c
79
47
69
72
61
6c
64
6f
2c
20
44
6f
72
73
65
79
49
61
6c
6f
6e
67
6f
2c
20
4b
61
74
68
6c
69
6e
65
4b
65
61
72
62
79
2c
20
4d
61
72
76
65
6c
54
61
62
6f
6e
2c
20
4d
61
72
61
67
72
65
74
46
69
6c
74
68
61
75
74
2c
20
4b
6f
72
79
47
75
74
65
72
6d
75
74
68
2c
20
4c
61
76
65
72
6e
52
61
6d
63
68
61
72
72
61
6e
2c
20
46
65
6c
69
63
69
64
61
64
41
74
68
65
72
74
6f
6e
2c
20
4d
61
72
63
65
6e
65
43
75
72
6c
69
73
2c
20
45
6c
76
69
61
44
69
65
6d
65
72
2c
20
44
6f
6d
69
74
69
6c
61
44
6f
6c
6c
69
73
6f
6e
2c
20
54
68
61
64
4c
61
63
65
72
2c
20
4a
61
6d
61
6c
4d
65
6c
69
73
2c
20
53
68
69
72
6c
4d
61
75
73
2c
20
44
61
76
69
64
41
6e
63
65
6c
2c
20
4c
69
7a
4d
65
68
6c
69
67
2c
20
53
74
65
70
68
65
6e
4c
65
63
68
6c
61
6b
2c
20
43
68
61
72
6c
65
65
6e
44
65
73
68
6f
6e
67
2c
20
4a
61
63
71
75
65
6c
79
6e
65
57
68
65
64
62
65
65
2c
20
46
61
75
73
74
69
6e
61
41
67
72
61
77
61
6c
2c
20
4a
65
61
6e
65
4b
61
6c
61
73
2c
20
4a
6f
68
6e
46
65
6c
74
6f
6e
2c
20
4a
61
6d
65
73
4d
61
62
72
61
79
2c
20
4c
65
6e
46
65
74
74
2c
20
54
72
65
76
6f
72
4d
75
72
74
6f
6e
2c
20
43
68
72
69
73
74
65
65
6e
4b
6c
65
65
6d
61
6e
2c
20
49
76
61
50
65
67
72
61
6d
2c
20
4d
61
64
65
6c
65
6e
65
57
65
69
73
64
6f
72
66
65
72
2c
20
4e
67
61
4c
61
6d
65
6e
64
6f
6c
61
2c
20
48
65
72
62
50
6f
6c
6c
65
74
2c
20
45
6d
65
72
61
6c
64
48
61
6c
63
6f
6d
62
2c
20
4d
61
72
67
65
72
79
57
61
6c
63
75
74
74
2c
20
54
69
66
66
61
6e
69
4e
6f
62
62
65
2c
20
41
72
76
69
6c
6c
61
44
6f
72
6f
73
6b
79
2c
20
45
6c
69
73
68
61
52
61
6d
65
6c
6c
61
2c
20
54
72
65
61
73
61
48
65
72
6d
73
2c
20
4a
6f
73
65
66
61
42
79
72
6f
6d
2c
20
4e
65
6f
6d
69
48
6f
75
70
65
2c
20
52
65
67
69
6e
65
57
69
6e
61
72
73
6b
69
2c
20
52
6f
73
6c
79
6e
57
61
69
74
65
73
2c
20
4b
69
6d
62
65
72
6c
65
79
48
61
65
72
2c
20
4e
6f
72
61
68
44
65
6c
6c
61
70
61
6f
6c
65
72
61
2c
20
4b
6f
72
69
54
65
6e
63
65
72
2c
20
44
61
72
63
65
6c
42
75
63
6b
65
6c
2c
20
41
6c
65
78
61
6e
64
65
72
43
72
75
73
6f
6e
2c
20
53
68
65
6c
6c
69
53
68
75
67
72
75
65
2c
20
43
61
72
6f
6c
69
6e
52
6f
64
65
69
67
75
65
73
2c
20
52
65
6e
61
74
61
47
72
69
66
66
65
65
2c
20
45
6c
6c
69
65
45
6c
6d
65
73
2c
20
54
72
65
73
61
42
65
61
75
6d
61
6e
2c
20
41
6e
67
65
6c
69
6b
61
43
6f
6e
6f
76
65
72
2c
20
44
65
61
6e
6e
53
74
72
61
74
6f
6e
2c
20
46
65
72
6e
61
6e
64
61
53
61
65
6c
65
6e
73
2c
20
54
68
65
6f
6c
61
4b
72
61
76
65
74
7a
2c
20
47
65
72
72
79
47
69
6c
6c
6d
69
6e
67
2c
20
44
61
6c
6c
61
73
47
69
6c
6c
65
74
74
2c
20
42
6c
61
69
6e
65
50
61
63
63
68
69
61
6e
61
2c
20
41
7a
75
63
65
6e
61
53
63
68
6c
69
74
7a
65
72
2c
20
46
72
65
64
72
69
63
6b
4d
65
69
74
7a
6c
65
72
2c
20
48
6f
6e
65
79
50
61
6c
61
63
69
6f
75
73
2c
20
41
75
73
74
69
6e
46
6c
61
74
61
75
2c
20
46
61
74
69
6d
61
47
6f
62
6c
69
72
73
63
68
2c
20
42
72
79
61
6e
6e
61
56
69
65
72
73
2c
20
45
61
72
6c
69
65
4f
76
65
72
6f
63
6b
65
72
2c
20
44
61
70
68
6e
65
42
65
79
64
6f
75
6e
2c
20
53
74
65
70
68
65
6e
57
65
73
63
68
2c
20
54
6f
6e
69
53
65
64
62
65
72
72
79
2c
20
4d
61
72
69
6e
61
53
6b
6f
72
64
61
68
6c
2c
20
4a
6f
6e
69
65
4d
6f
79
64
2c
20
4a
6f
65
6c
6c
65
6e
53
75
63
68
79
2c
20
52
6f
73
73
4b
6f
73
63
68
6f
2c
20
4d
75
6f
69
4d
63
66
61
75
6c
2c
20
4c
6f
6e
64
61
4d
61
72
74
69
6e
73
6f
6e
2c
20
41
6e
64
72
65
61
73
4d
75
6e
73
2c
20
53
75
48
75
67
65
2c
20
4c
61
71
75
69
74
61
41
6e
64
6f
2c
20
52
6f
73
61
6c
69
6e
65
45
73
74
65
72
6c
79
2c
20
41
72
67
65
6c
69
61
53
69
6c
76
65
72
73
74
6f
6e
65
2c
20
41
6c
65
69
73
68
61
43
61
6c
7a
61
64
6f
2c
20
52
6f
73
73
42
61
72
79
2c
20
47
69
6f
76
61
6e
6e
61
4c
65
68
72
6b
65
2c
20
4b
69
61
72
61
4c
6f
61
74
73
2c
20
53
6f
6e
69
61
4a
61
63
6b
6f
77
69
61
6b
2c
20
45
72
6d
61
43
61
6d
61
6e
6f
2c
20
59
65
73
73
65
6e
69
61
4b
65
6f
62
61
75
6e
6c
65
75
61
6e
67
2c
20
44
6f
72
65
6e
65
53
6f
66
65
72
2c
20
4c
75
72
61
42
72
61
67
75
65
2c
20
54
72
65
76
6f
72
54
72
6f
79
2c
20
4d
69
63
68
69
6b
6f
4f
6d
61
72
61
2c
20
41
72
67
65
6e
74
69
6e
61
53
68
75
66
65
6c
74
2c
20
45
6c
65
61
6e
6f
72
61
52
65
65
67
65
72
2c
20
53
69
72
65
6e
61
43
6c
69
76
65
2c
20
42
6c
6f
73
73
6f
6d
53
74
72
69
74
74
6d
61
74
65
72
2c
20
4c
65
6f
6e
61
72
64
61
44
6f
69
2c
20
4a
6f
64
79
53
6c
6f
73
73
2c
20
46
72
61
6e
63
65
6e
65
59
65
6c
6c
65
2c
20
43
68
61
6e
74
61
79
4d
65
69
73
73
6e
65
72
2c
20
45
72
77
69
6e
47
6f
72
72
69
2c
20
42
72
69
74
74
61
42
65
6e
6e
61
67
65
2c
20
4b
72
79
73
74
6c
65
4e
6f
76
61
72
61
2c
20
53
75
65
48
75
72
6c
62
75
74
2c
20
41
6e
6e
69
73
4d
6f
68
72
69
6e
67
2c
20
45
76
61
6e
43
65
72
6f
6e
65
2c
20
43
6c
61
75
64
65
4d
6f
72
65
74
2c
20
52
6f
73
61
6c
69
65
53
70
72
65
68
65
2c
20
49
6e
50
72
61
6c
6c
2c
20
47
61
79
6e
65
6c
6c
4b
69
6d
6d
69
6e
73
2c
20
4d
61
72
61
67
61
72
65
74
4a
6f
2c
20
41
67
72
69
70
69
6e
61
43
61
72
61
63
63
69
6f
6c
61
2c
20
47
65
72
74
75
64
65
42
75
65
6e
6f
2c
20
4c
61
63
79
47
75
67
6c
69
65
6c
6d
69
6e
61
2c
20
53
75
73
61
6e
6e
61
41
6e
64
65
72
61
2c
20
4d
61
72
67
61
72
65
74
42
72
69
64
65
6e
73
74
69
6e
65
2c
20
56
69
63
65
6e
74
65
44
6f
6e
6e
65
6c
73
6f
6e
2c
20
4c
69
6c
69
53
70
65
6c
6c
65
72
2c
20
4a
6f
73
6c
79
6e
53
68
69
68
2c
20
43
6f
6e
63
65
70
74
69
6f
6e
41
70
65
6c
69
61
6e
2c
20
53
61
6d
65
6c
6c
61
4b
6f
73
74
65
6c
2c
20
4d
61
72
69
65
6c
6c
61
57
68
69
74
73
65
6c
6c
2c
20
53
68
65
72
69
44
65
6c
6f
2c
20
4b
65
6e
61
50
65
72
72
65
69
72
61
2c
20
45
6c
65
6f
6e
6f
72
61
56
61
6e
61
73
73
65
6c
74
2c
20
49
6d
61
43
61
70
70
65
6c
6c
65
74
74
69
2c
20
59
6f
6b
6f
48
6f
64
67
69
6e
73
2c
20
44
6f
6d
69
6e
69
63
6b
52
61
79
79
61
6e
2c
20
50
65
6e
6e
79
4b
61
6c
6c
65
6e
62
61
63
68
2c
20
4c
75
63
69
6c
6c
61
46
72
61
6e
74
7a
2c
20
4e
67
75
79
65
74
44
69
6c
6c
77
6f
72
74
68
2c
20
53
68
61
77
61
6e
64
61
48
65
72
65
6b
2c
20
53
6f
63
6f
72
72
6f
48
79
6c
61
6e
64
2c
20
4c
61
77
61
6e
61
4d
63
68
61
66
66
69
65
2c
20
4c
65
73
6c
65
79
41
75
64
75
6f
6e
67
2c
20
44
65
62
62
69
65
4d
6f
65
73
65
72
2c
20
48
61
6e
6b
4d
6f
6c
6c
6f
79
2c
20
4c
6f
72
61
43
6f
6c
6c
65
74
74
69
2c
20
4e
61
64
61
4d
69
74
6b
6f
77
73
6b
69
2c
20
4e
69
63
6f
6c
65
74
74
65
44
65
6c
61
73
62
6f
75
72
2c
20
48
75
6f
6e
67
53
61
6e
74
6f
72
79
2c
20
52
6f
62
65
72
74
6f
45
6c
6c
69
66
72
69
74
7a
2c
20
42
72
79
63
65
48
6f
66
66
69
6e
65
2c
20
4d
65
72
72
69
6c
6c
4d
63
65
6c
68
65
6e
6e
65
79
2c
20
42
72
69
64
67
65
74
74
65
4d
61
73
65
72
2c
20
45
72
69
63
48
6f
74
74
65
72
2c
20
44
6f
6e
6e
42
6f
6e
61
64
6f
6e
61
2c
20
41
6c
69
73
61
4f
68
6c
65
6d
61
63
68
65
72
2c
20
43
61
72
6d
69
6e
61
53
69
6d
6f
6e
65
61
75
2c
20
4d
65
72
76
69
6e
5a
61
62
65
6c
2c
20
52
75
62
69
44
75
72
6d
61
6e
2c
20
41
6c
74
61
67
72
61
63
69
61
5a
65
6c
61
73
6b
6f
2c
20
47
6f
6e
7a
61
6c
6f
45
6c
64
65
72
69
64
67
65
2c
20
4e
6f
72
62
65
72
74
6f
57
68
69
6e
65
72
79
2c
20
53
68
61
72
61
46
69
6c
6c
69
6e
67
65
72
2c
20
4e
61
74
68
61
6e
69
61
6c
56
61
6c
65
72
61
2c
20
45
6c
6c
73
77
6f
72
74
68
54
61
62
69
6f
6e
2c
20
45
6d
69
6c
79
52
6f
62
65
72
72
74
73
6f
6e
2c
20
42
6f
6e
6e
79
48
69
6e
64
6d
61
72
73
68
2c
20
56
69
63
74
6f
72
4d
63
63
61
64
65
2c
20
53
68
69
72
6c
65
6e
65
50
69
65
74
72
6f
70
61
6f
6c
6f
2c
20
44
61
6e
69
63
61
57
61
72
6f
77
61
79
2c
20
53
74
65
70
68
61
6e
69
65
52
65
61
73
65
2c
20
46
65
72
64
69
6e
61
6e
64
52
61
73
70
2c
20
54
69
6d
56
65
73
65
6c
6b
61
2c
20
46
6c
6f
72
69
64
61
44
6f
63
74
6f
72
2c
20
54
6f
73
68
69
61
4b
6f
65
72
62
65
72
2c
20
4b
65
63
69
61
4e
6f
63
6f
6e
2c
20
4b
61
63
69
65
57
65
67
6e
65
72
2c
20
48
79
65
41
62
65
64
2c
20
45
73
74
68
65
72
53
65
65
6c
65
79
2c
20
41
6c
61
69
6e
65
4f
70
65
6c
61
2c
20
4c
75
63
69
6e
61
47
65
6e
74
68
65
72
2c
20
4c
61
6a
75
61
6e
61
44
61
6e
6e
75
6e
7a
69
6f
2c
20
56
61
6c
65
6e
74
69
6e
65
43
61
72
6e
65
79
2c
20
56
61
6e
6e
61
56
65
63
63
68
69
2c
20
4c
6f
69
73
65
4d
61
6e
67
61
6e
2c
20
4d
61
72
67
6f
74
43
61
6e
65
73
2c
20
45
6c
61
69
6e
65
50
75
72
73
65
6c
6c
2c
20
4a
6f
73
6c
79
6e
42
75
73
65
72
2c
20
53
6f
63
6f
72
72
6f
50
61
72
69
73
65
61
75
2c
20
44
61
6e
69
6c
6f
43
6c
61
79
74
65
72
2c
20
4a
61
6e
69
6e
65
4d
61
73
73
65
6e
61
2c
20
43
61
72
6f
6c
6c
43
79
72
75
6c
69
6b
2c
20
48
65
6c
6c
65
6e
4e
61
79
73
6d
69
74
68
2c
20
52
61
79
6d
6f
6e
64
4a
61
70
70
2c
20
45
6c
76
69
6e
61
4d
65
65
6e
61
63
68
2c
20
52
61
79
66
6f
72
64
4d
6f
75
6e
64
2c
20
4c
61
76
65
74
61
47
72
61
67
65
2c
20
4d
6f
72
67
61
6e
42
6c
6f
63
68
65
72
2c
20
4d
61
72
63
79
54
65
73
73
65
6e
65
65
72
2c
20
43
61
72
79
6c
6f
6e
50
65
73
69
6e
61
2c
20
44
6f
72
69
65
4b
61
61
6e
2c
20
43
6f
6e
63
65
70
74
69
6f
6e
41
64
65
72
6d
61
6e
2c
20
41
6e
61
6c
69
73
61
4b
6f
72
61
6c
65
77
73
6b
69
2c
20
4e
65
72
79
41
73
61
74
6f
2c
20
52
75
66
69
6e
61
4e
69
65
64
65
72
6d
65
69
65
72
2c
20
4c
61
73
68
61
77
6e
64
61
47
69
6c
62
72
65
74
68
2c
20
47
65
6f
72
67
65
61
6e
6e
61
47
72
69
65
73
73
2c
20
47
65
6f
72
67
69
61
6e
6e
65
54
61
69
2c
20
44
65
65
61
6e
6e
61
4d
6f
6e
61
74
68
2c
20
54
68
6f
6d
61
73
65
6e
61
43
61
64
64
69
67
61
6e
2c
20
4c
79
6e
6e
52
6f
74
74
6d
61
6e
2c
20
45
76
65
6c
79
6e
42
75
72
67
68
61
72
64
74
2c
20
4d
69
73
74
69
4e
61
77
77
61
72
2c
20
56
69
63
6b
65
79
4a
61
6d
6f
6e
2c
20
42
65
72
6e
65
74
74
61
4e
6f
72
61
6c
65
73
2c
20
46
72
65
69
64
61
52
7a
65
73
7a
75
74
6b
6f
2c
20
42
72
65
74
74
44
75
72
73
74
65
6c
65
72
2c
20
4c
65
61
6e
6f
72
61
4f
72
64
77
61
79
2c
20
4d
6f
6e
69
6b
61
43
65
72
61
6f
73
2c
20
4a
65
6e
69
73
65
42
69
6e
65
67
61
72
2c
20
43
6c
61
72
69
63
65
4d
61
6e
67
68
61
6e
65
2c
20
4b
65
69
6c
61
48
6f
77
6c
69
6e
2c
20
4d
61
74
74
68
65
77
4a
61
63
69
6e
74
6f
2c
20
43
72
61
69
67
50
65
6c
6c
69
73
68
2c
20
4e
65
64
61
47
6f
64
65
61
75
78
2c
20
4d
65
67
52
65
69
67
6c
65
2c
20
4a
6f
6c
65
6e
65
42
65
72
73
2c
20
42
65
72
6e
61
64
69
6e
65
56
61
6c
6c
69
65
72
2c
20
45
6c
65
6e
6f
72
61
41
62
62
65
2c
20
56
61
6e
53
68
61
64
6c
65
72
2c
20
53
68
65
72
6c
65
79
4a
61
72
61
64
61
74
2c
20
4d
69
63
61
68
52
75
79
73
2c
20
42
65
72
6e
61
72
64
6f
46
61
76
75
7a
7a
69
2c
20
43
6f
72
79
56
6f
6e
72
75
64
65
6e
2c
20
44
61
72
72
69
63
6b
44
61
6d
6d
65
79
65
72
2c
20
4c
6f
75
65
74
74
61
52
6f
6d
70
66
2c
20
4b
61
72
65
6e
52
61
6d
6f
6e
65
7a
2c
20
52
75
62
69
65
42
75
72
64
6f
63
6b
2c
20
42
65
72
79
6c
56
65
72
61
6e
6f
2c
20
4e
61
6e
63
65
65
4d
65
72
72
6f
77
2c
20
4d
69
73
74
69
65
42
6c
6f
73
73
2c
20
53
74
65
70
68
61
6e
69
61
4c
6f
70
65
7a
2c
20
52
68
69
61
6e
6e
6f
6e
48
65
6b
6d
61
6e
2c
20
44
69
6c
6c
6f
6e
48
6f
70
70
65
72
73
74
61
64
2c
20
44
6f
72
65
6e
65
52
61
6e
66
74
2c
20
4a
69
6c
6c
54
65
66
65
72
74
69
6c
6c
65
72
2c
20
45
72
77
69
6e
52
79
6e
65
72
2c
20
43
6f
72
61
6c
69
65
4b
75
74
69
2c
20
4d
65
6c
76
61
57
68
61
69
74
65
2c
20
50
68
75
6e
67
4d
69
73
75
6d
69
2c
20
47
75
73
74
61
76
6f
46
6f
65
63
6b
65
2c
20
54
6f
6d
61
73
61
41
72
72
65
6e
64
65
6c
6c
2c
20
48
61
72
72
69
65
74
74
4c
6f
6b
65
72
2c
20
4a
6f
6e
65
6c
6c
65
53
70
69
6e
63
69
63
2c
20
43
68
65
72
6c
79
43
6f
64
61
2c
20
53
68
61
72
69
63
65
43
69
76
61
6c
65
2c
20
4b
61
72
69
6e
61
43
69
6d
6f
72
65
6c
6c
69
2c
20
44
61
6e
61
53
63
6f
62
69
65
2c
20
4d
61
6d
6d
69
65
56
6f
67
65
6c
7a
61
6e
67
2c
20
4d
69
73
73
79
44
65
61
63
65
74
69
73
2c
20
53
68
69
7a
75
65
53
74
6f
77
65
2c
20
4c
79
6e
73
65
79
50
61
78
73
6f
6e
2c
20
4a
65
6e
69
66
65
72
52
69
64
64
65
72
73
2c
20
53
6f
6c
44
65
75
73
65
72
2c
20
47
61
72
74
68
54
72
61
76
65
72
73
2c
20
4e
69
6e
66
61
59
61
6b
6c
69
6e
2c
20
4d
61
64
65
6c
65
69
6e
65
41
6d
6f
72
69
6d
2c
20
52
6f
73
61
6d
6f
6e
64
41
6d
69
73
6f
6e
2c
20
57
6f
6e
64
61
4d
69
65
6c
73
63
68
2c
20
4b
72
79
73
74
79
6e
61
44
69
65
6e
73
74
2c
20
47
65
72
74
72
75
64
69
73
53
70
69
77
61
6b
2c
20
50
61
75
6c
65
6e
65
45
6c
65
77
61
2c
20
43
68
61
73
69
74
79
50
61
6c
6d
69
6f
74
74
6f
2c
20
4c
65
43
6c
61
75
64
65
2c
20
4d
61
72
67
61
72
69
74
61
44
75
72
62
6f
72
61
77
2c
20
44
65
6c
70
68
69
61
41
67
6f
73
74
69
6e
65
6c
6c
69
2c
20
42
72
65
74
74
50
72
75
64
65
6e
74
65
2c
20
45
64
77
61
72
64
6f
42
6f
72
62
61
2c
20
53
75
7a
69
4b
72
6f
70
66
2c
20
44
61
6e
6e
65
74
74
65
48
61
61
73
65
2c
20
4e
65
74
74
69
65
43
72
61
6c
6c
2c
20
45
73
74
65
6c
6c
65
45
70
65
72
73
6f
6e
2c
20
41
67
6e
75
73
4c
61
6e
7a
6f
2c
20
4d
61
72
6b
75
73
54
61
72
6e
6f
77
73
6b
69
2c
20
4a
61
6d
65
56
61
6e
7a
61
6e
74
65
6e
2c
20
4d
61
72
69
73
73
61
44
65
76
69
6e
2c
20
57
69
6c
6c
69
61
6d
73
42
65
72
6e
65
2c
20
41
6e
6e
6d
61
72
69
65
4b
72
69
64
6c
65
72
2c
20
44
61
79
73
69
4e
61
63
69
73
73
65
2c
20
4e
61
74
68
61
6e
61
65
6c
43
61
72
72
61
6f
2c
20
5a
65
6e
61
69
64
61
50
66
61
6e
6e
65
6e
73
74
65
69
6e
2c
20
4a
65
73
65
6e
69
61
48
61
6c
74
6f
6e
2c
20
52
6f
6e
64
61
56
61
6e
64
72
65
73
61
72
2c
20
4b
69
6d
62
65
72
79
54
75
67
6d
61
6e
2c
20
43
6f
72
65
6e
65
4d
61
6c
61
67
6f
6e
2c
20
43
6f
6c
65
74
74
61
4d
61
72
75
73
69
61
6b
2c
20
42
65
6e
69
74
61
46
6c
65
67
6c
65
2c
20
48
61
69
6c
65
79
46
61
75
6c
6b
65
6e
62
65
72
72
79
2c
20
50
65
61
72
6c
65
43
6c
61
77
73
6f
6e
2c
20
4d
65
6c
61
69
6e
65
4d
72
61
7a
65
6b
2c
20
4a
65
61
6e
69
63
65
49
6d
61
6d
2c
20
4e
6f
6c
61
45
76
65
74
74
2c
20
4d
61
72
6c
65
6e
65
57
65
61
67
6c
65
2c
20
53
70
65
6e
63
65
72
53
69
72
6b
6f
63
68
2c
20
59
69
49
72
69
6e
65
6f
2c
20
47
65
72
69
50
6c
75
74
61
2c
20
43
6c
69
66
66
44
69
6d
6d
61
63
6b
2c
20
56
65
6c
76
65
74
4f
6c
72
69
63
68
2c
20
41
73
68
6c
69
50
65
69
74
7a
2c
20
46
72
61
6e
63
6f
69
73
65
41
73
73
61
6e
74
65
2c
20
4c
6f
69
73
65
52
6f
68
72
73
2c
20
47
61
62
72
69
65
6c
6c
65
53
74
72
65
69
2c
20
4d
61
72
69
63
61
53
7a
6b
6c
61
72
73
6b
69
2c
20
4b
65
65
6e
61
6e
4d
65
6e
6e
69
6e
67
65
72
2c
20
41
6c
79
63
69
61
50
61
73
61
6e
61
2c
20
48
61
6c
69
6e
61
4c
69
6e
63
6f
75
72
74
2c
20
4b
75
72
74
69
73
53
7a
65
2c
20
4d
61
72
63
6f
41
62
73
6f
6e
2c
20
4c
6f
72
65
6e
7a
61
48
6f
6c
77
65
67
65
72
2c
20
4c
69
67
69
61
4b
6f
7a
6f
6c
61
2c
20
54
65
72
72
61
42
65
72
67
65
72
74
2c
20
56
65
6c
6d
61
43
61
62
75
67
6f
73
2c
20
4d
69
67
6e
6f
6e
54
6f
72
72
65
64
2c
20
41
62
64
75
6c
42
6f
79
64
61
2c
20
56
65
72
6c
69
65
50
69
65
6c
6f
77
2c
20
4a
61
69
6d
65
65
46
6f
72
65
6a
74
2c
20
4c
65
69
67
68
61
6e
6e
53
6c
6f
67
65
72
69
73
2c
20
43
6f
6e
73
75
65
6c
61
4c
61
73
73
77
65
6c
6c
2c
20
4b
69
72
62
79
53
63
68
6f
72
7a
6d
61
6e
2c
20
4a
6f
65
6c
53
6f
75
63
79
2c
20
4d
61
65
45
6e
73
7a
2c
20
4c
61
6e
69
74
61
53
70
6f
6e
61
75
67
6c
65
2c
20
4a
65
6e
6e
79
57
69
6e
6b
6c
65
2c
20
4c
69
73
61
43
6f
6e
63
69
6e
69
2c
20
41
72
69
61
6e
6e
61
47
6c
69
6e
73
6b
69
2c
20
59
75
6c
61
6e
64
61
42
6c
6f
6f
6d
65
72
2c
20
41
72
6e
69
74
61
48
6f
75
74
6d
61
6e
2c
20
44
65
73
70
69
6e
61
4c
69
73
68
6d
61
6e
2c
20
45
64
77
61
72
64
4d
63
6d
69
63
6b
6c
65
2c
20
4a
61
63
71
75
65
73
50
69
6f
63
68
65
2c
20
48
75
62
65
72
74
4a
61
63
71
75
65
2c
20
41
67
75
73
74
69
6e
61
44
6f
6c
73
65
6e
2c
20
45
6c
6d
65
72
54
61
6e
6b
2c
20
53
6f
6e
4b
61
6c
61
73
2c
20
56
69
76
69
65
6e
4d
63
6b
69
73
73
69
63
2c
20
4a
61
6e
69
6e
65
4d
61
6b
6f
2c
20
46
72
61
6e
6b
6c
79
6e
42
75
64
7a
69
6b
2c
20
5a
61
63
6b
61
72
79
44
65
73
70
6f
73
69
74
6f
2c
20
43
68
61
6e
65
6c
6c
65
50
69
6e
6b
65
6c
74
6f
6e
2c
20
4c
65
6f
5a
61
70
66
2c
20
41
6c
65
78
53
77
69
6e
64
6c
65
2c
20
42
65
73
73
45
69
73
62
61
63
68
2c
20
53
6f
6d
6d
65
72
49
73
65
6e
68
6f
77
65
72
2c
20
44
65
6e
65
65
6e
44
61
6d
70
66
2c
20
4e
6f
76
65
6c
6c
61
54
6f
72
72
61
6e
6f
2c
20
44
65
62
6f
72
61
68
4b
68
65
6e
73
6f
76
61
6e
2c
20
44
61
67
6e
79
42
72
75
6e
6a
65
73
2c
20
45
76
69
74
61
53
65
72
72
61
74
6f
2c
20
53
75
61
6e
6e
65
46
61
6c
6c
69
6e
2c
20
4c
61
74
72
69
63
69
61
53
61
67
61
79
61
67
61
2c
20
4c
75
61
6e
6e
65
4a
6f
68
61
6e
6e
65
73
73
65
6e
2c
20
52
6f
73
69
61
4c
61
6d
61
72
63
68
65
2c
20
47
61
62
72
69
65
6c
6c
65
53
69
6c
76
65
72
69
6f
2c
20
42
65
76
65
72
6c
65
79
42
72
69
64
64
65
6c
6c
2c
20
44
61
72
72
6f
6e
55
6e
72
61
75
2c
20
47
69
73
65
6c
6c
65
4c
61
76
69
73
74
61
2c
20
4e
61
74
68
61
6e
69
61
6c
4d
63
67
69
62
62
6f
6e
2c
20
4e
65
76
69
6c
6c
65
4c
75
62
6b
65
2c
20
48
6f
72
74
65
6e
73
69
61
57
72
7a
65
73
69
65
6e
2c
20
4d
69
74
73
75
65
4d
61
64
64
69
6e
2c
20
42
6f
62
65
74
74
65
47
65
66
66
72
65
2c
20
4c
6f
6d
61
44
69
6b
65
2c
20
52
6f
64
65
72
69
63
6b
56
61
6e
65
66
66
65
6e
2c
20
57
61
79
6e
65
4c
65
69
63
68
2c
20
4d
61
72
79
61
4d
61
74
75
73
7a
65
77
73
6b
69
2c
20
47
65
6f
72
67
69
61
4b
73
68
79
77
6f
6e
69
73
2c
20
41
6e
64
72
65
61
53
63
68
61
6d
70
2c
20
4c
61
75
72
65
6e
61
43
6f
6e
64
69
65
2c
20
4c
6f
6e
6e
69
65
50
69
63
63
75
69
6c
6c
6f
2c
20
54
65
72
72
69
65
49
64
61
2c
20
52
65
62
65
63
6b
61
42
61
64
67
65
74
74
2c
20
51
75
65
6e
74
69
6e
50
6f
65
70
70
6c
65
69
6e
2c
20
54
68
61
64
42
65
6c
6b
65
2c
20
54
68
65
61
4c
75
6e
64
65
6d
6f
2c
20
4d
61
72
61
67
61
72
65
74
46
69
6c
6f
2c
20
52
6f
73
65
6c
79
6e
4d
61
69
72
2c
20
42
61
72
6e
65
79
54
72
61
6d
65
6c
6c
2c
20
45
6c
66
72
69
65
64
65
43
6f
6e
73
69
67
6c
69
6f
2c
20
54
75
61
6e
4e
61
62
68
61
6e
2c
20
47
6c
65
6e
6e
48
65
64
6c
65
72
2c
20
4a
6f
65
61
6e
6e
59
6f
63
68
69
6d
2c
20
44
61
69
6e
65
43
61
6c
61
69
73
2c
20
44
69
6f
6e
6e
61
42
6f
77
6c
69
63
6b
2c
20
53
61
75
42
75
74
74
73
2c
20
41
75
72
65
6c
69
6f
45
73
63
68
65
6e
62
72
65
6e
6e
65
72
2c
20
4d
61
6e
4d
63
6e
65
69
6c
2c
20
47
65
6f
72
67
65
74
74
65
4d
75
73
69
74
61
6e
6f
2c
20
54
69
65
72
61
43
6f
6e
79
65
72
73
2c
20
43
68
69
71
75
69
74
61
46
69
73
68
65
72
6d
61
6e
2c
20
41
6e
64
65
72
61
4c
69
6f
74
74
61
2c
20
43
65
64
72
69
63
53
63
68
65
6c
6c
65
72
6d
61
6e
6e
2c
20
47
69
61
48
65
65
70
2c
20
41
6e
64
72
61
45
73
63
61
72
65
6e
6f
2c
20
47
61
72
72
65
74
44
61
6c
73
61
6e
74
6f
2c
20
54
6f
62
69
65
43
65
6c
6c
69
2c
20
45
6c
6c
69
6f
74
74
48
61
61
6b
65
6e
73
6f
6e
2c
20
4f
64
65
6c
6c
45
6e
67
6c
65
6d
61
6e
6e
2c
20
4c
75
63
69
6c
61
4b
6f
65
70
2c
20
4c
75
63
72
65
63
69
61
43
72
6f
6f
6d
2c
20
4b
69
73
68
61
4c
75
6e
64
67
72
65
6e
2c
20
43
68
65
72
72
79
6c
49
6d
6c
61
79
2c
20
4e
61
74
68
61
6c
69
65
48
65
70
70
65
61
72
64
2c
20
52
65
62
62
65
63
63
61
44
65
6c
68
69
65
72
72
6f
2c
20
45
6d
69
6c
79
54
61
75
62
65
72
74
2c
20
4b
65
6e
6e
65
74
68
4d
77
61
79
2c
20
48
6f
75
73
74
6f
6e
53
65
6e
6e
2c
20
52
6f
6d
61
6e
61
42
6f
61
6d
61
68
2c
20
54
69
6e
61
52
75
63
69
6e
73
6b
69
2c
20
4d
61
72
74
68
61
45
73
74
65
73
73
2c
20
4d
69
73
73
42
61
6c
61
73
73
69
2c
20
41
73
68
6c
69
42
61
72
61
68
6f
6e
61
2c
20
52
61
75
6c
4b
6f
65
6e
69
67
73
66
65
6c
64
2c
20
4b
69
6d
62
72
61
54
61
70
70
2c
20
4d
69
6c
74
6f
6e
4b
6f
76
65
73
2c
20
47
6c
61
64
79
73
54
6f
68
69
6c
6c
2c
20
56
69
6e
63
65
6e
7a
6f
48
65
79
6d
61
6e
6e
2c
20
44
6f
6e
67
53
77
65
61
72
6e
67
69
6e
2c
20
41
6c
66
72
65
64
69
61
53
74
61
63
79
2c
20
41
72
6e
75
6c
66
6f
4c
65
67
61
75
6c
74
2c
20
4b
69
6d
62
65
72
79
4a
65
73
6b
6f
2c
20
4d
69
6e
74
61
4a
61
72
76
65
72
2c
20
42
65
72
74
72
61
6d
53
65
72
6c
2c
20
4c
65
73
4d
6f
72
67
61
6e
6f
2c
20
45
6c
6c
69
6f
74
4d
61
7a
7a
61
77
69
2c
20
59
65
72
41
68
61
72
6f
6e
2c
20
50
61
75
6c
46
6c
65
75
72
69
6c
75
73
2c
20
42
61
69
6c
65
79
50
61
72
6d
65
6c
65
2c
20
49
6c
65
61
6e
61
4c
61
6d
62
6f
75
72
6e
65
2c
20
50
61
67
65
52
69
76
61
72
64
2c
20
4e
69
63
6f
6c
61
73
41
75
6d
69
63
6b
2c
20
43
68
65
79
65
6e
6e
65
4c
61
72
61
2c
20
48
6f
6c
6c
69
65
50
61
72
6e
65
6c
6c
2c
20
46
72
61
6e
63
69
6e
61
48
65
6c
66
65
6e
62
65
69
6e
2c
20
41
6e
69
73
61
53
65
63
6f
72
2c
20
4a
6f
65
57
61
67
61
72
2c
20
53
6b
79
65
4d
61
72
69
61
6e
69
2c
20
50
61
74
74
69
65
41
68
6c
75
77
61
6c
69
61
2c
20
4b
61
72
72
79
53
68
65
72
72
65
72
2c
20
45
6c
69
7a
61
41
6e
73
62
61
63
68
65
72
2c
20
4a
69
6d
6d
79
4c
6f
63
6b
6d
61
6e
2c
20
44
65
6f
6e
6e
61
41
6c
64
72
65
64
2c
20
4a
65
72
72
69
5a
65
69
74
7a
2c
20
57
6f
6e
64
61
43
65
6e
74
72
6f
6e
65
2c
20
54
69
66
66
69
6e
79
53
61
6c
69
6e
61
73
2c
20
56
65
6f
6c
61
44
75
72
73
6f
2c
20
53
61
6d
6d
79
41
68
6c
6d
61
6e
2c
20
48
65
72
6d
69
6e
61
48
6f
65
72
61
75
66
2c
20
4e
61
6e
6e
65
74
74
65
53
68
69
67
6f
2c
20
41
64
65
6c
61
69
64
65
4d
61
7a
65
79
2c
20
43
6f
72
65
65
6e
4c
69
6e
6b
6b
69
6c
61
2c
20
42
65
72
6e
65
69
63
65
43
61
72
6d
69
6e
2c
20
4c
61
73
68
61
75
6e
64
61
48
61
72
64
65
72
2c
20
4b
69
72
62
79
41
6e
64
72
69
61
6e
2c
20
44
69
67
6e
61
53
6f
62
72
69
6f
2c
20
41
64
65
6c
69
6e
61
48
6f
67
61
69
6e
73
2c
20
44
61
6d
69
6f
6e
4b
6f
72
6e
72
75
6d
70
66
2c
20
4b
79
6c
69
65
43
72
61
6e
73
68
61
77
2c
20
42
65
61
74
72
69
63
65
4b
69
6c
63
6f
79
6e
65
2c
20
44
61
6c
65
53
61
72
6e
69
63
6f
6c
61
2c
20
45
66
72
61
69
6e
43
61
74
61
6c
69
6e
6f
2c
20
43
79
72
73
74
61
6c
53
6f
6c
76
65
72
73
6f
6e
2c
20
43
68
65
72
6c
79
6e
41
75
74
6f
62
65
65
2c
20
4a
6f
6e
65
4f
75
6d
2c
20
43
6c
61
72
69
74
61
54
75
6e
6b
73
2c
20
4d
69
63
68
65
6c
65
53
75
72
69
65
6c
2c
20
4d
61
72
76
69
6e
4c
75
6d
69
6e
61
74
69
2c
20
46
61
74
69
6d
61
68
52
75
73
73
6f
6d
61
6e
6e
6f
2c
20
44
6f
72
6f
74
68
65
61
52
6f
6e
64
65
6c
6c
2c
20
45
72
69
6e
6e
47
6f
75
62
65
61
75
78
2c
20
57
69
6c
6c
69
65
6d
61
65
45
62
62
65
74
74
2c
20
44
65
6e
69
73
4d
61
72
67
61
69
74
69
73
2c
20
4d
79
72
6e
61
44
65
70
65
74
72
6f
2c
20
45
6c
69
6e
6f
72
48
61
6e
73
63
6f
6d
2c
20
43
61
72
79
6c
6f
6e
44
65
63
61
72
72
2c
20
4b
61
6e
64
69
63
65
4a
65
73
74
69
73
2c
20
43
68
65
72
69
73
65
4d
65
6c
6c
69
65
2c
20
41
64
65
6c
61
69
64
65
44
69
6c
63
68
61
6e
64
2c
20
44
65
61
6e
64
72
61
57
69
6c
6c
65
74
2c
20
44
6f
6d
69
6e
67
6f
4e
6f
62
69
73
2c
20
42
65
75
6c
61
68
44
69
65
68
6d
2c
20
4c
6f
75
69
73
42
65
72
67
61
6d
69
6e
65
2c
20
4d
65
6c
79
6e
64
61
56
69
76
6f
2c
20
54
6f
72
79
50
61
70
69
6c
6c
69
6f
6e
2c
20
53
65
6c
65
6e
65
56
61
6c
65
6c
61
2c
20
44
65
6e
65
73
65
4d
63
63
6f
6e
69
63
6f
2c
20
4a
6f
61
6e
6e
65
50
61
63
6b
65
62
75
73
68
2c
20
4a
69
6d
46
6f
6c
6c
6f
77
65
6c
6c
2c
20
54
75
61
6e
47
61
75
63
68
65
72
2c
20
43
72
79
73
74
6c
65
42
72
69
6e
69
63
68
2c
20
4d
61
64
69
73
6f
6e
4d
75
68
6e
2c
20
59
6f
6b
6f
42
75
65
68
6c
65
72
2c
20
47
77
65
6e
45
73
70
69
6e
6f
73
61
2c
20
47
65
6f
66
66
72
65
79
46
6f
73
73
65
74
74
2c
20
4e
61
6e
6e
69
65
46
65
6c
75
78
2c
20
44
61
6e
65
50
72
65
73
73
65
6c
2c
20
53
68
61
6e
74
61
65
53
61
6c
74
75
73
2c
20
53
6f
6e
69
61
52
75
62
65
6e
73
74
65
69
6e
2c
20
44
65
65
42
61
72
74
75
6e
65
6b
2c
20
48
65
6e
72
69
65
74
74
61
51
75
65
72
79
2c
20
45
6c
76
69
65
57
65
73
74
65
72
6e
2c
20
4c
65
6f
6e
69
6c
61
47
61
62
72
69
65
6c
73
65
6e
2c
20
43
68
65
72
65
6c
6c
65
45
6c
79
2c
20
4e
6f
68
65
6d
69
4d
63
6d
65
6e
61
6d
69
6e
2c
20
43
68
65
72
69
6c
79
6e
4b
6e
6f
72
69
2c
20
4e
61
6d
47
61
72
67
2c
20
41
6e
64
72
65
65
4c
61
67
72
61
6e
67
65
2c
20
41
6c
62
65
72
74
48
6f
75
73
65
6d
61
6e
2c
20
41
6c
61
6e
65
44
69
74
6f
6d
61
73
73
6f
2c
20
42
65
76
65
72
6c
65
65
52
61
64
61
62
61
75
67
68
2c
20
4d
65
72
69
6c
79
6e
4f
6c
6c
65
72
2c
20
41
72
72
6f
6e
43
6f
79
6e
65
72
2c
20
41
76
72
69
6c
4d
61
72
74
68
61
2c
20
4a
6f
64
65
65
43
68
61
6f
2c
20
53
75
73
61
6e
5a
6f
6e
69
61
2c
20
52
75
73
73
65
6c
6c
45
6c
62
65
72
73
6f
6e
2c
20
49
73
69
64
72
6f
46
65
67
61
72
6f
2c
20
45
73
6d
65
72
61
6c
64
61
4d
69
74
6d
61
6e
2c
20
5a
61
63
68
65
72
79
5a
65
6e
73
2c
20
4a
6f
61
6e
6e
53
70
75
72
6c
69
6e
67
2c
20
50
72
75
64
65
6e
63
65
4c
6f
64
65
69
72
6f
2c
20
4a
61
6d
69
65
46
69
6e
6b
6c
65
72
2c
20
4d
65
6c
6f
64
79
56
6f
6e
64
65
72
68
65
69
64
65
2c
20
4b
69
6d
69
6b
6f
53
63
61
67
6c
69
6f
6e
65
2c
20
44
6f
6d
65
6e
69
63
42
61
67
68
65
72
69
2c
20
41
72
6c
69
6e
65
54
61
70
69
6a
61
2c
20
53
61
6c
6f
6d
65
4d
61
72
6b
6c
65
79
2c
20
4b
61
6d
61
6c
61
43
61
76
65
6e
65
73
73
2c
20
44
6f
6d
69
6e
71
75
65
4d
6f
65
6c
6c
65
72
2c
20
54
68
65
72
65
73
61
54
61
69
2c
20
49
73
61
62
65
6c
6c
48
75
6d
65
72
69
63
6b
68
6f
75
73
65
2c
20
4a
6f
68
6e
6e
61
4d
61
7a
7a
6f
6e
65
2c
20
56
69
63
65
6e
74
65
4c
6f
6e
67
61
63
72
65
2c
20
4c
61
6e
53
74
75
6e
6b
61
72
64
2c
20
4a
6f
79
63
65
4b
75
6e
6b
6c
65
2c
20
53
74
61
63
65
79
57
65
73
6c
65
72
2c
20
4a
65
61
6e
69
65
53
70
72
69
67
67
6c
65
2c
20
54
65
6c
6d
61
43
6f
6f
74
65
72
2c
20
53
68
65
72
6d
61
6e
50
69
73
63
6f
2c
20
4b
61
72
6c
45
6d
6f
2c
20
4a
65
6e
6e
69
6e
65
53
63
68
61
6c
6c
2c
20
4c
61
6b
69
74
61
4c
65
68
6e
6f
72
74
74
2c
20
4a
61
6d
65
4b
79
6c
65
72
2c
20
45
6d
69
6c
79
57
69
6c
64
69
6e
67
2c
20
53
68
69
6c
61
4d
6f
6e
74
65
61
6c
65
67
72
65
2c
20
50
61
74
44
69
62
72
69
74
6f
2c
20
50
68
65
62
65
43
61
72
74
61
67
65
6e
61
2c
20
46
75
6d
69
6b
6f
54
69
6e
73
6d
61
6e
2c
20
44
61
6d
61
72
69
73
41
61
64
6c
61
6e
64
2c
20
49
73
72
65
61
6c
47
61
72
72
2c
20
4a
65
61
6e
69
65
4d
6f
72
73
65
6c
6c
2c
20
56
65
72
6e
6f
6e
46
72
61
6e
6b
73
2c
20
43
68
69
52
69
66
65
6e
62
61
72
6b
2c
20
45
6c
73
65
56
61
6e
62
65
72
67
65
6e
2c
20
44
6f
6e
44
65
73
61
75
74
65
6c
2c
20
54
65
73
68
61
43
61
72
72
69
6e
6f
2c
20
4e
69
63
6f
6c
65
43
72
75
65
61
2c
20
4c
69
6e
68
4b
69
72
6b
70
61
74
72
69
63
2c
20
43
79
72
69
6c
42
65
63
6b
79
2c
20
44
65
6c
63
69
65
56
61
6e
64
65
72
68
6f
65
66
2c
20
4c
61
77
72
65
6e
63
65
48
65
73
6c
69
6e
2c
20
43
61
73
73
79
41
6e
69
63
6b
2c
20
43
79
6e
74
68
69
61
46
72
61
77
6c
65
79
2c
20
43
6c
61
72
69
73
61
46
6c
61
6e
64
65
72
73
2c
20
4c
75
69
67
69
42
65
6e
6e
69
6e
67
65
72
2c
20
43
68
61
72
6c
69
65
57
68
69
74
69
6b
65
72
2c
20
41
62
72
61
6d
49
72
69
67
6f
79
65
6e
2c
20
56
6f
6e
6e
69
65
53
68
65
72
6e
2c
20
4c
6f
75
65
6c
6c
61
47
75
6d
6d
65
72
73
61
6c
6c
2c
20
48
61
72
72
79
52
65
71
75
65
6e
61
2c
20
4a
6f
61
6e
47
75
72
61
6c
6e
69
63
6b
2c
20
54
72
65
73
61
42
61
73
6b
6f
77
2c
20
4a
61
6e
65
65
6e
44
75
6e
6d
6f
72
65
2c
20
4e
6f
65
6c
6c
61
57
65
6c
63
68
65
72
2c
20
4d
61
6c
6f
72
69
65
48
61
6e
6b
65
6c
2c
20
41
6e
67
69
6c
61
45
76
61
6e
6f
73
6b
79
2c
20
44
65
62
6f
72
61
68
43
61
72
61
6d
2c
20
4c
6f
75
72
64
65
73
56
65
72
6b
6c
65
72
2c
20
4a
69
6d
6d
69
65
4d
6f
72
61
76
65
63
2c
20
46
72
61
6e
63
69
73
44
69
6e
67
69
6c
6c
6f
2c
20
43
6f
6c
65
6d
61
6e
53
75
70
70
6c
65
65
2c
20
4a
61
6d
65
73
4b
65
2c
20
45
6c
73
69
65
48
72
69
62
61
72
2c
20
4e
6f
72
69
6e
65
4f
71
75
69
6e
2c
20
42
65
72
6e
69
65
46
61
75
62
75
73
2c
20
45
6c
76
69
73
4d
6f
72
6b
2c
20
5a
61
6e
65
47
6f
64
64
65
6e
2c
20
43
68
65
72
6c
79
4b
6c
69
6e
67
2c
20
45
75
73
65
62
69
61
48
75
6c
73
2c
20
4a
75
64
79
4c
61
69
67
6c
65
2c
20
53
68
65
72
6f
6e
52
79
62
6f
77
69
61
6b
2c
20
4c
61
74
61
6e
79
61
57
61
6c
6c
62
65
72
67
2c
20
4c
65
6e
6e
61
44
65
76
61
6c
6c
65
2c
20
4d
61
72
69
63
72
75
7a
42
6f
7a
69
63
68
2c
20
4b
72
69
73
74
65
65
6e
4d
63
6e
65
6d
65
2c
20
41
6e
64
79
47
65
65
2c
20
45
6c
6c
69
6f
74
74
44
72
65
79
2c
20
50
61
74
74
79
54
61
75
74
6f
6c
6f
2c
20
41
67
6e
75
73
48
6f
6c
79
6f
6b
65
2c
20
4a
65
6e
61
4a
61
73
6d
69
6e
65
2c
20
43
68
61
6e
65
6c
6c
53
63
68
6f
65
6e
6c
65
62
65
72
2c
20
44
61
6c
69
6c
61
44
65
6c
70
6f
7a
6f
2c
20
41
6c
65
78
69
73
44
75
65
69
74
74
2c
20
46
72
65
65
64
61
50
69
65
72
72
6f
74
2c
20
42
65
63
6b
69
54
69
6d
70
73
6f
6e
2c
20
45
6c
61
64
69
61
50
6f
69
6e
74
65
2c
20
47
75
73
74
61
76
6f
4b
65
70
6c
65
79
2c
20
44
61
6e
69
63
61
52
65
69
68
65
72
2c
20
4b
65
6e
6e
65
74
68
5a
61
64
6f
72
61
2c
20
41
6e
64
72
65
61
53
6e
6f
77
64
79
2c
20
4d
61
72
76
65
6c
42
61
72
62
75
72
2c
20
53
69
6d
6f
6e
54
65
65
73
2c
20
4b
65
65
73
68
61
4c
61
6d
61
69
74
72
65
2c
20
53
6f
6f
53
63
68
61
75
6c
2c
20
4a
61
63
6b
4b
61
6c
74
65
6e
68
61
75
73
65
72
2c
20
4d
61
6e
64
61
53
65
70
65
2c
20
48
65
6e
72
79
4e
61
67
61
73
61
77
61
2c
20
4c
61
73
68
61
77
6e
61
44
65
69
6e
65
72
74
2c
20
4b
61
74
68
65
72
69
6e
65
57
61
66
66
6f
72
64
2c
20
4c
65
69
64
61
45
73
6e
61
72
64
2c
20
4d
69
6e
61
4f
61
74
69
73
2c
20
45
6c
69
6e
47
6c
75
6e
7a
2c
20
4c
75
69
73
65
53
63
68
77
61
72
74
7a
65
72
2c
20
45
6e
6f
6c
61
43
65
63
65
6e
61
2c
20
42
72
6f
63
6b
4c
75
74
68
2c
20
41
72
6e
6f
6c
64
6f
43
72
6f
73
65
2c
20
52
61
6d
6f
6e
4d
69
63
68
61
6e
64
2c
20
4d
6f
6e
69
6b
61
47
61
76
65
6c
2c
20
4c
61
75
72
65
6e
63
65
49
6e
73
61
6c
61
63
6f
2c
20
4b
65
65
6c
65
79
4c
61
6e
73
6f
6e
2c
20
45
73
74
65
6c
61
42
69
6e
67
6d
61
6e
2c
20
4c
6f
72
72
69
5a
61
76
61
6c
61
2c
20
4b
65
73
68
61
49
6e
67
65
2c
20
41
72
69
61
6e
6e
61
45
6d
6c
69
6e
2c
20
43
61
72
6c
65
6e
65
43
68
65
73
73
6d
61
6e
2c
20
45
6c
6f
69
73
4b
65
6d
6d
65
72
6c
69
6e
2c
20
4e
67
6f
63
44
6f
6e
6b
6f
72
2c
20
44
6f
6e
61
6c
64
53
65
69
66
74
73
2c
20
43
6c
65
6d
65
6e
74
65
50
72
75
6d
2c
20
4d
65
72
65
64
69
74
68
57
69
6c
6c
69
6d
73
2c
20
54
61
6e
65
6b
61
53
74
65
66
66
6f
72
64
2c
20
43
61
73
73
61
75
6e
64
72
61
50
69
63
61
2c
20
44
61
6e
69
46
61
6c
6c
65
72
74
2c
20
42
6f
62
62
79
53
74
65
66
66
65
6e
73
6f
6e
2c
20
53
75
65
61
6e
6e
57
69
73
65
2c
20
52
6f
64
6f
6c
66
6f
4d
69
74
73
61
6b
6f
73
2c
20
53
61
6c
41
63
65
74
6f
2c
20
41
6e
74
68
6f
6e
79
49
67
65
6c
2c
20
4e
65
6c
6c
69
65
4b
72
61
66
74
2c
20
52
6f
73
65
6e
64
61
4b
65
74
63
68
65
72
73
69
64
2c
20
4d
6f
6e
74
79
4f
72
65
2c
20
53
65
70
74
65
6d
62
65
72
4d
61
76
69
73
2c
20
4a
6f
6c
65
6e
65
52
65
62
65
69
72
6f
2c
20
4e
69
6b
6b
69
48
6f
72
69
75
63
68
69
2c
20
54
77
79
6c
61
53
70
69
6b
65
72
2c
20
46
72
65
64
72
69
63
6b
4d
65
6c
63
68
6f
72
2c
20
44
69
6e
6f
4d
69
63
6b
6c
65
62
65
72
72
79
2c
20
4c
61
76
65
72
6e
61
4d
61
73
63
68
6d
65
79
65
72
2c
20
4d
61
75
72
65
65
6e
47
72
61
6e
62
65
72
67
2c
20
4c
65
65
61
6e
6e
61
53
68
65
63
6b
6c
65
72
2c
20
53
69
64
6e
65
79
52
69
6f
6c
61
2c
20
48
79
6f
52
65
69
62
65
72
2c
20
52
6f
73
73
42
6f
62
61
63
6b
2c
20
46
72
65
64
65
72
69
63
6b
61
42
72
61
6d
68
61
6c
6c
2c
20
4a
61
63
71
75
65
6c
79
6e
6e
4b
6f
72
74
7a
2c
20
4c
61
74
69
6e
61
44
75
6e
73
66
6f
72
64
2c
20
47
61
72
6c
61
6e
64
4b
69
6e
6c
6f
63
6b
2c
20
52
61
6c
65
69
67
68
4d
61
75
72
61
73
2c
20
53
61
63
68
61
4a
61
67
67
65
72
73
2c
20
4a
75
6c
69
65
4f
67
61
6e
64
6f
2c
20
45
6d
61
54
68
72
65
73
68
65
72
2c
20
45
6d
65
72
73
6f
6e
44
65
67
72
6f
6f
74
2c
20
44
65
6e
6e
61
4d
63
67
69
72
74
2c
20
41
73
68
6c
69
4b
72
75
70
70
61
2c
20
43
61
72
6c
61
45
6b
77
61
6c
6c
2c
20
47
65
6d
6d
61
45
6c
6c
61
72
73
2c
20
54
69
6d
42
61
6c
6c
61
2c
20
45
6c
64
65
6e
50
61
63
2c
20
4a
65
73
73
69
50
61
72
69
68
61
72
2c
20
4c
6f
72
65
65
47
72
6f
62
2c
20
4d
6f
73
65
43
68
65
6e
61
69
6c
2c
20
48
61
65
4d
63
67
6c
61
75
67
68
6c
69
6e
2c
20
4c
65
6f
70
6f
6c
64
6f
44
6f
72
72
69
6c
6c
2c
20
4d
65
6c
61
69
6e
65
46
69
6c
69
70
70
69
64
65
73
2c
20
4c
6f
76
65
6c
6c
61
4b
6f
7a
61
72
2c
20
59
75
6e
67
46
6f
75
72
61
6b
65
72
2c
20
44
65
6c
6f
72
69
73
53
70
69
6e
67
6c
65
72
2c
20
4a
61
63
6b
69
65
4d
61
75
72
6f
2c
20
45
6d
69
6c
69
6f
50
6f
6c
69
2c
20
4a
6f
73
65
70
68
69
6e
61
53
6f
72
65
6c
6c
2c
20
43
6c
61
72
69
73
53
69
6e
64
65
6c
61
72
2c
20
59
61
64
69
72
61
56
65
6c
74
7a
2c
20
52
69
63
6b
69
65
43
6f
6e
67
6c
65
74
6f
6e
2c
20
46
61
72
72
61
68
48
6f
70
6d
61
6e
2c
20
4c
6f
76
65
6c
6c
61
4b
6f
76
61
63
2c
20
43
72
69
73
65
6c
64
61
5a
61
66
66
69
6e
6f
2c
20
52
6f
64
6f
6c
66
6f
42
72
61
7a
2c
20
53
75
6e
6e
79
46
69
6c
65
2c
20
4b
69
6d
62
65
72
52
69
6d
61
6e
64
6f
2c
20
54
72
69
6e
61
52
75
74
68
73
2c
20
43
61
72
6d
65
6c
69
6e
61
4f
72
77
69
63
6b
2c
20
4d
61
72
67
65
72
79
4b
69
6e
64
72
65
67
61
6e
2c
20
4b
61
72
6c
79
6e
4b
65
65
74
65
72
2c
20
4a
65
6e
65
74
74
65
49
73
62
72
65
63
68
74
2c
20
4c
6f
72
65
6e
50
75
6c
69
64
6f
2c
20
53
61
62
72
69
6e
61
4d
75
6c
72
6f
6e
65
79
2c
20
43
61
79
6c
61
42
65
61
6c
6d
65
61
72
2c
20
44
6f
6e
6e
79
44
72
61
67
65
72
2c
20
45
6c
65
6e
6f
72
61
57
61
61
67
61
2c
20
44
65
6c
62
65
72
74
57
68
65
64
6f
6e
2c
20
4f
6d
65
67
61
50
6f
6c
68
61
6d
75
73
2c
20
54
65
72
72
65
6c
6c
45
66
72
61
74
69
2c
20
53
74
61
63
79
47
69
65
72
6c
61
63
68
2c
20
52
6f
73
73
4e
69
65
68
61
75
73
2c
20
41
72
6d
69
6e
64
61
43
68
61
6d
70
6c
69
6e
2c
20
42
75
64
64
79
47
72
61
6d
68
61
6d
2c
20
54
72
65
79
57
61
73
69
6c
65
77
73
6b
69
2c
20
4d
65
6c
61
6e
69
53
68
69
62
61
68
61
72
61
2c
20
4d
61
75
72
6f
4d
61
6e
6e
61
72
69
6e
6f
2c
20
45
6c
6f
69
73
61
47
6f
64
69
6e
67
2c
20
46
65
64
65
72
69
63
6f
42
6f
6e
61
72
2c
20
4f
73
63
61
72
42
61
76
65
6c
61
73
2c
20
4c
75
63
79
4f
6e
64
65
72
73
6d
61
2c
20
53
68
61
72
69
6c
79
6e
46
72
6f
6d
65
74
61
2c
20
43
6f
72
65
79
45
6d
73
77
69
6c
65
72
2c
20
41
66
74
6f
6e
48
61
63
7a
79
6e
73
6b
69
2c
20
48
69
6c
64
65
67
61
72
64
4b
69
74
74
72
65
64
67
65
2c
20
53
68
61
77
61
6e
61
46
6c
61
73
68
65
72
2c
20
45
75
73
65
62
69
6f
48
61
6c
69
63
6b
2c
20
4b
65
72
6d
69
74
50
61
6e
6b
6f
77
2c
20
43
68
61
72
69
74
79
57
65
72
6e
65
63
6b
65
2c
20
49
64
61
50
65
77
2c
20
4c
6f
76
65
74
74
61
50
61
72
6d
65
74
65
72
2c
20
4e
69
65
73
68
61
41
69
79
65
72
2c
20
48
69
6c
61
72
69
6f
41
6e
73
70
61
63
68
2c
20
41
6e
67
65
6c
69
61
46
69
73
68
65
6c
6c
2c
20
45
6c
65
61
6e
6f
72
65
4b
69
66
66
65
72
2c
20
58
65
6e
69
61
53
6b
69
62
69
73
6b
79
2c
20
47
65
72
61
6c
64
50
66
6f
75
74
7a
2c
20
53
74
6f
72
6d
79
45
73
6b
6f
6c
61
2c
20
54
61
77
6e
61
47
61
6e
74
7a
6c
65
72
2c
20
44
65
61
64
72
61
41
6c
6c
65
6e
64
6f
72
66
2c
20
4c
79
64
69
61
50
6c
79
6d
65
6c
2c
20
43
68
72
79
73
74
61
6c
50
61
6e
65
6b
2c
20
4e
6f
6e
61
4d
75
6e
64
7a
69
61
6b
2c
20
41
6e
67
65
6c
61
4a
75
65
6e
67
65
72
2c
20
4a
