61
61
74
67
61
61
61
63
61
67
67
61
67
74
74
63
61
61
63
74
61
74
74
63
61
61
67
67
63
63
74
61
63
63
61
67
63
67
61
63
67
61
67
61
61
74
74
74
67
63
63
63
63
63
74
61
67
67
67
61
61
63
67
67
61
74
63
67
63
61
74
63
74
63
67
61
61
63
61
61
74
67
63
74
74
63
74
74
67
67
61
61
61
67
67
63
63
74
63
63
74
61
74
74
61
61
61
63
61
67
61
61
63
74
61
74
67
67
63
74
67
67
74
67
74
61
61
63
67
63
67
67
61
63
61
74
61
74
74
74
67
67
61
63
67
63
61
67
63
74
61
63
74
74
63
74
61
61
74
67
74
63
61
61
67
74
74
63
74
61
61
74
74
74
61
61
74
63
74
63
67
74
63
61
67
63
67
74
61
67
61
74
67
63
67
67
63
74
74
67
67
61
74
63
61
67
61
63
67
74
63
63
61
61
74
63
61
61
74
61
74
67
74
61
61
63
74
74
74
67
63
63
67
74
61
61
63
61
67
63
74
74
74
63
67
63
61
67
74
74
63
67
63
67
63
74
67
63
74
61
67
63
63
61
74
61
74
63
74
74
74
74
67
74
61
61
74
63
61
63
61
63
74
63
74
61
61
63
67
74
74
67
74
61
67
74
63
67
63
61
67
67
63
63
67
67
63
74
67
63
67
67
63
63
74
61
67
61
63
74
67
63
63
61
74
61
74
61
63
74
74
63
63
74
74
67
61
61
63
61
67
67
67
74
63
63
61
63
67
74
61
61
63
63
74
61
61
74
74
61
74
63
61
74
67
61
61
61
61
63
63
67
63
74
61
63
67
63
74
74
67
63
61
74
61
67
63
67
61
67
67
61
63
67
74
74
61
74
74
61
67
67
63
63
74
67
74
74
67
63
61
74
74
63
63
74
61
67
67
67
63
74
67
63
61
61
67
63
63
74
63
74
74
61
67
74
67
63
61
67
67
74
61
63
67
67
61
63
74
74
67
74
63
74
67
63
63
61
74
63
67
74
63
61
74
61
67
74
74
74
74
67
63
74
63
61
67
61
61
67
61
61
61
74
63
74
61
63
63
63
61
61
74
63
67
63
61
74
67
61
67
63
63
67
63
63
67
61
61
61
63
67
67
63
67
74
67
61
74
74
63
67
67
74
74
74
61
74
63
63
61
74
67
61
74
67
61
63
61
63
67
74
74
63
67
61
74
61
67
74
74
67
74
61
63
63
63
67
67
63
61
74
74
67
74
63
74
63
74
67
67
63
67
61
74
67
61
63
74
63
74
63
67
74
67
61
61
67
74
74
67
74
67
67
63
61
63
67
61
61
61
61
67
63
74
74
61
63
67
61
63
74
63
67
74
61
61
63
74
67
63
74
67
67
67
74
61
74
61
67
67
63
74
67
67
63
67
67
67
61
61
63
67
67
63
61
67
67
61
61
61
61
63
74
61
74
63
63
74
74
74
61
67
61
74
63
63
67
63
63
74
63
63
74
61
67
74
63
61
67
63
67
74
63
74
63
63
67
61
74
61
61
74
67
63
61
67
61
67
61
74
63
63
61
74
63
61
74
74
74
74
61
61
63
63
67
61
61
67
67
61
63
74
74
67
63
74
67
61
74
63
63
74
63
63
74
63
74
63
63
63
74
67
67
67
61
67
63
67
63
63
67
74
67
61
61
63
74
74
63
63
61
74
67
61
63
67
63
61
61
74
67
74
67
74
61
63
67
63
67
63
67
74
63
74
63
67
63
61
67
74
63
63
63
74
61
63
61
63
67
67
67
61
74
74
67
67
63
67
74
61
74
67
67
61
61
67
63
63
61
67
74
67
67
74
67
63
61
67
63
63
74
63
63
74
67
74
63
61
67
63
63
63
74
63
63
74
74
74
74
67
74
63
61
67
74
63
63
67
67
74
67
61
63
67
61
61
74
74
67
74
61
74
74
63
63
67
63
61
61
61
74
74
67
63
74
74
74
63
67
63
74
67
67
67
63
61
61
61
63
74
74
61
63
63
61
63
74
61
61
67
63
74
63
61
63
61
61
74
74
63
67
74
63
74
74
74
67
63
63
61
74
67
74
67
63
61
67
61
67
61
61
63
67
67
74
74
61
63
63
63
61
61
74
61
67
74
63
61
74
74
61
74
61
74
74
74
67
63
67
61
67
61
63
61
74
63
67
74
61
61
63
61
67
61
63
61
61
61
63
61
74
63
67
61
67
74
61
61
61
67
63
63
67
74
63
61
63
63
67
67
67
67
67
67
67
74
61
74
74
67
61
67
74
63
74
67
61
61
63
63
61
74
63
61
67
67
63
63
63
61
63
61
74
63
74
74
63
63
74
63
63
67
61
67
67
74
67
61
61
63
74
61
63
63
74
74
61
61
63
63
67
67
74
74
67
63
61
61
61
67
74
61
67
63
63
67
67
61
67
74
63
61
61
61
61
74
67
63
63
61
74
67
74
74
61
74
61
63
67
63
61
61
67
63
74
74
74
61
61
61
61
63
67
63
74
67
74
74
63
67
61
74
67
67
67
61
74
74
63
63
61
74
61
74
67
67
67
67
67
61
61
74
61
74
67
63
63
67
61
67
67
61
63
61
67
63
63
63
74
74
63
74
61
74
61
63
74
74
61
67
61
61
63
74
67
74
61
74
74
63
67
74
67
67
67
63
74
74
74
74
63
74
61
67
74
67
63
63
67
61
63
61
67
61
61
63
67
67
61
61
74
63
61
67
63
61
74
61
67
74
63
74
63
74
74
67
67
67
61
74
61
61
74
63
63
74
67
63
67
63
74
63
67
67
74
67
67
67
61
67
61
61
63
63
63
74
61
74
61
74
74
74
63
63
61
67
63
63
67
63
61
74
67
63
61
63
63
61
67
74
63
74
63
67
74
74
67
74
63
61
63
63
74
67
67
63
61
63
67
67
74
67
61
61
67
63
63
61
74
67
74
63
67
63
63
63
63
63
61
74
63
74
74
61
67
63
61
61
61
63
61
63
63
67
63
63
74
67
61
63
63
61
61
61
67
61
61
63
61
67
67
63
61
61
74
67
63
63
63
67
61
63
67
67
74
74
63
67
74
61
74
61
67
67
74
74
67
74
63
63
74
63
74
63
74
67
67
63
61
74
67
63
67
61
67
63
63
67
67
74
67
74
63
63
63
61
63
61
63
74
61
61
74
67
61
61
74
67
74
61
61
61
63
67
61
63
74
67
67
61
67
74
63
74
61
74
61
61
67
63
67
74
61
61
63
67
67
67
74
74
61
74
67
63
61
67
74
63
67
74
61
63
61
67
63
63
67
67
74
67
61
63
61
63
63
61
61
63
61
63
74
63
67
63
61
67
61
67
61
63
63
74
61
67
61
67
61
63
63
63
67
74
67
61
74
67
74
63
74
67
63
63
63
63
67
61
61
61
67
63
67
74
63
61
74
61
74
74
74
61
63
74
74
67
63
67
74
63
74
74
61
61
74
63
67
63
61
61
67
61
63
63
61
74
67
67
61
74
67
63
67
67
63
61
74
61
74
67
67
67
61
61
63
74
67
63
67
63
61
67
67
67
67
63
61
74
61
61
63
61
74
67
61
63
63
61
61
61
74
67
67
63
74
63
74
74
67
67
63
74
74
67
67
74
63
61
74
61
61
63
63
61
63
63
67
61
63
63
67
63
63
74
63
63
74
67
61
63
63
63
74
61
63
74
61
67
61
63
74
61
63
74
63
67
67
74
61
67
61
63
74
74
63
63
63
61
61
74
67
63
61
63
63
67
67
67
74
74
74
63
74
74
74
74
74
67
67
67
74
74
67
67
63
74
74
74
61
74
63
67
63
67
63
67
61
63
67
67
74
67
63
74
74
67
63
61
63
67
67
74
61
61
63
74
67
74
67
67
61
67
67
74
61
67
67
63
74
61
74
61
63
63
63
61
74
63
63
67
61
63
61
61
74
74
74
61
63
67
67
63
74
67
67
67
61
67
74
63
74
61
63
67
63
61
67
74
63
67
61
67
67
67
67
74
63
67
67
63
61
74
74
67
74
67
67
74
61
67
61
61
74
67
67
67
74
61
67
67
61
61
61
74
61
67
67
74
61
74
63
67
63
74
74
67
61
61
74
61
74
61
74
61
63
61
74
63
74
67
63
74
63
74
67
74
63
61
61
61
63
74
67
67
63
61
67
61
61
74
63
67
67
74
74
74
67
61
61
67
63
61
74
63
67
63
67
67
67
67
63
67
67
67
67
74
67
63
63
74
61
63
61
74
63
63
63
63
63
74
63
74
74
63
74
74
67
74
67
63
61
63
63
67
63
67
61
61
74
74
63
63
74
67
74
74
61
67
74
74
63
74
67
74
74
63
61
67
74
74
63
61
67
63
61
63
67
63
61
61
74
61
63
67
63
67
63
74
61
63
63
74
63
61
67
63
67
74
74
63
63
74
67
63
61
67
74
63
61
74
74
63
61
74
74
67
61
63
74
67
67
67
63
61
61
63
63
61
61
74
74
63
63
63
63
74
63
63
63
63
67
74
67
61
61
74
61
74
63
74
61
74
74
74
63
74
74
74
61
61
74
63
63
74
74
61
63
67
74
74
63
74
63
67
61
74
67
74
74
74
63
63
67
67
63
74
61
74
67
67
63
63
67
67
74
63
74
63
74
61
61
74
61
67
74
63
67
67
67
67
74
63
61
74
67
61
67
74
67
63
67
61
61
74
67
67
74
67
63
67
63
74
67
61
67
61
63
74
67
61
74
61
61
63
74
63
63
63
74
61
63
67
74
61
74
63
63
63
61
63
74
61
63
67
63
61
61
74
63
61
63
63
61
67
63
63
67
74
67
63
63
63
61
74
61
67
63
67
61
74
74
67
74
61
74
63
67
74
63
61
74
63
63
74
67
74
74
61
61
74
74
63
61
74
74
67
61
67
74
61
74
67
61
74
74
61
61
67
74
63
61
61
63
61
61
63
63
61
67
63
74
63
74
67
67
61
67
74
67
74
61
74
61
63
61
67
63
61
67
63
67
67
74
61
61
74
63
63
67
67
67
74
74
61
63
67
67
67
74
67
63
63
63
74
61
74
74
67
74
67
63
61
61
67
61
61
67
61
61
74
67
63
61
63
74
61
67
74
63
67
63
74
67
61
63
74
61
67
61
74
67
63
63
61
63
63
63
67
67
67
74
61
61
74
61
61
67
74
74
63
63
67
74
74
74
67
63
67
67
61
67
67
63
63
67
67
63
61
63
63
74
67
61
74
63
74
63
63
61
74
67
63
67
63
67
63
67
67
74
63
61
61
74
63
63
67
67
63
74
67
67
63
74
67
63
74
63
67
63
61
67
74
63
74
63
67
63
61
63
63
67
67
61
74
63
63
74
67
61
67
61
61
67
67
74
61
63
61
61
74
74
74
74
63
63
61
63
61
63
67
67
74
67
63
74
61
74
74
74
61
63
67
61
74
67
67
67
67
67
63
74
74
63
63
74
61
74
63
61
63
63
63
74
67
67
63
67
63
67
63
61
67
63
67
67
63
67
74
67
63
61
61
61
67
61
63
74
63
61
63
63
74
63
74
61
67
61
67
63
61
63
74
63
67
61
67
67
74
67
67
74
74
74
74
63
61
67
74
67
61
63
74
61
63
74
61
61
63
67
63
67
61
67
61
67
63
61
67
67
74
61
74
67
61
63
67
74
74
74
67
63
67
61
67
67
74
61
74
61
67
61
74
74
74
67
61
61
61
63
67
67
63
61
61
67
74
63
67
74
61
74
74
63
61
67
74
67
67
63
74
67
74
63
61
61
61
74
63
61
67
67
63
74
63
67
61
67
74
67
74
63
63
67
74
74
67
74
63
74
74
74
74
63
63
67
61
63
67
74
67
74
61
74
67
67
61
63
74
61
74
61
61
61
63
67
67
74
74
67
74
63
74
63
61
67
67
74
61
67
67
67
61
61
61
61
74
63
74
74
63
74
74
61
74
74
74
67
67
61
67
74
63
67
61
61
74
61
74
63
63
67
63
61
74
67
74
63
74
67
61
67
74
74
74
63
63
67
67
67
67
63
67
63
67
61
63
63
63
61
63
63
63
67
63
74
74
74
74
67
67
74
67
67
67
61
63
63
74
63
67
74
74
67
67
67
63
74
67
61
67
61
74
61
67
74
67
63
63
67
74
74
61
63
67
67
61
74
67
67
67
67
61
74
74
63
61
67
61
63
74
67
63
67
61
63
63
74
63
63
67
74
74
63
63
61
67
74
67
63
74
63
74
63
63
74
63
61
61
63
61
74
63
63
67
63
61
63
61
61
74
61
74
63
63
63
61
74
61
61
74
67
63
67
61
63
74
74
67
63
61
63
74
61
61
63
61
61
63
63
63
61
67
61
67
67
61
63
67
63
67
74
67
61
74
63
63
74
61
74
63
74
74
61
63
61
61
63
63
61
63
63
67
61
61
74
74
67
61
63
63
61
61
63
63
61
61
67
67
74
63
67
67
67
74
61
74
63
74
63
63
67
63
61
63
61
74
63
74
63
63
63
63
61
74
61
67
74
67
61
74
74
74
61
67
67
74
67
61
67
67
67
63
74
74
67
67
74
63
63
74
63
61
61
74
61
61
67
74
74
67
74
63
74
67
61
67
63
63
63
74
74
67
61
63
67
67
61
74
63
67
61
67
67
61
74
67
67
74
63
61
63
74
74
61
61
63
61
67
74
63
67
67
74
63
67
61
74
63
67
74
74
74
74
61
63
74
67
63
61
74
63
61
63
67
63
74
61
61
61
74
67
67
61
63
63
67
67
63
61
61
63
74
63
74
74
63
61
61
63
67
67
74
61
74
61
61
74
63
61
63
61
67
67
63
74
61
74
67
74
63
63
67
67
67
67
67
61
67
74
63
67
67
74
61
61
74
61
63
67
67
61
61
67
61
67
74
61
74
61
63
61
61
61
67
63
74
63
74
74
63
61
63
63
63
74
74
67
63
61
74
74
61
63
67
63
63
63
61
63
63
67
67
61
74
74
61
74
61
61
63
61
74
63
61
67
74
67
74
74
61
67
67
63
74
63
61
61
74
63
67
67
61
74
67
67
67
74
74
63
74
63
74
74
63
74
63
74
74
61
74
61
63
63
63
63
67
63
61
67
63
61
63
74
63
61
74
63
67
61
67
67
63
74
61
67
63
61
61
61
67
74
67
63
74
67
63
63
67
67
61
63
61
67
74
61
67
74
61
74
74
67
74
67
61
61
67
61
67
63
61
61
74
61
74
74
67
67
61
63
61
63
67
74
63
61
61
63
74
74
61
74
63
74
63
61
67
74
61
63
74
61
61
67
67
61
61
67
67
61
74
63
67
63
74
63
74
63
63
67
67
61
63
63
63
63
63
74
61
74
63
61
67
61
61
63
74
67
74
63
63
67
61
63
63
67
67
74
74
61
63
63
61
74
63
67
63
63
74
74
67
74
74
74
63
74
67
67
63
67
63
74
74
61
67
63
67
61
74
74
61
67
67
74
67
67
63
67
67
63
63
67
63
61
67
74
67
61
67
74
67
61
74
61
74
67
63
67
74
61
63
63
63
74
61
67
63
67
67
61
63
63
74
61
61
61
63
61
61
67
74
74
67
63
61
63
67
74
74
63
63
74
74
74
74
63
61
67
61
61
74
61
67
67
67
63
74
67
67
61
67
67
67
74
63
67
63
74
67
63
61
63
74
74
67
67
67
63
61
63
74
74
61
74
67
67
61
63
67
74
61
63
67
74
61
63
74
63
63
61
67
74
74
63
63
74
61
61
74
67
61
74
74
61
61
61
63
63
61
67
63
61
67
61
61
74
63
67
61
61
63
74
74
67
67
61
61
74
63
74
61
67
63
63
74
74
63
67
63
74
67
74
61
63
74
67
63
67
74
63
61
74
67
67
63
61
61
63
67
61
67
63
67
63
74
74
67
61
74
63
67
63
63
61
61
61
67
67
67
63
74
74
74
74
74
67
67
63
74
67
61
61
61
61
74
61
67
63
74
63
61
63
61
63
74
74
61
74
67
61
67
67
61
61
74
74
61
61
63
61
61
61
63
67
61
61
67
74
61
67
74
74
61
67
63
74
67
61
74
63
63
61
61
61
67
61
67
61
67
67
61
63
63
63
74
74
67
61
61
63
63
61
74
67
67
61
74
63
63
74
74
67
63
74
61
74
74
61
61
63
74
63
74
67
67
61
67
67
67
74
61
74
63
63
67
61
67
61
61
61
63
61
61
67
67
63
74
67
63
63
67
61
74
63
74
67
67
74
74
63
74
67
63
67
61
67
61
63
67
74
74
67
74
74
74
74
61
74
74
67
63
63
74
74
74
61
67
61
67
67
61
74
63
67
61
74
61
67
67
61
63
63
74
61
61
67
63
61
61
67
61
63
67
67
61
61
67
61
63
61
61
63
61
63
74
67
74
61
61
67
67
61
67
67
61
74
74
61
63
67
74
67
61
61
61
63
63
74
74
67
67
74
61
67
63
67
67
63
61
74
74
63
67
74
74
74
61
67
61
63
74
63
61
63
67
67
63
61
61
74
61
63
74
74
63
63
63
67
61
67
74
63
61
67
63
61
61
61
63
74
74
74
67
61
61
63
74
63
67
74
74
61
67
63
74
67
61
61
63
61
61
61
61
74
61
61
63
61
74
63
61
63
67
74
74
74
74
74
74
74
63
61
63
74
67
67
67
74
67
67
74
63
61
61
61
74
74
74
74
74
63
74
63
63
74
63
63
63
61
63
74
67
67
67
67
63
63
74
74
74
67
74
74
63
74
67
74
74
67
63
61
61
61
63
74
61
67
74
74
67
67
67
74
67
63
74
61
74
63
61
67
74
74
74
63
61
67
63
67
63
61
61
67
61
67
74
61
61
61
67
74
74
61
63
63
74
63
67
67
67
74
61
61
74
74
61
63
67
74
63
61
63
67
74
61
63
61
61
61
61
61
63
74
63
74
61
61
63
67
74
67
74
63
63
74
67
61
61
63
63
67
61
67
63
74
74
61
63
61
63
67
61
67
63
74
74
63
63
61
61
61
63
74
67
63
67
61
63
67
74
61
74
63
74
67
61
74
74
74
67
67
74
61
63
74
61
74
67
61
61
61
63
74
67
67
67
67
67
61
63
61
61
67
63
63
63
74
63
74
74
74
67
63
74
61
74
61
61
61
67
74
67
74
67
61
67
74
74
63
63
63
63
63
61
63
61
63
74
74
63
74
67
74
61
63
74
74
63
63
63
63
63
67
63
61
63
63
63
67
74
61
74
63
61
63
74
74
67
61
74
74
61
67
61
74
67
67
63
61
67
67
61
67
63
63
61
61
74
74
74
63
74
63
74
63
63
74
67
63
63
61
63
63
67
63
61
74
74
74
74
61
63
67
61
63
67
74
74
67
67
67
67
61
61
61
63
63
74
74
63
63
74
61
74
67
67
67
63
67
61
63
67
63
63
67
61
74
61
63
61
74
67
67
61
61
67
61
67
67
67
74
74
67
63
74
63
74
67
74
74
74
63
61
63
74
67
63
74
74
67
63
61
74
61
63
61
61
61
63
74
74
63
74
63
63
67
61
74
61
67
63
61
74
63
63
61
67
61
61
61
63
61
63
63
63
67
67
61
61
61
63
67
61
74
63
63
61
63
74
67
63
61
61
61
67
63
61
74
61
63
74
67
74
63
63
74
74
61
74
63
67
63
61
74
61
67
67
74
61
63
67
67
61
61
63
74
63
74
61
67
63
63
74
67
74
63
61
67
67
63
67
74
67
61
61
74
63
63
63
63
74
74
67
74
63
63
63
61
63
74
61
74
63
63
74
74
61
67
74
74
67
63
74
61
61
67
63
67
61
61
61
61
61
61
74
63
67
74
63
63
61
63
74
63
61
74
67
61
61
74
74
61
61
63
67
61
63
67
61
67
61
74
74
67
61
67
74
67
67
67
74
74
67
61
67
67
61
67
63
74
63
67
63
63
63
67
61
61
74
67
61
74
74
67
61
74
67
63
63
67
74
74
67
61
74
67
61
67
61
67
74
74
74
74
61
74
61
61
74
74
61
74
74
74
67
74
74
61
67
74
67
67
74
61
63
63
74
63
74
61
63
63
74
67
63
74
74
61
74
61
63
61
63
74
67
63
67
63
67
61
74
74
63
74
63
61
61
63
63
67
63
74
61
63
61
63
63
74
61
63
63
61
74
61
61
63
67
74
74
63
74
67
67
61
63
63
63
67
63
67
63
67
61
61
67
63
61
67
61
67
74
63
61
63
67
67
74
67
74
74
67
63
74
63
63
61
61
67
74
74
67
67
63
67
63
61
61
74
67
67
61
74
61
67
74
74
63
63
74
61
61
74
61
67
63
63
61
74
67
74
61
63
63
63
67
74
61
74
67
63
67
67
74
63
67
63
74
67
74
63
67
63
63
61
61
67
67
61
61
74
67
61
74
63
61
67
74
67
63
67
63
74
67
74
74
61
67
67
61
67
74
63
67
67
74
67
67
61
67
61
74
67
67
74
63
63
67
61
63
74
67
61
61
63
61
74
61
74
74
67
67
74
67
67
61
61
74
67
63
74
74
63
61
67
74
61
61
67
67
61
61
63
63
63
74
67
67
67
63
61
74
61
74
63
67
61
74
61
61
63
74
67
74
67
63
67
61
67
63
63
74
63
74
74
63
61
63
61
67
67
67
67
63
67
67
74
63
67
67
63
74
63
63
63
67
63
61
61
61
67
63
67
63
74
61
67
63
63
67
63
67
74
74
63
63
61
67
61
74
74
63
74
67
67
74
67
67
63
63
74
61
63
61
74
67
74
61
67
74
67
61
61
67
61
61
63
74
61
61
74
61
63
67
74
63
63
63
74
63
74
67
74
63
67
74
67
67
67
74
63
61
63
61
63
61
63
63
61
74
61
74
67
61
74
67
67
67
74
61
63
67
61
61
61
74
61
74
61
63
63
61
61
63
61
61
61
63
74
74
67
74
63
61
74
61
63
67
61
74
74
61
61
67
67
67
63
67
61
61
74
63
67
61
74
74
61
67
61
74
63
67
67
63
63
61
67
67
61
67
74
74
61
74
67
74
63
74
74
61
63
63
74
63
67
61
61
63
74
61
63
63
61
67
67
63
67
63
61
67
74
74
67
67
74
61
63
67
67
67
61
63
74
74
67
61
61
67
67
63
63
63
67
61
61
63
63
61
63
63
63
67
61
63
61
61
63
74
61
63
63
61
61
67
63
61
67
74
63
67
67
61
61
63
63
67
67
61
63
74
63
74
61
61
74
67
67
63
67
74
61
74
67
74
67
61
67
67
74
67
74
67
67
74
74
63
74
61
74
74
61
67
67
63
63
67
61
74
67
63
67
74
67
74
67
61
67
74
63
63
67
63
63
74
63
61
61
74
63
74
67
74
63
63
61
67
63
63
61
63
61
61
63
63
63
61
67
67
63
74
61
74
74
67
61
61
74
61
67
74
61
67
63
67
63
63
61
74
63
63
74
61
74
63
61
63
61
67
61
61
63
67
74
74
63
61
67
61
74
74
63
61
74
74
63
74
67
63
63
63
63
61
74
74
61
74
61
63
61
74
67
61
63
63
63
67
63
61
61
61
67
74
67
61
63
61
74
67
67
74
74
63
67
67
61
61
61
63
63
74
67
63
63
74
74
67
74
74
74
74
67
63
61
67
67
74
61
74
61
63
61
74
67
67
67
61
61
61
63
61
61
67
63
63
61
74
63
67
74
74
61
67
74
74
67
61
63
63
63
67
74
61
74
61
61
63
63
74
67
61
63
61
67
74
74
63
63
67
61
63
67
67
74
67
74
63
74
67
67
67
63
61
74
74
63
74
74
63
74
74
74
74
67
74
61
63
63
74
74
74
67
67
74
63
67
74
74
74
63
74
63
67
67
67
74
63
61
63
67
63
61
63
63
74
61
61
67
61
61
74
74
63
61
61
61
74
63
61
61
74
61
74
74
61
74
63
67
63
63
63
63
61
63
74
67
63
63
67
61
74
63
74
61
74
61
74
74
61
63
63
67
61
63
61
63
74
63
67
63
61
74
63
61
63
67
63
61
67
74
74
74
74
74
61
63
67
67
63
74
61
61
74
61
74
63
63
67
67
74
74
67
67
63
67
67
67
67
67
74
61
61
67
63
61
74
61
63
61
61
74
67
61
67
74
74
67
63
61
74
67
67
67
74
61
63
63
63
61
61
63
67
74
67
63
63
74
63
63
61
61
61
61
67
63
63
61
61
61
61
74
63
67
67
67
63
74
61
61
63
74
63
63
67
63
61
74
74
74
67
63
67
74
74
74
74
63
63
67
74
63
74
61
61
74
67
61
67
74
63
63
61
63
74
63
67
67
67
61
61
74
61
67
63
61
74
74
67
74
74
67
67
61
74
74
74
67
74
63
67
67
67
61
63
74
63
63
63
67
67
61
61
74
61
67
74
63
61
63
61
61
74
61
67
61
67
61
61
63
74
61
63
74
63
63
74
63
63
67
61
61
61
61
63
67
63
61
67
74
67
67
67
74
63
63
67
63
67
61
61
61
67
67
74
67
63
61
74
74
67
67
61
63
61
61
67
63
67
67
63
61
61
67
74
63
61
74
67
74
67
74
67
63
67
63
61
67
67
61
63
63
63
61
63
74
61
74
67
63
74
67
74
67
61
63
61
63
74
63
67
74
67
74
63
61
74
67
63
63
61
67
61
67
63
74
67
63
63
74
74
74
67
63
63
63
74
63
63
63
63
67
67
74
61
67
74
63
74
63
74
74
63
61
74
63
63
74
74
63
67
63
67
61
67
67
74
67
67
74
61
67
74
74
74
74
74
63
74
67
67
74
63
61
74
67
61
61
63
74
61
67
67
61
61
63
74
67
63
61
61
67
63
74
67
63
63
67
63
67
63
67
74
74
74
63
74
63
74
74
74
61
61
63
67
67
61
67
67
67
63
67
74
63
74
74
63
67
63
61
61
67
61
74
63
74
61
61
67
63
61
67
74
74
74
61
61
63
63
74
74
61
61
61
61
63
67
67
67
67
61
63
74
61
61
61
61
67
63
63
61
74
61
74
61
61
74
63
63
74
63
67
61
74
61
67
67
63
67
63
63
61
61
67
63
61
74
67
63
63
74
74
63
74
74
67
63
67
61
61
63
74
61
63
74
61
63
74
61
67
67
61
63
74
67
63
67
63
67
61
67
63
74
61
67
67
63
61
61
67
63
67
61
61
67
61
74
61
61
74
61
61
63
61
67
63
74
67
63
67
74
63
74
74
74
67
61
63
74
61
61
74
63
63
67
61
61
67
67
67
74
67
67
61
61
63
61
74
63
74
61
63
61
67
61
74
61
67
63
63
61
61
67
74
74
74
74
74
67
63
74
74
61
74
67
61
63
61
67
63
74
74
61
74
74
63
74
74
61
67
67
63
67
61
63
74
61
67
74
63
63
63
74
74
61
63
63
74
74
67
74
61
63
74
61
63
61
61
61
63
67
61
74
74
74
74
74
67
67
67
63
61
74
63
61
63
61
74
63
63
67
63
74
61
63
63
61
67
63
74
67
63
63
74
61
61
74
74
63
67
63
61
63
74
61
74
67
74
63
63
61
74
63
63
61
67
61
67
67
74
67
67
67
67
67
74
67
67
74
61
63
61
61
74
67
61
67
63
67
63
63
74
61
63
63
67
67
74
61
63
61
63
61
74
74
61
74
67
74
63
63
61
63
61
61
74
67
74
67
67
63
61
74
63
61
67
63
74
74
63
74
61
63
74
67
67
63
63
63
67
74
61
63
67
63
61
63
74
67
74
63
63
74
63
67
61
67
74
74
61
61
61
63
67
67
67
67
67
67
67
63
61
61
74
74
74
61
61
63
63
63
61
63
74
67
74
74
63
67
61
74
67
61
74
74
61
63
61
67
74
74
61
74
63
61
67
67
67
67
63
74
67
61
63
74
61
74
67
67
63
67
63
63
67
61
61
67
63
61
67
74
61
74
67
74
63
63
61
63
74
74
67
61
61
74
61
61
61
67
63
61
74
74
61
74
63
63
61
61
74
63
74
63
74
63
74
74
61
74
61
63
61
67
74
63
63
74
61
63
61
74
67
67
63
67
74
67
74
61
74
74
67
63
74
67
74
61
67
74
74
74
67
74
67
61
67
74
67
74
63
74
74
61
67
63
61
67
74
63
74
74
61
67
63
63
61
67
67
67
67
74
74
67
67
63
67
74
67
74
67
74
67
61
74
61
61
63
74
63
74
67
63
67
74
67
74
67
63
74
63
61
67
74
61
61
74
74
67
74
67
61
61
61
63
74
67
61
63
61
74
61
67
63
63
63
63
74
61
67
61
67
61
67
61
67
61
74
74
74
61
67
63
74
63
74
63
63
61
74
67
63
61
74
63
61
67
63
67
61
67
74
61
63
74
61
74
67
63
61
74
67
74
74
74
61
61
61
61
63
61
63
74
61
74
61
63
67
67
67
74
67
67
61
63
63
67
67
74
61
74
67
61
61
63
61
63
67
67
63
74
61
67
74
61
63
61
67
67
74
74
61
74
61
63
63
74
74
74
63
61
67
63
61
74
67
74
74
63
67
63
74
74
63
61
67
74
74
67
63
67
74
74
63
67
74
74
61
74
61
67
67
74
63
74
74
63
61
61
74
61
74
74
74
63
67
61
63
67
74
63
63
74
63
63
67
67
74
63
63
67
74
74
67
67
67
67
67
67
63
67
63
74
67
74
74
74
67
74
63
74
67
61
61
61
61
67
61
61
74
74
67
74
63
67
63
67
61
74
63
74
74
74
74
74
67
74
67
61
67
63
67
67
61
74
74
63
67
63
74
74
61
61
67
63
63
67
67
63
67
67
63
74
67
67
61
63
61
63
74
63
63
67
63
67
67
61
67
74
61
61
74
63
63
61
74
61
63
61
61
63
61
74
63
63
67
61
67
74
67
74
63
61
63
63
74
67
67
74
67
63
67
74
67
61
74
61
67
61
63
74
67
74
63
67
67
67
63
61
67
63
74
67
74
63
74
63
67
61
61
67
63
61
61
63
61
63
61
63
67
67
74
74
63
67
61
63
61
61
67
67
67
63
63
63
67
74
63
74
61
61
61
63
61
63
67
61
63
67
63
67
61
67
67
61
61
67
67
61
63
63
67
67
67
67
61
63
61
67
67
67
74
61
61
63
74
63
74
67
74
67
74
61
61
61
74
63
74
61
74
67
74
67
61
63
61
74
74
61
67
63
67
74
74
63
67
67
67
67
63
61
63
67
67
74
67
61
67
61
63
61
74
63
74
74
67
67
61
67
74
67
67
67
74
67
67
67
67
74
67
67
67
61
74
63
63
74
63
74
61
74
67
74
61
67
61
74
67
63
61
74
74
61
63
67
74
61
67
74
74
67
61
63
63
74
74
63
63
63
67
61
63
63
67
63
61
61
61
74
63
74
61
67
61
67
74
67
74
63
74
63
63
61
74
61
74
63
63
74
67
67
67
67
67
74
67
74
74
61
63
61
61
61
74
63
74
61
61
61
61
67
67
63
67
67
74
63
74
63
61
63
67
63
61
63
74
67
61
63
63
61
74
63
63
61
61
61
61
67
67
67
63
74
74
74
63
67
74
74
74
67
63
61
74
61
61
67
61
63
63
61
67
74
61
74
61
74
67
67
61
63
63
67
74
61
67
61
63
61
67
61
63
61
61
74
61
74
74
63
63
61
74
67
67
61
67
74
74
67
74
63
74
61
63
61
61
61
67
74
67
67
63
74
67
61
74
67
61
74
74
67
67
74
74
61
74
74
63
61
67
67
74
74
63
61
74
74
61
74
61
67
74
63
67
63
63
67
67
63
61
61
74
63
63
63
63
63
61
63
74
63
61
61
67
74
63
61
74
67
63
67
61
61
63
61
67
63
74
61
61
61
63
61
63
67
61
67
63
67
63
63
61
67
67
61
67
74
67
61
74
61
63
61
67
74
61
67
61
74
74
61
61
67
63
67
74
67
63
61
63
74
67
74
74
67
61
67
67
74
67
63
63
74
67
63
63
63
61
61
74
63
63
74
61
63
63
74
61
61
67
74
67
63
61
74
67
74
61
74
63
61
67
63
74
74
63
63
74
67
74
63
63
74
67
74
61
74
61
61
74
61
67
67
61
67
74
63
63
67
61
67
61
61
67
74
63
61
63
61
63
63
61
63
74
63
63
67
67
63
63
63
61
74
67
74
74
74
61
63
61
67
61
74
74
61
74
61
61
61
74
61
67
63
67
63
61
61
61
67
74
67
74
74
67
67
74
67
63
67
63
61
61
63
63
61
67
74
74
63
61
63
67
63
74
61
63
63
74
67
63
74
63
63
74
74
61
61
74
63
63
74
63
74
61
63
67
63
67
67
74
61
67
67
63
63
74
61
61
61
74
74
74
61
67
74
74
63
63
74
67
67
61
63
67
61
67
74
67
67
63
63
63
63
67
67
74
63
63
67
61
74
67
61
61
74
61
74
67
67
67
61
74
67
63
63
63
63
63
63
67
61
63
67
67
61
61
67
63
63
67
61
63
67
74
67
63
63
63
74
74
67
67
63
61
63
67
67
61
61
63
67
74
63
63
61
63
61
61
61
61
61
74
63
74
63
74
74
67
74
61
67
74
74
63
63
61
67
74
67
63
67
63
67
61
63
74
61
61
61
61
74
67
63
63
61
63
74
63
61
67
61
63
63
67
74
67
61
74
74
61
74
63
61
67
67
61
74
61
63
67
74
67
74
61
67
63
63
67
61
67
67
63
63
74
74
61
61
67
61
61
67
61
74
67
61
67
74
61
63
67
67
67
61
74
67
74
67
61
61
74
61
63
67
63
63
61
74
61
74
74
67
74
61
63
63
63
67
63
74
74
74
67
63
63
63
63
63
63
61
67
63
61
63
63
63
67
67
63
67
61
74
63
67
61
63
61
74
74
63
67
74
74
67
63
67
74
67
67
63
61
74
67
67
61
63
61
63
74
74
67
74
67
67
74
67
61
67
63
63
61
67
67
67
63
74
61
61
74
63
63
63
74
74
74
61
74
67
67
67
74
67
63
67
74
61
67
67
63
61
63
67
74
74
63
67
67
61
74
61
63
63
74
61
61
61
63
63
63
61
61
74
63
61
61
74
61
63
67
63
63
67
63
63
63
63
67
61
67
67
67
67
67
74
67
61
63
74
63
63
67
63
61
61
67
61
61
67
67
63
67
61
61
61
74
63
67
67
74
74
61
61
63
74
67
61
67
63
63
61
67
61
61
74
67
74
61
63
61
63
67
63
67
67
61
61
61
74
67
63
74
61
63
67
61
61
74
61
67
74
74
67
74
74
61
67
61
74
61
63
67
74
63
67
61
74
61
61
63
67
74
61
63
74
63
74
61
61
67
61
61
67
61
67
63
74
67
63
74
67
67
63
67
63
67
67
74
61
74
61
63
67
74
67
74
74
63
63
74
67
67
61
74
67
67
61
61
61
63
67
63
74
74
61
61
67
67
74
74
63
63
67
74
63
74
61
61
61
61
74
63
67
61
61
63
67
61
61
63
61
61
74
67
67
63
67
63
67
67
67
63
67
74
63
63
74
63
61
67
74
61
67
63
63
61
67
63
74
74
74
63
61
74
63
63
74
61
63
67
67
74
67
61
61
74
74
63
63
67
67
74
67
63
63
67
67
63
67
61
63
63
74
67
63
61
67
74
74
67
61
67
74
74
61
67
74
74
67
61
74
74
63
61
74
74
74
61
61
67
74
61
74
63
61
74
63
63
61
61
63
67
61
61
67
63
67
67
61
63
74
61
74
61
61
61
61
61
67
61
67
61
67
63
63
74
67
67
61
61
63
63
67
67
74
63
74
61
74
74
67
67
67
74
61
74
61
74
61
67
63
61
74
61
74
63
74
67
74
63
67
67
67
63
63
61
67
74
63
74
63
63
63
74
61
61
63
61
67
63
61
67
61
67
74
63
61
67
63
67
67
61
67
67
61
67
61
74
63
63
74
63
63
74
63
61
67
63
67
74
74
74
63
74
63
63
67
67
61
74
74
61
63
74
74
61
67
74
74
63
67
61
67
63
67
61
67
74
61
61
67
74
67
61
74
61
67
61
63
74
61
61
61
67
63
74
63
74
67
63
61
61
61
63
63
74
63
67
63
61
74
67
74
63
74
61
61
61
63
67
67
67
74
63
67
63
63
63
67
63
74
74
74
74
63
61
61
63
74
63
67
74
67
63
67
63
67
67
61
61
61
61
63
67
67
74
61
61
63
63
61
61
67
74
74
74
61
74
67
67
61
63
67
74
61
67
74
67
61
63
63
63
67
63
67
74
63
61
67
74
67
61
63
61
67
74
74
74
74
67
74
74
63
61
61
74
63
67
61
61
67
67
61
67
61
63
74
67
74
67
74
63
61
61
67
67
61
74
74
61
74
61
63
63
67
67
67
61
67
67
74
63
67
63
61
63
67
74
63
61
67
67
61
74
74
61
74
63
74
61
63
67
61
74
63
74
67
61
61
61
61
67
63
74
63
63
67
67
74
67
74
74
67
61
67
61
67
63
61
63
63
67
61
61
67
61
61
61
63
67
67
61
74
63
61
67
63
61
61
74
74
61
67
63
74
67
63
61
67
63
63
74
63
67
61
74
63
63
74
63
63
61
63
63
61
63
61
63
61
74
63
74
74
61
61
61
67
63
61
67
63
61
67
74
74
61
61
63
63
67
74
67
63
74
74
67
63
63
63
61
63
61
63
61
63
67
67
61
63
67
61
74
63
67
67
63
67
63
61
67
67
74
63
67
61
67
67
74
67
67
74
67
67
63
74
67
74
61
63
63
74
67
74
74
63
61
74
67
67
74
61
67
63
63
63
74
67
63
67
61
67
74
74
63
67
67
63
61
61
61
63
67
74
74
74
74
61
67
74
63
61
61
63
74
61
74
63
63
67
74
67
74
67
74
61
74
63
61
67
74
67
67
67
61
74
61
67
61
67
61
67
63
61
63
61
63
61
63
63
63
67
67
63
67
67
67
63
61
67
61
63
74
63
63
74
61
61
67
74
74
74
63
74
63
74
61
61
67
67
67
61
74
61
61
63
61
74
61
63
74
67
74
67
67
61
63
67
74
74
74
67
67
61
61
74
63
61
63
67
74
63
74
61
74
74
61
74
63
67
63
61
61
61
74
74
67
61
67
61
74
74
61
67
74
63
63
63
63
63
61
74
61
63
67
61
67
63
63
63
61
63
74
74
63
61
63
63
61
61
61
67
74
63
63
74
74
67
63
63
63
67
63
74
67
74
67
74
67
74
74
67
67
63
74
74
67
74
74
63
61
67
61
67
74
67
67
63
63
61
61
61
61
63
67
63
67
61
67
74
63
61
61
63
61
74
67
63
67
63
63
61
67
61
67
63
61
61
61
74
74
63
74
74
67
63
63
74
63
63
67
63
61
63
63
63
63
67
63
61
63
67
67
61
63
74
74
67
61
67
61
67
74
74
74
63
61
67
74
63
67
74
61
67
61
63
63
74
67
63
67
67
67
74
61
63
67
74
74
67
74
67
74
74
74
74
74
74
61
61
61
74
63
74
74
61
74
74
67
74
63
61
63
74
63
67
61
67
61
63
67
67
61
61
67
63
61
63
61
74
63
63
74
63
63
67
63
67
74
74
74
63
74
61
67
67
61
67
63
67
63
61
63
61
74
63
67
61
61
61
63
63
63
67
67
67
61
63
74
63
61
67
74
61
74
67
74
63
74
74
67
74
67
63
61
67
74
61
63
63
67
61
61
61
67
74
61
61
74
63
61
74
74
63
61
67
63
61
63
63
61
67
74
74
67
61
63
67
63
63
67
67
63
74
74
67
63
74
74
61
67
61
74
74
67
61
74
61
74
61
67
74
61
74
67
63
74
63
74
67
67
63
63
67
63
74
74
67
74
63
63
74
63
61
61
67
63
67
61
74
74
61
67
61
74
67
74
74
67
63
61
63
67
63
67
63
74
61
61
61
61
74
67
74
63
63
61
63
74
74
67
74
63
61
67
61
67
74
61
74
63
63
63
74
67
74
63
74
74
61
63
74
63
61
67
61
63
63
63
63
74
67
74
63
74
61
74
61
63
61
74
63
61
63
63
74
63
67
67
74
67
63
61
61
63
67
61
61
63
63
67
63
63
67
61
61
63
61
61
67
61
74
63
67
74
67
61
63
74
63
63
74
74
74
63
74
74
61
63
61
63
63
61
61
74
63
74
63
61
74
74
74
63
61
63
63
63
74
61
67
74
63
63
67
63
61
74
61
63
74
63
67
61
74
67
67
67
63
61
74
63
67
67
74
67
63
63
67
63
63
67
61
63
74
61
74
74
67
74
61
67
67
67
61
61
63
67
74
67
67
63
67
61
74
63
63
67
63
61
74
74
67
67
67
61
63
74
61
61
63
63
74
67
74
67
67
74
74
74
67
61
63
61
67
74
74
63
63
67
67
67
74
74
61
61
63
67
63
74
74
74
67
61
74
74
67
63
63
63
63
67
74
67
63
61
74
61
67
67
61
63
74
61
67
61
63
74
67
61
61
63
63
63
63
67
74
63
67
61
67
63
61
61
61
61
61
74
63
61
63
61
67
67
61
61
61
63
63
67
67
61
74
67
61
74
63
74
67
63
61
61
74
63
63
67
61
63
67
63
63
67
61
63
61
67
74
67
67
63
67
74
74
63
63
61
61
67
61
67
67
67
74
74
61
67
67
61
63
74
61
74
74
61
63
63
67
67
61
63
67
67
74
63
63
61
61
74
61
61
74
74
63
63
61
67
61
67
61
63
61
74
61
74
63
63
63
61
74
67
61
74
63
67
67
63
61
63
63
67
63
61
67
67
61
74
74
63
61
63
61
63
63
61
63
63
67
61
61
61
61
61
61
61
63
61
61
74
74
74
61
61
67
67
63
67
63
61
61
74
74
67
63
61
63
61
63
63
74
67
74
63
67
61
74
67
63
63
67
74
61
61
63
74
63
67
61
74
61
63
67
61
61
74
74
63
61
74
74
61
67
74
74
63
74
74
63
63
74
74
63
63
67
63
74
67
63
63
61
67
67
67
74
67
63
67
74
67
61
74
74
61
74
67
67
67
63
63
63
67
63
61
63
74
74
61
63
74
61
67
61
61
67
63
63
61
74
74
61
67
74
63
61
63
63
63
63
61
61
74
67
63
61
67
63
67
67
63
61
67
61
63
63
63
63
74
63
63
67
63
63
63
74
61
67
74
67
61
74
67
63
61
63
74
61
67
74
61
63
74
63
63
74
63
63
67
63
61
63
63
63
74
61
61
63
63
63
67
67
74
67
63
67
67
61
61
74
74
63
63
74
67
74
63
63
67
74
63
74
61
63
61
67
74
74
63
74
61
63
63
63
61
74
67
67
74
61
67
61
74
63
61
61
74
67
67
74
67
74
74
63
74
61
61
61
61
67
63
67
67
67
74
63
67
63
63
74
74
61
67
74
67
67
63
67
74
63
74
63
74
74
74
74
61
61
67
67
63
61
74
63
63
67
63
63
67
67
61
67
61
61
67
63
67
61
61
61
74
61
74
63
74
74
63
74
63
67
63
74
74
67
74
61
74
61
63
61
61
74
67
63
74
63
67
67
74
74
67
63
63
74
67
61
63
67
61
61
74
61
74
74
74
74
63
63
63
63
67
63
61
74
63
63
61
61
61
67
74
63
74
74
74
67
74
67
67
74
63
61
61
67
63
74
74
74
63
67
63
67
67
67
61
63
67
74
74
61
74
74
61
63
67
61
61
74
61
63
61
67
61
74
63
63
74
74
74
63
61
67
61
63
74
67
61
67
63
63
67
74
67
63
61
74
63
63
74
61
67
63
74
63
61
74
67
63
63
63
63
67
61
61
61
63
74
61
74
74
61
67
74
74
74
74
67
63
63
74
61
61
74
61
63
67
61
74
61
63
67
61
67
74
67
74
61
61
61
61
74
67
61
63
67
63
74
74
74
74
67
63
74
67
61
61
63
61
61
74
74
61
61
67
63
63
63
67
74
61
67
63
61
74
74
74
61
67
74
74
74
67
63
63
63
67
67
67
67
74
61
63
63
63
63
61
61
63
74
63
74
67
61
74
61
63
74
61
74
61
67
67
61
61
67
74
67
74
67
67
63
63
61
63
67
74
61
74
67
67
63
67
63
74
74
61
74
61
74
63
61
61
67
63
61
61
63
63
74
61
67
61
74
74
63
63
61
74
67
61
63
63
63
67
74
61
63
67
74
74
67
61
67
74
74
63
74
74
63
74
61
67
67
63
61
63
67
67
63
74
61
74
63
61
61
63
63
74
67
67
74
61
67
74
61
74
67
63
61
61
67
67
63
61
61
67
63
74
63
63
61
74
61
61
61
63
61
67
61
63
67
74
63
63
67
67
74
74
61
63
61
74
63
61
74
63
63
63
67
74
63
74
63
67
67
67
74
63
67
63
74
67
67
61
63
74
61
74
63
67
74
74
74
67
61
61
67
61
61
63
74
61
74
61
67
67
63
61
74
74
74
67
74
61
63
63
63
63
63
74
61
61
67
63
67
74
74
63
74
61
67
74
61
67
61
67
67
63
67
74
61
63
74
63
74
63
63
67
63
67
67
63
63
63
61
61
74
74
74
74
74
67
67
67
61
61
67
63
63
67
74
67
67
63
74
61
61
74
63
63
74
74
63
61
74
74
74
63
61
61
74
67
67
63
63
63
74
67
74
67
74
63
74
67
74
61
67
61
63
74
61
67
63
74
63
67
74
67
67
61
63
67
61
63
67
61
61
61
61
67
63
61
74
67
74
61
67
63
74
74
61
67
61
74
74
74
67
67
61
63
61
74
61
63
67
61
61
67
67
67
74
61
61
74
63
74
67
67
74
63
63
63
67
61
61
67
63
67
63
74
74
61
74
63
61
74
63
63
67
63
63
61
61
61
74
63
67
63
67
63
61
63
61
61
63
74
74
74
63
63
74
67
74
63
74
74
74
67
63
67
63
61
61
63
61
61
67
67
63
61
67
63
74
61
63
63
74
63
74
74
74
61
74
67
61
61
61
67
74
61
67
61
61
63
61
67
67
74
63
74
74
74
67
74
67
74
63
74
61
61
67
74
61
63
61
67
63
74
74
63
63
63
74
74
63
74
74
61
74
63
74
61
61
63
61
61
67
61
67
74
61
74
63
61
67
67
74
63
74
61
61
61
74
67
63
67
61
74
74
67
67
74
67
67
67
63
74
74
67
67
67
61
63
61
74
67
67
61
67
61
67
67
61
61
67
74
67
63
61
61
67
67
67
74
67
67
74
63
61
63
67
61
74
67
67
61
67
67
74
63
63
74
67
61
67
61
67
61
63
74
67
67
61
63
74
67
61
67
74
74
63
67
67
74
67
61
63
63
61
63
74
74
63
67
61
67
67
67
67
67
74
63
74
74
61
61
67
61
67
67
61
67
67
63
61
74
74
63
63
74
74
63
74
67
74
63
61
63
74
74
74
67
61
74
74
63
63
63
63
67
61
74
63
61
67
61
61
61
61
74
61
74
67
61
61
63
63
67
61
61
63
63
61
74
74
67
67
74
74
67
61
67
63
63
63
67
74
61
67
61
74
67
67
63
67
63
63
74
63
74
61
67
63
67
61
61
67
74
61
61
63
63
74
74
67
61
63
67
61
61
61
67
74
74
74
61
61
67
61
63
74
74
63
63
67
61
74
61
61
63
61
63
74
61
74
67
61
74
63
74
74
61
67
61
74
61
63
67
67
61
61
61
74
61
67
61
61
63
61
67
61
67
61
61
61
63
63
63
67
63
74
61
63
63
74
61
61
74
67
74
74
67
67
63
63
67
61
63
74
63
74
67
63
63
63
67
61
61
63
74
67
67
74
67
63
61
74
74
67
63
63
67
61
67
61
63
74
61
74
61
63
61
61
61
67
63
63
67
63
63
61
67
61
61
61
63
74
67
61
74
74
63
74
74
61
74
74
61
61
63
63
61
74
61
74
61
61
74
63
61
61
63
63
61
63
67
67
61
63
61
74
61
67
67
63
63
74
67
63
61
63
63
67
74
61
74
61
63
74
61
67
61
63
63
61
63
61
61
63
67
67
63
61
63
63
67
67
74
74
61
74
67
67
61
61
63
67
63
67
61
74
63
63
61
63
63
63
61
67
74
61
63
67
67
63
74
61
63
63
67
61
63
61
67
63
67
74
67
74
67
63
63
74
61
63
61
63
61
67
63
63
74
74
74
63
61
67
63
74
74
67
74
63
74
74
63
74
61
61
67
67
74
63
61
74
67
61
74
63
63
61
74
61
74
63
63
74
63
74
61
67
74
63
67
74
61
74
61
63
67
63
67
63
63
74
61
61
63
61
74
74
74
63
63
61
74
63
74
63
63
63
63
61
74
74
61
67
74
74
61
61
67
67
61
67
67
67
63
74
67
67
67
63
61
67
74
67
61
74
67
61
63
63
74
67
67
63
74
67
61
61
74
61
67
74
61
67
61
67
74
74
63
63
61
63
67
61
74
63
74
74
74
67
74
63
61
63
61
63
74
61
74
74
67
74
74
63
61
61
67
67
63
61
63
61
63
63
74
63
63
74
63
74
74
61
61
74
74
61
63
74
74
61
63
67
63
63
61
74
61
63
67
63
67
63
67
63
74
74
63
63
74
63
61
61
61
74
61
74
63
61
67
63
67
61
61
74
63
67
74
61
63
63
63
63
61
61
74
67
74
61
67
61
61
74
74
74
67
61
63
67
61
63
74
74
74
67
63
63
63
61
74
74
67
67
63
74
67
61
67
67
61
61
74
67
67
67
74
67
61
63
74
63
63
63
61
67
67
63
63
67
63
63
67
61
74
67
61
61
74
67
63
74
74
67
63
74
61
67
67
67
61
61
67
67
61
74
74
67
74
61
67
61
74
63
61
67
61
74
63
61
67
74
74
63
61
61
67
74
74
63
63
74
63
61
74
67
61
63
63
63
67
61
74
63
67
63
63
61
67
63
67
63
67
61
61
61
63
67
74
61
61
63
67
63
74
67
74
74
67
67
67
61
74
74
74
74
67
74
67
67
74
61
63
61
63
67
63
67
74
67
63
67
74
63
61
67
74
74
61
74
74
61
74
74
74
63
74
61
67
67
67
67
67
67
67
61
63
61
63
74
67
61
74
74
74
67
61
61
67
67
61
74
67
74
63
63
67
63
63
61
61
74
67
63
63
61
67
61
74
67
63
63
67
63
67
63
61
61
61
63
67
74
63
67
61
63
67
74
61
63
74
67
61
67
61
67
61
63
61
74
63
67
67
74
67
67
67
61
61
61
67
67
74
67
61
63
63
63
61
74
74
61
63
74
74
63
63
63
74
74
61
61
67
61
74
67
67
63
74
61
74
61
67
63
74
63
74
61
63
63
67
74
67
67
61
74
74
61
61
63
63
61
63
67
74
67
61
67
63
74
61
63
61
61
61
74
63
67
61
63
74
67
61
74
63
63
74
74
63
63
63
74
74
67
63
67
74
61
67
67
67
74
61
61
67
61
67
63
74
63
63
74
67
61
61
74
74
67
74
63
61
63
74
63
63
74
74
67
74
61
61
63
63
63
74
63
63
63
61
63
67
63
67
67
67
63
74
74
61
61
63
61
61
67
74
74
74
74
74
67
63
67
67
61
74
67
74
63
74
67
67
63
61
74
74
67
74
67
67
63
67
67
67
67
67
74
67
67
74
61
67
63
63
63
74
63
63
67
74
67
74
74
74
74
74
63
74
74
67
74
67
67
63
74
67
63
74
63
61
74
63
67
61
63
63
67
67
74
67
61
67
67
61
67
67
74
74
63
61
67
67
61
74
63
61
67
74
67
74
63
67
63
61
74
74
63
74
74
61
61
74
74
74
74
74
74
74
61
67
74
61
67
63
67
61
63
67
67
67
61
63
63
67
61
63
63
74
67
74
63
74
74
67
63
63
61
74
61
74
61
67
67
74
74
61
74
63
67
67
74
67
67
67
67
74
67
67
74
74
61
61
67
61
67
61
61
74
74
61
63
61
74
61
63
63
63
67
67
61
61
74
67
61
61
67
67
61
63
67
63
74
67
61
63
63
63
63
61
67
67
61
61
61
74
63
63
63
61
63
63
74
63
63
67
67
61
67
63
67
63
63
63
67
67
63
63
74
63
63
74
63
61
67
61
74
61
61
67
67
63
67
61
61
74
61
74
74
74
74
67
63
61
61
67
63
63
61
74
63
61
67
61
63
61
74
67
74
67
61
74
67
61
67
67
63
74
74
67
74
63
74
74
67
63
67
74
61
61
74
67
74
74
67
74
74
61
74
67
61
63
67
74
61
61
67
74
74
63
63
63
61
63
74
63
61
67
63
63
74
67
61
63
74
67
67
74
63
74
67
67
61
74
61
63
63
74
67
63
67
61
74
74
63
74
61
67
74
63
67
67
61
67
61
61
63
67
74
63
74
67
67
63
74
63
61
61
61
63
63
61
74
74
74
61
61
61
61
74
74
61
74
61
61
74
67
63
67
74
63
61
63
63
63
67
61
61
63
63
74
67
67
67
74
63
63
67
61
63
63
74
74
61
74
61
61
74
61
67
63
61
63
61
63
74
61
67
67
61
63
63
74
67
63
67
67
63
63
74
63
63
74
61
74
74
63
63
63
67
67
67
67
61
67
67
67
63
63
67
74
63
67
67
74
61
63
67
74
63
74
74
61
61
67
74
63
61
74
74
67
61
74
61
61
63
67
63
74
61
74
63
74
63
74
74
74
61
74
67
74
74
74
74
74
67
61
61
61
63
63
63
67
67
67
67
63
61
61
67
67
63
63
61
74
63
74
63
61
63
61
67
63
74
63
74
67
67
74
61
67
67
74
67
74
67
74
67
63
74
67
63
61
67
63
67
63
61
74
74
67
67
63
63
67
61
61
63
74
63
63
67
63
74
74
74
74
61
74
63
63
61
61
74
61
67
74
63
67
63
74
67
61
61
63
74
74
61
63
74
67
61
67
74
74
74
67
67
61
63
74
63
67
67
74
74
61
61
67
67
74
74
63
67
61
63
63
61
63
63
61
61
61
61
63
63
74
74
67
67
61
74
61
61
61
74
74
63
74
61
74
67
74
74
74
74
61
61
61
61
74
74
63
74
67
67
67
74
74
61
63
74
61
67
63
67
74
63
67
61
74
74
74
63
74
61
63
67
74
67
63
74
61
67
74
74
61
61
74
61
67
67
61
67
74
61
67
67
61
63
74
74
61
74
63
63
63
63
61
63
61
67
63
67
61
63
74
67
67
67
74
63
63
63
61
63
74
67
74
67
63
67
74
74
67
61
61
61
63
63
74
61
74
74
63
63
74
63
67
61
61
63
61
63
67
74
67
61
67
61
63
63
67
61
63
63
63
63
61
67
61
67
61
74
61
61
63
74
67
67
63
63
74
67
67
67
74
67
67
61
63
61
61
74
61
74
61
61
74
74
61
61
63
63
63
74
61
61
67
74
61
74
63
63
61
74
67
67
63
61
74
61
61
63
74
74
63
74
67
74
61
74
61
61
74
63
63
61
74
67
61
67
74
63
63
74
61
61
63
63
61
61
67
61
61
63
74
63
63
61
67
63
63
74
67
67
74
74
61
74
61
67
63
63
74
67
74
67
63
74
63
61
63
61
61
74
63
67
61
63
63
74
61
67
63
74
67
63
74
74
63
61
74
74
67
63
74
61
63
61
67
63
67
67
67
61
67
74
67
74
63
67
61
74
67
61
63
61
61
67
63
67
74
67
61
67
63
63
63
61
67
67
61
74
63
61
61
74
63
61
67
67
74
61
63
61
61
67
67
74
67
67
67
74
61
61
74
67
61
67
67
63
61
67
67
61
67
74
63
63
67
61
74
63
74
74
63
61
63
67
61
74
74
63
61
61
67
67
74
63
63
61
67
74
74
67
74
63
61
74
67
61
61
63
63
63
61
74
67
67
67
67
74
67
61
74
61
74
67
63
61
61
61
61
63
67
74
63
63
67
61
67
63
61
61
61
67
74
74
61
61
74
74
63
61
67
74
63
61
74
74
67
67
61
63
74
74
67
61
63
63
63
63
61
63
74
63
61
63
74
61
63
74
63
61
61
67
63
74
63
63
61
67
67
63
67
74
63
74
61
74
61
61
74
61
67
63
63
61
67
74
63
74
63
61
67
67
67
63
67
61
67
67
74
67
61
74
67
74
61
74
61
74
63
74
74
74
74
67
61
63
61
74
74
63
63
67
61
63
74
67
74
61
74
61
74
67
67
61
74
63
63
63
67
67
61
61
63
67
63
63
63
63
63
61
63
74
74
74
61
61
67
61
67
61
67
61
67
63
74
67
74
61
74
67
67
67
67
74
63
67
61
61
67
63
61
63
74
74
63
67
67
67
67
67
67
67
67
74
63
67
67
63
63
67
63
67
63
67
74
67
74
67
61
63
74
63
63
74
67
67
74
74
67
63
74
63
67
63
61
61
61
67
74
63
74
74
63
74
63
67
74
63
67
61
61
63
61
61
74
74
61
63
67
61
74
67
67
63
74
61
61
63
67
61
67
67
63
67
63
61
61
67
61
63
67
61
74
61
67
63
67
61
74
67
61
63
74
67
67
67
74
67
63
74
63
63
67
67
74
61
74
67
61
61
61
63
74
74
63
61
63
67
61
61
74
74
63
61
67
74
74
67
67
67
63
67
74
61
67
74
61
63
67
61
67
74
74
63
74
61
61
67
61
74
61
74
63
67
74
61
67
61
61
74
61
63
61
61
74
63
63
63
67
61
63
61
67
61
61
61
61
67
63
74
63
74
74
74
61
67
63
61
67
61
74
67
67
74
67
67
61
74
63
63
74
67
67
74
67
61
61
74
63
63
63
74
61
74
67
63
61
74
74
63
67
63
67
67
63
67
61
67
74
63
74
63
61
74
63
74
67
63
63
67
67
61
61
74
61
61
74
67
74
63
74
63
74
67
74
74
74
63
61
74
63
67
63
67
74
74
61
67
67
67
67
63
67
74
63
74
63
67
61
74
74
74
61
67
74
74
67
61
63
74
74
67
74
67
61
63
61
74
63
67
67
63
74
63
74
74
67
74
63
63
74
63
61
67
63
63
63
67
74
61
63
74
63
74
63
61
61
63
61
74
74
63
61
67
61
63
61
67
63
74
67
63
74
61
74
63
67
63
74
74
63
63
74
63
61
74
74
63
61
67
74
63
61
61
67
63
61
63
67
74
63
74
61
74
61
61
63
67
63
63
67
67
74
74
63
74
67
67
67
63
67
74
67
74
67
67
63
74
67
67
63
67
63
67
74
74
74
74
63
67
61
61
61
61
61
67
67
61
63
63
63
74
67
61
61
63
74
67
61
63
61
67
61
67
74
74
74
74
63
63
67
61
61
63
61
63
63
63
67
67
67
67
74
63
61
67
74
63
74
63
74
61
63
67
63
61
63
74
63
67
74
74
61
63
74
63
61
63
63
74
61
61
63
61
74
61
63
61
61
61
63
67
63
67
67
67
74
67
63
63
63
63
63
74
67
67
67
61
61
74
61
61
67
61
67
63
61
74
63
67
61
67
74
61
74
67
67
74
67
74
63
74
74
63
74
67
63
74
61
61
74
63
63
67
63
67
74
74
63
63
67
74
67
61
74
67
67
61
63
74
63
61
61
74
67
61
63
67
63
63
67
74
67
61
67
67
67
67
61
74
63
74
63
61
61
74
67
67
67
63
74
74
74
63
67
67
63
61
74
63
67
67
74
63
74
67
63
63
61
63
63
67
67
67
61
63
74
67
61
74
74
63
63
63
63
63
74
67
63
74
67
61
63
74
63
63
63
63
74
74
67
61
61
67
74
61
67
74
63
67
67
74
63
63
74
74
61
74
61
74
74
74
67
63
61
63
74
61
63
67
63
63
74
63
61
63
61
74
67
67
63
74
61
61
61
63
74
61
67
67
61
74
74
74
63
74
74
74
74
63
63
67
61
61
63
61
74
63
61
63
63
67
74
67
74
74
74
63
63
67
63
74
63
74
63
74
67
67
74
63
74
63
67
67
67
61
74
61
74
61
61
61
61
61
67
63
61
67
61
74
67
67
74
67
74
63
61
74
63
61
67
61
63
67
67
67
61
61
61
61
63
67
67
74
74
74
67
67
67
61
67
67
61
67
63
61
67
61
67
74
74
74
67
61
74
63
74
74
74
63
74
61
67
63
67
74
74
63
63
67
61
67
74
61
63
74
61
63
63
63
67
63
61
67
61
67
61
67
61
61
61
63
63
67
61
63
67
74
61
67
74
61
61
61
74
63
61
63
61
74
74
63
63
67
63
67
61
74
67
61
67
74
67
67
67
74
74
63
63
61
61
61
61
67
63
67
74
74
63
67
74
61
74
67
74
74
63
63
63
63
63
74
67
74
67
74
74
67
61
67
74
67
63
63
63
63
67
61
63
67
67
63
74
63
74
67
67
61
61
61
74
63
63
61
61
74
74
74
63
63
61
67
61
61
63
61
63
63
61
67
67
61
74
67
63
61
74
67
61
61
63
67
74
74
67
67
63
67
74
61
67
63
61
67
63
67
61
61
61
61
63
63
63
74
74
74
67
63
63
67
74
67
67
74
61
74
74
67
67
67
63
74
63
61
61
61
67
67
63
67
63
67
67
61
74
63
67
67
67
67
61
74
63
63
63
63
61
63
67
74
61
61
61
74
67
63
74
67
61
74
61
61
63
67
61
63
67
63
63
74
61
74
67
61
61
67
67
74
61
67
63
61
74
63
63
61
61
61
67
63
63
61
74
61
74
63
61
61
74
74
67
63
74
67
67
74
74
67
74
63
74
74
74
63
63
61
61
74
67
67
74
67
61
61
67
61
63
67
74
61
63
67
61
67
61
74
63
61
63
67
63
61
63
74
63
63
63
61
61
63
63
63
74
67
74
74
61
74
74
61
74
67
63
61
63
61
74
67
67
67
67
63
63
74
61
67
67
67
74
67
67
74
61
61
63
61
61
67
74
63
61
63
67
74
67
63
74
63
67
74
67
67
67
63
74
74
67
61
61
67
67
74
61
67
63
63
67
61
67
61
67
63
61
67
61
67
63
61
63
63
67
74
63
67
74
61
67
74
63
63
74
63
74
67
74
61
67
74
61
67
63
67
61
61
61
74
67
61
67
63
74
67
74
67
74
74
74
74
67
63
61
61
67
63
63
61
61
74
67
61
74
63
74
67
74
63
74
67
63
61
67
74
61
67
67
63
61
61
74
67
63
74
63
61
61
74
67
61
61
74
63
61
67
67
61
67
74
63
63
67
67
74
74
61
61
67
74
63
63
61
67
74
61
63
63
61
67
63
67
61
67
61
63
63
61
67
61
63
61
74
63
74
63
67
63
63
74
63
63
67
63
67
74
67
74
61
61
63
74
63
74
63
61
74
63
61
63
63
67
63
74
61
61
74
61
63
67
74
61
61
63
63
67
74
67
67
67
74
74
67
67
67
67
61
67
67
63
63
67
61
67
74
74
61
63
63
67
63
61
67
63
74
61
63
67
74
61
67
63
67
61
67
67
61
61
63
74
63
63
61
61
61
63
61
63
63
67
67
74
67
74
63
67
74
74
74
67
74
61
67
61
63
63
63
67
67
61
74
67
74
74
63
63
61
61
63
61
74
74
61
67
67
61
67
61
63
74
67
63
61
67
63
63
61
67
74
74
61
67
74
61
74
74
74
74
61
61
61
63
74
61
67
61
74
74
67
63
67
74
67
61
74
61
63
63
74
63
67
63
61
63
67
63
67
74
74
63
67
63
63
74
74
67
63
67
74
63
74
63
63
74
63
61
74
63
67
63
67
67
63
63
61
74
61
63
63
74
67
74
63
74
61
74
74
74
63
63
67
67
61
67
74
67
61
61
63
63
63
61
63
63
63
67
63
74
67
67
67
74
61
74
74
61
63
63
74
61
67
67
61
67
61
61
67
67
63
61
63
61
61
67
61
63
74
67
61
61
63
63
63
74
61
63
74
67
63
74
63
61
67
74
67
74
61
74
63
67
74
67
67
61
67
67
61
63
63
63
74
61
61
63
67
67
63
67
61
61
67
63
74
67
74
74
61
67
67
61
67
63
67
74
63
61
74
74
67
61
61
74
61
74
67
67
63
63
67
63
67
61
61
63
74
74
74
74
61
61
63
67
63
61
74
63
63
67
63
61
63
61
61
74
63
63
67
63
67
63
74
61
61
74
74
67
67
61
63
63
61
61
63
63
63
61
63
67
61
63
67
67
63
63
74
63
61
67
67
74
67
67
61
67
63
74
63
67
67
74
74
67
74
63
67
61
67
74
67
61
74
67
74
63
67
61
67
63
67
74
61
67
67
74
67
61
67
74
74
67
74
67
67
74
63
74
67
67
74
63
74
74
63
63
61
61
61
74
67
63
61
67
67
74
74
67
61
74
74
74
67
63
67
74
61
67
74
61
63
61
67
67
61
67
63
67
67
61
67
74
74
74
67
61
74
61
63
63
67
67
74
74
63
63
63
67
74
61
74
67
67
63
61
63
63
67
67
67
63
63
63
74
67
61
63
74
63
63
63
61
61
61
61
63
74
74
63
63
63
74
67
67
63
63
61
63
63
67
67
67
74
61
63
61
63
74
61
61
63
74
61
61
61
63
61
74
63
61
74
61
61
67
74
61
67
61
63
61
63
61
74
63
74
63
74
61
63
63
61
63
74
74
61
61
74
74
67
61
67
61
61
74
74
74
61
74
61
74
67
61
63
74
67
63
74
61
67
63
74
63
61
63
63
63
61
74
74
67
74
63
61
74
63
67
74
61
61
61
63
63
67
74
74
74
61
67
67
63
74
74
74
67
63
61
67
74
63
74
63
74
74
74
63
61
67
63
67
63
67
61
74
61
63
67
63
67
63
67
63
63
67
61
63
63
63
61
61
61
61
61
61
63
61
61
61
61
61
74
74
74
61
67
63
74
63
63
61
67
67
61
74
63
74
63
74
63
74
63
61
61
63
61
61
74
67
61
63
74
63
61
63
63
67
67
74
74
61
63
61
61
74
67
61
74
61
74
63
67
63
74
74
63
74
61
63
74
67
67
63
63
74
63
61
61
67
67
61
74
61
74
67
74
61
61
74
67
61
74
74
74
67
63
67
63
74
63
61
74
67
63
74
74
63
74
63
67
67
74
61
61
61
67
74
61
67
63
61
61
67
67
63
61
63
74
67
67
67
61
74
61
74
61
63
74
61
67
67
74
74
63
67
67
63
74
63
67
63
67
63
61
63
74
74
67
74
67
61
61
67
61
74
61
74
61
61
74
61
61
74
67
61
67
74
63
63
61
67
61
67
63
61
74
63
61
63
74
61
67
74
67
67
74
61
61
67
61
67
67
74
61
63
61
74
61
63
61
74
61
61
67
61
67
67
74
67
63
63
67
61
63
67
63
63
63
74
61
67
74
63
74
74
61
61
61
67
67
63
74
67
63
74
61
63
61
74
63
63
63
61
67
74
63
61
67
74
63
63
63
63
61
61
61
74
63
74
63
67
74
61
61
61
67
74
67
67
67
63
74
63
61
74
61
67
67
63
67
61
74
74
63
67
63
74
63
67
61
63
67
74
74
63
67
63
61
74
67
63
61
74
61
61
74
63
63
67
74
63
61
67
74
61
63
63
67
61
61
74
61
63
63
63
74
63
63
67
67
67
67
63
74
63
61
74
74
67
74
61
61
67
74
67
63
67
61
67
63
61
74
67
74
74
61
63
63
63
61
61
67
61
63
74
63
63
67
61
67
67
63
67
74
63
61
74
67
61
67
61
63
61
67
74
67
63
74
63
63
63
67
63
63
63
67
67
61
63
67
63
63
63
61
63
74
63
61
74
61
63
63
61
63
63
74
74
61
63
74
63
67
61
61
74
63
74
74
63
67
61
74
63
74
61
67
67
74
74
61
63
63
61
63
74
61
61
61
61
61
61
74
61
74
67
67
74
74
61
63
63
74
63
63
61
61
74
63
67
63
63
61
74
63
67
67
61
61
63
67
63
63
67
63
74
74
63
61
61
67
74
63
61
67
63
61
67
63
61
63
61
61
74
74
61
67
63
61
67
63
74
67
63
74
61
61
61
63
63
63
74
61
61
67
63
61
61
61
61
61
74
74
63
61
67
61
67
63
67
61
67
63
74
63
67
74
61
63
67
61
74
74
74
74
67
74
74
74
61
67
67
74
61
61
61
63
63
61
74
61
67
61
63
63
67
61
63
63
63
63
74
74
74
61
61
67
61
74
74
74
74
61
63
61
67
67
67
61
74
63
67
63
63
67
74
67
74
63
74
63
67
61
61
74
63
63
61
74
63
61
74
67
63
61
74
67
74
67
63
67
63
61
63
63
74
67
63
67
63
61
74
63
63
74
74
74
74
74
67
61
61
67
61
74
63
67
67
67
74
67
63
67
74
74
74
74
61
67
74
61
74
63
74
74
63
61
63
61
74
63
61
63
61
63
63
63
63
74
61
61
74
63
63
67
63
63
67
61
63
61
61
63
67
67
63
61
74
63
63
61
63
63
67
63
67
61
63
61
61
74
74
61
67
61
63
74
63
67
74
74
74
63
63
63
74
61
67
74
67
61
74
74
74
74
74
61
61
74
74
63
61
74
61
67
74
61
74
67
63
63
67
61
67
67
67
67
63
67
61
63
61
63
74
67
67
63
61
63
74
61
61
67
61
61
74
74
61
67
74
74
61
67
63
61
67
61
63
67
61
63
74
67
74
67
67
61
74
63
74
67
63
74
63
63
67
63
74
67
63
63
67
63
74
61
74
63
74
67
63
61
61
67
74
67
63
63
63
74
74
63
63
61
67
61
63
67
63
67
74
67
61
63
63
63
63
67
61
67
67
67
61
67
63
74
67
63
67
74
61
63
67
63
67
67
63
61
74
67
61
74
74
74
63
61
61
74
74
74
63
63
74
63
63
63
61
74
74
63
74
74
67
74
63
67
63
61
63
61
67
63
61
74
74
61
61
74
61
61
74
67
67
74
74
67
61
74
74
61
63
67
63
61
67
74
63
67
67
61
74
67
61
63
74
74
67
63
67
61
67
63
67
63
63
63
63
67
67
74
61
74
63
74
63
63
67
61
63
63
61
67
61
63
74
63
61
61
67
67
61
74
74
63
67
63
63
63
74
67
74
74
74
74
63
67
63
61
74
61
74
61
63
61
61
74
67
74
74
63
74
61
67
61
74
63
63
67
74
61
67
67
61
74
63
61
61
67
63
74
67
61
74
63
74
61
61
63
74
61
74
61
63
63
67
63
67
67
61
63
63
74
61
74
74
63
61
67
63
61
61
67
67
61
61
63
74
74
74
63
63
63
63
63
67
67
61
67
61
74
61
67
61
61
63
67
67
67
74
74
61
74
61
61
61
63
63
67
74
61
74
67
67
63
61
74
61
61
74
63
67
63
67
61
63
67
74
61
74
67
67
67
74
63
63
67
61
74
67
63
63
74
74
67
67
67
67
74
63
74
67
63
74
61
74
74
74
61
74
61
67
74
74
61
67
74
67
61
67
61
63
63
63
74
74
63
67
67
74
67
61
61
61
67
61
74
61
63
63
61
61
63
74
74
67
61
63
63
63
61
63
63
74
74
63
63
67
63
61
61
67
67
67
61
67
74
61
67
61
74
74
74
74
61
74
67
67
63
67
63
63
63
63
63
74
61
63
74
63
61
61
61
63
63
63
61
67
61
74
74
63
63
63
63
63
74
74
67
61
63
61
67
63
67
74
61
63
67
61
67
63
74
61
67
74
61
61
61
74
61
61
63
61
61
74
61
61
67
63
61
67
67
61
67
63
61
63
67
61
67
61
74
67
74
74
74
63
67
63
61
74
74
63
61
74
63
61
74
67
61
67
63
63
61
74
67
74
67
67
63
74
61
61
74
61
63
63
67
67
74
61
63
74
61
63
63
67
61
67
63
74
74
61
61
74
67
61
67
74
74
61
74
63
61
67
63
63
63
61
67
61
74
63
63
63
67
63
74
61
61
67
67
63
63
61
61
63
74
61
67
74
74
63
63
74
67
67
61
74
74
63
63
67
63
67
61
63
74
63
63
74
63
63
61
61
63
67
74
74
61
63
74
61
67
74
74
67
63
67
63
63
67
63
74
67
67
67
67
63
61
67
63
74
61
63
63
61
63
63
74
74
61
63
63
74
74
67
61
67
63
67
67
61
74
67
63
63
74
67
67
67
63
74
61
67
74
61
67
74
74
63
61
67
61
61
63
67
67
63
67
61
63
61
61
63
61
61
67
67
61
74
67
74
61
74
63
61
63
74
61
61
61
61
61
67
74
61
61
63
74
67
74
63
67
74
63
63
67
61
61
67
67
63
63
67
67
61
74
67
67
61
61
74
63
61
63
63
61
63
67
61
63
74
74
74
61
61
63
74
61
63
67
74
61
74
63
61
63
74
74
63
61
63
63
74
63
61
67
63
67
63
74
67
61
61
61
63
63
61
61
61
63
67
67
63
67
61
61
67
63
74
61
61
67
74
67
74
67
61
63
74
67
63
61
74
61
67
74
63
61
74
74
61
63
63
63
61
61
61
67
61
67
61
61
74
61
74
67
74
74
63
61
63
61
74
74
63
63
61
67
61
63
67
61
67
74
61
67
63
61
74
63
67
61
61
61
61
63
63
74
67
63
67
63
67
61
67
67
63
74
63
63
74
63
61
74
61
63
74
61
61
61
67
74
67
63
74
67
61
74
67
61
67
67
61
67
63
74
67
63
74
63
67
74
63
61
67
67
74
63
74
74
74
63
67
74
61
63
61
61
61
63
67
67
74
74
63
63
61
61
63
74
63
67
63
74
61
61
74
67
67
74
74
67
74
74
67
67
61
61
67
63
67
67
67
74
74
74
67
74
63
74
74
74
61
74
63
74
61
63
63
67
74
63
67
74
67
61
63
67
74
63
63
61
67
63
61
74
74
74
67
63
74
67
67
61
74
67
61
74
74
63
61
74
74
74
63
74
63
63
61
61
74
67
61
74
63
63
74
67
63
67
61
67
74
74
61
63
74
61
67
67
74
74
61
63
74
63
63
74
61
74
67
63
74
74
61
61
63
74
63
74
63
61
67
74
67
74
67
67
67
63
67
74
74
61
74
61
61
63
74
63
67
67
74
74
74
61
74
74
63
61
74
67
61
67
67
63
63
63
63
61
74
61
61
61
74
61
67
67
61
67
61
63
74
61
63
67
74
67
63
61
74
74
67
67
61
61
61
63
61
63
74
74
74
67
67
61
74
61
67
74
63
67
61
61
63
74
61
67
74
61
67
63
63
63
67
63
67
63
67
74
61
63
61
74
74
61
63
67
63
74
74
63
63
61
67
67
63
61
74
74
63
74
67
74
74
74
74
63
74
67
74
61
63
74
74
67
61
63
61
67
63
61
74
74
74
74
74
74
74
74
74
67
67
67
67
61
61
63
67
63
67
74
63
67
61
67
63
63
67
74
67
67
63
63
61
67
61
61
61
74
67
74
74
74
61
74
61
67
67
61
61
61
67
61
74
67
61
61
63
74
67
67
61
74
74
61
67
67
74
74
74
74
74
74
63
67
61
63
74
74
63
74
61
67
74
74
67
74
61
63
74
67
61
74
61
67
74
63
63
61
63
67
61
74
67
63
67
74
74
61
63
61
61
61
61
74
74
74
61
74
67
67
61
74
67
67
63
67
67
63
63
61
67
67
67
63
67
63
61
61
74
63
74
74
74
74
63
74
61
67
63
67
61
74
74
67
67
74
74
74
63
61
61
61
74
61
74
67
63
61
67
61
67
74
61
74
63
63
67
63
67
61
63
67
67
63
61
63
61
74
63
63
67
74
67
74
63
61
74
61
61
61
63
67
61
74
63
63
74
74
67
67
74
63
63
74
61
61
63
61
61
74
67
61
61
61
67
74
61
74
67
63
61
61
67
61
67
63
61
63
67
67
67
61
61
61
74
74
61
67
67
63
63
67
74
67
63
63
67
63
74
63
61
61
61
63
61
74
67
63
67
74
63
74
63
67
67
63
63
67
63
61
74
74
67
61
67
61
63
61
61
61
61
74
61
67
63
74
63
61
63
61
67
67
63
74
67
67
61
74
67
67
74
74
67
63
63
63
74
74
61
74
61
74
67
61
61
67
63
63
74
61
63
61
67
61
74
67
63
61
74
74
74
67
74
61
63
74
67
61
74
61
67
67
74
74
67
61
61
63
67
67
74
67
61
67
61
74
61
74
67
61
61
67
63
61
63
67
67
61
61
74
61
63
63
74
63
67
63
61
63
67
67
67
63
61
63
67
61
61
61
61
67
67
61
74
74
61
67
63
74
63
67
74
74
67
61
74
61
74
74
67
61
61
67
63
67
74
74
61
63
61
61
74
74
63
67
74
67
67
74
74
67
63
74
67
63
61
67
63
63
74
67
61
67
74
67
61
63
61
74
61
63
74
74
63
67
63
74
63
67
67
74
61
74
74
67
63
61
67
61
74
67
61
74
74
74
63
61
74
74
63
63
61
67
74
67
61
63
61
63
74
61
63
61
63
61
63
61
63
74
74
63
74
67
63
63
63
74
63
67
61
63
74
63
74
61
63
74
74
67
63
67
67
67
67
74
74
67
67
63
61
63
63
61
67
63
74
74
63
63
67
67
61
67
61
67
74
67
74
63
74
61
67
61
63
63
61
67
61
67
63
61
61
63
61
74
74
63
61
74
67
61
74
67
61
67
61
63
61
74
63
61
63
67
63
67
63
67
67
63
67
61
61
63
61
67
61
67
61
74
61
74
61
67
74
63
74
74
63
74
74
74
74
74
63
63
74
67
67
74
61
61
67
74
63
67
67
67
67
74
74
67
67
61
63
61
67
67
63
61
74
63
74
63
63
61
74
61
74
61
61
61
63
61
67
61
61
63
74
63
61
63
63
67
67
67
63
61
67
67
63
74
63
63
63
63
67
67
67
74
67
63
63
67
63
63
74
74
67
61
63
67
63
61
61
67
67
61
74
67
63
67
61
67
74
61
74
67
63
74
74
67
74
63
74
61
61
74
67
67
67
63
61
61
74
67
63
61
74
61
74
67
61
61
67
74
63
63
63
74
63
67
61
61
74
74
74
67
74
67
61
74
74
74
61
67
67
67
63
67
61
61
74
74
61
63
61
74
74
61
61
61
61
67
63
61
67
63
63
63
67
63
67
74
61
74
74
63
61
63
61
61
63
67
74
74
67
74
63
67
63
63
67
74
61
61
63
67
67
74
63
61
67
74
67
63
61
67
61
67
61
67
63
63
63
67
74
61
74
61
63
74
63
61
63
67
74
67
61
63
67
61
63
67
67
63
74
67
74
63
67
67
74
74
61
67
67
61
74
67
74
61
74
63
67
61
61
74
67
61
74
61
63
61
74
67
67
63
63
61
67
74
63
61
74
63
63
74
74
61
63
74
74
61
74
63
63
61
63
67
67
61
74
61
61
61
61
74
61
61
74
74
61
67
74
61
63
63
61
61
74
63
74
61
63
74
63
63
67
61
74
74
63
74
74
61
74
67
67
74
74
74
74
63
67
74
74
74
61
63
63
74
74
63
74
63
61
63
67
63
63
67
74
63
74
67
74
61
67
61
74
61
74
63
74
63
63
61
61
63
63
61
67
63
63
67
67
67
63
61
63
67
63
74
63
67
74
63
74
61
67
74
63
63
67
74
74
67
74
74
67
63
67
61
74
61
63
67
63
67
63
61
61
61
63
67
61
61
74
67
61
61
74
67
67
63
74
61
61
67
61
61
67
67
63
61
61
67
63
67
61
74
67
61
63
74
74
63
74
61
63
67
74
61
63
74
61
67
74
61
67
63
74
67
61
61
67
61
61
67
74
67
63
61
67
67
67
63
67
63
67
74
63
67
61
61
63
74
61
67
67
63
63
63
74
61
63
67
63
63
61
67
67
74
63
74
63
67
74
61
67
74
61
67
67
67
67
74
61
67
61
67
63
63
67
67
74
61
74
61
74
67
61
61
74
61
61
63
74
74
74
67
74
67
61
67
74
74
63
63
74
61
67
63
63
63
74
74
61
74
63
67
61
74
67
61
67
61
67
63
61
67
63
61
61
63
67
63
61
67
61
67
67
74
67
63
67
74
61
61
74
61
63
67
74
74
63
61
67
74
61
63
61
63
63
63
61
74
63
61
61
67
63
61
63
67
61
74
74
74
61
67
74
61
63
63
67
63
63
63
74
67
74
74
61
63
74
61
74
74
67
63
67
61
67
63
61
61
63
74
63
74
74
74
74
61
67
61
74
74
61
63
63
63
61
61
67
74
61
74
61
67
74
74
74
74
67
67
61
63
63
63
67
63
63
63
63
74
67
74
74
63
61
63
63
63
67
67
67
63
63
74
67
67
67
74
67
61
63
74
74
63
61
61
74
63
63
67
61
67
61
67
67
74
74
61
63
74
61
61
61
67
63
61
67
61
67
61
61
61
74
61
63
74
74
63
67
74
61
63
67
67
61
61
74
61
61
74
61
63
67
61
61
74
67
63
61
61
67
67
67
61
61
63
67
74
63
74
74
67
74
74
67
63
63
67
63
74
74
63
61
61
61
63
74
61
67
67
74
63
67
63
61
74
61
67
74
63
63
74
74
61
61
67
63
67
63
67
67
61
67
67
61
74
63
61
74
61
63
67
74
67
63
61
63
63
63
74
74
63
63
63
61
74
67
67
61
63
61
67
67
67
61
61
67
74
74
61
67
61
63
74
74
63
63
63
74
67
67
67
67
63
74
63
61
63
74
61
67
74
74
67
67
67
74
67
61
61
63
61
61
63
61
74
67
67
74
61
63
74
67
63
61
74
67
63
74
67
74
61
67
63
61
63
63
61
63
63
61
61
63
67
63
74
63
74
67
63
63
61
61
61
74
63
61
63
67
61
67
63
61
67
63
67
74
63
63
67
67
61
74
63
61
74
61
61
63
61
61
61
61
67
74
74
63
61
67
67
61
67
61
63
63
63
74
67
74
63
63
74
74
74
61
61
61
74
61
63
67
74
67
63
63
67
61
67
67
74
74
67
74
74
74
61
63
63
74
67
63
67
74
74
61
63
63
74
74
61
74
61
61
61
63
61
67
63
67
61
63
67
67
74
63
67
74
61
63
63
67
63
67
61
74
61
67
63
67
67
61
67
61
67
67
63
74
67
67
67
61
67
63
67
61
74
63
67
63
61
74
74
63
63
61
67
67
74
61
61
74
61
67
63
61
67
67
61
61
74
63
67
74
74
74
63
61
67
63
61
63
63
74
74
63
63
67
63
74
61
67
63
67
63
74
61
63
61
74
63
67
63
67
74
61
63
74
67
63
67
61
74
67
61
74
74
74
61
63
61
74
61
63
74
63
74
63
61
74
74
67
67
61
67
63
74
61
63
74
63
74
74
63
61
61
74
74
63
67
67
74
74
74
61
63
74
74
61
67
74
61
67
63
61
67
63
67
61
74
63
74
61
63
61
74
61
63
74
63
61
61
63
67
74
67
67
67
67
63
61
63
61
74
63
67
61
61
74
67
67
67
74
61
74
74
74
74
63
61
74
61
61
61
61
63
67
61
63
74
67
67
63
74
61
67
74
63
61
63
61
74
67
74
61
74
74
67
63
67
74
61
63
61
67
63
74
61
74
74
67
61
67
67
61
63
63
74
67
74
63
63
63
61
67
67
74
67
63
74
67
61
67
63
61
74
61
63
74
63
61
67
67
67
63
61
67
74
74
61
61
74
63
63
74
67
74
61
74
67
67
63
63
63
61
61
61
63
67
63
63
67
61
74
67
61
67
74
74
74
61
61
67
74
61
67
74
74
63
74
63
61
61
63
63
63
67
74
61
74
63
74
61
63
61
63
61
61
74
63
61
67
74
67
63
63
74
74
63
74
74
74
67
63
61
63
63
63
63
67
61
67
74
61
61
61
67
61
67
61
74
63
63
74
63
63
61
63
74
63
67
61
63
67
74
61
74
74
67
67
74
61
74
74
74
63
61
63
74
67
74
63
67
74
63
67
74
67
61
61
63
67
74
74
61
67
61
61
74
74
63
74
74
67
74
61
61
61
74
67
67
74
61
63
67
67
67
74
74
67
61
61
74
67
63
63
63
74
74
63
63
67
63
63
74
74
74
61
67
61
74
74
74
74
61
63
63
61
61
63
61
63
67
67
67
74
67
63
67
61
61
61
61
63
61
63
67
63
61
74
63
67
61
61
74
61
61
67
61
61
63
67
63
61
67
74
63
67
67
67
61
67
74
63
61
67
61
61
61
63
67
61
74
61
63
74
74
74
61
61
63
67
63
74
67
63
67
67
67
63
63
63
74
74
61
67
74
61
63
67
61
67
67
63
67
61
61
67
61
61
61
67
74
74
67
74
61
74
61
61
61
61
74
74
61
63
67
61
63
67
63
63
61
74
61
67
74
61
63
63
63
67
67
61
61
63
63
67
67
67
67
61
67
67
67
67
61
61
74
63
61
63
63
74
74
61
61
63
63
67
74
67
63
63
74
61
67
61
61
67
67
74
63
63
63
63
63
63
61
67
74
61
67
61
61
63
67
74
74
67
74
63
63
74
63
61
63
67
61
67
67
61
67
63
63
63
63
67
63
67
74
61
63
67
63
63
63
63
63
63
74
61
67
61
67
74
61
74
67
61
74
67
61
63
67
63
74
74