42
61
72
63
65
6c
6f
2c
20
44
6f
6e
6e
65
6c
6c
10
48
65
73
73
69
67
2c
20
48
61
72
6d
6f
6e
79
13
42
72
61
62
75
72
79
2c
20
4b
61
74
68
65
72
69
6e
61
10
45
6e
65
72
6c
69
6e
2c
20
54
61
6d
6d
69
65
13
45
72
69
6b
73
6f
6e
2c
20
43
61
74
68
61
72
69
6e
65
10
54
65
69
68
72
6f
77
2c
20
54
69
6c
6c
69
65
10
4c
61
67
72
61
73
65
2c
20
4d
61
72
69
6c
75
10
43
6c
65
6e
64
65
6e
6e
2c
20
5a
65
74
74
61
11
48
65
66
66
65
72
61
6e
2c
43
6f
72
72
69
6e
61
10
59
76
6f
6e
2c
20
47
65
6f
72
69
61
6e
6e
61
10
56
65
72
6c
69
6e
67
2c
20
4c
69
6c
61
6e
61
10
53
74
65
66
66
65
73
2c
20
4c
6f
75
65
74
61
10
50
6f
77
6c
65
73
2c
20
4c
69
7a
61
62
65
74
68
46
72
65
65
73
65
2c
20
41
6e
67
65
6c
69
6e
65
10
43
6d
6d
61
72
6f
74
61
2c
20
4d
6f
6e
74
65
11
53
74
6f
69
65
2c
20
41
6c
65
78
61
6e
64
65
72
11
46
69
6e
6b
65
61
2c
20
43
68
65
72
69
6c
79
6e
13
47
6f
72
63
7a
6e
73
6b
69
2c
20
46
72
61
6e
63
69
73
12
4c
65
61
63
6d
61
6e
2c
20
53
68
61
6c
6f
6e
64
61
11
43
65
72
65
68
69
6e
6f
2c
20
54
6f
6d
65
6b
61
10
52
6f
68
72
64
6e
7a
2c
20
44
65
77
69
74
74
10
42
6c
6f
6f
64
73
61
2c
20
53
68
61
6e
6e
61
10
42
65
6e
61
73
68
65
72
2c
43
72
65
6f
6c
61
11
4d
61
63
6b
65
6e
7a
69
65
2c
20
69
6c
61
72
79
11
4f
63
68
69
6c
74
72
65
65
2c
20
45
6c
65
65
6e
12
50
65
6e
77
61
72
64
65
6e
2c
20
4c
61
65
72
6e
61
11
50
61
6e
61
67
6f
73
2c
20
42
6c
6f
6e
65
6c
6c
13
4d
65
73
65
6e
62
72
69
6e
67
2c
20
4a
65
72
6f
6c
64
11
4b
75
65
6e
73
74
6c
65
72
2c
20
53
75
61
6e
61
11
4f
72
6c
6f
77
73
6b
69
2c
20
42
72
61
6e
6f
6e
12
44
72
6f
70
69
6e
73
6b
69
2c
20
4b
65
6e
6e
74
68
13
44
65
6c
61
63
75
65
73
74
61
2c
20
52
6f
73
74
74
65
14
4b
69
73
69
65
6c
65
77
73
6b
69
2c
20
59
73
68
69
6b
6f
10
53
74
61
6b
65
72
2c
20
4c
6f
72
72
69
6e
65
12
44
72
61
69
6e
76
69
6c
6c
65
2c
20
47
6c
64
79
73
13
47
61
72
64
65
6e
61
73
2c
20
42
65
72
6e
64
69
6e
65
12
45
61
73
74
6d
61
6e
2c
20
4d
61
63
6b
6e
7a
69
65
12
4c
61
6e
73
64
6f
77
6e
65
2c
20
41
6e
68
6f
6e
79
11
4e
69
6c
6d
65
69
65
72
2c
20
52
6f
73
75
72
61
13
54
72
6f
6a
69
6c
6c
6f
2c
20
4d
61
72
63
6c
69
6e
65
12
52
75
73
73
61
6b
2c
20
4c
69
65
73
65
6f
74
74
65
13
4e
75
72
6e
62
65
72
67
65
72
2c
20
4e
76
65
6c
6c
61
16
48
6f
75
67
68
74
65
6c
6c
69
6e
67
20
43
6f
6c
6c
65
74
74
65
11
53
70
6f
68
6e
68
6f
6c
2c
20
43
61
74
68
65
79
12
48
69
6e
74
65
72
67
61
72
74
2c
20
4d
6f
69
72
61
10
4d
6f
72
72
65
61
6c
65
2c
49
73
72
61
65
6c
16
56
61
6e
64
65
72
73
63
68
61
65
65
2c
20
57
69
6c
62
65
72
74
12
44
69
66
66
65
6e
64
6c
2c
20
4b
6f
72
74
6e
65
79
10
43
72
6f
6f
6b
65
73
20
4d
61
72
63
65
6c
6c
12
4c
61
6e
64
61
6b
65
72
2c
4c
69
7a
61
62
65
74
68
11
42
6f
75
72
6e
73
2c
20
4a
68
6e
61
74
68
61
6e
12
4d
6f
64
64
65
6a
6f
6e
67
65
20
52
6f
62
62
69
6e
10
48
69
70
73
68
65
72
2c
20
42
69
74
74
6e
79
10
4a
61
76
69
73
2c
20
52
6f
6f
73
65
65
6c
74
16
57
6f
6c
66
73
62
65
72
67
65
72
2c
20
43
72
6e
65
6c
69
75
73
10
4c
61
6d
62
6c
69
6e
2c
20
4d
72
6c
65
6e
61
10
4c
61
72
61
73
6f
6e
2c
20
4d
6f
64
73
74
61
13
54
75
72
6e
71
75
69
73
74
2c
20
53
75
73
6e
6e
61
68
13
57
69
74
68
65
72
69
6e
67
74
6f
6e
2c
49
73
61
61
63
10
50
72
69
74
63
68
65
74
74
2c
20
57
6c
6c
61
12
4d
63
63
6c
65
6e
64
6f
6e
2c
20
44
61
72
65
6e
65
10
43
69
62
72
69
61
6e
2c
20
42
72
69
74
74
79
10
43
6c
61
72
6f
73
2c
20
4a
65
6e
69
66
66
65
72
56
65
72
6e
6f
79
2c
20
43
61
73
61
6e
64
72
61
13
42
67
61
72
65
77
69
63
7a
2c
20
4d
61
72
6b
69
74
61
12
67
6c
65
73
69
61
73
2c
20
47
65
72
6d
61
69
6e
65
11
6f
6c
74
68
61
75
73
2c
20
46
72
65
64
64
69
65
13
42
73
65
68
6f
72
65
2c
20
53
61
6c
76
61
74
6f
72
65
10
6f
73
61
63
6b
2c
20
4d
61
64
65
6c
69
6e
65
12
50
69
6b
65
74
74
65
2c
20
45
76
65
72
65
74
74
65
12
45
73
6e
6e
61
73
6f
6e
2c
20
41
6c
6c
69
73
6f
6e
11
59
6f
6e
67
73
74
72
6f
6d
2c
20
4d
79
72
74
61
10
47
69
6c
6f
6f
6c
79
2c
20
43
68
65
72
72
79
12
48
61
75
70
74
61
6e
6e
2c
20
53
68
61
77
6e
6e
61
10
4c
75
62
65
6c
6b
69
2c
20
4d
6f
6e
72
6f
65
10
52
65
64
65
6d
65
72
20
4d
61
72
69
65
6c
61
10
4e
69
6d
6d
65
72
2c
20
50
75
6c
65
74
74
61
11
46
65
74
74
65
72
68
6f
66
66
2c
43
61
72
6c
6f
12
53
63
68
75
65
72
6d
61
6e
6e
2c
20
69
63
68
65
6c
10
57
69
6e
74
65
72
62
65
72
67
2c
20
61
6c
61
13
4d
61
73
68
62
75
72
6e
2c
20
41
6e
6a
61
65
74
74
65
10
43
61
72
64
6f
6e
2c
20
48
79
61
63
69
74
68
15
46
72
65
64
65
72
69
63
6b
73
65
6e
2c
20
4b
69
73
74
65
6c
13
52
6f
73
65
62
61
75
67
68
2c
20
50
65
63
69
6f
75
73
10
43
68
61
6e
63
65
79
2c
20
4c
61
72
69
6e
61
16
53
77
61
72
74
7a
65
6e
74
72
75
62
65
20
4c
61
75
72
69
63
65
12
42
61
63
68
69
63
68
61
2c
41
73
75
6e
63
69
6f
6e
10
42
72
61
6e
64
65
72
2c
20
68
65
72
79
6c
65
12
43
61
74
61
6c
64
6f
2c
20
47
61
72
69
65
6c
6c
61
14
4b
61
70
70
65
72
6d
61
6e
2c
20
65
72
74
72
75
64
69
73
11
44
65
74
75
72
65
6e
6e
65
20
59
61
73
75
6b
6f
14
48
61
79
73
62
65
72
74
2c
20
72
69
73
74
6f
70
68
65
72
12
42
6f
6e
6e
65
61
75
2c
43
6c
65
6d
65
6e
63
69
61
12
43
61
73
74
61
6e
65
64
2c
20
43
6c
61
72
69
73
61
10
43
72
6f
75
73
6f
72
65
20
41
75
64
72
69
65
10
4c
65
61
76
65
6e
73
2c
20
4a
65
6c
6c
65
6e
11
46
72
65
64
6c
75
6e
64
2c
20
43
6c
72
69
74
61
12
44
69
6d
75
63
63
69
6f
2c
20
52
6f
73
6c
69
6e
61
11
42
69
64
64
75
6c
70
68
2c
20
45
73
74
6c
6c
65
11
43
6c
61
70
68
61
6d
2c
20
4d
61
72
67
65
65
74
10
4e
6f
74
69
73
2c
20
46
69
6c
69
62
65
72
74
10
54
69
6d
6d
65
72
6d
61
6e
6e
2c
20
4d
61
69
61
10
65
72
73
68
6d
61
6e
2c
20
57
69
6c
62
75
72
10
47
69
6c
69
6e
73
2c
20
41
6c
76
65
72
74
61
10
50
68
65
61
61
6e
74
2c
20
42
65
72
74
69
65
10
41
72
75
6e
64
65
2c
20
53
68
65
72
69
63
65
10
4b
61
65
6c
6b
65
72
2c
44
65
72
72
69
63
6b
11
4d
63
6b
69
6c
6c
69
70
2c
20
75
69
6e
74
6f
6e
11
53
61
6e
74
6f
72
65
6c
6c
61
2c
43
61
72
79
6c
10
46
6c
65
69
73
6e
65
72
2c
20
4c
65
67
68
61
13
54
72
65
6d
61
79
6e
65
2c
20
4a
61
63
71
65
6c
69
6e
10
4d
61
74
74
75
2c
20
4d
61
72
67
75
72
74
65
12
46
72
61
6e
73
73
65
6e
2c
20
4b
61
74
65
72
6e
65
11
53
63
68
65
75
65
72
2c
20
4b
65
6d
62
65
72
79
10
4c
61
6e
64
62
6f
72
67
2c
20
4a
61
6e
79
63
65
4c
65
66
66
65
6c
6d
61
6e
2c
20
4d
61
72
65
6e
10
4f
6c
61
6e
64
6f
2c
20
53
68
69
72
6c
65
79
10
4d
69
79
7a
61
6b
69
2c
20
53
6f
6e
64
72
61
15
46
72
65
64
65
69
63
6b
73
65
6e
2c
20
4d
61
72
79
6c
69
6e
10
47
61
65
72
2c
20
53
65
70
74
65
6d
62
65
72
10
53
74
75
74
6d
61
6e
2c
20
57
69
6e
74
65
72
12
47
75
65
72
65
74
61
2c
20
54
68
65
72
65
73
69
61
14
51
75
65
72
74
65
6d
6f
75
73
2c
20
43
61
72
6d
69
6e
65
13
43
6f
72
70
72
61
6c
2c
20
4d
61
72
63
65
6c
6c
75
73
10
52
61
6d
65
72
67
2c
20
41
6c
66
6f
6e
73
6f
11
4b
61
73
7a
69
73
6b
69
2c
20
4c
79
6e
64
6f
6e
11
57
65
6e
64
65
6c
65
6e
2c
20
43
6f
72
69
6e
65
11
46
6c
61
64
75
6e
67
20
43
61
74
61
6c
69
6e
61
10
43
61
76
69
63
63
68
69
20
53
65
72
69
74
61
11
4d
69
6c
6c
61
72
64
2c
20
4b
74
68
61
72
79
6e
10
42
69
73
73
6f
6e
6e
65
74
74
65
20
53
61
6d
13
53
74
72
69
74
74
6d
61
74
74
65
72
2c
54
6f
6e
69
61
13
51
75
61
72
74
61
72
61
72
6f
2c
20
6f
75
65
74
74
61
10
4c
69
6d
62
65
72
67
2c
20
41
62
67
61
69
6c
10
47
65
6c
67
65
72
2c
20
4d
61
72
6b
65
74
61
11
46
69
6c
69
63
65
74
74
69
2c
20
4b
61
72
72
65
10
44
65
6d
61
72
61
69
73
2c
20
4e
69
63
68
6f
6c
44
69
6c
6c
61
62
6f
75
67
68
2c
20
4c
6f
74
74
69
65
56
61
6e
64
65
72
6e
6f
6f
74
2c
20
43
61
72
72
6f
6c
53
77
61
74
73
77
6f
72
74
68
2c
20
56
61
6e
6e
65
73
61
11
48
61
72
61
6c
73
6f
6e
2c
20
43
61
70
72
69
63
10
53
61
72
61
69
76
61
2c
20
42
65
61
75
6c
61
68
11
73
6d
75
6e
64
73
6f
6e
2c
20
4a
6f
65
74
74
61
10
5a
6c
64
69
76
61
72
2c
20
44
65
62
62
69
65
13
53
63
68
70
6d
65
79
65
72
2c
20
41
72
6e
75
6c
66
6f
11
43
68
72
75
62
69
6e
6f
2c
20
44
61
6e
79
65
6c
12
53
63
68
66
66
6d
61
6e
2c
20
4c
6f
72
72
69
6e
65
11
53
63
68
69
63
6b
2c
20
4d
69
74
63
68
65
6c
6c
10
4d
65
72
63
2c
20
52
6f
73
61
6d
61
72
69
61
10
50
6c
65
73
6e
61
73
6b
69
2c
20
45
6c
6c
61
12
53
75
6e
64
65
72
6d
65
65
72
2c
20
47
72
61
69
67
10
5a
6e
69
64
61
72
73
69
2c
20
52
65
6e
65
65
11
4e
69
63
6f
64
65
6d
75
73
2c
4b
69
65
73
68
61
11
4d
61
67
64
61
6c
65
6e
6f
2c
20
69
6c
6c
69
73
11
56
61
6e
72
75
6c
65
72
2c
20
43
61
69
73
73
61
10
54
72
65
61
6d
65
72
2c
20
52
75
73
73
6c
6c
10
4c
65
61
76
69
67
6e
65
2c
20
46
61
72
72
61
15
44
69
7a
61
64
61
72
65
2c
20
50
72
6f
76
69
64
65
63
69
61
10
43
6f
63
6f
7a
7a
61
2c
20
4a
65
72
6c
65
65
10
53
65
74
74
6c
65
73
2c
20
56
61
6c
6f
72
69
65
42
6c
61
6e
64
6f
6e
2c
20
43
61
6c
61
6e
64
72
61
10
68
72
69
73
74
6f
70
68
65
2c
20
48
6f
6e
67
11
52
6f
74
6f
6e
2c
20
53
65
62
61
73
74
69
61
6e
10
50
6f
6c
69
6e
6f
2c
20
42
72
61
6e
64
6f
6e
12
4d
63
63
75
6c
61
72
2c
20
46
72
61
6e
63
65
6e
65
10
52
6f
73
6d
61
69
6e
2c
20
4b
61
72
72
65
6e
14
56
61
6e
68
6f
6f
7a
72
2c
20
43
61
72
6d
65
6c
69
74
61
11
50
61
75
6b
65
74
2c
20
53
68
69
72
6c
65
65
6e
11
44
65
6c
67
72
61
64
65
2c
20
4e
65
73
74
6f
72
11
57
69
6c
6c
69
66
6f
64
2c
20
52
6f
78
61
6e
65
13
53
61
6e
64
73
74
72
6f
2c
20
4c
75
63
72
65
63
69
61
10
50
65
64
72
6f
7a
61
20
43
61
72
6c
65
65
6e
10
4a
75
65
6c
66
73
2c
20
4c
61
74
72
69
63
65
12
47
72
6f
6e
71
75
69
73
74
2c
20
6f
6c
6f
72
69
73
16
53
63
68
77
69
63
68
74
65
6e
62
72
2c
20
50
72
65
73
74
6f
6e
10
54
69
70
70
69
6e
67
20
4d
69
63
68
61
6c
65
14
4b
61
6e
6a
69
72
61
74
68
6e
67
61
2c
20
4e
69
67
65
6c
13
47
69
6c
6c
69
6e
67
2c
20
4d
61
72
67
75
72
69
74
65
1a
53
65
6e
73
65
6e
72
65
6e
6e
65
72
2c
20
43
68
72
69
73
74
6f
70
68
65
11
42
61
6c
7a
61
72
69
6e
65
2c
20
4a
61
72
72
6f
64
50
65
74
65
65
74
2c
20
56
65
72
6e
65
74
74
61
10
53
6f
77
64
65
6e
2c
20
54
61
62
61
74
68
61
11
52
61
69
76
69
6c
6c
65
2c
20
43
68
61
72
6c
61
10
42
72
65
6e
6c
65
2c
20
4f
6c
79
6d
70
69
61
11
43
68
69
76
65
72
6f
6e
2c
20
44
65
6e
69
74
61
10
49
76
65
73
74
65
72
20
4d
65
72
72
69
6c
6c
11
4b
6c
65
6d
65
6e
74
2c
20
72
65
67
6f
72
69
6f
10
4b
61
6c
6c
68
6f
66
66
2c
20
61
72
74
65
72
12
48
6f
66
6d
61
6e
73
2c
20
44
65
6d
74
72
69
75
73
10
52
61
6d
73
69
65
72
2c
20
4c
6f
75
6c
6c
61
10
46
6c
6f
72
65
6e
2c
20
4e
69
63
68
6f
6c
73
10
54
79
70
68
61
69
72
2c
20
42
72
61
6e
64
6f
6e
46
6f
72
62
75
73
68
2c
20
4c
69
6c
6c
69
61
6e
61
12
72
61
64
69
6c
6c
61
73
2c
20
50
68
79
6c
69
73
73
10
61
73
63
6f
6e
2c
20
4d
61
72
61
67
72
65
74
11
42
65
74
6f
76
69
63
68
2c
20
41
6e
64
72
65
77
12
42
69
6c
65
72
72
79
2c
20
45
70
69
66
61
6e
69
61
12
4c
61
67
6e
61
2c
20
4d
61
72
67
75
65
72
69
74
61
13
41
68
72
6e
73
74
6f
72
66
66
2c
20
45
76
65
6c
69
61
10
47
6f
64
62
61
75
6d
2c
20
4d
69
6e
6e
69
65
13
51
75
69
6e
61
6e
61
2c
20
50
61
72
74
68
65
6e
69
61
13
46
65
69
73
74
65
72
2c
20
44
65
6d
65
74
72
69
63
65
10
43
6f
6c
69
61
6e
6f
2c
20
50
61
6d
75
6c
61
12
4d
6f
6e
74
6c
67
6f
2c
20
4c
61
75
72
65
6e
63
65
12
43
61
73
74
6c
6c
61
6e
6f
73
2c
20
47
61
72
74
68
15
4b
6c
61
61
65
79
65
72
2c
20
46
72
65
64
65
72
69
63
6b
61
11
43
61
6e
66
72
69
6e
69
2c
20
41
72
63
68
69
65
10
48
65
6c
69
6e
65
2c
20
4a
61
6e
69
65
63
65
12
4d
63
64
6f
6e
65
6c
6c
2c
20
52
61
70
68
61
65
6c
11
48
65
61
64
6e
67
74
6f
6e
2c
20
45
6d
65
6c
79
11
45
69
64
65
6d
6c
6c
65
72
2c
20
54
77
61
6e
61
12
48
69
6c
63
68
65
2c
20
4b
61
74
68
61
72
69
6e
61
10
4b
6f
6f
69
73
74
61
2c
20
4c
65
6e
6f
72
61
10
4d
69
72
61
72
63
68
69
20
4d
61
72
76
69
6e
10
48
61
6c
6c
69
63
6b
2c
20
4d
6e
69
71
75
65
11
50
69
63
6f
74
2c
20
45
61
72
6e
65
74
69
6e
65
10
4c
61
6e
61
67
61
6e
2c
20
4c
61
64
6f
6e
61
10
43
72
6f
77
73
6f
6e
2c
20
43
6f
72
61
6c
69
10
56
69
6c
6c
65
64
61
2c
20
43
68
61
72
6c
65
73
10
69
7a
65
6e
6b
6f
2c
20
53
74
65
77
61
72
74
13
4d
6f
69
6e
76
69
6c
6c
65
2c
20
4b
61
79
6c
65
65
6e
10
4d
6e
77
61
72
72
65
6e
2c
20
44
65
62
62
69
12
45
73
63
65
6e
62
75
72
67
2c
20
43
61
72
6d
6f
6e
10
42
6c
6f
6b
6c
69
6e
67
65
72
2c
20
41
62
65
11
48
65
64
69
67
72
2c
20
4c
61
73
61
6e
64
72
61
10
49
6e
6e
6f
63
65
74
2c
20
43
68
65
72
6c
79
11
4d
63
63
61
72
72
61
68
72
2c
20
46
61
6e
6e
79
11
42
61
72
75
66
66
61
2c
20
65
72
6d
61
69
6e
65
13
44
61
72
63
61
6e
67
65
6c
6f
20
44
65
6c
69
6c
61
68
10
53
69
6b
61
72
73
6b
69
65
20
4d
61
67
65
6e
11
4b
68
61
6c
65
65
6c
2c
20
52
6f
61
6d
6f
6e
64
10
4c
79
6d
61
73
74
65
72
2c
20
4d
61
69
6e
61
10
4e
6f
67
61
6c
65
73
2c
20
4b
65
6e
64
61
6c
10
48
69
62
64
6f
6e
2c
20
56
65
72
6e
65
74
74
61
4b
72
65
69
6e
68
61
67
65
6e
2c
20
42
72
69
74
74
6e
11
43
61
70
70
65
6c
6c
75
74
69
2c
20
4d
69
6b
65
6c
54
79
62
75
72
73
6b
69
2c
20
54
61
69
73
68
61
12
4e
77
6d
65
79
65
72
2c
20
4c
69
73
61
62
65
74
68
11
47
61
6e
74
68
61
6e
2c
20
54
61
6e
65
73
68
61
11
48
65
66
67
6f
74
74
2c
20
4e
6f
76
65
6c
6c
61
10
4d
63
6c
6e
61
68
61
6e
2c
20
43
68
61
6e
67
10
42
72
61
75
6e
64
6f
72
66
2c
20
53
63
6f
74
12
4e
61
6c
62
61
6e
64
61
6e
2c
20
42
61
72
62
72
61
10
48
65
72
6e
61
6e
64
7a
2c
20
48
61
6c
65
79
11
47
6f
74
74
64
65
6e
67
65
2c
20
42
75
6e
6e
79
10
48
6f
6c
6c
6d
61
6e
6e
2c
20
65
73
6c
65
79
10
46
6a
65
74
6c
61
6e
64
2c
20
44
6f
61
6c
64
10
42
61
6e
65
72
6a
65
65
2c
20
45
75
6e
69
65
13
59
75
6e
67
62
6c
75
74
68
2c
20
4a
61
63
6b
65
79
6e
11
43
6f
6c
65
67
72
6f
76
65
2c
20
41
69
6c
65
6e
13
4d
61
73
69
6e
63
75
70
2c
20
41
6e
74
6f
6e
65
74
61
10
52
69
6e
64
65
72
6c
65
2c
20
46
6f
73
74
65
10
4b
6f
72
6e
65
67
61
79
2c
20
53
68
61
6e
74
65
15
72
65
63
6b
65
6e
73
74
65
69
6e
2c
20
47
72
65
67
6f
79
11
42
72
65
7a
6e
61
79
2c
20
54
68
65
72
65
73
69
12
4c
61
66
6f
75
6e
74
61
69
6e
2c
20
4a
61
6e
79
63
11
4b
6f
70
65
72
73
6b
69
2c
20
52
65
62
62
65
63
61
42
75
72
72
69
65
73
63
69
2c
20
53
74
65
66
61
6e
69
11
4d
65
61
6c
6f
72
2c
20
43
68
72
69
73
74
65
65
6e
53
74
6f
65
73
73
65
72
2c
20
44
61
6e
65
74
74
65
10
6f
6d
6d
65
73
2c
20
4a
65
61
6e
65
74
74
61
10
4d
61
74
69
6e
6f
76
2c
20
56
61
6e
65
73
61
11
41
72
6e
73
69
67
65
72
2c
20
47
69
64
67
65
74
10
4c
61
67
75
65
72
65
2c
20
41
6e
64
72
65
77
10
53
74
65
66
61
6e
69
68
2c
20
54
6f
72
69
65
13
4d
61
72
74
65
6e
65
79
2c
41
6c
65
78
61
6e
64
65
72
12
42
61
72
74
6f
6c
6f
6d
63
63
69
2c
20
4c
69
6e
67
12
4d
65
68
61
72
72
79
2c
46
72
61
6e
63
6f
69
73
65
10
4d
69
6c
6c
6f
77
61
79
20
41
75
73
74
69
6e
14
4a
6f
68
6e
73
74
6f
6e
62
61
67
68
2c
20
4a
61
6e
61
65
11
53
63
61
72
66
6f
6e
65
20
43
79
72
73
74
61
6c
12
48
6f
6c
6c
69
6e
67
77
6f
74
68
2c
20
59
61
6e
67
11
56
6f
6e
64
65
72
6b
65
6c
2c
20
4c
79
6d
61
6e
11
4c
65
76
65
6e
64
6f
73
6b
79
20
43
79
72
69
6c
10
54
6f
6c
6c
6d
61
6e
2c
20
53
75
61
6e
6e
65
10
50
72
69
74
7a
65
6c
2c
20
57
69
6c
6c
6e
65
12
52
6f
7a
65
62
6f
6f
6d
2c
20
47
72
69
63
65
64
61
12
44
6f
6e
6e
61
6c
6c
79
2c
20
4d
61
72
79
6a
6e
65
12
53
61
6d
61
6e
6c
65
67
6f
2c
20
4a
61
6e
75
72
79
10
4b
69
6e
67
68
6f
72
6e
2c
20
43
6c
61
72
69
11
53
6c
69
67
68
74
61
6d
2c
20
4e
75
6d
62
65
72
73
42
61
72
6e
68
61
72
64
74
2c
20
43
65
63
69
6c
11
45
67
6c
65
62
65
72
74
2c
20
47
6c
79
6e
69
73
12
4a
6f
67
65
6c
69
6e
67
2c
20
42
72
65
6e
64
61
6e
11
4d
65
73
63
68
2c
20
4d
61
72
63
65
6c
69
6e
65
11
43
72
69
70
69
6e
2c
20
4a
61
6e
6e
65
74
74
65
10
4c
75
6c
65
69
63
7a
2c
20
42
72
61
64
6c
79
12
4b
6f
73
74
65
6c
63
6b
79
2c
20
41
73
68
6c
65
79
12
43
68
65
65
76
65
2c
20
41
6e
61
73
74
61
63
69
61
10
43
6f
6e
6e
65
6c
2c
20
58
69
6f
6d
61
72
61
10
42
65
6c
6c
6d
6f
72
65
20
56
65
72
6e
6f
6e
10
4b
75
74
69
6c
2c
20
52
6f
73
6d
61
72
69
61
11
42
61
72
72
61
6e
63
6f
2c
20
4a
61
6e
69
74
61
11
4d
61
72
71
75
69
73
2c
20
53
61
6d
61
74
68
61
10
54
61
72
6e
6f
66
66
2c
20
4c
65
61
6e
64
61
10
4d
61
68
61
6e
6e
61
2c
20
54
65
6e
69
73
68
61
46
72
6f
68
77
65
69
6e
2c
20
45
6c
65
61
73
65
10
53
76
65
72
69
6e
2c
20
4b
72
69
73
74
61
6c
10
42
61
74
69
63
68
2c
20
43
61
72
79
6c
6f
6e
12
4f
6c
65
73
6b
65
77
69
63
7a
2c
20
43
61
73
73
79
10
4a
75
73
74
6d
6e
2c
20
52
6f
73
65
6c
6c
65
11
54
61
6b
65
6e
61
6b
2c
20
4b
61
74
68
79
72
6e
10
4e
6f
79
65
72
2c
20
44
6d
69
6e
69
71
75
65
10
4b
75
72
65
74
69
63
68
2c
20
72
65
64
64
79
11
4c
75
6e
67
73
74
72
6f
6d
2c
20
54
6d
6d
79
65
12
4b
69
67
68
74
6c
69
6e
67
65
72
2c
20
6c
69
6e
61
11
42
65
64
65
6c
6c
2c
20
42
72
6f
64
65
69
63
6b
14
56
69
6c
6c
61
72
72
76
65
6c
2c
20
43
6f
72
74
6e
65
79
14
4c
61
66
72
6f
6d
62
6f
69
73
65
2c
56
69
6f
6c
65
74
61
10
44
61
6d
65
77
6f
6f
64
2c
20
6f
62
62
69
65
11
53
68
65
68
6f
72
6e
2c
20
53
68
61
65
6c
6c
65
10
4b
6f
63
6f
75
72
65
6b
2c
20
4e
6f
68
6d
69
10
42
6f
74
68
77
65
6c
6c
2c
20
4f
64
65
74
74
10
52
75
73
73
65
6c
6c
6f
2c
20
41
6e
74
6f
6e
65
11
65
72
6f
73
69
65
72
2c
20
57
69
6c
66
72
65
64
11
43
61
72
6c
65
62
6f
69
73
2c
20
56
65
6c
6d
61
12
42
6f
63
68
69
6e
6f
2c
20
42
65
72
6e
65
69
63
65
13
53
74
6e
73
62
65
72
72
79
2c
20
4d
61
75
72
69
63
65
10
52
76
61
6b
2c
20
56
61
6c
65
6e
74
69
6e
65
13
48
61
77
68
72
6f
6e
65
2c
20
42
65
72
6e
61
72
64
6f
13
49
61
6e
61
63
63
6f
6e
65
2c
20
4d
61
72
69
73
73
61
13
48
72
74
65
61
75
2c
20
4d
61
72
71
75
65
72
69
74
65
11
69
6c
64
65
79
2c
20
56
69
63
74
6f
72
69
6e
61
10
47
61
64
6c
65
2c
20
56
65
72
6f
6e
69
63
61
12
48
61
6e
65
6d
61
6e
2c
20
43
68
61
6e
74
65
6c
6c
10
46
6f
6c
65
74
74
2c
20
4c
6f
75
61
6e
6e
65
10
54
69
6e
64
65
6c
2c
20
43
65
63
69
6c
69
61
12
50
69
6c
6c
73
62
75
79
2c
20
44
6f
72
65
74
68
61
10
56
6f
6c
6b
65
6e
73
20
4b
61
6e
64
61
63
65
12
4c
61
6d
75
6e
79
6f
6e
2c
43
68
61
64
77
69
63
6b
12
42
6f
72
64
65
6e
65
74
2c
46
6c
6f
72
69
6e
64
61
12
4d
61
73
73
69
6e
67
69
6c
2c
20
4d
61
72
76
69
6e
11
53
63
68
6f
63
6b
6c
65
79
20
41
75
72
6f
72
65
12
42
6f
65
68
6d
6b
65
2c
20
4a
66
66
65
72
73
6f
6e
10
4d
63
67
72
61
6e
65
2c
20
44
6e
6e
65
6c
6c
13
57
69
63
68
72
6f
77
73
6b
69
2c
20
61
6a
6f
72
69
65
12
53
65
61
62
6f
6c
64
2c
20
42
72
64
65
72
69
63
6b
10
50
72
61
73
65
6b
2c
20
42
65
6e
61
6d
69
6e
10
52
6f
64
6f
6c
70
68
2c
20
4e
69
63
68
6c
65
10
57
65
73
73
65
6c
2c
20
52
65
69
6e
61
6c
64
10
57
61
72
65
68
69
6d
65
2c
20
57
69
6c
62
75
72
11
6e
64
72
65
61
74
74
61
2c
20
44
61
6c
6c
61
73
10
50
72
74
69
62
6c
65
2c
20
54
65
72
69
73
61
10
53
63
68
65
69
66
66
2c
20
47
65
6e
6e
69
65
12
4a
6f
73
65
70
2c
20
47
65
6f
72
67
65
61
6e
6e
61
15
45
69
63
6b
68
72
73
74
2c
20
4a
61
63
71
75
69
6c
69
6e
65
12
53
75
65
72
69
73
6b
69
2c
20
44
61
6e
69
65
6c
6c
12
53
74
6c
65
75
72
2c
20
4b
69
6d
62
65
72
6c
69
65
10
53
6f
6e
6b
73
65
6e
2c
20
48
61
6c
6c
69
65
10
4d
6f
6e
74
61
73
2c
20
4d
61
64
65
6c
79
6e
10
43
61
6c
64
61
72
72
61
2c
20
53
61
64
79
65
10
4d
6f
72
64
69
6e
69
2c
4d
61
6c
69
73
73
61
13
52
65
6e
7a
75
6c
6c
6f
2c
20
69
6c
6c
6f
64
65
61
6e
11
50
65
72
72
69
63
6f
6e
65
20
53
68
61
69
6e
61
11
42
69
73
6f
6e
2c
20
41
6c
65
61
6e
64
72
69
61
10
53
69
6d
6f
65
6e
73
2c
20
4d
61
74
69
6e
65
10
4d
65
77
62
6f
75
72
6e
2c
20
44
6f
72
69
73
10
47
72
61
67
65
64
61
2c
20
53
68
65
72
72
79
13
54
61
6e
65
6e
62
61
75
6d
2c
20
50
6f
72
66
69
72
6f
11
50
65
6e
61
68
65
72
72
65
72
61
2c
20
4d
79
72
12
4d
65
6d
6f
72
79
2c
20
43
68
72
69
73
74
69
6e
69
11
59
61
6e
6e
75
7a
7a
69
2c
20
43
61
72
6c
65
65
6e
42
65
63
6e
65
6c
2c
20
4c
75
63
72
65
63
69
61
10
50
6e
6e
68
6f
66
66
2c
20
4b
65
6c
6c
69
65
10
45
6c
6c
66
72
69
74
7a
2c
20
4c
79
64
69
61
14
53
68
65
6c
6c
6e
62
61
72
67
65
72
2c
20
42
61
73
69
6c
12
4d
61
72
6f
6c
65
6b
2c
20
52
61
73
68
65
65
64
61
14
4e
6f
74
62
6f
6f
6d
2c
20
4d
6f
6e
73
65
72
72
61
74
65
10
42
74
74
61
67
6c
69
61
2c
20
4d
65
67
61
6e
10
55
72
62
63
68
2c
20
4a
65
61
6e
65
6c
6c
65
12
46
65
61
7a
65
6c
65
2c
20
4e
69
63
68
65
6c
6c
65
13
47
72
69
67
61
69
75
6e
61
73
2c
20
44
6f
6e
69
74
61
13
53
75
66
66
69
64
67
65
2c
20
56
69
63
74
6f
72
69
61
13
47
75
69
6c
69
61
6d
73
2c
20
43
61
74
65
72
69
6e
61
11
53
74
61
72
6e
65
73
2c
20
4d
69
72
61
6e
64
61
11
4d
61
6e
70
65
61
6b
65
72
2c
20
41
6e
64
72
61
10
4d
69
6c
6c
6d
61
6e
2c
20
53
68
65
72
72
79
10
42
61
73
6b
65
74
65
2c
20
4f
74
65
6c
69
61
13
4c
65
66
6b
6f
77
69
74
2c
20
53
74
65
70
68
69
6e
65
12
4e
65
77
68
6f
75
73
2c
20
49
73
61
62
65
6c
6c
61
13
44
75
72
69
73
73
65
75
2c
20
46
65
64
65
72
69
63
6f
17
46
65
72
64
69
6e
6e
64
73
65
6e
2c
20
42
72
69
64
67
65
74
74
65
11
46
73
61
6e
69
63
6b
2c
20
4c
61
77
61
6e
64
61
11
47
6f
65
6e
63
65
2c
20
44
65
61
6e
67
65
6c
6f
12
48
79
70
6f
6c
69
74
65
2c
20
4d
61
72
79
6c
69
6e
12
53
74
65
64
6c
2c
20
45
61
72
6e
65
73
74
69
6e
65
12
42
6f
63
6c
61
67
65
2c
20
4a
75
6c
69
65
74
74
65
10
53
65
61
6c
65
73
2c
20
4b
72
79
73
74
61
6c
10
46
72
65
63
68
20
47
65
6e
65
76
69
65
76
65
14
52
65
69
6e
69
6e
67
72
2c
20
47
65
6f
72
67
65
61
6e
6e
10
4d
65
79
65
72
77
69
74
7a
2c
20
4b
72
69
73
11
48
6f
67
73
65
74
74
2c
20
53
68
61
77
61
6e
61
10
46
6c
65
6e
73
2c
20
48
6e
72
69
65
74
74
61
11
48
61
67
67
61
6e
73
2c
20
46
61
6e
6b
6c
69
6e
11
4d
61
6c
61
6e
64
72
61
2c
20
43
72
6f
6c
69
6e
11
50
61
74
74
65
72
73
6f
6e
2c
20
57
6e
6e
69
65
11
50
72
65
76
65
74
74
2c
20
4c
75
64
69
69
6e
61
14
53
77
61
72
74
7a
65
6e
64
72
75
62
65
2c
4f
6e
69
74
61
10
4d
61
74
72
6f
73
2c
20
54
68
61
64
65
75
73
10
4d
65
61
72
69
6e
67
2c
20
41
6e
74
69
6f
65
14
52
6f
64
72
69
71
75
65
73
2c
20
4d
61
72
67
61
65
74
61
15
4b
6c
69
6e
65
66
65
6c
74
65
72
2c
20
43
61
72
69
6e
64
61
13
44
65
6c
6c
69
76
65
6e
65
72
69
20
43
69
63
65
6c
79
10
4b
75
6e
65
79
2c
20
43
65
6c
73
74
69
6e
61
11
4d
63
63
61
73
6b
69
6e
2c
20
46
72
64
64
69
65
13
4b
61
6d
65
6c
61
6d
65
6c
61
2c
20
4c
75
61
6e
6e
65
10
42
65
65
68
6c
65
72
2c
20
4b
61
69
6c
79
6e
12
54
79
6b
73
69
6e
73
6b
69
2c
20
54
61
6c
73
68
61
11
4b
6f
72
6e
72
65
69
63
68
2c
20
42
6f
6e
69
65
11
53
63
68
6d
61
75
74
7a
2c
20
41
6e
74
6f
6e
61
11
44
65
70
70
69
6e
67
2c
20
53
68
61
77
61
6e
64
11
41
6d
61
76
69
73
63
61
2c
20
4f
72
6c
61
6e
64
6f
57
69
70
70
65
72
74
2c
20
43
68
72
69
73
74
61
12
53
6c
6f
6d
6f
6e
2c
20
43
68
61
6e
74
65
6c
6c
65
10
4b
65
74
63
68
2c
20
44
72
75
63
69
6c
6c
61
10
53
74
65
70
6c
65
2c
20
50
61
75
6c
69
6e
65
10
48
6f
6c
6c
69
61
79
2c
20
4b
65
65
6e
61
6e
12
41
75
67
6c
69
61
6e
2c
20
54
68
65
72
65
73
73
61
12
52
65
6e
74
73
63
68
65
72
2c
20
4d
6f
72
67
61
6e
11
48
65
6c
6c
69
77
65
6c
2c
20
57
65
6e
64
69
65
12
46
69
6c
69
61
75
6c
74
20
45
76
65
72
65
74
74
65
11
48
75
63
6b
65
62
61
2c
50
68
79
6c
69
63
69
61
10
4d
63
63
6c
79
6d
6f
6e
64
2c
20
54
6f
79
61
13
42
6c
6f
6f
64
77
6f
72
74
68
2c
48
61
79
77
6f
6f
64
16
50
61
72
6c
61
76
65
63
63
68
6f
2c
20
45
73
74
65
66
61
6e
61
10
52
61
77
73
6f
6e
20
54
69
66
66
61
6e
65
79
11
53
70
69
74
73
62
65
72
2c
20
54
79
65
73
68
61
12
4c
6f
6e
67
68
75
72
73
74
20
4b
72
79
73
74
61
6c
13
53
63
68
69
66
66
6d
61
6e
2c
20
4a
75
73
74
69
6e
65
11
47
72
61
6e
73
74
72
6f
2c
20
44
6f
6c
6c
69
65
13
48
65
72
6e
61
6e
64
65
72
20
41
64
72
69
61
6e
6e
65
12
4d
69
6b
6f
6c
61
6a
63
79
6b
2c
20
4b
69
61
72
61
10
56
65
72
67
61
6d
69
6e
2c
20
42
72
79
6f
6e
11
4c
61
6e
67
68
61
72
74
2c
20
65
73
73
69
63
61
14
56
61
6e
68
61
6d
65
72
73
76
65
64
2c
20
4d
61
79
6d
65
11
50
61
73
74
72
61
6e
61
2c
4c
61
72
61
69
6e
65
12
44
69
64
6f
6d
65
6e
69
63
6f
20
46
72
65
69
64
61
10
50
69
65
72
65
74
74
69
2c
20
6f
75
69
73
65
10
4f
65
64
65
6b
65
72
6b
2c
20
42
65
6b
69
73
10
54
61
72
61
73
2c
20
43
6c
65
6f
74
69
6c
65
10
5a
75
6c
66
65
72
2c
20
46
61
75
73
74
69
6e
6f
53
69
72
72
69
6e
65
2c
20
43
61
74
68
6c
65
65
6e
10
75
7a
6d
64
6e
2c
20
45
74
68
65
6c
65
6e
65
10
47
6f
6c
65
73
6b
69
2c
20
48
65
72
74
68
61
10
57
69
6e
73
6f
6e
2c
20
42
61
73
69
6c
69
61
10
53
74
61
6d
70
6c
79
2c
20
53
75
6d
6d
65
72
12
47
65
6c
65
72
74
65
72
20
53
74
61
6e
66
6f
72
64
12
47
72
65
65
6e
62
6c
61
74
2c
20
44
6f
6e
6e
69
65
11
53
68
6f
75
6d
61
6b
65
2c
20
43
68
61
72
69
73
10
4c
61
72
6f
73
65
2c
20
42
72
65
6e
69
63
65
10
42
72
6f
7a
69
6e
61
2c
20
46
65
69
63
69
61
11
4d
63
63
6c
65
73
74
65
72
2c
20
42
65
73
69
65
11
46
72
65
64
64
72
69
63
6b
2c
20
54
6f
6d
6b
61
11
53
6b
72
65
74
6f
77
69
63
7a
2c
20
4b
65
72
79
10
54
61
6c
68
65
6c
6d
2c
20
41
6e
6e
61
6c
65
65
43
6f
72
73
69
6e
69
2c
20
43
61
6e
64
61
6e
63
65
11
6f
64
65
6c
6c
2c
20
43
61
74
68
61
72
69
6e
65
10
54
65
6c
6b
65
2c
20
43
68
72
69
73
74
65
6e
10
4c
61
77
6c
69
6e
2c
20
48
65
6c
61
69
6e
65
10
41
72
6d
77
6f
64
2c
20
44
65
6c
69
6e
64
61
10
42
72
61
64
64
6f
63
2c
20
44
65
6c
6f
72
61
13
53
74
61
73
63
68
6b
65
2c
41
6e
6e
61
6d
61
72
69
61
11
53
68
65
61
72
64
2c
20
6c
61
75
64
65
74
74
65
10
48
61
72
74
68
6f
72
6e
65
20
5a
65
74
74
61
10
4d
61
77
68
6f
72
74
65
72
2c
20
6c
6c
61
6e
11
50
61
70
73
74
65
69
6e
2c
20
4d
65
6c
6e
69
61
10
43
68
72
69
73
74
2c
20
52
61
79
6d
6f
6e
65
11
46
65
65
6c
65
79
2c
20
45
73
70
65
72
61
6e
7a
11
4c
61
64
65
72
6d
61
6e
2c
20
4c
65
74
69
73
68
61
4c
61
6d
62
72
6f
73
2c
20
4d
69
67
75
65
6c
69
6e
61
45
69
66
65
72
74
2c
20
43
61
74
68
61
72
69
6e
65
10
75
62
69
74
2c
20
49
6e
6f
63
65
6e
63
69
61
10
45
62
72
6c
79
2c
20
4d
65
6c
69
73
73
69
61
11
42
65
72
67
74
65
6e
2c
20
41
6c
66
6f
6e
73
6f
16
41
70
70
65
6e
65
6c
6c
65
72
2c
20
4d
61
72
69
61
6e
65
6c
61
10
46
72
74
6e
65
72
2c
20
43
6f
6c
65
6d
61
6e
11
46
65
72
62
65
72
67
2c
20
50
72
65
73
74
6f
6e
14
4d
61
6e
7a
6e
61
72
65
7a
2c
20
45
6d
6d
61
6c
69
6e
65
10
42
6f
63
68
65
79
2c
20
4d
65
6c
69
6e
64
61
10
50
69
6e
6e
63
6b
2c
20
48
65
61
74
68
65
72
14
47
69
61
6e
6e
65
74
69
2c
20
49
6c
75
6d
69
6e
61
64
61
12
52
69
73
62
63
6b
2c
20
4e
61
74
69
76
69
64
61
64
16
53
63
69
63
74
65
6c
6c
61
2c
20
43
72
69
73
74
6f
70
68
65
72
10
65
72
72
69
61
6e
2c
20
41
6e
74
6f
69
6e
65
11
5a
75
77
61
6c
74
2c
20
50
61
75
6c
65
74
74
61
10
4d
61
6e
6b
65
79
2c
20
43
6c
61
72
69
63
65
10
53
65
77
79
65
64
2c
20
4c
6f
76
65
6c
6c
61
10
47
61
64
64
69
73
2c
44
6f
72
65
74
68
65
61
12
4d
61
72
73
68
61
6b
2c
20
68
72
69
73
74
69
6e
61
10
52
75
64
64
6f
63
6b
2c
20
61
72
79
6c
69
6e
12
53
6d
61
6c
6c
69
64
67
65
2c
20
62
69
67
61
69
6c
12
4b
69
6d
62
6c
65
79
2c
20
4a
65
66
65
72
73
6f
6e
10
46
61
74
63
68
65
74
74
2c
20
44
6e
69
61
6c
10
52
65
69
64
65
6e
62
61
63
68
2c
20
53
6e
67
11
45
6d
62
72
65
79
2c
20
4b
61
73
73
61
6e
64
61
10
44
69
67
69
6f
72
67
69
2c
20
52
75
65
62
65
6e
43
6c
75
6d
70
6e
65
72
2c
20
4b
69
74
74
69
65
13
54
72
6b
6f
77
73
6b
69
2c
20
46
65
72
6e
61
6e
64
6f
11
68
65
6c
6c
68
61
61
73
2c
20
44
65
73
73
69
65
14
43
6f
6c
65
77
69
6e
73
6b
69
2c
20
4c
65
65
61
6e
6e
65
47
6f
72
64
69
6e
69
65
72
2c
20
41
79
61
6b
6f
11
43
75
69
7a
2c
20
57
69
6c
68
65
6c
6d
69
6e
61
10
57
69
6c
62
61
6e
6b
73
2c
20
5a
65
6c
64
61
12
4b
69
6e
6e
62
72
65
77
2c
20
41
6e
67
65
6c
65
73
14
57
61
6c
64
61
75
73
65
72
2c
20
4c
61
73
68
75
6e
64
61
12
44
61
6e
65
63
6b
65
72
2c
20
44
65
6c
6f
72
69
73
10
41
73
61
65
6c
2c
20
44
6f
6d
65
6e
69
63
61
11
48
65
72
72
72
61
73
2c
20
4c
61
75
72
69
63
65
13
4d
69
6e
73
68
6c
6c
2c
20
53
74
65
66
66
61
6e
69
65
12
53
63
68
6e
63
6b
6c
6f
74
68
2c
20
53
75
73
61
6e
10
4e
61
64
65
62
61
63
68
2c
20
54
61
6e
79
61
10
46
6f
65
72
74
73
68
2c
20
52
65
6e
61
74
65
10
52
6f
63
6b
66
6f
72
64
20
43
68
65
72
6c
79
11
49
61
6c
6f
6e
67
6f
2c
20
4b
74
68
6c
69
6e
65
11
47
75
74
65
72
6d
75
74
68
2c
20
61
76
65
72
6e
15
52
61
6d
63
68
61
72
72
61
6e
2c
20
65
6c
69
63
69
64
61
64
11
41
74
68
65
72
74
6f
6e
2c
4d
61
72
63
65
6e
65
10
44
69
65
6d
65
72
2c
20
44
6f
69
74
69
6c
61
11
4c
65
63
68
6c
61
6b
2c
20
43
68
61
6c
65
65
6e
13
44
65
73
68
6f
6e
67
2c
20
4a
61
63
71
65
6c
79
6e
65
11
57
68
65
64
62
65
65
2c
20
46
61
75
74
69
6e
61
11
4d
75
72
74
6f
6e
2c
20
43
68
72
69
73
65
65
6e
10
50
65
67
72
61
6d
2c
20
4d
61
64
65
6c
65
65
10
48
61
6c
63
6f
6d
62
2c
20
4d
61
72
67
65
72
79
57
61
6c
63
75
74
74
2c
20
54
69
66
66
61
6e
69
10
57
6e
61
72
73
6b
69
2c
20
52
6f
73
6c
79
6e
11
57
61
69
65
73
2c
20
4b
69
6d
62
65
72
6c
65
79
12
44
65
6c
6c
70
61
6f
6c
65
72
61
2c
20
4b
6f
72
69
11
42
75
63
6b
6c
2c
20
41
6c
65
78
61
6e
64
65
72
10
53
68
75
67
72
65
2c
20
43
61
72
6f
6c
69
6e
11
52
6f
64
65
69
67
75
73
2c
20
52
65
6e
61
74
61
11
42
65
61
75
6d
61
6e
2c
41
6e
67
65
6c
69
6b
61
11
53
74
72
61
74
6f
6e
2c
20
65
72
6e
61
6e
64
61
10
47
69
6c
6c
6d
69
6e
67
2c
20
61
6c
6c
61
73
12
50
61
63
63
68
69
61
6e
61
2c
20
41
75
63
65
6e
61
13
53
63
68
6c
69
74
7a
65
72
2c
20
46
65
64
72
69
63
6b
11
50
61
6c
61
63
69
6f
75
73
2c
20
75
73
74
69
6e
12
47
6f
62
6c
69
72
73
63
68
2c
20
42
79
61
6e
6e
61
11
4f
76
65
72
6f
63
6b
65
72
2c
20
44
70
68
6e
65
10
42
65
79
64
6f
75
6e
2c
20
53
74
65
70
65
6e
10
53
65
64
62
65
72
72
79
2c
20
4d
61
72
69
6e
12
4d
61
72
74
69
6e
73
6f
6e
2c
20
41
6e
64
72
65
61
10
45
73
74
65
72
6c
79
2c
20
41
72
67
65
6c
69
61
14
69
6c
76
65
72
73
74
6f
6e
65
2c
20
41
6c
65
69
73
68
10
43
61
6d
61
6e
6f
2c
20
59
65
73
73
65
6e
69
61
15
65
6f
62
61
75
6e
6c
65
75
61
6e
67
2c
20
44
6f
72
65
65
10
4f
6d
61
72
61
2c
20
41
72
67
65
6e
74
69
6e
61
53
68
75
66
65
6c
74
2c
20
45
6c
65
61
6e
6f
72
61
15
74
72
69
74
74
6d
61
74
65
72
2c
20
4c
65
6f
6e
61
72
61
10
42
65
6e
6e
61
67
65
2c
20
4b
72
79
73
74
6c
65
4b
69
6d
6d
69
6e
73
2c
20
4d
61
72
61
67
61
72
65
74
43
61
72
61
63
63
69
6f
6c
61
2c
20
47
65
72
74
75
64
14
47
75
67
6c
69
65
6c
6d
69
6e
61
2c
20
53
75
73
61
6e
61
10
41
6e
64
65
72
61
2c
20
4d
61
72
67
61
72
65
14
42
72
69
64
65
6e
73
74
69
6e
65
2c
20
56
69
63
65
74
65
10
53
68
69
68
2c
20
43
6f
6e
63
65
70
74
69
6f
10
41
70
65
6c
69
61
6e
2c
20
53
61
6d
65
6c
6c
61
10
6f
73
74
65
6c
2c
20
4d
61
72
69
65
6c
6c
61
12
50
65
72
65
69
72
61
2c
20
45
6c
65
6f
6e
6f
72
61
11
43
61
70
65
6c
6c
65
74
74
69
2c
20
59
6f
6b
6f
11
48
6f
64
69
6e
73
2c
20
44
6f
6d
69
6e
69
63
6b
13
4b
61
6c
6c
6e
62
61
63
68
2c
20
4c
75
63
69
6c
6c
61
13
44
69
6c
77
6f
72
74
68
2c
20
53
68
61
77
61
6e
64
61
10
4d
63
61
66
66
69
65
2c
20
4c
65
73
6c
65
79
14
4d
69
74
6b
77
73
6b
69
2c
20
4e
69
63
6f
6c
65
74
74
65
10
44
65
61
73
62
6f
75
72
2c
20
48
75
6f
6e
67
10
53
61
6e
74
72
79
2c
20
52
6f
62
65
72
74
6f
10
45
6c
6c
69
66
72
74
7a
2c
20
42
72
79
63
65
10
48
6f
66
66
69
6e
65
2c
4d
65
72
72
69
6c
6c
15
4d
63
65
6c
68
65
6e
6e
65
79
20
42
72
69
64
67
65
74
74
65
13
4f
68
6c
65
6d
61
63
65
72
2c
20
43
61
72
6d
69
6e
61
10
53
69
6d
6f
6e
65
75
2c
20
4d
65
72
76
69
6e
12
44
75
72
6d
61
6e
2c
20
6c
74
61
67
72
61
63
69
61
10
5a
65
6c
61
73
6b
6f
2c
47
6f
6e
7a
61
6c
6f
13
45
6c
64
65
72
69
64
67
65
2c
4e
6f
72
62
65
72
74
6f
14
46
69
6c
6c
69
6e
67
65
72
20
4e
61
74
68
61
6e
69
61
6c
11
56
61
6c
65
72
61
2c
45
6c
6c
73
77
6f
72
74
68
11
52
6f
62
65
72
72
74
73
6e
2c
20
42
6f
6e
6e
79
11
48
69
6e
64
6d
61
72
73
68
20
56
69
63
74
6f
72
10
4d
63
63
61
64
65
2c
20
53
68
72
6c
65
6e
65
13
50
69
65
74
72
6f
70
61
6f
6c
6f
2c
44
61
6e
69
63
61
12
57
61
72
6f
77
61
79
2c
20
53
74
70
68
61
6e
69
65
10
52
65
61
73
65
2c
20
46
65
72
64
6e
61
6e
64
10
56
65
73
65
6c
6b
61
2c
20
46
6c
6f
72
64
61
10
47
65
6e
74
68
65
72
2c
20
4c
61
6a
75
61
6e
14
44
61
6e
6e
75
6e
7a
69
6f
2c
20
56
61
6c
65
6e
74
6e
65
10
50
61
72
69
73
65
61
75
2c
20
44
61
6e
69
6c
11
4e
61
79
73
6d
69
74
68
2c
20
52
61
79
6d
6f
6e
64
4d
65
65
6e
61
63
68
2c
20
52
61
79
66
6f
72
64
12
54
73
73
65
6e
65
65
72
2c
20
43
61
72
79
6c
6f
6e
10
4b
61
6e
2c
20
43
6f
6e
63
65
70
74
69
6f
6e
10
41
64
65
6d
61
6e
2c
20
41
6e
61
6c
69
73
61
10
4b
6f
72
61
6c
77
73
6b
69
2c
20
4e
65
72
79
16
4e
69
65
64
65
72
6d
69
65
72
2c
20
4c
61
73
68
61
77
6e
64
61
14
47
69
6c
72
65
74
68
2c
20
47
65
6f
72
67
65
61
6e
6e
61
12
47
69
65
73
73
2c
20
47
65
6f
72
67
69
61
6e
6e
65
11
4d
6e
61
74
68
2c
20
54
68
6f
6d
61
73
65
6e
61
10
42
75
67
68
61
72
64
74
2c
20
4d
69
73
74
69
10
52
7a
65
73
75
74
6b
6f
2c
20
42
72
65
74
74
12
44
75
72
73
74
65
65
72
2c
20
4c
65
61
6e
6f
72
61
10
42
69
6e
65
67
61
2c
20
43
6c
61
72
69
63
65
10
56
61
6c
6c
69
65
72
2c
45
6c
65
6e
6f
72
61
10
53
68
61
64
6c
65
72
2c
20
53
65
72
6c
65
79
11
56
6f
6e
72
75
64
65
6e
2c
20
44
61
72
69
63
6b
11
44
61
6d
6d
65
79
65
72
2c
20
4c
6f
75
74
74
61
10
42
6c
6f
73
73
2c
20
53
74
65
70
68
61
6e
61
12
48
6f
70
70
65
72
73
74
61
64
2c
20
44
6f
72
65
65
12
54
65
66
65
72
74
69
6c
6c
65
72
2c
20
45
72
77
6e
13
41
72
72
65
6e
64
65
6c
6c
2c
20
48
61
72
72
69
74
74
10
56
6f
67
65
6c
7a
61
6e
67
2c
20
4d
69
73
73
10
44
65
61
63
65
74
69
73
2c
20
53
68
69
7a
75
65
11
61
6b
6c
69
6e
2c
20
4d
61
64
65
6c
65
69
6e
65
10
41
6f
72
69
6d
2c
20
52
6f
73
61
6d
6f
6e
64
11
4d
69
65
73
63
68
2c
20
4b
72
79
73
74
79
6e
61
11
44
69
65
6e
74
2c
20
47
65
72
74
72
75
64
69
73
11
43
6c
61
75
64
2c
20
4d
61
72
67
61
72
69
74
61
11
44
75
72
62
6f
72
77
2c
20
44
65
6c
70
68
69
61
12
41
67
6f
73
74
69
6e
6c
6c
69
2c
20
42
72
65
74
74
11
50
72
75
64
65
6e
74
2c
20
45
64
77
61
72
64
6f
12
56
61
6e
7a
61
6e
74
65
2c
20
4d
61
72
69
73
73
61
12
4e
61
63
69
73
73
65
2c
4e
61
74
68
61
6e
61
65
6c
15
50
66
61
6e
6e
65
6e
73
65
69
6e
2c
20
4a
65
73
65
6e
69
61
12
56
61
6e
64
72
73
61
72
2c
20
4b
69
6d
62
65
72
79
10
4d
61
6c
61
67
6e
2c
20
43
6f
6c
65
74
74
61
10
4d
61
72
75
73
69
61
2c
20
42
65
6e
69
74
61
14
46
61
75
6c
6b
65
6e
62
65
72
79
2c
20
50
65
61
72
6c
65
10
43
6c
61
77
73
6f
6e
20
4d
65
6c
61
69
6e
65
10
50
65
69
74
7a
2c
20
46
72
6e
63
6f
69
73
65
10
52
6f
68
72
73
2c
20
47
61
62
72
65
6c
6c
65
11
53
7a
6b
6c
61
72
73
6b
69
2c
20
4b
65
6e
61
6e
11
4d
65
6e
6e
69
6e
67
65
72
2c
20
41
6c
79
69
61
10
4c
69
6e
63
6f
75
72
74
2c
20
4b
75
72
74
69
10
46
6f
72
65
6a
74
2c
20
4c
65
69
67
68
61
6e
6e
12
6c
6f
67
65
72
69
73
2c
20
43
6f
6e
73
75
65
6c
61
10
70
6f
6e
61
75
67
6c
65
2c
20
4a
65
6e
6e
79
10
43
6f
63
69
6e
69
2c
20
41
72
69
61
6e
6e
61
10
47
6c
69
6e
6b
69
2c
20
59
75
6c
61
6e
64
61
10
48
6f
75
74
6d
61
2c
20
44
65
73
70
69
6e
61
11
4d
63
6d
69
63
6b
6c
65
20
4a
61
63
71
75
65
73
10
4a
61
63
71
75
65
2c
20
41
75
73
74
69
6e
61
10
4d
63
6b
69
73
73
69
63
2c
20
4a
6e
69
6e
65
13
44
65
73
70
6f
73
69
74
6f
2c
20
43
68
6e
65
6c
6c
65
11
49
73
65
6e
68
6f
77
65
72
2c
20
44
6e
65
65
6e
10
54
6f
72
72
61
6e
6f
2c
20
44
65
62
6f
61
68
10
4b
68
65
6e
73
6f
76
61
6e
2c
20
44
61
67
6e
10
46
61
6c
6c
69
6e
2c
20
4c
61
74
72
69
63
69
61
10
61
67
61
79
61
67
61
2c
20
4c
75
61
6e
6e
65
12
4a
6f
61
6e
6e
65
73
73
65
6e
2c
20
52
6f
73
69
61
13
4c
61
61
72
63
68
65
2c
20
47
61
62
72
69
65
6c
6c
65
12
53
6c
76
65
72
69
6f
2c
20
42
65
76
65
72
6c
65
79
10
42
69
64
64
65
6c
6c
2c
20
44
61
72
72
6f
6e
12
4c
61
76
73
74
61
2c
20
4e
61
74
68
61
6e
69
61
6c
11
4d
63
67
62
62
6f
6e
2c
20
4e
65
76
69
6c
6c
65
10
4c
75
62
6b
2c
20
48
6f
72
74
65
6e
73
69
61
10
57
72
7a
65
73
69
6e
2c
20
4d
69
74
73
75
65
14
4d
61
74
75
73
7a
65
77
6b
69
2c
20
47
65
6f
72
67
69
61
11
4b
73
68
79
77
6f
69
73
2c
20
41
6e
64
72
65
61
11
50
69
63
63
75
69
6c
6f
2c
20
54
65
72
72
69
65
10
42
61
64
67
65
74
74
2c
51
75
65
6e
74
69
6e
12
4c
75
6e
64
65
6d
6f
2c
20
4d
72
61
67
61
72
65
74
11
54
72
61
6d
65
6c
6c
2c
20
45
66
72
69
65
64
65
12
45
73
63
68
65
6e
62
72
65
6e
6e
72
2c
20
4d
61
6e
11
4d
63
6e
65
69
6c
2c
20
47
65
6f
67
65
74
74
65
11
43
6f
6e
79
65
72
73
2c
20
43
68
69
75
69
74
61
11
46
69
73
68
65
72
6d
61
6e
2c
20
41
6e
65
72
61
11
53
63
68
65
6c
6c
65
72
6d
61
6e
6e
2c
20
69
61
10
45
73
63
61
72
65
6e
6f
2c
20
47
61
72
72
65
10
48
61
61
6b
65
6e
73
6f
6e
2c
20
4f
64
65
6c
6c
11
6e
67
6c
65
6d
61
6e
6e
2c
20
4c
75
63
69
6c
61
11
4c
6e
64
67
72
65
6e
2c
20
43
68
65
72
72
79
6c
12
48
65
70
65
61
72
64
2c
20
52
65
62
62
65
63
63
61
10
44
65
68
69
65
72
72
6f
2c
20
45
6d
69
6c
79
10
54
61
75
62
72
74
2c
20
4b
65
6e
6e
65
74
68
10
52
75
63
69
6e
73
69
2c
20
4d
61
72
74
68
61
13
4b
6f
65
6e
69
67
73
66
6c
64
2c
20
4b
69
6d
62
72
61
10
54
6f
68
69
6c
6c
2c
56
69
6e
63
65
6e
7a
6f
13
53
77
65
61
72
6e
67
69
6e
20
41
6c
66
72
65
64
69
61
10
4c
65
67
61
75
6c
74
2c
4b
69
6d
62
65
72
79
11
46
6c
65
75
72
69
6c
75
73
2c
42
61
69
6c
65
79
10
41
75
6d
69
63
6b
2c
20
43
68
65
65
6e
6e
65
11
50
61
72
6e
65
6c
6c
2c
20
46
72
61
6e
69
6e
61
11
48
65
6c
66
65
6e
62
65
69
6e
2c
20
41
6e
73
61
10
41
68
6c
75
77
61
6c
69
61
2c
20
4b
61
72
72
10
41
6e
73
62
61
63
68
65
72
2c
20
4a
69
6d
6d
79
11
65
6e
74
72
6f
6e
65
2c
20
54
69
66
66
69
6e
79
11
48
65
72
61
75
66
2c
20
4e
61
6e
6e
65
74
74
65
12
4c
69
6b
6b
69
6c
61
2c
20
42
65
72
6e
65
69
63
65
11
43
61
6d
69
6e
2c
20
4c
61
73
68
61
75
6e
64
61
10
4b
6f
72
72
75
6d
70
66
2c
20
4b
79
6c
69
65
12
43
72
61
6e
73
61
77
2c
20
42
65
61
74
72
69
63
65
11
53
61
72
6e
69
6f
6c
61
2c
20
45
66
72
61
69
6e
11
43
61
74
61
6c
69
6f
2c
20
43
79
72
73
74
61
6c
12
53
6f
6c
76
65
72
73
6e
2c
20
43
68
65
72
6c
79
6e
11
4c
75
6d
69
6e
61
74
2c
20
46
61
74
69
6d
61
68
14
52
75
73
73
6f
6d
61
6e
6f
2c
20
44
6f
72
6f
74
68
65
61
13
47
6f
75
62
65
61
78
2c
20
57
69
6c
6c
69
65
6d
61
65
10
4d
61
72
67
61
74
69
73
2c
20
4d
79
72
6e
61
10
48
61
6e
73
63
6f
6d
20
43
61
72
79
6c
6f
6e
10
4d
65
6c
6c
69
65
2c
20
41
65
6c
61
69
64
65
11
44
69
6c
63
68
61
6e
64
2c
20
44
61
6e
64
72
61
12
42
65
72
67
61
6d
69
6e
65
2c
20
4d
6c
79
6e
64
61
11
50
61
70
69
6c
6c
69
6f
6e
2c
20
53
6c
65
6e
65
10
4d
63
63
6f
6e
69
63
6f
2c
20
4a
6f
61
6e
65
10
47
61
75
63
68
65
72
2c
20
43
72
79
73
74
6c
10
42
72
69
6e
69
63
68
2c
20
4d
61
64
69
73
6f
6e
12
73
70
69
6e
6f
73
61
2c
20
47
65
6f
66
66
72
65
79
10
72
65
73
73
65
6c
2c
20
53
68
61
6e
74
61
65
13
42
61
74
75
6e
65
6b
2c
20
48
65
6e
72
69
65
74
74
61
10
57
73
74
65
72
6e
2c
20
4c
65
6f
6e
69
6c
61
14
47
61
62
69
65
6c
73
65
6e
2c
20
43
68
65
72
65
6c
6c
65
13
4d
6d
65
6e
61
6d
69
6e
2c
20
43
68
65
72
69
6c
79
6e
10
61
67
72
61
6e
67
65
2c
20
41
6c
62
65
72
74
13
44
69
6f
6d
61
73
73
6f
2c
20
42
65
76
65
72
6c
65
65
12
52
64
61
62
61
75
67
68
2c
20
4d
65
72
69
6c
79
6e
10
45
62
65
72
73
6f
6e
2c
20
49
73
69
64
72
6f
11
46
65
67
72
6f
2c
20
45
73
6d
65
72
61
6c
64
61
12
53
70
75
72
69
6e
67
2c
20
50
72
75
64
65
6e
63
65
13
56
6f
6e
64
72
68
65
69
64
65
2c
20
4b
69
6d
69
6b
6f
12
53
63
61
6c
69
6f
6e
65
2c
20
44
6f
6d
65
6e
69
63
12
43
61
76
6e
65
73
73
2c
20
44
6f
6d
69
6e
71
75
65
10
4d
6f
65
6c
65
72
2c
20
54
68
65
72
65
73
61
15
48
75
6d
65
72
63
6b
68
6f
75
73
65
2c
20
4a
6f
68
6e
6e
61
10
4d
61
7a
6f
6e
65
2c
20
56
69
63
65
6e
74
65
10
4d
6f
6e
74
61
6c
65
67
72
65
2c
20
50
61
74
11
43
61
72
74
61
67
6e
61
2c
20
46
75
6d
69
6b
6f
10
54
69
6e
73
6d
61
6e
20
44
61
6d
61
72
69
73
11
4b
69
72
6b
70
61
74
72
69
2c
20
43
79
72
69
6c
14
56
61
6e
64
65
72
68
6f
65
66
20
4c
61
77
72
65
6e
63
65
10
46
72
61
77
6c
65
79
2c
43
6c
61
72
69
73
61
12
42
65
6e
6e
69
6e
67
65
72
2c
43
68
61
72
6c
69
65
10
49
72
69
67
6f
79
65
6e
2c
20
6f
6e
6e
69
65
11
47
75
6d
6d
65
72
73
61
6c
6c
2c
20
61
72
72
79
10
47
75
72
61
6c
6e
69
63
6b
2c
20
54
72
73
61
10
57
65
6c
63
68
65
72
2c
20
4d
61
6c
6f
72
69
11
45
76
61
6e
6f
73
6b
79
2c
20
44
65
62
6f
72
61
68
4d
6f
72
61
76
65
63
2c
20
46
72
61
6e
63
69
73
11
44
6e
67
69
6c
6c
6f
2c
20
43
6f
6c
65
6d
61
6e
11
52
79
6f
77
69
61
6b
2c
20
4c
61
74
61
6e
79
61
11
44
65
76
6c
6c
65
2c
20
4d
61
72
69
63
72
75
7a
10
42
6f
7a
69
68
2c
20
4b
72
69
73
74
65
65
6e
10
4a
61
73
6d
69
6e
2c
20
43
68
61
6e
65
6c
6c
13
53
63
68
6f
65
6e
6c
65
65
72
2c
20
44
61
6c
69
6c
61
13
4b
61
6c
74
65
6e
68
75
73
65
72
2c
20
4d
61
6e
64
61
12
4e
61
67
61
73
61
61
2c
20
4c
61
73
68
61
77
6e
61
12
44
65
69
6e
65
72
2c
20
4b
61
74
68
65
72
69
6e
65
11
53
63
68
77
61
72
7a
65
72
2c
20
45
6e
6f
6c
61
10
49
6e
73
61
6c
61
63
2c
20
4b
65
65
6c
65
79
10
53
65
69
66
74
73
2c
20
43
65
6d
65
6e
74
65
14
53
74
65
66
66
6f
72
64
2c
20
43
73
73
61
75
6e
64
72
61
12
53
74
65
66
66
65
6e
73
6f
2c
20
53
75
65
61
6e
6e
11
4b
65
74
63
68
65
72
73
69
2c
20
4d
6f
6e
74
79
10
53
70
69
6b
65
72
2c
20
46
72
64
72
69
63
6b
14
4d
69
63
6b
6c
65
62
65
72
72
79
2c
4c
61
76
65
72
6e
61
13
4d
61
73
63
68
6d
65
79
65
72
20
4d
61
75
72
65
65
6e
11
47
72
61
6e
62
65
72
67
2c
4c
65
65
61
6e
6e
61
10
53
68
65
63
6b
6c
65
72
2c
20
69
64
6e
65
79
12
42
6f
62
61
63
6b
2c
20
46
72
65
64
72
69
63
6b
61
14
42
72
61
6d
68
61
6c
6c
2c
20
4a
61
71
75
65
6c
79
6e
6e
11
44
75
6e
73
66
6f
72
64
2c
20
61
72
6c
61
6e
64
10
4b
69
6e
6c
6f
63
6b
2c
20
52
61
65
69
67
68
11
54
68
72
65
73
68
65
72
2c
20
45
6d
65
73
6f
6e
15
4d
63
67
6c
61
75
67
68
6c
69
6e
2c
20
4c
6f
70
6f
6c
64
6f
10
44
6f
72
72
69
6c
6c
2c
20
4d
65
61
69
6e
65
13
46
69
6c
69
70
70
69
64
65
73
2c
20
4c
76
65
6c
6c
61
11
46
6f
75
72
61
6b
65
72
2c
20
44
65
6f
72
69
73
10
53
70
69
6e
67
6c
65
72
2c
20
4a
61
63
69
65
10
53
69
6e
64
65
6c
61
72
2c
20
59
61
64
69
72
11
43
6f
6e
67
6c
65
74
6f
6e
2c
20
46
61
72
72
61
68
5a
61
66
66
69
6e
6f
2c
20
52
6f
64
6f
6c
66
6f
10
52
74
68
73
2c
20
43
61
72
6d
65
6c
69
6e
61
11
4b
69
6e
72
65
67
61
6e
2c
20
4b
61
72
6c
79
6e
11
50
6f
6c
68
6d
75
73
2c
20
54
65
72
72
65
6c
6c
10
4e
69
65
68
61
73
2c
20
41
72
6d
69
6e
64
61
12
57
61
73
69
6c
65
77
6b
69
2c
20
4d
65
6c
61
6e
69
10
53
68
69
62
61
68
61
61
2c
20
4d
61
75
72
6f
11
4d
61
6e
6e
61
72
69
6e
6f
20
45
6c
6f
69
73
61
10
47
6f
64
69
6e
67
2c
20
46
65
65
72
69
63
6f
12
4f
6e
64
65
72
73
6d
61
2c
20
53
68
72
69
6c
79
6e
14
48
61
63
7a
79
6e
73
6b
69
2c
20
48
6c
64
65
67
61
72
64
12
4b
69
74
74
72
65
64
67
65
2c
53
68
61
77
61
6e
61
10
46
6c
61
73
68
65
72
2c
20
45
73
65
62
69
6f
10
50
61
72
6d
65
74
65
72
2c
20
4e
69
73
68
61
10
41
6e
73
70
61
63
68
2c
20
41
6e
67
65
6c
61
11
46
69
73
68
65
6c
6c
2c
20
45
6c
65
61
6e
6f
72
10
53
6b
69
62
69
73
6b
79
2c
20
47
65
72
61
6c
64
10
61
6e
74
7a
6c
65
72
2c
20
44
65
61
64
72
61
10
41
6c
65
6e
64
6f
72
66
2c
20
4c
79
64
69
61
10
50
6c
79
6d
6c
2c
20
43
68
72
79
73
74
61
6c
10
4d
75
6e
64
7a
69
6b
2c
20
41
6e
67
65
6c
61
10
4a
75
65
6e
67
65
72
2c
4a
75
73
74
69
6e
61
12
43
6f
63
6b
65
72
65
6c
6c
2c
54
61
6b
69
73
68
61
12
54
65
72
6f
67
61
6e
65
73
79
6e
2c
20
4a
65
6e
65
11
57
61
72
69
6e
67
2c
20
53
61
76
61
74
6f
72
65
11
50
61
72
6f
64
69
2c
20
4d
69
67
65
6c
69
6e
61
11
47
72
6f
64
73
6b
69
2c
20
47
72
65
6f
72
69
61
10
47
65
65
6c
61
6e
2c
20
59
65
73
73
65
69
61
10
43
68
61
6e
69
6e
2c
20
4d
69
6c
61
67
72
6f
11
4c
61
66
72
61
74
74
61
2c
20
4d
61
72
69
76
65
6c
42
61
72
67
65
72
6f
6e
2c
20
4b
69
7a
7a
69
65
12
46
69
65
72
64
69
63
68
2c
20
52
61
66
61
65
6c
61
10
56
65
67
61
73
2c
20
42
72
69
67
65
74
74
65
10
46
72
65
64
65
6c
2c
20
4c
61
76
65
72
6e
65
12
4c
65
76
61
74
6e
6f
2c
20
48
61
72
72
69
65
74
74
10
47
61
6e
6e
6f
2c
20
44
6f
6e
6e
65
74
74
65
10
4b
6c
65
65
73
70
69
73
2c
20
4c
65
74
74
79
11
57
65
64
64
65
72
73
70
6f
6e
2c
20
42
65
73
73
10
42
65
72
69
6e
67
65
72
2c
20
72
64
69
74
68
12
57
65
73
74
62
72
6f
6f
6b
65
2c
20
6f
6e
61
6c
64
10
4a
75
64
6b
69
6e
73
2c
20
4d
69
6b
65
6c
61
12
53
63
68
6c
61
67
65
74
65
72
2c
20
47
6f
64
65
6e
14
45
69
73
65
6e
62
72
61
6e
64
74
2c
20
4c
6e
63
6f
6c
6e
12
53
63
6f
7a
7a
61
72
69
2c
20
47
61
72
69
65
6c
61
11
4d
63
71
75
61
69
67
2c
20
4d
61
72
6f
72
69
65
10
57
69
72
74
61
6e
65
6e
2c
20
4c
75
63
6e
61
11
53
61
6d
70
6c
65
79
2c
20
53
68
61
72
6f
6e
61
12
44
69
73
70
6f
6e
65
74
74
65
2c
20
53
68
61
72
6c
11
4e
65
69
6b
69
72
6b
2c
20
48
65
72
6d
69
6e
69
10
52
69
64
6e
65
72
2c
20
4d
61
72
69
61
6e
6e
61
10
61
6e
74
61
6e
6f
2c
20
52
6f
6d
61
69
6e
65
15
44
65
72
65
6e
69
65
72
2c
20
43
61
73
73
61
75
6e
64
72
61
48
65
6e
72
69
6b
73
6f
6e
2c
20
56
65
72
64
61
11
41
63
6f
6d
61
6e
64
6f
2c
20
43
68
65
72
72
69
12
47
72
73
73
6b
6c
61
75
73
2c
20
4c
79
6e
65
6c
6c
11
41
6c
65
6e
64
6f
72
66
2c
20
53
74
65
76
69
65
11
4d
63
63
6c
70
61
6e
65
2c
20
53
74
61
73
69
61
11
48
65
6d
61
65
73
2c
20
41
6e
67
65
6c
69
6e
65
10
51
75
61
72
74
72
6f
2c
20
54
6f
6d
6d
69
65
11
48
65
6c
6c
69
6e
67
2c
20
46
6c
6f
72
72
69
65
10
53
70
69
74
73
62
65
72
2c
20
56
69
6c
6d
61
11
4d
65
73
73
65
72
76
79
2c
20
6c
6c
79
73
6f
6e
10
46
6c
65
63
6b
6c
65
73
2c
20
53
73
61
6e
61
11
47
61
6c
6c
69
70
65
61
75
2c
20
56
65
64
69
65
11
48
61
6e
64
73
63
68
75
6d
61
6b
65
72
2c
4e
75
10
4c
6f
72
69
6e
63
7a
2c
20
42
72
61
6e
64
65
10
53
6f
6c
74
65
72
6f
2c
20
43
61
6e
64
69
64
61
11
68
72
6f
6d
61
6e
2c
20
43
6c
61
72
69
62
65
6c
10
4c
69
74
74
65
6e
2c
20
53
61
6e
74
69
6e
61
11
4d
75
6c
61
72
6b
65
79
2c
20
41
75
64
72
65
79
10
41
73
68
6b
74
74
6c
65
2c
20
4c
65
77
69
73
11
48
65
69
64
62
72
64
65
72
2c
20
4b
65
6e
6e
79
10
4d
63
63
6c
69
6e
73
79
2c
20
4b
69
73
68
61
10
4c
65
7a
6f
2c
20
43
68
61
6f
6c
65
74
74
65
10
44
65
61
72
6d
6f
6e
64
2c
20
47
6e
61
72
6f
11
56
61
6e
6c
6f
68
2c
20
4a
61
63
71
75
69
6e
65
10
4b
75
6e
64
61
6e
61
6e
69
2c
20
50
65
74
72
11
53
68
6f
72
72
6f
63
6b
2c
20
4d
65
6c
69
6e
64
12
57
69
65
64
65
72
77
61
78
2c
20
52
6f
64
72
69
63
12
4d
63
67
6f
77
69
6e
2c
20
45
6c
69
7a
65
62
65
74
11
54
65
70
70
65
72
62
65
72
67
2c
20
44
6f
72
6c
61
53
74
61
6e
69
66
6f
72
74
68
2c
20
5a
61
6e
65
11
44
69
73
6b
69
6c
6c
2c
20
4c
69
6e
64
73
65
79
10
53
68
6e
69
6e
67
65
72
2c
20
46
61
69
72
79
12
4d
6f
6e
74
66
61
72
2c
20
53
68
61
72
6c
65
65
6e
10
44
69
67
69
63
69
6e
74
6f
2c
20
4a
61
6e
6e
10
4d
63
63
72
69
67
74
2c
20
4d
61
72
79
61
6d
11
46
69
6c
69
70
70
69
6e
2c
20
42
61
62
61
72
61
12
41
6c
6c
65
72
75
7a
7a
6f
20
4a
65
72
6c
65
6e
65
10
4c
65
76
69
74
72
65
2c
20
68
61
6e
74
65
6c
10
56
61
6e
64
79
2c
20
50
68
69
6c
6d
65
6e
61
10
47
72
65
69
62
65
72
2c
20
4c
65
74
69
69
61
10
43
75
6c
62
65
72
74
2c
20
52
6f
63
68
65
6c
12
47
72
6f
74
68
61
75
73
2c
20
44
61
6e
69
65
6c
6c
10
53
70
61
72
6c
69
6e
67
2c
20
54
79
72
65
6c
6c
10
72
69
67
61
6e
74
65
2c
20
57
65
72
6e
65
72
10
53
69
6e
6b
6f
2c
20
45
6c
65
6f
6e
6f
72
61
10
48
69
6c
64
20
4c
69
65
73
65
6c
6f
74
74
65
10
52
6f
75
6c
68
61
2c
20
52
6f
6c
61
6e
64
65
12
53
61
72
62
61
63
68
65
2c
20
4d
61
72
6c
69
6e
65
10
46
61
77
6c
65
72
2c
20
6f
72
64
65
6c
69
61
12
44
65
6e
74
72
65
6d
6f
6e
74
20
43
68
65
72
72
69
11
46
6f
72
64
65
6e
2c
20
53
74
70
68
65
6e
69
65
11
53
70
61
6e
73
77
69
63
6b
2c
20
61
76
69
64
61
11
42
75
73
65
6e
69
75
73
2c
20
4a
65
74
69
6e
65
11
47
65
6d
61
65
68
6c
69
63
68
2c
20
53
6e
6e
79
12
47
72
6f
6e
76
61
6c
6c
2c
20
4d
69
6c
61
72
6f
73
13
44
65
6e
62
75
72
67
65
72
2c
20
43
68
72
73
74
69
65
11
43
72
75
74
63
68
65
76
2c
20
53
68
61
6e
6f
6e
10
44
6f
6e
61
6c
64
73
6f
6e
2c
20
54
61
6d
72
11
50
61
6b
6f
6e
65
6e
2c
20
47
72
69
73
65
6c
64
11
45
6e
67
65
6c
62
65
72
67
2c
20
41
79
65
73
68
61
4b
6f
65
6e
69
67
73
62
65
72
67
2c
20
42
6c
61
69
6e
12
4c
65
69
6d
62
61
63
68
2c
20
4c
69
7a
61
62
65
74
10
43
61
62
69
64
6f
2c
20
54
68
65
72
65
73
73
61
11
61
6e
6b
69
6e
73
6f
6e
2c
20
44
61
6c
69
6c
61
13
4b
63
7a
6b
6f
77
73
6b
69
2c
20
44
61
6e
69
65
6c
65
10
61
63
68
72
6f
64
74
2c
20
4c
61
76
65
72
6e
10
52
69
68
65
74
74
69
2c
20
4c
61
76
61
64
61
12
42
72
6f
63
77
65
6c
6c
2c
20
46
72
65
64
64
69
65
11
4b
65
73
69
67
65
72
2c
20
4c
61
72
61
69
6e
65
10
56
61
6e
67
61
64
65
72
2c
20
52
65
6e
64
61
10
57
68
69
74
65
68
61
6c
2c
20
45
6c
69
61
73
12
4b
61
6c
6c
65
73
74
61
64
20
4e
6f
76
65
6c
6c
61
11
4d
61
73
73
65
6e
62
75
72
2c
20
41
6c
6c
61
6e
10
44
72
61
70
6b
69
6e
2c
20
45
66
65
6d
69
61
14
47
72
75
6e
64
68
6f
65
66
65
72
2c
4c
6f
72
69
61
6e
6e
10
4c
69
76
65
73
61
79
2c
20
4d
72
69
6c
79
6e
12
4c
61
70
69
64
75
73
2c
20
45
6c
69
61
62
65
74
68
11
4c
6f
62
61
75
67
68
2c
20
47
72
61
69
65
6c
61
12
43
6f
6e
73
74
61
62
6c
65
2c
20
41
64
6c
69
6e
61
10
42
69
74
74
65
72
73
2c
20
47
61
72
72
74
74
10
4d
6f
6c
64
65
6e
2c
20
53
68
69
72
6c
65
6e
11
57
65
64
67
65
77
6f
72
74
68
2c
20
4c
65
6f
6e
65
43
69
70
70
69
6e
61
2c
20
4d
61
63
68
65
6c
6c
65
13
68
65
66
66
65
72
2c
20
42
65
72
6e
61
72
64
69
6e
65
43
68
61
6e
63
68
75
61
6e
2c
20
47
65
6e
65
76
61
10
65
6c
62
61
6c
73
6f
2c
20
53
68
61
72
61
6e
13
46
75
6c
66
6f
72
64
2c
20
53
68
61
72
6d
61
69
6e
65
10
4e
62
67
65
6e
2c
20
43
61
6d
65
6c
6c
69
61
11
41
7a
62
6c
6c
2c
20
4d
61
72
67
61
72
69
74
61
10
50
61
74
65
65
2c
20
4c
65
61
74
72
69
63
65
10
4c
61
62
72
61
64
72
2c
20
44
65
6c
61
6e
61
11
4c
65
61
64
66
6f
72
64
20
56
61
6c
65
72
69
65
10
43
6f
6c
62
61
75
67
68
2c
43
61
72
72
6f
6c
14
52
69
65
64
65
72
65
72
2c
20
43
6e
63
65
70
63
69
6f
6e
11
53
74
61
6e
64
66
6f
72
64
20
56
61
6e
65
73
61
13
4e
69
65
64
65
72
6d
61
79
65
2c
20
53
68
61
76
6f
6e
10
42
6f
72
6f
64
65
63
2c
20
68
65
72
69
6b
61
13
53
70
65
6e
64
6c
6f
76
65
2c
20
69
73
73
65
74
74
65
15
4b
69
73
73
65
6c
62
75
72
67
20
47
77
65
6e
64
6f
6c
79
6e
12
54
6f
72
6f
6e
67
65
75
2c
20
43
68
61
6e
65
6c
6c
10
4d
63
63
6c
61
6d
79
20
52
6f
78
61
6e
6e
61
12
43
6f
72
6e
61
63
63
68
69
2c
20
54
61
6d
6d
69
65
11
53
65
76
65
64
67
65
2c
20
73
61
62
65
6c
6c
65
12
53
61
72
61
63
69
6e
6f
2c
20
69
6d
62
65
72
6c
69
11
41
6c
62
65
72
74
73
6f
6e
2c
48
65
6c
65
6e
65
12
53
74
65
69
6e
62
72
6f
6f
6b
2c
54
72
61
63
65
65
10
57
69
74
73
65
6c
6c
2c
20
43
72
73
74
61
6c
13
50
72
75
73
6b
6f
77
73
6b
69
2c
20
43
72
69
73
74
79
12
42
6c
6f
73
73
6f
6d
67
61
6d
65
2c
4e
65
64
72
61
11
42
61
6c
74
72
75
77
65
69
74
2c
20
61
6c
69
61
10
53
6f
6d
6d
61
72
2c
20
45
6c
64
72
69
67
65
11
52
61
68
61
6c
2c
20
41
6c
65
78
61
6e
64
72
61
14
42
65
6e
67
65
6c
73
64
6f
72
66
2c
20
4a
69
6c
69
61
6e
11
46
61
6c
61
6e
67
61
2c
20
4d
61
72
69
63
75
7a
14
43
61
72
73
74
61
72
70
68
65
6e
2c
20
4c
6f
65
6c
6c
61
11
43
6f
77
64
72
65
79
2c
20
46
65
6c
69
69
74
61
10
4d
63
77
65
6c
6c
73
2c
20
4d
69
6c
64
72
64
12
44
61
66
6f
6e
74
65
2c
20
4a
61
63
71
75
65
6c
6e
13
44
65
61
6c
6d
65
69
64
61
2c
20
41
73
75
6e
63
6f
6e
13
43
65
63
63
61
72
65
6c
6c
69
2c
20
43
6f
72
6e
6e
61
10
41
67
67
61
72
77
61
6c
2c
20
4b
65
6c
6c
65
13
50
61
76
6c
69
64
65
73
2c
20
41
6c
65
78
61
6e
65
72
11
44
65
6a
61
72
6e
65
74
74
65
2c
20
4d
61
6c
61
13
44
65
6c
61
70
75
65
6e
74
65
2c
20
54
69
66
66
6e
69
11
53
68
61
63
6b
65
6c
66
6f
72
64
2c
20
45
73
61
10
4d
69
6e
6e
69
74
69
2c
20
44
65
6c
6f
69
73
65
44
65
6c
61
68
61
79
2c
20
4d
65
6c
6c
69
73
73
61
12
65
6f
6e
69
2c
20
4a
61
63
6b
71
75
65
6c
69
6e
65
10
61
76
65
72
6e
69
61
2c
20
50
61
72
6b
65
72
10
4d
61
6b
6e
61
69
72
2c
20
49
73
61
62
65
6c
10
54
65
6e
64
2c
20
56
65
72
6f
6e
69
71
75
65
14
53
75
6d
6d
65
72
61
79
73
2c
20
4d
61
72
73
68
61
6c
6c
12
41
6c
75
6d
61
75
67
68
2c
20
53
68
65
6d
65
6b
61
11
48
69
65
72
63
68
65
2c
20
4c
61
73
68
61
75
6e
12
47
75
6e
64
65
73
65
6e
2c
20
44
6f
6c
6f
72
69
73
11
53
63
68
6f
76
6c
6c
65
2c
20
48
65
64
77
69
67
10
52
61
70
70
61
70
72
74
2c
20
44
6f
74
74
79
11
46
72
6f
6e
64
75
74
69
20
4e
65
76
69
6c
6c
65
10
50
61
77
6c
6f
73
6b
69
2c
53
68
6f
6e
74
61
11
4d
6f
6e
73
61
6e
74
6f
2c
20
53
65
70
68
65
6e
12
54
69
73
63
61
72
65
6e
6f
2c
20
53
61
72
69
6b
61
10
53
74
61
6d
61
73
2c
20
46
72
61
6e
69
6e
61
10
43
6f
6f
6c
6d
61
6e
2c
20
47
61
72
6e
65
74
12
54
61
6c
61
68
79
74
65
77
61
2c
20
41
72
6c
65
6e
11
46
65
72
62
72
61
63
68
65
2c
20
4a
6f
72
64
6f
11
48
61
73
65
6e
66
72
61
74
7a
2c
20
48
61
6c
65
79
57
65
73
74
63
6f
61
74
2c
20
46
72
61
6e
6b
6c
79
6e
4c
61
75
6e
65
6c
65
7a
2c
20
43
68
72
69
73
74
6f
70
65
72
11
44
65
63
6c
65
72
6b
2c
20
53
61
6d
61
6e
74
61
11
57
68
69
74
6d
6f
79
65
72
2c
20
48
65
64
77
69
10
54
61
75
62
65
72
2c
20
53
74
65
70
68
61
6e
65
12
61
6e
77
61
67
6e
65
72
2c
20
58
6f
63
68
69
74
6c
12
75
6c
63
68
72
6f
6e
65
2c
20
41
6c
76
65
72
74
61
12
61
74
65
76
6f
73
69
61
6e
2c
20
44
65
6c
6f
69
73
11
70
70
65
6e
68
65
69
6d
65
72
2c
20
53
6f
6e
61
13
53
68
6f
6e
68
61
72
64
74
2c
20
42
61
72
72
65
74
74
14
72
69
73
68
6e
61
6d
75
72
74
68
79
2c
20
53
68
61
77
11
44
65
6e
68
61
6d
2c
20
43
72
69
73
74
6f
62
61
6c
42
61
64
61
6c
61
6d
65
6e
74
69
2c
20
45
76
6f
6e
10
69
64
6c
65
6e
2c
20
4c
69
7a
7a
65
74
74
65
10
44
6f
65
6e
66
65
6c
64
2c
20
53
75
7a
69
65
10
4f
72
72
69
6f
6e
2c
20
4d
61
72
67
65
72
79
10
47
61
74
63
68
61
69
61
6e
2c
20
52
75
64
79
12
54
6f
72
69
62
69
6f
2c
4d
69
63
68
65
6c
69
6e
65
11
43
61
73
74
6c
65
73
2c
43
61
6e
64
61
6e
63
65
10
4d
63
67
61
68
61
2c
20
42
61
74
72
69
63
65
10
4d
69
6c
6c
69
63
6b
2c
20
4d
61
67
65
72
79
10
46
69
6e
6c
65
79
2c
20
4d
61
72
67
61
65
74
13
42
61
72
61
6e
6f
77
73
6b
69
2c
20
50
61
74
69
63
61
10
50
61
72
6f
62
65
6b
2c
20
4b
61
79
6c
65
6e
13
54
65
72
6b
65
6c
73
65
6e
2c
20
52
65
67
69
6e
6c
64
12
53
74
65
69
6e
61
75
65
72
2c
20
4e
6f
76
65
6c
61
10
53
61
72
74
65
6c
6c
2c
20
50
68
69
6c
6c
69
12
53
63
69
70
69
6f
6e
65
2c
20
4d
61
72
6a
6f
72
69
13
57
6f
6f
64
72
75
66
66
2c
20
46
72
61
6e
73
69
73
61
10
56
61
73
63
6f
63
75
2c
20
54
61
6d
6d
65
72
61
44
65
6d
65
74
65
72
2c
20
46
72
65
64
65
72
69
63
10
65
6c
67
65
6e
69
6f
2c
20
41
72
74
68
75
72
12
47
69
72
6e
6f
74
68
2c
20
42
65
6e
65
64
69
63
74
10
53
69
62
65
72
62
65
72
67
2c
20
43
68
61
64
14
53
63
68
6c
63
68
74
65
72
2c
20
4a
6f
73
70
68
69
6e
65
10
49
67
61
6e
6c
6f
63
2c
20
41
77
69
6c
64
61
12
43
6f
6c
61
75
6f
6e
6e
6f
2c
20
49
73
61
69
61
68
11
4b
61
70
70
6c
6d
61
6e
6e
2c
20
52
6f
62
69
6e
13
45
6e
67
65
6c
61
75
70
74
2c
20
52
61
6e
64
61
6c
6c
11
42
6c
61
6e
61
73
2c
20
4b
61
74
68
65
72
79
6e
10
46
6f
72
6d
69
61
2c
20
53
61
6d
61
74
68
61
11
43
72
69
73
73
65
79
20
4c
61
73
68
75
6e
64
61
14
54
6f
73
74
61
6e
6f
73
69
2c
20
42
72
69
64
67
65
74
74
10
43
6f
72
64
72
61
2c
20
4b
61
74
72
69
6e
61
12
4d
63
64
65
72
6d
65
74
2c
20
44
6f
6d
69
6e
67
61
12
54
69
6c
6c
6f
74
73
6f
2c
20
42
61
72
62
61
72
61
13
4d
63
63
6c
69
6e
74
69
2c
20
4c
6f
72
72
61
69
6e
65
11
56
61
6e
6f
6c
69
6e
61
2c
20
5a
61
6e
64
72
61
11
57
61
72
77
69
63
6b
2c
4c
65
6f
6e
61
72
64
6f
10
44
65
62
65
6c
6c
69
73
2c
52
6f
6e
6e
69
65
10
47
65
66
66
72
65
2c
20
4c
65
61
72
69
63
65
10
52
65
69
64
68
65
72
64
2c
20
43
6f
72
69
6e
13
48
69
6e
74
65
72
67
61
72
64
74
2c
20
4d
61
65
64
61
13
47
75
69
6c
6c
65
62
65
61
75
2c
20
4b
72
73
74
65
6e
10
44
75
6e
65
67
61
6e
2c
20
43
61
72
6c
6e
61
11
53
63
68
65
75
6d
61
6e
6e
2c
20
41
6c
6c
65
6e
11
56
61
6e
6e
6f
72
73
64
65
6c
6c
2c
20
4a
6f
73
10
50
72
6f
70
68
65
74
74
2c
20
41
79
61
6e
6e
61
11
68
61
77
63
72
6f
66
74
2c
20
4a
65
72
65
6d
79
11
42
61
76
69
73
2c
20
4d
61
72
71
75
65
74
74
61
11
47
6c
73
73
6e
65
72
2c
20
53
68
61
77
6e
65
65
11
52
61
66
6e
69
65
6c
6c
6f
2c
20
4e
69
6c
73
61
14
50
6f
66
66
6e
72
6f
74
68
2c
20
43
6c
61
72
65
74
74
61
11
4d
6f
69
6e
6f
2c
20
43
6c
65
6d
65
6e
63
69
61
12
48
61
72
73
6f
75
67
68
2c
20
4c
69
62
65
72
74
79
11
56
61
6e
65
73
74
65
65
6e
65
2c
20
4d
69
6e
67
10
43
6f
74
68
72
6e
2c
20
53
68
69
72
6c
65
79
13
41
72
6e
68
6f
6c
7a
2c
20
45
73
70
65
72
61
6e
7a
61
12
48
69
6c
6c
73
61
6e
2c
20
47
72
65
74
63
68
65
6e
12
4c
6f
63
6b
68
72
74
2c
20
4b
61
74
68
65
72
79
6e
10
47
6f
6e
7a
61
65
7a
2c
20
4c
69
6c
69
61
6e
11
4a
6f
73
69
6c
6f
77
6b
79
2c
20
43
68
75
63
6b
10
53
61
72
61
6e
69
2c
20
61
72
79
65
74
74
61
13
4d
6f
6e
73
65
67
75
72
2c
20
6e
6e
61
6d
61
72
69
61
10
4b
65
6e
72
69
63
6b
2c
20
61
6c
65
69
67
68
11
50
6c
61
63
65
6e
63
69
6f
2c
20
74
61
63
65
65
11
52
65
69
64
68
61
61
72
2c
20
4b
65
69
73
68
61
12
41
6e
64
72
7a
65
6a
63
7a
79
6b
2c
20
6f
6e
69
61
10
4c
61
64
75
63
65
72
2c
20
47
75
73
74
76
6f
10
47
61
76
69
6e
73
6b
69
2c
20
45
64
79
74
68
12
4d
6f
6e
74
65
6e
65
67
72
6f
2c
20
4c
61
6d
6f
6e
11
43
61
74
72
69
6e
69
2c
20
44
65
6c
70
68
69
6e
65
42
61
6d
62
65
72
67
65
72
2c
20
4d
61
72
69
65
74
74
10
44
75
6e
73
68
65
65
2c
20
4c
61
75
72
65
65
6e
11
6c
61
79
62
72
6f
6e
2c
20
51
75
65
6e
74
69
6e
14
42
64
65
72
69
63
6b
2c
20
46
72
61
6e
63
68
65
73
63
61
57
6f
6f
64
68
75
6c
6c
2c
20
53
68
61
6b
69
74
61
12
61
63
6d
75
6c
6c
61
6e
2c
20
4c
69
6e
64
73
65
79
10
75
61
72
74
69
65
72
6f
2c
20
4b
65
6e
69
61
10
49
6e
65
73
74
72
61
2c
20
44
65
62
62
69
65
11
52
61
6e
6e
6c
6c
73
2c
20
41
73
73
75
6e
74
61
11
4e
61
67
61
72
6a
61
6e
2c
20
4b
61
79
63
65
65
10
44
65
72
69
74
69
2c
20
4d
69
63
68
65
61
6c
14
50
69
6c
6b
69
6e
67
74
6e
2c
20
57
65
6e
64
6f
6c
79
6e
11
57
69
6e
64
68
61
2c
20
4b
69
65
72
73
74
65
6e
11
4b
75
73
75
6d
6f
74
2c
20
44
61
72
6e
65
6c
6c
10
45
73
74
61
62
72
6f
6f
73
2c
20
52
75
62
79
10
4c
61
6d
61
72
63
68
2c
20
44
62
6f
72
61
68
10
44
6f
6e
61
77
61
79
2c
20
46
72
61
6b
69
65
13
4b
6c
65
65
73
70
69
65
73
2c
20
4a
65
61
6e
69
6e
65
12
53
61
72
77
69
6e
73
6b
69
2c
20
46
72
6e
63
65
73
10
4b
61
6e
6e
69
61
72
64
2c
20
53
68
61
74
65
10
4a
61
62
6c
6f
6e
73
6b
69
2c
20
4a
6f
76
61
12
43
68
61
74
6d
6f
6e
2c
20
4b
69
6d
62
65
72
6c
65
13
56
61
6e
64
65
76
65
6c
64
65
2c
20
41
75
72
65
6c
6f
11
4b
72
61
6e
65
6e
64
6f
6e
6b
2c
20
4f
6c
6c
69
10
54
72
61
75
74
6d
61
6e
2c
20
41
6e
61
62
65
6c
11
6e
6e
61
6d
6f
72
61
74
6f
2c
20
57
61
6c
6c
79
11
4c
6b
69
61
6e
6f
76
2c
20
4d
61
6c
6f
72
69
65
11
57
61
79
6c
6f
77
2c
20
50
61
73
71
75
61
6c
65
11
54
72
61
6d
65
72
2c
20
53
74
65
72
6c
69
6e
67
11
54
72
65
62
6c
63
6f
63
6b
2c
20
42
75
64
64
79
11
56
61
6e
64
65
61
6e
64
65
2c
20
53
69
6d
6f
6e
11
4d
63
6b
65
61
72
6e
2c
20
4d
65
6c
6c
69
73
61
11
53
74
75
72
67
65
6c
2c
20
4a
6f
68
6e
6e
69
65
12
48
69
6c
6c
61
6e
62
72
6e
64
2c
20
54
61
6e
64
79
10
49
73
61
63
73
6f
6e
2c
54
6f
6e
69
73
68
61
11
4d
6f
6f
74
68
61
72
74
2c
20
69
6c
6c
69
61
6e
11
4d
75
73
63
65
6e
74
65
2c
20
4c
76
65
74
74
61
10
4c
69
6e
64
6f
72
66
2c
20
54
6f
77
6e
64
61
13
47
75
61
64
61
72
72
61
6d
61
2c
20
53
68
72
69
74
61
10
52
75
64
69
73
69
6c
6c
2c
20
43
6f
6e
68
61
12
47
6f
72
74
6f
6e
2c
20
48
69
6c
64
65
67
61
64
65
13
48
61
77
62
61
6b
65
72
2c
20
47
65
72
74
72
64
69
73
11
4b
6f
68
6c
68
6f
66
66
2c
20
45
6c
66
72
64
61
11
4e
75
75
61
6e
75
2c
20
47
75
69
6c
6c
65
72
6f
10
50
6f
70
69
63
68
61
6b
2c
20
42
69
61
6e
63
61
42
6f
63
6b
65
6e
6b
61
6d
70
2c
20
4d
61
72
79
6c
79
11
4d
61
6c
65
6f
6e
61
64
6f
2c
20
44
65
69
64
72
65
53
77
65
61
72
65
6e
67
65
6e
2c
20
47
65
6f
66
66
72
79
12
43
72
61
66
66
6f
72
64
2c
20
56
69
76
69
65
6e
65
11
59
65
73
6b
65
2c
20
4d
6f
6e
73
65
72
72
61
74
10
42
65
6c
63
6f
75
72
74
2c
20
4b
65
69
74
68
61
10
69
74
63
68
6f
74
74
65
2c
20
42
65
6c
69
61
12
54
69
6c
62
65
72
72
79
2c
20
4d
61
68
61
6c
69
61
11
53
63
6c
61
74
68
65
72
2c
20
41
75
67
75
73
74
11
42
72
61
69
67
61
6e
2c
20
43
61
6e
64
79
63
65
10
53
74
65
69
67
65
72
2c
20
4f
66
65
6c
69
61
12
47
72
65
67
77
61
65
2c
20
53
68
61
6e
74
65
6c
6c
11
48
6f
65
6e
73
74
6e
65
2c
20
54
61
6e
64
72
61
11
53
6b
69
64
6d
6f
72
2c
20
54
65
72
65
73
69
61
10
57
69
6d
62
65
72
2c
20
6f
73
65
6d
61
72
79
10
43
65
6e
74
61
6e
6f
2c
20
42
65
61
6e
6e
61
10
41
6e
74
6f
6e
61
6b
6f
73
2c
20
4d
7a
69
65
12
53
68
69
6c
6c
69
6e
67
73
2c
20
4c
65
65
6e
6e
61
11
53
63
68
72
61
75
67
65
72
2c
20
4a
65
6e
69
65
13
42
65
72
6e
73
6b
6f
65
74
74
65
72
2c
20
42
6c
6c
79
10
50
61
6e
74
61
6e
6f
2c
20
4d
61
72
69
73
61
12
53
74
72
69
74
74
6d
61
74
74
65
72
2c
20
47
69
61
10
48
61
72
72
69
6c
6c
2c
20
4d
69
63
68
61
65
6c
45
6e
67
65
6c
68
61
75
70
74
2c
20
49
6e
6f
63
65
6e
69
61
10
51
75
65
65
6c
65
79
2c
20
4a
61
63
71
75
69
11
53
63
68
61
6d
6d
65
6c
2c
20
57
69
6e
66
72
65
64
53
61
6e
67
72
65
6e
2c
20
4d
61
78
69
6d
69
6e
61
11
68
75
72
6d
61
6e
2c
20
4c
75
64
69
76
69
6e
61
13
56
6e
64
65
79
61
63
68
74
2c
20
4a
75
6c
69
61
6e
65
11
61
72
73
63
68
6b
65
2c
20
43
68
65
72
6c
79
6e
10
46
72
6d
61
74
6f
2c
20
4b
61
69
74
6c
69
6e
13
44
6f
6e
65
72
76
6f
65
74
2c
20
4d
61
72
67
72
65
74
14
45
6c
69
6e
67
73
77
6f
72
74
68
2c
20
53
68
69
7a
75
65
10
72
72
69
61
7a
6f
6c
61
2c
20
52
6f
63
63
6f
14
57
65
64
65
72
6d
61
6e
2c
20
49
6e
6f
63
65
6e
63
69
61
10
61
63
75
6e
64
6f
2c
20
44
65
6c
61
69
6e
65
11
56
72
6e
69
63
61
72
2c
20
4a
75
73
74
69
6e
61
11
4b
6a
6f
73
65
74
68
2c
20
43
6c
69
6e
74
6f
6e
13
4b
6c
69
6e
65
72
6d
61
6e
2c
20
4d
61
64
65
6c
79
6e
11
48
61
73
65
64
74
2c
20
53
68
61
72
6f
6e
64
61
10
48
6f
6e
6e
6c
64
2c
20
52
61
6e
64
61
6c
6c
14
44
65
74
68
6c
65
73
2c
20
4a
61
63
71
75
61
6c
69
6e
65
10
4d
61
72
71
61
72
74
2c
20
43
6f
72
74
65
7a
12
48
61
72
64
69
67
6e
2c
20
4d
69
63
68
61
65
6c
61
11
44
75
74
63
68
6f
65
72
2c
20
4d
61
72
6c
79
73
13
4b
69
72
6b
65
6e
64
6c
6c
2c
20
4d
65
72
69
73
73
61
10
4d
61
67
61
64
64
6e
6f
2c
20
56
61
6e
6e
61
11
45
72
76
69
6e
67
2c
20
68
69
73
6c
61
69
6e
65
13
50
65
6c
6c
69
67
72
69
6e
2c
20
44
65
6c
69
6e
64
61
11
44
61
6c
6c
75
67
65
2c
4d
61
72
67
65
72
65
74
10
54
65
72
73
74
65
65
67
2c
54
65
72
65
73
65
11
53
65
74
6c
6f
63
6b
2c
20
48
61
72
69
65
74
74
12
52
69
63
61
72
64
73
6f
6e
2c
20
53
65
6c
6c
69
65
10
53
74
65
69
6e
6d
61
6e
2c
20
4f
6c
76
69
61
12
4d
69
67
6e
65
61
75
6c
74
2c
20
43
61
72
73
73
61
10
42
69
72
63
68
61
6c
6c
2c
20
4f
6c
69
76
61
11
52
61
69
6e
77
61
74
65
72
2c
20
49
6e
67
72
69
11
43
61
75
67
68
6f
72
6e
2c
20
52
6f
73
65
6c
65
65
57
69
6e
74
65
72
68
61
6c
74
65
72
2c
20
4a
6f
73
65
68
10
4c
65
63
6b
69
6e
67
74
6f
6e
2c
20
52
6f
73
65
57
68
69
74
74
65
6b
65
72
2c
20
54
6f
72
72
69
65
10
61
72
6c
6f
66
66
2c
20
54
65
6f
66
69
6c
61
11
4a
6f
61
6e
6e
65
73
65
6e
2c
20
53
75
7a
69
65
11
47
61
6c
6f
73
61
2c
20
4a
65
66
66
65
72
65
79
15
48
65
6e
6e
67
68
61
75
73
65
6e
2c
20
52
6f
73
61
72
69
6f
12
46
6e
63
68
65
73
2c
20
41
6c
62
65
72
74
69
6e
65
10
46
61
6e
65
72
79
2c
20
47
61
79
6e
65
6c
6c
10
4f
6c
69
65
6e
63
69
61
2c
20
42
65
74
74
65
11
46
61
75
6c
63
6e
65
72
2c
20
47
65
6e
6e
69
65
11
4d
65
73
72
6f
62
61
6e
2c
20
4d
61
72
69
61
6d
10
4f
75
72
74
68
2c
20
6e
6f
63
65
6e
63
69
61
10
43
68
61
74
74
65
72
73
6f
2c
20
4a
69
6c
6c
10
56
69
63
74
6f
72
69
61
6e
2c
20
6c
79
63
65
11
4d
61
74
74
65
75
63
63
69
2c
20
4c
65
6f
72
65
10
4b
6e
6f
62
6c
61
75
63
68
2c
20
4e
69
63
69
10
4e
65
77
68
61
6c
6c
2c
20
4d
6f
64
65
73
74
6f
45
70
68
72
61
69
6d
2c
20
47
75
69
6c
6c
65
72
6d
6f
4d
69
6c
69
6e
61
7a
7a
6f
2c
20
4a
6f
6c
79
6e
11
4a
6e
75
73
7a
65
77
73
6b
69
2c
20
42
65
74
68
14
49
6e
65
6c
69
63
61
74
6f
2c
20
4d
61
72
69
6c
79
6e
6e
10
74
75
72
6d
2c
20
43
6c
61
75
64
65
74
74
65
10
50
65
6c
6d
75
74
74
65
72
2c
20
42
75
6c
61
10
53
74
61
6c
6f
6e
65
2c
20
41
6d
65
6c
69
61
10
53
63
68
6f
6e
65
2c
20
43
6c
69
6e
74
6f
6e
15
4b
6f
75
6e
74
68
61
70
6e
79
61
2c
20
4c
61
72
69
73
73
61
10
42
6f
72
67
61
74
69
2c
20
56
69
76
69
65
6e
10
4b
6f
65
68
6c
2c
20
61
63
68
61
72
69
61
68
11
52
6f
73
68
69
61
2c
20
4a
73
65
70
68
69
6e
61
10
44
69
6d
69
74
72
6f
76
2c
20
6c
61
64
69
73
10
57
75
6f
72
69
2c
20
50
65
74
72
6f
69
6c
61
11
53
6c
65
65
70
65
72
2c
20
47
65
6f
72
67
6e
65
10
4d
61
64
72
61
73
2c
20
54
65
6e
6e
69
6c
6c
11
53
68
61
66
66
6e
65
72
2c
20
43
61
72
6c
69
6e
65
4b
6c
61
6e
63
6e
69
6b
2c
20
53
68
61
6e
6e
61
10
4c
72
65
6d
6f
6e
74
2c
20
4f
64
65
6c
69
61
13
52
6f
73
6e
71
75
69
73
74
2c
20
47
6f
6e
7a
61
6c
6f
11
53
74
66
66
6f
72
64
2c
20
41
6e
74
6f
69
6e
65
11
42
72
75
65
74
74
65
2c
20
45
74
68
65
6c
79
6e
16
53
68
69
6c
69
6e
67
73
66
6f
72
64
2c
20
53
68
61
75
6e
64
61
10
69
6c
6c
65
6d
73
2c
20
52
65
62
65
6b
61
68
13
4e
69
74
69
6e
67
65
72
2c
20
41
6e
6e
61
6c
69
73
61
11
45
67
6c
65
73
6f
6e
2c
20
4d
61
72
67
65
72
79
10
46
69
73
69
6e
67
65
72
2c
20
44
69
6f
6e
65
13
53
63
68
6c
64
77
65
69
6c
65
72
2c
20
56
65
6c
6d
61
12
53
68
75
6c
61
2c
20
42
65
72
6e
61
72
64
69
6e
65
10
48
61
6e
65
6d
61
6e
2c
20
44
65
78
74
65
72
12
47
75
65
74
69
72
72
65
7a
2c
20
53
61
6c
65
6e
61
11
59
61
63
75
6c
6f
2c
20
44
6f
6e
6e
65
74
74
61
10
50
65
72
70
61
6c
2c
20
4b
61
69
74
6c
69
6e
11
53
63
68
77
65
69
6e
65
74
2c
20
4a
61
6e
65
65
10
4c
65
64
65
63
2c
20
57
69
6e
69
66
72
65
64
10
50
6f
6d
69
65
63
6b
6f
2c
20
44
6e
6e
69
73
15
4f
76
65
72
62
61
75
67
68
2c
20
4d
61
67
68
65
72
69
74
61
10
44
69
6d
69
74
72
6f
66
66
2c
48
65
69
64
79
10
4d
61
6e
67
69
65
72
69
2c
20
4c
69
6e
65
6c
10
52
65
6d
61
6b
6c
75
73
2c
20
43
6f
72
65
65
14
43
6f
66
72
61
6e
63
65
73
63
6f
2c
20
4c
61
64
6e
6e
61
11
4d
6f
6e
63
72
69
65
66
2c
20
4b
72
79
73
65
6e
10
42
72
75
6c
65
2c
20
48
65
72
69
62
65
72
74
10
47
65
64
64
69
65
2c
20
4b
68
61
64
69
6a
61
68
11
6f
72
6e
66
6f
72
74
68
2c
20
54
6f
6d
65
6b
61
12
45
72
6d
61
6e
6e
2c
20
41
6e
61
73
74
61
63
69
61
11
50
69
6e
61
7a
65
65
2c
20
4d
69
6c
61
67
72
6f
11
47
72
6e
62
65
72
72
79
2c
20
44
61
6c
6c
61
73
11
5a
65
69
6c
65
72
2c
20
53
68
69
72
6c
65
6e
65
10
57
61
72
6e
65
2c
20
56
61
73
69
6c
69
6b
69
12
41
72
67
61
6e
62
69
67
68
74
2c
20
4d
61
72
63
79
12
53
68
61
66
72
61
2c
20
45
73
70
65
72
61
6e
7a
61
10
44
7a
75
72
69
6c
61
2c
20
41
79
65
73
68
61
10
41
69
6c
73
77
6f
72
74
2c
20
49
6c
65
6e
65
11
46
72
65
64
6c
69
6e
65
2c
20
68
61
6e
69
6b
61
12
46
69
74
67
65
72
61
6c
64
2c
20
61
6d
65
72
6f
6e
10
4b
69
6e
74
6f
70
70
2c
20
53
74
66
61
6e
69
15
4c
61
73
63
68
69
6e
67
65
72
2c
20
53
70
74
65
6d
62
65
72
11
42
61
73
73
65
74
74
69
2c
20
61
6d
6d
65
72
61
10
41
72
74
69
6e
69
61
6e
2c
20
41
79
73
69
61
15
57
65
69
73
62
65
72
67
65
72
2c
20
43
69
73
74
6f
62
61
6c
10
54
68
6f
72
6e
73
62
75
72
79
20
54
69
65
6e
13
57
61
64
6c
69
6e
67
65
72
2c
20
44
6d
61
72
63
75
73
10
45
6c
6c
65
72
62
79
2c
20
4b
61
68
79
72
6e
10
46
61
6c
6b
6e
65
72
2c
20
4b
65
6e
6e
74
68
10
42
61
74
74
65
72
73
62
79
2c
20
4d
65
72
72
10
54
6f
66
61
6e
69
2c
20
4a
65
6e
6e
69
66
65
72
13
63
68
6c
6f
73
62
65
72
67
2c
20
41
64
72
69
61
6e
61
47
6f
64
69
6e
68
6f
2c
20
52
65
66
75
67
69
6f
12
4d
72
63
68
69
6f
6e
79
2c
20
44
61
6d
61
72
69
73
11
53
68
72
65
64
65
72
2c
20
44
65
62
72
6f
61
68
11
42
6c
63
6b
62
75
6d
2c
20
50
61
74
72
69
6e
61
11
50
61
73
69
6e
65
61
75
2c
20
4c
65
73
6c
69
65
11
53
63
68
72
62
65
72
2c
20
41
72
64
65
6c
69
61
11
42
75
64
6e
65
2c
20
45
6c
6c
73
77
6f
72
74
68
11
4c
61
79
73
6f
6e
20
47
65
61
72
6c
64
69
6e
65
16
56
61
6e
61
72
74
73
61
6c
65
6e
2c
20
45
6c
65
6f
6e
6f
72
61
10
43
6f
72
75
6d
2c
20
52
65
67
69
6e
61
6c
64
10
4b
75
61
6c
69
2c
20
43
6c
69
66
66
6f
72
64
13
53
74
72
65
69
63
68
72
2c
20
46
6c
6f
72
69
6e
64
61
12
4a
65
73
70
65
72
6f
6e
2c
20
4a
65
73
74
69
6e
65
14
42
72
69
67
68
74
69
6c
6c
2c
20
56
69
6f
6c
65
74
74
65
12
50
61
7a
64
72
73
6b
69
2c
20
4d
61
75
72
65
65
6e
12
4d
63
67
6c
74
68
65
6e
2c
20
4c
69
7a
62
65
74
68
10
4d
61
72
67
65
69
74
65
72
2c
20
41
6e
6a
61
10
4d
61
6c
61
6b
61
2c
20
4c
69
73
62
65
74
68
10
42
72
61
6e
73
6f
6e
2c
54
72
69
73
74
61
6e
15
43
68
61
6e
74
68
61
75
6d
6c
61
2c
20
47
65
72
61
72
64
6f
10
4d
75
6c
6c
61
6e
65
2c
20
47
6c
79
6e
69
73
11
44
65
72
69
6e
67
74
6f
6e
20
54
6f
6d
6d
79
65
15
42
6c
75
6d
65
6e
6b
72
61
6e
7a
2c
20
4d
61
72
79
6c
65
65
14
4c
61
6e
67
68
6f
6c
74
2c
20
46
72
61
6e
63
6f
69
73
65
11
43
61
72
76
61
61
6c
2c
20
44
65
6c
6f
72
61
73
11
54
61
6e
6b
65
72
6c
65
79
2c
20
4e
65
65
6c
79
11
44
65
76
65
6e
64
6f
66
2c
20
43
61
72
6f
6c
6c
11
4d
6f
73
69
6d
61
6e
6e
20
4e
69
63
6b
6f
6c
65
10
53
61
6c
64
65
65
6e
2c
20
6f
75
61
6e
6e
65
15
4b
75
6e
73
74
6c
69
6e
67
65
72
20
45
74
68
65
6c
65
6e
65
10
46
69
6c
69
70
73
6b
69
20
46
61
75
73
74
6f
12
50
65
6e
6b
61
6c
73
6b
69
2c
4b
72
79
73
74
65
6e
14
44
65
73
61
75
74
65
6c
73
2c
4d
69
6c
6c
69
63
65
6e
74
14
4d
61
72
64
69
72
6f
73
69
61
6e
2c
20
44
65
65
74
74
61
10
4b
72
61
6d
65
72
20
53
63
61
72
6c
65
74
74
10
44
65
72
6f
73
73
2c
20
6f
73
65
6d
61
72
79
10
41
6c
76
61
72
65
7a
2c
20
4a
68
6e
73
6f
6e
11
53
6d
65
74
68
65
72
73
2c
20
45
75
65
6e
69
61
10
43
61
72
66
72
65
79
2c
20
53
74
61
6e
65
79
10
46
72
65
65
68
61
6e
2c
20
44
65
6c
69
63
69
11
4d
61
6e
67
61
6e
61
72
6f
2c
20
47
65
6f
72
67
65
47
72
61
73
73
69
65
2c
20
44
6f
6e
6e
65
74
74
65
10
61
76
69
74
7a
2c
20
4a
6f
79
63
65
6c
79
6e
10
50
61
6c
69
75
63
61
2c
20
42
72
69
74
6e
69
10
4d
6f
6e
74
6e
61
2c
20
4f
70
68
65
6c
69
61
10
53
61
6d
62
65
72
2c
20
47
75
73
74
61
76
6f
12
43
72
65
73
63
65
6e
74
2c
20
42
72
69
74
74
6e
79
13
5a
65
63
6b
7a
65
72
2c
48
65
72
6d
65
6c
69
6e
64
61
14
47
75
69
6c
6c
65
6d
74
74
65
2c
20
54
69
66
66
61
6e
79
10
53
6e
65
64
65
61
72
2c
20
44
61
6c
6c
61
73
13
42
72
69
6e
64
61
6d
75
72
2c
20
45
75
73
65
62
69
61
11
53
61
6e
74
65
6c
69
2c
20
42
72
65
6e
64
61
6e
11
48
69
72
73
63
68
69
20
4b
61
73
61
6e
64
72
61
10
53
77
69
6e
73
6f
6e
2c
4d
69
63
68
65
61
6c
10
57
69
6c
6c
67
69
6e
67
2c
20
74
69
6c
69
61
13
43
72
6f
63
6b
61
72
65
6c
6c
2c
20
72
79
73
74
61
6c
11
4b
61
6c
62
61
63
68
2c
20
42
72
74
74
61
6e
69
10
43
65
72
72
69
74
6f
2c
20
42
72
69
6e
6e
65
10
42
6c
61
63
6b
6d
61
72
2c
20
43
61
72
6c
73
11
43
72
69
73
74
61
6c
65
73
2c
20
54
61
73
68
69
14
44
6f
76
65
72
73
70
69
6b
65
2c
20
46
6c
6f
72
65
74
61
13
52
75
6e
64
71
75
69
73
74
2c
20
43
6c
6f
72
6e
64
61
10
53
74
72
75
74
68
65
72
73
2c
20
4c
61
72
79
12
54
69
6f
67
61
6e
67
63
6f
2c
20
43
61
72
79
6c
6e
12
45
67
69
64
69
6f
2c
20
43
68
61
72
6f
6c
65
74
65
13
53
63
68
6f
6e
62
65
72
67
65
72
2c
20
44
61
6e
69
65
12
47
65
6f
72
67
65
76
69
63
2c
20
53
75
7a
65
74
65
12
43
61
6e
74
6c
65
79
2c
20
50
65
74
72
6f
6e
6c
61
10
4b
6f
63
68
68
65
69
73
65
72
2c
20
4c
65
61
11
42
61
72
72
65
72
61
73
2c
20
43
79
72
73
74
61
6c
4c
6f
6b
68
6d
61
74
6f
72
2c
20
4d
61
6c
63
6f
6d
10
74
65
6e
67
65
72
2c
20
43
6f
72
61
6c
65
65
13
4b
6f
6f
72
6f
77
73
6b
69
2c
20
59
61
6a
61
69
72
61
14
50
69
65
73
6d
65
79
65
72
2c
20
53
68
61
77
61
6e
6e
61
44
75
72
61
6e
64
2c
20
41
64
72
69
61
6e
6e
61
13
53
69
63
6b
66
6f
72
64
2c
20
4e
6f
72
62
65
72
74
6f
12
6f
6e
73
74
61
64
65
6e
2c
20
41
6e
74
68
6f
6e
79
10
6c
61
74
74
65
6c
2c
20
53
68
65
72
69
63
65
11
44
65
6c
6f
77
2c
20
43
68
72
69
73
74
65
65
6e
10
43
6f
6f
61
67
65
2c
20
4a
65
61
6e
6e
69
65
10
41
6d
6f
61
6b
2c
20
4a
65
61
6e
65
74
74
65
10
44
69
67
72
61
7a
69
2c
20
4c
61
76
69
6e
61
11
48
61
7a
65
6c
62
61
6b
65
2c
20
56
61
6e
63
65
14
56
69
6c
6c
61
6e
75
65
76
61
20
56
61
73
69
6c
69
6b
69
11
52
75
6e
64
65
6c
6c
2c
4b
69
6d
62
65
72
6c
69
11
4d
61
72
72
6f
6e
2c
20
4a
66
66
65
72
73
6f
6e
11
44
65
73
69
6c
76
6f
2c
20
4b
75
72
74
6e
65
79
11
53
74
65
6c
6c
6d
61
6e
2c
20
59
6c
61
6e
64
6f
10
59
65
61
72
73
6c
65
79
2c
20
4d
79
73
68
61
10
54
72
69
62
6c
65
74
74
2c
20
4c
69
6c
6c
65
10
53
61
6c
71
75
65
72
6f
2c
20
53
74
6f
72
6d
79
42
6c
69
63
6b
65
72
2c
20
53
75
6e
73
68
69
6e
65
10
69
72
6b
61
6c
65
72
2c
20
52
65
6e
61
74
65
10
54
75
65
72
67
65
6e
2c
20
43
75
72
74
69
73
10
45
6c
6c
69
67
2c
20
56
65
72
6e
65
74
74
61
11
53
74
65
69
64
6c
79
2c
20
4d
65
6c
61
6e
69
65
12
42
75
73
68
6f
76
69
6b
79
2c
20
4a
65
6e
69
63
65
10
57
69
6e
73
6c
65
74
2c
20
48
69
6c
61
72
79
11
4c
61
62
6f
73
73
69
65
72
2c
20
47
72
65
67
67
10
57
6f
6a
74
6f
77
69
63
68
2c
45
64
64
69
65
11
4d
6f
72
72
69
73
65
74
74
65
2c
20
75
69
67
69
13
4c
65
73
6b
6f
76
61
72
2c
20
43
68
61
6c
65
74
74
65
15
4d
6f
6e
74
69
63
65
6c
6c
6f
2c
20
61
74
68
61
6e
69
61
6c
11
53
6f
6c
67
6f
76
69
63
2c
4b
69
72
73
74
69
65
14
57
65
73
74
6d
6f
72
65
6c
61
64
2c
20
44
61
72
72
69
6e
10
42
61
6c
64
72
69
67
65
20
54
65
6e
6e
69
65
10
57
65
6d
68
6f
66
66
2c
20
4c
76
65
6e
69
61
10
42
61
63
6b
65
72
73
2c
20
41
6e
61
69
73
61
11
43
61
72
6d
69
63
6c
65
2c
20
42
72
65
6e
61
6e
10
54
75
72
61
6e
73
6b
79
2c
20
41
6e
74
6f
6e
10
45
6c
6c
69
73
6f
6e
2c
20
45
61
72
6c
65
65
6e
11
61
73
69
6e
73
6b
69
2c
20
4d
61
72
69
62
65
6c
12
53
61
72
73
64
61
6c
65
2c
20
41
6e
61
6c
69
73
61
11
4b
72
61
6e
67
65
6c
65
6e
2c
20
43
69
61
72
61
15
50
65
74
79
6a
6f
68
6e
2c
20
4a
61
63
71
75
61
6c
69
6e
65
43
6f
6e
74
72
61
74
74
6f
2c
20
56
65
72
6f
6e
69
6b
11
4d
6f
6e
74
65
72
72
6f
7a
61
2c
20
44
61
69
73
79
44
69
6c
6c
65
6e
62
65
63
6b
2c
20
53
68
69
72
61
12
61
6e
74
6f
6e
69
2c
20
50
72
69
73
63
69
6c
6c
61
10
79
6e
6f
74
74
2c
20
43
68
61
72
6c
69
6e
65
11
54
75
6e
69
63
6c
69
66
66
2c
20
4d
65
72
72
69
11
42
6f
6c
69
65
72
2c
20
4c
75
64
69
76
69
6e
61
13
42
72
79
6e
65
6c
73
6f
6e
2c
20
4b
69
6d
62
65
72
79
12
52
65
64
72
69
63
6b
2c
20
59
6f
75
6c
61
6e
64
61
11
41
73
63
65
6e
62
61
63
68
2c
20
57
69
6e
64
79
17
52
61
6d
61
61
6e
6f
76
69
63
2c
20
43
6f
6e
63
65
70
63
69
6f
6e
4b
65
6e
6e
69
6e
67
74
6f
6e
2c
20
53
61
72
61
69
10
72
61
77
6b
69
6e
2c
20
43
68
65
6c
73
69
65
10
4b
6f
69
61
73
7a
2c
20
4b
61
74
72
69
6e
61
12
51
75
61
67
69
61
74
6f
2c
20
4d
61
72
63
65
6e
65
11
44
75
6e
6b
65
62
65
72
67
65
72
2c
20
53
69
75
13
48
61
72
74
73
69
65
6c
64
2c
20
53
68
61
77
6e
64
61
14
53
74
72
61
68
6d
61
6e
6e
2c
20
4c
65
6f
70
6f
6c
64
6f
10
44
75
64
65
72
6d
61
6e
2c
20
54
65
67
61
6e
13
48
61
6c
6c
74
65
61
64
2c
20
4a
6f
73
70
68
69
6e
65
10
4a
75
6c
63
6b
2c
20
4c
6f
72
72
69
61
6e
65
11
57
65
69
73
69
65
72
2c
20
54
68
65
72
65
73
65
11
47
72
65
69
73
65
2c
20
47
69
6c
62
65
72
74
6f
10
56
69
6c
6c
61
70
61
64
6f
2c
20
44
6f
6e
61
10
46
72
61
6e
63
69
6f
73
2c
4c
61
76
65
72
6e
10
52
69
70
70
65
6f
6e
2c
20
56
69
69
61
6e
61
14
43
6c
65
6e
64
65
6e
65
6e
2c
20
4a
65
6e
6d
61
72
69
65
11
53
63
68
6f
65
6c
6d
61
6e
2c
20
65
72
6d
61
6e
11
44
65
67
72
65
65
6e
69
61
2c
20
44
6e
63
61
6e
10
54
6f
72
6e
67
72
65
6e
2c
20
53
68
6f
64
61
11
56
61
6e
63
61
6d
70
2c
20
4d
63
6b
69
6e
6c
79
11
44
69
67
61
6e
67
69
2c
20
4b
61
74
68
6c
69
6e
13
41
6c
75
6d
62
61
75
67
68
2c
20
43
68
72
69
73
74
6c
11
56
6f
6e
62
61
72
67
65
6e
2c
20
44
65
6c
69
73
10
53
65
6d
61
73
6b
6f
2c
20
4c
65
6f
6e
6f
72
61
11
6f
63
6b
72
61
6e
2c
20
43
61
74
65
72
69
6e
61
11
42
61
63
6b
6d
6f
72
65
2c
20
50
61
74
74
69
65
13
48
69
6c
73
74
72
6f
6d
2c
20
4b
61
74
68
65
72
69
6e
11
53
6e
74
65
6c
6c
2c
20
47
69
6f
76
61
6e
6e
69
12
53
74
75
64
65
6d
61
6e
2c
20
59
61
73
6d
69
6e
65
10
53
70
65
6e
6b
6c
65
2c
20
4b
69
6e
64
72
61
11
43
68
75
72
68
77
65
6c
6c
2c
20
50
69
70
65
72
11
50
72
65
76
65
74
65
2c
20
4c
61
76
6f
6e
6e
65
12
41
74
74
65
72
62
72
72
79
2c
20
43
6f
72
74
65
7a
11
5a
75
63
68
2c
20
6c
65
6a
61
6e
64
72
69
6e
61
10
4d
6f
6c
61
6e
64
65
2c
20
54
61
6e
69
6b
61
11
49
74
7a
6b
6f
77
69
74
7a
20
42
72
6f
6f
6b
65
11
44
65
63
68
61
76
65
7a
2c
20
69
6e
64
73
61
79
10
44
75
6e
64
6c
6f
77
2c
20
5a
61
6b
61
72
79
10
48
61
74
61
6c
61
2c
20
41
67
75
73
74
6e
61
12
47
65
72
63
6b
65
6e
73
2c
20
50
72
75
64
65
63
65
10
4c
61
6d
6f
74
74
65
2c
20
4f
73
77
61
6c
64
10
44
65
63
68
69
63
6f
2c
20
53
61
6e
74
69
6e
61
12
65
72
72
61
74
6f
73
2c
20
4c
69
73
61
62
65
74
68
14
6f
72
67
65
6e
72
6f
74
68
2c
20
4d
65
63
68
65
6c
6c
12
48
61
72
64
67
72
61
76
65
2c
20
4b
6f
72
74
6e
65
12
4b
69
72
63
68
62
65
72
67
2c
20
42
65
72
74
72
61
10
48
6f
76
65
72
73
74
65
6e
2c
20
42
65
61
74
61
12
63
68
69
6d
61
6e
64
6c
65
2c
20
44
61
69
73
65
79
10
6f
78
77
6f
72
74
68
2c
20
4e
69
6b
6f
6c
65
10
45
67
65
72
2c
20
50
65
74
72
6f
6e
69
6c
61
13
5a
61
67
72
64
6e
69
6b
2c
20
53
68
69
72
6c
65
65
6e
11
42
72
79
6e
67
74
6f
6e
2c
20
4a
6f
73
6c
79
6e
10
4c
6f
6e
73
61
79
2c
20
43
61
72
69
73
73
61
12
43
6c
65
61
72
77
74
65
72
2c
20
56
61
6e
65
73
61
10
47
75
69
72
67
69
2c
20
4d
6f
64
65
73
74
61
13
56
69
67
6e
65
61
75
6c
2c
20
47
72
65
67
6f
72
69
61
10
53
68
69
66
6c
65
74
2c
20
44
61
67
6d
61
72
11
43
6f
6e
74
72
61
74
74
6f
20
4d
6f
72
67
61
6e
13
57
65
73
74
65
72
68
6f
66
66
20
42
72
65
6e
64
6f
6e
11
4d
69
6c
69
6f
6e
69
73
2c
4e
65
72
69
73
73
61
10
54
72
65
6d
69
6c
6c
6f
2c
20
6c
6f
69
73
65
10
4e
69
65
6e
68
61
75
73
2c
20
46
72
69
64
61
10
4d
63
6b
65
61
6e
64
2c
20
44
6f
72
6f
74
79
10
45
6e
66
6f
72
74
2c
20
42
65
6e
6a
61
6d
69
6e
41
6e
63
68
6f
72
73
2c
20
4a
65
61
6e
6e
65
74
74
65
41
72
74
69
61
67
61
2c
20
4b
68
61
64
69
6a
61
68
11
73
63
61
72
63
65
67
61
2c
20
41
6e
64
72
65
73
10
41
61
6d
6f
73
2c
20
56
61
6c
65
6e
74
69
6e
11
53
74
75
67
69
6c
6c
2c
20
41
64
72
69
61
6e
65
11
53
6b
69
6c
69
63
6f
72
6e
2c
20
4e
61
6f
6d
69
11
50
61
72
6d
65
74
65
72
2c
20
45
6c
61
79
6e
65
12
4c
61
6e
64
66
6f
64
2c
20
43
68
61
72
69
73
73
61
10
53
79
6e
64
65
72
61
61
72
64
2c
20
50
65
67
10
52
69
7a
7a
6f
74
74
6f
20
48
6f
72
61
63
65
10
53
68
69
67
65
6d
69
74
73
75
20
4b
61
72
6c
10
53
68
65
6c
73
74
61
64
2c
20
4c
69
69
61
6e
10
44
65
6d
61
72
73
69
63
6f
2c
20
41
68
6d
64
12
42
6f
75
63
68
61
65
72
74
2c
20
43
61
74
68
65
6e
13
47
61
6c
6f
66
61
72
6f
2c
20
4e
61
74
68
61
6e
65
6c
11
4b
61
74
61
79
61
6d
61
2c
20
44
6f
6e
6e
65
6c
10
54
6f
6d
62
6c
69
6e
73
6f
6e
2c
20
43
6c
61
79
44
72
6f
75
67
68
74
2c
20
54
65
72
65
73
73
61
10
50
72
6b
65
79
2c
20
54
72
69
6e
69
64
61
64
11
43
61
73
65
74
74
65
2c
20
4c
79
6e
77
6f
6f
64
11
54
75
72
6e
75
69
73
74
2c
20
4a
65
6e
65
6c
6c
12
43
6f
6e
6e
69
6b
2c
20
4d
61
72
71
75
65
74
74
61
12
41
72
6e
73
70
67
65
72
2c
20
4a
6f
6e
65
6c
6c
65
10
4c
6f
77
72
65
2c
20
4d
61
74
68
69
6c
64
65
12
46
72
65
69
62
65
72
2c
20
42
65
72
65
6e
69
63
65
10
43
61
70
6c
65
74
74
2c
20
4d
69
65
73
68
61
11
44
65
62
61
72
74
6f
6c
6f
20
41
6e
64
72
65
65
11
4e
61
62
61
72
72
65
74
65
2c
4f
72
65
74
68
61
13
47
61
72
72
6f
75
74
74
65
2c
20
65
72
6d
61
69
6e
65
10
54
61
6b
65
75
63
68
69
2c
20
6f
73
68
75
61
11
57
61
6c
6c
62
72
6f
77
6e
2c
20
47
64
72
75
6e
12
50
61
72
61
74
6f
72
65
2c
20
53
74
65
68
61
6e
79
12
41
75
72
72
69
63
68
69
6f
2c
20
53
68
72
65
6c
79
15
4b
75
6e
73
74
6c
69
6e
67
65
72
2c
20
68
61
64
69
6a
61
68
13
43
61
73
74
61
6e
61
64
61
2c
42
72
69
67
69
74
74
65
11
42
65
72
72
65
74
74
61
2c
4e
61
74
61
6c
69
65
10
44
65
6c
61
6d
6f
72
61
2c
20
68
61
6e
64
69
10
54
6f
6d
62
6c
65
73
6f
6e
2c
20
4b
61
72
61
10
4b
6f
6f
73
6d
61
6e
2c
20
4b
72
69
73
74
6e
10
4d
6f
6e
74
61
79
65
73
2c
20
4d
65
6c
69
74
61
44
6f
75
67
61
6e
2c
20
46
69
6c
6f
6d
65
6e
61
10
4d
72
74
6f
72
65
6c
6c
2c
20
46
61
69
74
68
10
42
65
6c
63
68
6e
65
72
2c
20
41
68
6d
65
64
10
56
75
6c
67
61
6f
72
65
2c
20
4c
69
76
69
61
13
4d
63
67
6c
6f
6e
65
20
43
61
73
73
61
75
6e
64
72
61
12
53
74
72
69
63
6b
69
6e
67
2c
20
4d
79
72
74
6c
65
12
4e
61
74
68
61
6e
65
6c
2c
20
41
6c
65
69
73
68
61
10
4f
6e
69
73
69
63
2c
20
54
61
62
61
74
68
61
12
4b
61
65
73
74
6e
65
72
20
52
61
6e
64
6f
6c
70
68
11
53
74
61
6e
63
7a
79
6b
20
41
6e
6e
65
74
74
65
12
4c
69
74
63
68
66
6f
72
64
20
54
61
6d
6d
61
72
61
13
42
65
61
63
68
6c
65
72
2c
53
65
62
61
73
74
69
61
6e
10
42
61
6e
69
73
74
65
72
20
57
69
6e
74
65
72
11
45
73
62
65
6e
73
68
61
64
65
20
4d
69
6c
65
73
11
53
63
68
65
69
64
6c
65
72
2c
20
61
6c
65
6e
61
11
41
73
68
75
72
73
74
2c
20
4a
61
6e
65
74
74
65
10
53
61
77
68
69
6c
6c
2c
20
45
72
6e
65
74
6f
11
47
61
72
72
61
62
72
61
6e
74
2c
20
4f
6c
69
61
10
46
72
65
65
74
61
67
65
2c
20
4a
6f
61
6e
69
65
45
64
64
6c
65
6d
6f
6e
2c
20
4a
65
6e
6e
69
66
66
65
12
50
6f
63
6b
65
74
74
65
2c
20
44
61
6e
69
65
6c
6c
13
43
61
6c
6c
61
62
72
61
73
73
2c
20
43
61
6c
69
73
61
11
53
6f
6e
73
74
65
6e
67
2c
20
4a
75
6c
69
61
6e
10
4a
75
61
69
72
65
2c
20
47
69
6f
76
61
6e
6e
69
12
61
77
68
69
6e
6e
65
79
2c
20
4e
61
74
61
63
68
61
11
75
6b
61
76
69
6e
61
2c
20
4d
6f
68
61
6d
65
64
12
43
72
61
62
61
73
7a
63
7a
2c
20
4d
65
72
6c
69
6e
12
53
65
74
73
69
6e
67
65
72
2c
20
57
61
6c
74
65
72
12
52
74
75
6e
6e
6f
2c
20
41
6c
65
78
61
6e
64
72
61
13
4c
72
6f
63
68
65
6c
6c
65
2c
20
4b
61
6e
64
61
63
65
10
75
65
62
62
65
72
73
2c
20
44
61
6d
69
6f
6e
12
54
72
6d
61
72
63
6f
2c
20
46
72
61
6e
6b
6c
69
6e
15
4d
61
6b
73
74
75
74
69
73
2c
20
5a
61
63
68
61
72
69
61
68
56
61
6e
64
65
72
62
69
6c
74
2c
20
53
61
6c
6c
65
79
53
74
72
69
70
6c
69
6e
67
2c
20
44
61
72
72
79
6c
10
75
72
6b
6c
65
79
2c
20
48
61
72
72
69
65
74
10
44
72
65
73
73
6c
65
72
2c
20
52
6f
79
61
6c
10
42
61
63
68
65
6c
2c
20
43
68
65
73
74
65
72
11
53
68
72
65
66
6c
72
2c
20
4b
72
69
73
74
65
6e
10
52
6f
6d
61
6e
69
63
2c
20
43
61
72
6c
65
79
10
50
6f
69
6e
74
65
72
2c
20
65
73
68
61
77
6e
11
43
75
64
64
65
62
61
63
6b
2c
20
72
6d
69
64
61
10
44
65
6c
61
6e
75
65
7a
2c
20
4d
61
73
69
65
10
53
61
70
61
72
64
61
6e
69
73
2c
20
4c
69
65
11
53
74
65
69
6e
6b
72
61
75
73
2c
20
43
6c
65
74
10
46
72
61
6e
6b
6c
79
6e
2c
20
44
6f
72
73
65
79
14
69
74
7a
67
69
62
62
6f
6e
73
2c
20
4e
61
74
61
6c
69
11
4d
61
64
64
61
6c
6f
6e
69
2c
20
4a
6f
65
73
70
68
56
61
6e
64
65
72
69
65
74
2c
20
4d
65
72
79
6c
12
41
74
69
67
6e
61
6e
69
2c
20
41
75
72
65
6c
69
6f
10
41
68
64
6f
77
6e
2c
20
52
6f
73
61
72
69
61
10
44
6f
6d
6e
67
6f
73
2c
20
43
61
72
6c
69
65
12
53
63
61
74
74
6e
2c
20
57
69
6e
6e
69
66
72
65
64
11
4d
75
6c
76
61
69
6c
6c
2c
20
45
6c
65
61
73
65
12
50
61
6c
6d
69
65
69
2c
20
4d
61
72
79
72
6f
73
65
10
50
61
72
6c
6f
72
20
56
69
6e
63
65
6e
7a
6f
10
42
6f
64
61
6d
65
72
2c
53
68
65
6c
6c
69
65
14
53
68
65
70
61
72
64
73
6f
6e
20
43
68
61
6e
65
6c
6c
65
10
53
70
65
69
6c
6d
61
6e
20
4d
6f
69
73
65
73
11
42
75
6d
67
61
72
6e
65
72
2c
41
6e
67
69
6c
61
10
4b
6e
6f
62
6c
61
75
63
68
2c
20
6e
64
69
61
12
4d
69
6c
64
65
6e
68
61
6c
6c
2c
20
41
62
72
65
79
10
4b
6f
68
6c
6d
65
79
65
72
2c
20
53
65
6d
61
10
55
6c
73
68
61
66
65
72
2c
20
53
68
61
79
6e
10
56
61
6e
64
65
72
62
75
72
67
2c
20
54
6f
64
64
11
65
6e
64
65
72
6f
73
2c
20
46
72
61
6e
63
65
73
12
42
69
6c
6f
77
73
6b
69
2c
20
4c
75
76
65
6e
69
61
12
4d
7a
7a
69
6c
6c
6f
2c
20
4c
69
6c
6c
69
61
6e
61
10
44
72
72
69
65
73
2c
20
4d
61
72
67
65
72
74
10
4d
61
6c
6f
6e
61
6c
64
6f
2c
20
4e
6f
61
68
11
4d
65
72
73
63
6d
61
6e
2c
20
52
75
70
65
72
74
11
53
74
72
6f
70
65
2c
20
52
65
62
62
65
63
63
61
10
5a
79
77
69
65
63
2c
45
6c
65
61
6e
6f
72
65
11
4d
63
64
6f
6e
61
67
68
2c
43
65
63
69
6c
69
61
11
50
69
67
6e
61
74
65
6c
6c
6f
20
5a
65
74
74
61
12
50
61
6e
74
6f
6e
69
2c
20
4a
6f
65
70
68
69
6e
65
12
47
61
61
72
73
6c
61
6e
64
2c
20
61
6c
76
69
6e
61
11
4d
65
72
69
6e
67
6f
6c
6f
2c
20
68
61
79
6e
65
10
53
6f
74
61
6b
2c
20
4e
61
74
69
76
64
61
64
10
57
61
6c
74
7a
65
72
2c
20
53
74
65
70
68
6e
13
46
65
73
74
65
72
6d
61
6e
2c
20
46
72
65
64
65
69
63
10
50
72
69
76
65
74
74
65
2c
20
48
6f
72
61
63
10
47
65
72
62
65
72
69
63
68
2c
20
44
61
69
6e
65
10
65
63
6b
65
6c
2c
20
4b
61
74
68
6c
65
65
6e
11
42
65
6e
69
6e
67
2c
20
41
6e
67
65
6c
69
6e
65
13
4c
79
63
77
61
6c
61
2c
20
56
61
6c
65
6e
74
69
6e
65
13
43
61
64
61
72
65
6c
6c
61
2c
20
4c
61
75
72
65
65
6e
10
4b
75
6e
69
63
6b
2c
20
4e
61
74
61
6c
79
61
11
47
69
6c
61
72
74
69
6e
2c
20
41
72
6d
69
64
61
12
53
74
65
6d
6c
65
2c
20
43
61
74
68
65
72
69
6e
61
13
53
7a
63
7a
70
61
6e
65
6b
2c
20
51
75
65
6e
74
69
6e
11
4d
61
72
68
61
6e
64
2c
20
4c
61
74
6f
79
69
61
15
4b
68
61
6d
79
75
6f
72
61
75
6f
6e
2c
20
4c
79
6e
65
6c
6c
10
4d
62
69
6e
2c
20
4c
61
77
65
72
65
6e
63
65
11
56
65
72
69
6c
6c
69
2c
20
50
61
74
72
69
63
65
10
43
6f
75
74
68
2c
20
43
61
74
61
72
69
6e
61
11
56
61
6e
64
61
6c
65
6e
2c
20
44
65
6c
73
69
65
10
4d
61
72
74
6f
72
61
6f
2c
20
53
68
69
72
6c
11
4c
69
6d
62
75
72
67
2c
20
65
69
67
68
61
6e
6e
12
47
6c
6f
76
69
6e
73
6b
79
2c
54
65
72
65
61
73
61
10
4c
69
6f
6e
65
74
74
69
2c
20
65
6c
6f
69
73
11
48
75
74
63
68
65
6e
2c
20
50
61
75
65
74
74
65
13
50
72
6f
65
73
63
68
65
72
2c
20
43
61
6f
6c
79
6e
65
11
50
65
6c
6c
65
72
69
74
6f
2c
20
41
6c
65
6e
61
11
4d
69
6e
6e
61
74
65
65
2c
20
57
69
6c
6f
72
64
10
52
61
73
6d
75
73
2c
20
52
68
69
61
6e
6e
6e
10
4c
61
74
63
68
61
77
2c
20
41
6c
66
6f
6e
73
6f
4d
6f
72
73
62
61
63
68
2c
20
46
72
61
6e
63
69
73
63
11
48
61
79
73
6c
69
70
2c
20
50
72
75
64
65
6e
63
65
45
6d
73
68
6f
66
66
2c
20
47
69
6c
62
65
72
74
10
54
66
61
6e
65
6c
6c
69
2c
20
4e
61
6f
6d
61
11
42
72
69
6b
73
6f
6e
2c
20
43
68
65
72
69
73
65
12
4d
63
67
75
61
67
6c
65
2c
20
54
61
6d
6d
61
72
61
10
44
6f
6e
68
65
2c
20
49
76
65
6c
69
73
73
65
10
47
6f
6d
7a
61
6c
73
2c
20
41
64
65
6c
69
61
15
54
69
65
66
65
6e
62
72
6e
2c
20
4b
61
74
68
61
72
69
6e
65
11
4b
72
61
77
63
75
6b
2c
20
45
61
72
6c
65
6e
65
14
4c
61
75
64
65
6e
6c
61
67
65
72
2c
20
4a
65
6e
6e
69
65
11
44
65
6c
61
6f
72
72
65
2c
20
53
65
6c
69
6e
61
11
4c
69
6e
67
62
63
6b
2c
20
41
75
67
75
73
74
61
10
44
65
6c
65
70
70
2c
20
41
64
65
6c
69
6e
65
14
4c
6f
6e
67
73
74
61
66
2c
20
5a
61
63
68
61
72
69
61
68
12
4f
72
61
6e
73
6b
2c
20
43
61
73
73
61
6e
64
72
61
12
50
61
6e
7a
61
72
6e
6f
2c
20
4c
65
65
61
6e
6e
65
10
4d
75
73
61
63
63
69
6f
2c
20
4c
61
75
6e
61
10
50
65
72
6f
75
74
6b
61
20
4c
61
76
6f
6e
61
11
43
72
65
73
63
65
6e
7a
6f
2c
44
6f
72
65
6e
65
13
53
63
68
75
6c
65
6e
62
65
72
67
20
43
6c
61
72
69
73
11
4c
61
75
67
68
6c
69
6e
2c
20
68
65
72
6d
61
6e
11
44
65
76
6f
74
6f
2c
20
45
73
6d
72
61
6c
64
61
10
53
69
66
66
65
72
74
2c
20
43
68
61
6c
65
79
10
53
63
68
69
6c
73
6b
79
2c
20
4b
65
6e
64
6c
14
4d
65
67
69
6e
6e
69
73
2c
20
43
69
6e
64
65
72
6c
6c
61
10
4c
75
71
75
69
6e
2c
20
48
79
61
63
69
6e
68
11
41
6e
69
6d
61
73
68
61
75
6e
2c
20
45
6c
64
65
11
53
63
68
77
61
72
7a
65
2c
20
53
6f
6c
65
64
61
64
57
65
72
6e
65
63
6b
65
2c
20
42
61
72
61
62
61
72
61
4b
6f
70
70
65
6c
6d
61
6e
6e
2c
20
54
65
72
65
73
69
61
11
44
6f
6e
61
74
69
63
68
2c
20
45
61
72
6c
65
65
11
57
65
73
74
6d
61
72
6b
2c
20
41
6d
65
72
69
63
61
53
74
61
6c
6c
6f
6e
65
73
2c
20
53
68
65
72
61
11
45
72
65
72
61
2c
20
53
68
61
6e
74
65
6c
6c
65
10
4d
61
67
75
69
72
65
2c
20
4a
65
73
69
63
61
10
42
72
6f
75
61
72
64
2c
20
4a
75
6e
69
74
61
12
50
68
69
6d
73
6f
74
68
61
6d
2c
20
4d
61
64
67
65
13
46
61
72
67
75
68
72
73
6f
6e
2c
20
43
61
6e
64
72
61
10
4c
65
6f
70
6f
64
2c
20
44
65
6c
69
6c
61
68
10
46
65
72
6c
65
6e
64
2c
20
4a
61
6e
6e
65
74
11
41
6c
76
61
72
61
64
6f
2c
42
6c
61
6e
63
68
65
11
42
61
65
72
69
6e
67
65
72
2c
45
64
79
74
68
65
12
42
65
72
6e
73
74
6f
63
6b
2c
20
61
72
6c
74
6f
6e
11
52
75
6d
70
68
6f
6c
2c
20
4a
6f
70
68
69
6e
65
13
53
74
6f
6c
65
62
61
72
67
65
72
2c
4d
61
72
69
6c
75
12
48
61
69
6e
6c
65
79
2c
20
41
6e
65
6d
61
72
69
65
11
4b
65
6d
70
74
65
72
2c
20
43
6c
72
69
73
73
61
11
42
72
6f
63
6b
68
61
75
73
2c
20
48
73
73
61
6e
14
56
69
6c
6c
61
66
75
65
72
74
65
2c
20
65
6e
69
66
65
72
10
57
65
69
73
6d
61
6e
74
6c
65
2c
4c
6f
72
79
13
52
65
67
65
68
72
2c
20
43
68
72
69
73
6f
70
68
65
72
10
4e
69
63
6b
6f
6c
65
79
2c
20
54
68
6d
61
73
10
44
65
73
61
75
74
65
6c
6c
65
2c
20
52
79
6e
11
50
75
6f
74
69
6e
65
6e
2c
20
53
68
61
72
69
63
12
4e
75
6e
61
6d
61
6b
65
72
2c
20
4a
61
6e
65
73
73
10
42
6c
61
75
73
65
72
2c
20
44
65
62
72
6f
61
68
12
61
72
6b
6f
77
73
6b
69
2c
20
52
6f
6d
61
69
6e
65
12
72
69
67
68
61
6d
2c
20
4b
69
6d
62
65
72
6c
65
65
10
65
6c
66
69
65
72
72
6f
2c
20
4d
61
72
6e
61
12
43
61
73
65
6e
73
2c
20
46
72
61
6e
63
65
73
63
61
10
43
72
6d
62
6c
79
2c
20
4c
79
6e
65
74
74
65
10
48
6f
72
6e
61
6b
2c
20
4c
6f
75
65
6c
6c
61
11
4d
65
6c
67
61
61
64
2c
20
4d
69
6e
65
72
76
61
10
48
69
73
73
61
6d
2c
4b
72
69
73
74
69
6e
65
12
43
6f
76
65
6c
6c
6f
2c
20
65
6e
72
69
65
74
74
61
13
50
6f
64
67
75
72
73
6b
69
20
49
76
65
6c
69
73
73
65
14
47
6f
72
6e
69
6b
69
65
69
63
7a
2c
20
4c
61
76
65
72
6e
11
50
65
72
65
6c
6d
6e
2c
20
44
65
77
61
79
6e
65
11
42
65
6e
69
71
75
65
2c
20
48
61
79
77
6f
6f
64
10
50
61
77
6c
6f
77
73
6b
2c
20
4c
65
78
69
65
11
52
65
64
65
6e
7a
2c
20
43
6c
76
65
6c
61
6e
64
10
44
6f
68
6d
61
6e
2c
20
45
73
74
65
6c
6c
61
12
47
65
74
74
65
6e
73
2c
20
48
61
72
72
65
74
74
65
10
59
61
72
72
69
74
6f
2c
20
44
6f
6c
6f
65
73
11
46
72
61
6e
63
68
65
72
2c
20
52
6f
73
61
6c
61
10
53
68
6f
72
74
69
6e
6f
2c
20
4e
65
76
61
64
61
52
69
6e
65
68
61
72
74
2c
20
57
69
6c
6c
69
61
6e
10
65
6c
6d
61
6e
2c
20
53
68
61
6c
6f
6e
64
61
11
4c
61
68
6f
72
6e
65
2c
20
59
61
68
61
69
72
61
11
44
72
75
77
72
69
67
68
74
2c
20
44
65
76
69
6e
11
44
65
63
61
72
69
6f
2c
20
52
6f
6c
61
6e
64
6f
12
4d
63
6b
6c
76
65
6e
2c
20
4d
65
6c
69
73
73
69
61
10
44
69
64
6f
6e
74
6f
2c
20
53
68
69
7a
75
65
10
41
72
68
61
72
74
2c
4b
61
74
68
61
72
79
6e
14
47
72
61
6e
64
69
6e
65
74
69
2c
20
44
61
72
6c
65
6e
61
10
53
77
61
66
66
6f
72
2c
20
56
69
76
69
61
6e
12
4c
69
76
65
72
70
6f
6f
6c
20
47
72
61
7a
79
6e
61
10
43
6f
6e
74
72
65
72
65
73
20
45
6c
69
7a
61
13
42
6f
6e
61
64
6f
6e
6e
61
2c
20
65
61
72
6c
65
6e
65
10
42
61
6e
67
68
61
72
74
2c
20
61
72
6c
61
6e
10
47
75
6c
61
74
69
2c
20
4d
61
72
69
6e
6e
65
10
42
72
69
74
74
73
61
6e
2c
20
50
61
74
74
65
10
53
70
65
6e
64
65
72
2c
20
4c
65
65
61
6e
6e
65
42
61
79
68
6f
6e
61
6e
2c
20
42
65
6e
6e
69
65
11
46
6e
75
63
61
6e
65
2c
20
53
68
61
77
61
6e
61
10
56
69
6b
75
73
2c
20
4e
69
63
6f
6c
61
73
61
10
4b
61
73
73
6c
2c
20
53
68
61
71
75
61
6e
61
14
58
61
69
6d
6f
75
67
6b
68
6f
75
6e
2c
20
4a
65
73
75
73
11
44
79
73
69
67
65
72
2c
20
52
65
67
65
6e
69
61
12
46
6c
61
6e
65
61
6e
2c
20
56
69
76
69
65
6e
6e
65
10
47
6f
72
6d
6c
79
2c
20
52
61
63
68
65
6c
65
10
47
72
65
66
72
61
74
2c
20
4a
75
64
73
6f
6e
11
4c
61
6e
75
6d
2c
20
4d
61
67
75
65
72
69
74
65
10
4d
61
7a
7a
61
72
69
6e
6f
2c
4a
75
6c
65
65
10
41
70
61
6e
61
2c
20
4d
61
72
67
61
65
74
61
10
46
65
65
68
65
72
79
2c
20
52
6f
73
65
6c
61
10
4c
61
75
74
69
65
72
69
2c
20
54
61
75
6e
79
61
55
6e
64
65
72
64
75
65
2c
20
43
6c
65
6d
65
6e
74
65
42
75
72
74
63
68
2c
20
54
65
6e
6e
69
6c
6c
65
13
41
65
6a
61
6e
64
72
65
7a
2c
20
52
6f
73
65
6c
69
61
10
69
78
62
79
2c
20
4d
61
72
71
75
65
74
74
61
13
4c
61
72
69
64
73
65
6e
2c
20
4b
61
74
68
72
69
6e
65
10
50
69
64
6d
6f
72
65
2c
20
4a
6f
72
64
61
6e
12
53
65
79
65
72
74
2c
20
50
68
69
6c
6f
6d
65
6e
61
10
52
65
69
68
6f
6c
64
2c
20
44
6f
72
63
61
73
14
53
65
76
65
72
73
6f
6e
2c
20
4a
6f
73
65
70
68
69
6e
65
10
53
61
73
6c
61
2c
20
43
6f
6c
6c
65
74
74
65
14
42
6f
6e
6e
69
69
65
6c
64
2c
20
47
72
65
67
6f
72
69
6f
10
44
65
76
6c
69
63
65
2c
20
44
61
72
72
65
6c
11
56
6f
67
65
6c
61
6e
67
2c
20
47
65
6e
6e
69
65
11
48
6f
72
6e
62
61
6b
2c
20
4c
75
63
69
6e
64
61
12
57
61
73
73
69
6e
67
72
2c
20
43
6c
61
72
69
74
61
11
41
6c
65
6a
61
6e
64
65
7a
2c
20
45
6d
65
6c
79
10
50
68
69
6c
6d
6f
72
65
20
44
65
6c
6d
61
72
10
42
61
74
65
73
6f
6c
65
2c
20
61
6e
69
74
61
12
44
65
6c
75
69
73
65
2c
20
4d
69
63
65
6c
69
6e
65
12
41
6c
73
74
6f
74
74
2c
20
44
65
6d
74
72
69
75
73
13
53
63
68
6c
6f
74
74
65
72
2c
20
53
65
66
61
6e
69
61
11
47
75
61
72
69
67
6c
69
6f
2c
20
69
65
64
72
65
11
44
69
6d
69
74
72
69
61
64
69
73
2c
47
65
6e
65
10
4d
61
72
65
6e
74
65
73
2c
20
4a
6f
72
61
6e
11
4d
75
73
63
61
74
6f
2c
20
56
61
6e
6e
65
73
61
11
4f
75
65
6c
6c
65
74
74
65
2c
20
53
68
61
6e
6e
11
42
65
61
72
64
6f
6e
2c
20
4d
6f
68
61
6d
6d
61
64
54
68
69
65
62
65
61
75
6c
74
2c
20
4b
61
74
68
69
65
42
69
6e
64
65
72
75
70
2c
20
52
6f
77
65
6e
61
10
50
69
6e
6e
65
79
2c
20
4c
75
63
69
6c
6c
61
11
53
63
61
70
61
74
69
63
63
69
2c
20
4d
69
6e
68
10
53
70
79
72
6b
6f
73
2c
20
59
61
6e
69
72
61
14
44
6f
62
62
65
72
74
65
69
6e
2c
20
4c
65
74
69
73
68
61
10
4b
65
6e
64
6c
6c
2c
20
46
72
65
64
64
69
65
10
53
68
69
6d
61
6f
61
2c
20
42
65
75
6c
61
68
10
52
6f
75
7a
65
72
2c
20
65
72
6d
69
6e
69
61
10
4d
69
73
69
65
77
69
63
7a
2c
52
6f
73
69
61
10
42
72
6f
73
6e
61
6e
2c
20
4d
61
6c
6e
64
61
12
48
6f
6f
74
65
6e
2c
20
41
6c
65
73
73
61
64
72
61
12
4d
63
63
72
61
76
79
2c
20
4b
69
6d
62
65
6c
65
65
11
53
68
69
6d
61
62
75
6b
75
72
6f
2c
20
4b
72
61
10
48
61
6d
6d
69
74
74
2c
20
41
6c
66
6f
6e
73
14
4e
69
6b
6f
63
65
76
69
63
2c
20
4d
69
63
68
65
6c
6e
65
10
4e
69
68
65
75
2c
20
45
73
70
65
72
61
6e
7a
11
45
73
70
65
6c
61
6e
64
2c
20
43
68
72
69
73
74
79
4d
65
74
6f
74
74
2c
20
43
61
72
6d
65
6c
69
6e
61
12
61
72
65
6e
74
65
61
75
2c
20
52
6f
73
61
6c
69
61
10
69
74
74
72
75
70
2c
20
43
79
6e
74
68
69
61
11
46
6f
74
67
61
6e
67
2c
20
4b
61
74
68
72
69
6e
10
4d
6f
72
69
73
6f
6e
2c
20
41
6c
61
69
6e
65
11
54
61
6c
6c
65
74
2c
20
54
65
72
72
65
6e
63
65
13
43
75
6d
70
73
74
6e
2c
20
56
61
6c
65
6e
74
69
6e
61
10
4f
75
69
6c
6c
74
74
65
2c
20
41
6c
69
7a
61
11
4a
65
72
69
64
6f
2c
47
75
69
6c
6c
65
72
6d
6f
12
48
65
6c
64
65
72
6d
61
2c
20
4d
65
6c
69
6e
64
61
12
41
72
67
65
6e
62
72
69
68
74
2c
20
54
69
61
6e
61
11
43
68
61
75
6e
63
65
79
20
46
6c
6f
72
65
6e
65
11
54
75
72
6b
75
73
2c
20
43
61
75
64
65
74
74
65
11
54
72
61
75
74
77
65
69
6e
2c
44
61
68
6c
69
61
11
42
61
73
6f
72
65
2c
20
46
72
61
63
69
73
63
61
11
42
6f
75
74
68
69
6c
6c
65
74
74
65
20
4c
79
6e
13
4b
69
72
63
68
67
65
73
73
6e
65
72
2c
4b
61
72
6f
6c
10
57
6f
72
74
6c
65
79
2c
20
4b
61
6c
69
67
68
11
43
6f
6c
6c
61
7a
6f
2c
20
4c
61
75
72
65
74
61
12
42
6f
62
62
69
74
74
2c
20
4d
61
72
63
68
65
6c
65
11
43
6f
6c
61
6e
67
65
6c
6f
2c
20
54
6f
6e
69
61
11
48
61
6e
6e
69
67
61
6e
2c
20
43
68
65
6c
73
65
12
53
68
61
6b
65
73
70
65
61
72
65
2c
20
50
61
74
74
10
41
67
75
69
6c
6c
61
72
2c
20
53
68
65
6c
6c
79
12
69
74
74
6c
65
68
61
6c
65
2c
20
4c
6f
72
69
6e
61
12
69
6d
61
6c
61
6e
74
61
2c
20
4c
61
74
69
73
68
61
10
65
65
77
61
6c
64
2c
20
4d
69
63
68
65
6c
6c
11
46
69
68
62
65
63
6b
2c
20
4e
61
74
6f
73
68
61
11
47
61
62
69
65
6c
2c
20
53
74
65
66
61
6e
69
65
10
53
61
65
70
61
6e
2c
20
4a
65
61
6e
65
6e
65
13
4c
69
6e
64
65
6e
69
74
7a
2c
20
43
6f
72
61
7a
6f
6e
13
57
6f
6a
6e
6f
73
6b
69
2c
20
4d
61
64
61
6c
65
6e
65
13
52
65
6e
74
63
68
6c
65
72
2c
20
43
6c
61
73
73
69
65
11
48
61
69
6c
65
74
74
2c
20
4c
61
74
61
6e
79
61
12
56
61
72
72
6e
65
2c
20
4d
61
72
63
68
65
6c
6c
65
11
43
61
70
65
61
72
74
2c
20
44
6f
6e
65
6c
6c
61
11
45
6c
73
68
61
74
2c
20
45
7a
65
71
75
69
65
6c
11
59
6f
6e
65
6d
75
61
2c
20
4d
61
74
74
68
65
77
12
47
65
6e
74
65
6c
69
2c
20
43
68
65
72
65
6c
6c
65
12
44
6f
6d
61
67
61
6c
6b
69
2c
20
4e
6f
72
6d
61
6e
10
5a
61
6e
69
62
6f
6e
2c
20
54
61
75
6e
79
61
10
44
77
61
69
6c
65
65
62
65
20
4b
65
6c
6c
79
10
53
68
61
72
70
6c
65
73
2c
20
4a
73
65
70
68
11
48
75
6d
65
72
69
63
6b
2c
20
4d
65
72
69
6c
6c
10
42
61
72
72
69
65
6e
74
65
7a
2c
20
4d
6f
6e
13
53
75
6d
6d
65
72
68
61
79
73
2c
20
42
65
72
6e
72
64
10
42
72
61
6e
64
69
2c
20
50
61
75
6c
65
74
74
10
43
61
70
65
6c
6c
6f
2c
20
4c
61
73
68
61
77
6e
11
69
6e
65
68
61
72
74
2c
20
4b
72
79
73
74
61
6c
10
44
76
61
6c
65
72
69
6f
2c
20
53
69
62
79
6c
11
4d
65
6c
73
6b
69
2c
20
53
68
61
6e
74
65
6c
6c
11
48
65
6e
6d
6e
2c
20
45
73
6d
65
72
61
6c
64
61
10
53
61
6e
64
61
65
72
2c
20
45
75
67
65
6e
65
11
4f
6c
64
72
69
64
67
2c
20
43
61
72
6f
6c
65
65
10
54
68
75
72
6e
65
73
73
20
41
72
6e
6f
6c
64
10
44
69
73
74
69
6c
6f
2c
20
52
63
68
61
72
64
10
42
6f
68
6d
65
72
2c
20
4a
6f
68
6e
74
74
65
11
44
61
6e
6e
75
6e
7a
69
6f
2c
20
54
68
65
6c
61
10
53
61
6c
76
69
74
74
69
2c
20
53
61
6e
6f
72
11
4d
6f
72
61
74
61
79
61
2c
20
4d
79
72
74
69
63
65
42
6c
69
6e
64
74
2c
20
57
69
6c
6c
65
74
74
61
11
4e
73
68
69
6b
61
77
61
2c
20
41
64
6f
6c
66
6f
10
53
6f
69
64
61
79
2c
20
45
72
6d
69
6e
69
61
10
54
61
6c
65
69
63
6f
2c
20
59
61
6e
69
72
61
11
52
61
66
61
69
6c
20
4a
61
63
6b
65
6c
69
6e
65
10
42
72
6f
67
6c
69
6f
20
44
65
72
72
69
63
6b
11
43
61
73
68
65
6e
2c
20
4d
63
6b
65
6e
7a
69
65
14
47
75
69
6c
6c
61
75
6d
65
2c
4d
69
67
75
65
6c
69
6e
61
10
43
61
74
6c
65
64
67
65
20
48
69
72
6f
6b
6f
12
57
69
6c
74
62
65
72
67
65
72
20
4f
6c
65
76
69
61
10
4d
75
6e
63
69
6c
2c
20
43
68
72
6c
65
6e
61
11
4c
61
70
70
69
6e
67
61
2c
20
43
61
64
69
64
61
12
43
68
72
69
73
74
69
6e
65
2c
20
52
61
65
69
67
68
10
48
61
6e
67
65
72
2c
20
43
61
72
6c
6f
74
61
13
41
6c
64
72
69
64
67
65
2c
20
4d
61
72
63
65
6c
75
73
10
56
69
6f
6c
65
74
74
2c
20
53
68
65
6c
74
6e
11
57
6f
6e
6e
61
63
6f
74
74
2c
20
42
61
72
62
61
10
4d
69
6c
6c
69
73
6f
72
2c
20
4d
6f
6e
72
6f
65
11
6f
62
61
75
67
68
2c
20
43
61
72
6d
65
6c
6c
61
11
53
6c
6f
6e
69
6b
61
2c
20
44
65
61
6e
64
72
65
10
50
65
69
6c
6c
6f
2c
20
43
61
72
6f
79
6c
6e
12
50
69
64
67
6f
6e
2c
20
53
74
65
70
68
61
6e
69
65
11
50
6c
75
76
69
73
65
2c
20
4c
79
6e
64
73
61
79
11
57
61
6c
6c
61
64
65
72
2c
20
4c
61
6d
6f
6e
74
12
4d
69
6c
61
6e
69
20
47
65
6f
72
67
65
61
6e
6e
61
11
43
6f
70
73
74
65
64
2c
20
44
69
65
72
64
72
65
11
41
75
65
72
62
61
63
2c
20
57
68
69
74
6c
65
79
10
47
61
67
6c
69
6f
6e
65
20
4e
6f
72
6d
61
6e
12
4b
6f
72
64
73
6d
65
69
65
72
20
45
69
6c
65
65
6e
10
4d
75
73
6b
6f
70
66
2c
20
48
6c
61
72
69
6f
13
52
69
6e
67
77
6f
6f
64
2c
20
50
72
73
63
69
6c
6c
61
11
4d
61
74
75
73
7a
61
6b
2c
20
44
6e
69
73
68
61
11
42
72
65
69
64
65
6e
74
68
61
6c
2c
4c
69
6e
68
10
41
72
6e
65
79
2c
20
4a
61
63
71
75
6c
6e
65
10
42
72
69
73
62
61
6e
2c
20
4c
61
6e
65
74
74
12
53
63
68
65
69
64
65
72
65
72
2c
20
45
73
74
65
6c
10
52
6f
73
65
6d
6f
72
65
2c
20
4c
6f
72
65
65
6e
10
61
72
6e
65
64
6f
65
2c
20
45
69
6c
65
6e
65
10
48
65
65
72
69
6e
2c
20
43
68
61
6e
74
61
6c
14
48
65
6c
6c
6e
62
72
61
6e
64
2c
20
46
6c
6f
72
69
64
61
10
43
61
6d
61
72
61
6e
6f
2c
20
43
61
72
65
6e
11
41
64
6a
75
61
6e
74
2c
20
52
61
6c
65
69
67
68
11
50
69
63
6b
6c
73
2c
20
4a
65
72
65
6d
69
61
68
10
4c
69
6d
61
72
64
2c
20
54
61
6d
61
74
68
61
10
53
61
6c
61
6d
6f
6e
2c
4d
69
6c
69
73
73
61
13
4d
63
63
75
69
73
74
6f
6e
2c
4c
61
75
72
65
6e
63
65
11
4d
69
6e
61
72
63
69
6b
2c
43
61
6e
64
61
63
65
12
43
6f
72
6e
66
6f
72
74
68
2c
52
6f
62
65
72
74
61
11
42
65
72
67
6d
65
69
65
72
2c
44
65
72
69
63
6b
11
47
61
6d
62
61
69
61
6e
69
2c
20
65
74
74
79
65
11
4d
61
72
73
65
67
6c
69
61
2c
20
4d
72
74
69
6e
14
53
63
68
72
65
63
6f
6e
67
6f
73
74
2c
42
65
6e
74
6f
6e
10
4b
72
65
69
74
7a
2c
20
52
61
73
65
65
64
61
10
42
72
69
73
74
6c
65
2c
20
43
68
61
6e
61
79
11
44
69
6d
61
6e
63
68
65
2c
20
52
6f
64
72
69
6f
10
4b
61
6c
62
65
72
67
2c
20
42
6c
61
6e
63
68
65
42
65
74
61
6e
63
65
73
2c
20
41
6c
6c
69
73
6f
6e
11
72
69
6c
6c
68
61
72
74
2c
20
41
6e
67
6c
65
61
11
53
63
6b
69
6e
67
65
72
2c
20
57
61
72
72
65
6e
13
57
65
72
6d
61
6e
6e
2c
20
41
6c
65
78
61
6e
64
65
72
12
43
69
61
70
70
6f
6e
65
2c
20
4a
65
6e
65
74
74
65
11
44
6e
6e
65
63
6b
65
72
2c
20
43
68
69
65
6b
6f
10
4d
61
6b
75
6d
2c
20
46
61
75
73
74
69
6e
6f
11
42
61
72
72
6e
65
61
75
2c
20
41
72
65
74
68
61
10
50
69
63
63
69
6e
69
2c
20
4c
6f
75
72
69
65
12
57
61
6e
64
65
72
73
65
2c
20
41
6e
74
68
6f
6e
79
10
45
6c
6c
65
67
6f
6f
2c
20
44
65
65
64
72
61
11
47
69
72
61
72
64
65
61
75
20
4e
69
63
68
6f
6c
10
4f
68
6f
74
6e
69
63
6b
79
2c
4e
61
69
64
61
10
44
61
74
77
79
6c
65
72
2c
20
4d
61
69
73
61
13
52
6f
75
6d
65
6c
69
6f
74
69
73
2c
20
44
6c
6c
69
65
11
53
65
69
67
66
72
69
65
64
2c
20
59
61
6d
69
6e
10
4d
6f
6e
61
6c
64
69
2c
20
4d
61
72
63
65
61
10
4d
65
69
73
6e
65
72
2c
20
47
6c
65
6e
6e
69
73
53
63
61
63
63
69
61
2c
20
43
72
69
73
74
69
65
11
4b
74
74
6c
6f
77
73
6b
69
2c
20
43
61
74
68
79
12
59
61
68
69
6e
73
6b
69
2c
20
57
69
6c
6c
61
72
64
11
4d
63
61
75
67
68
6c
69
6e
2c
20
4b
72
61
69
67
11
50
61
67
6e
69
6e
69
2c
20
43
68
72
69
73
74
79
10
4c
65
66
66
65
72
2c
20
4e
61
74
61
63
68
61
10
52
6f
75
6e
6b
6c
73
2c
20
4d
61
78
69
6e
65
11
43
68
61
70
6d
61
6e
2c
44
6f
6d
69
6e
69
63
61
12
53
75
74
74
69
65
2c
20
41
74
6f
69
6e
65
74
74
65
16
42
72
6f
63
6b
65
6c
6d
65
65
72
2c
20
56
69
6e
63
65
6e
7a
61
10
45
72
6c
61
6e
65
72
2c
20
53
69
6c
76
69
61
11
43
68
61
73
74
69
6e
2c
20
4d
61
6c
69
73
73
61
11
4d
61
63
61
72
61
65
67
20
48
61
79
77
6f
6f
64
13
54
73
75
6b
69
79
61
6d
61
20
43
61
72
6f
6c
79
6e
6e
12
50
65
6c
6c
65
67
72
69
6f
2c
20
4c
6f
6e
6e
69
65
13
53
68
72
69
6d
70
6c
69
2c
20
4c
61
73
68
75
6e
64
61
12
4b
6e
65
64
6c
65
72
20
47
75
61
64
61
6c
75
70
65
11
48
75
6c
74
62
65
72
2c
20
4f
62
64
75
6c
69
61
10
48
6f
70
70
69
6e
67
2c
48
65
72
62
65
72
74
10
4b
75
62
6f
75
73
68
65
6b
2c
56
61
6e
69
61
11
4d
75
72
66
69
6e
2c
20
4d
69
6c
6c
63
65
6e
74
10
41
72
6d
65
6e
64
61
72
69
7a
2c
20
56
6e
61
11
42
75
68
6c
65
72
2c
20
45
72
6e
65
73
74
69
61
10
54
75
72
6e
69
65
72
2c
20
47
65
72
61
72
64
6f
4c
6f
65
70
65
72
2c
20
48
65
72
73
63
68
65
6c
12
44
6c
6c
69
62
6f
76
69
2c
20
53
68
69
7a
75
6b
6f
11
42
68
72
6d
61
73
65
6c
2c
20
4d
69
63
6b
65
79
13
47
6f
64
74
6f
6f
74
68
2c
20
4b
72
69
73
74
69
6e
65
10
50
68
72
73
6f
6e
2c
20
4d
65
6c
61
6e
69
65
11
46
72
61
68
75
72
65
2c
20
43
61
72
6c
65
6e
61
12
5a
65
68
65
64
65
72
2c
20
4c
65
61
74
72
69
63
65
10
44
65
6c
75
63
68
69
2c
20
43
61
72
6d
65
6e
12
42
61
6c
64
61
73
61
72
65
2c
20
53
79
6c
76
69
61
10
4b
61
72
61
73
74
2c
20
53
68
65
72
72
6f
6e
10
4f
72
74
65
6e
7a
69
6f
20
45
69
6c
65
6e
65
10
42
6f
72
6b
6f
77
73
6b
69
2c
52
61
6e
64
61
10
53
63
68
6f
6d
65
72
2c
20
43
6f
6c
74
74
65
11
47
75
67
6c
69
6f
74
74
61
2c
20
41
6c
6c
65
6e
11
4b
6f
72
74
68
61
75
65
72
2c
20
54
79
72
65
6c
11
4d
6f
6e
74
65
61
67
75
64
6f
2c
20
4f
6c
69
76
10
52
6f
73
6d
61
72
69
6e
2c
20
4d
65
6c
6f
64
79
13
61
6d
6c
61
6b
68
61
6e
2c
20
43
68
72
69
73
74
69
61
50
65
72
69
6e
69
2c
20
4d
69
67
64
61
6c
69
61
10
44
64
7a
69
6e
73
6b
69
2c
20
54
72
61
63
79
10
53
75
6e
6d
61
6e
2c
20
4c
61
74
65
73
68
61
10
4d
6f
6e
74
69
72
6f
2c
20
53
61
6e
74
6f
73
11
4d
69
63
6b
6f
6c
69
6b
2c
20
53
75
6d
69
6b
6f
12
44
65
67
69
75
6c
69
6f
20
43
61
74
68
6c
65
65
6e
11
43
65
67
69
65
6c
73
6b
2c
20
4a
75
6c
65
6e
65
10
4d
61
63
6b
6f
77
69
61
6b
20
41
6c
69
74
61
10
42
61
72
74
6c
65
2c
20
4d
61
72
65
6c
6c
65
13
42
72
75
69
6e
67
74
6f
6e
2c
20
41
6e
65
6c
69
74
61
13
42
69
6c
6c
69
6e
73
6c
65
79
2c
20
61
6d
61
72
69
73
12
46
72
61
6e
63
69
65
73
2c
20
4e
63
68
6f
6c
6c
65
11
57
69
67
65
6c
73
77
6f
72
74
68
20
52
65
6e
65
12
44
72
75
6d
6d
6f
6e
64
73
2c
20
4a
63
69
6e
64
61
10
4e
6f
72
74
68
63
72
6f
73
73
2c
20
68
61
64
10
53
74
65
70
74
6f
65
2c
20
4b
61
74
68
72
6e
12
43
6f
72
64
6f
6e
65
2c
20
52
6f
73
61
6c
69
6e
61
11
43
61
6c
63
61
74
65
72
72
61
2c
20
52
6f
6e
6e
11
57
69
74
74
73
74
6f
63
6b
2c
20
4b
65
73
68
69
61
50
75
74
68
6f
66
66
2c
20
4e
61
74
68
61
6c
69
65
13
75
73
61
63
6b
65
72
2c
20
48
6f
72
74
65
6e
63
69
61
56
61
6e
6f
6c
69
6e
64
61
2c
20
47
6c
79
6e
69
73
11
72
61
6e
74
6c
61
6e
64
2c
20
56
65
72
64
69
65
12
41
73
74
69
6e
65
2c
20
42
72
69
74
74
61
6e
65
79
10
44
72
75
79
74
65
72
2c
20
54
72
69
73
74
61
10
4d
63
65
76
79
2c
20
43
61
6d
65
6c
6c
69
61
11
43
61
70
61
6c
6e
67
61
6e
2c
20
4b
65
69
6c
61
10
42
75
73
61
6c
61
63
68
69
2c
20
54
6f
62
79
10
4d
6f
6c
73
61
6e
2c
20
75
63
72
65
63
69
61
12
41
63
71
75
61
76
69
76
61
2c
44
6f
72
6f
74
68
79
12
48
6f
72
6e
61
6e
64
65
7a
2c
45
75
73
65
62
69
61
11
47
75
6c
62
72
61
6e
73
6f
6e
20
52
6f
62
62
69
11
52
65
69
73
68
75
73
2c
