93
aa
0
8a
1b
4f
47
c0
93
aa
0
8a
1b
4f
47
c0
93
aa
8a
1b
4f
47
c0
93
aa
0
8a
1b
4f
47
c0
2a
0
28
42
37
30
33
41
34
32
37
32
44
39
36
34
42
32
43
30
35
38
39
43
39
32
37
33
31
38
34
37
37
36
43
39
46
35
32
36
45
55
73
65
72
2d
41
67
65
6e
74
3a
20
4d
6f
7a
69
6c
6c
2f
34
2e
30
20
28
63
6f
6d
70
61
74
69
62
6c
65
3b
20
53
49
45
20
35
2e
30
3b
20
57
69
6e
64
6f
77
73
20
4e
20
35
2e
30
29
2a
0
28
45
33
41
38
38
30
39
30
31
37
44
37
36
42
44
32
36
35
35
37
41
35
42
39
32
33
41
42
41
45
31
36
43
30
43
44
42
33
3e
55
73
65
72
2d
41
67
6e
74
3a
20
4d
6f
7a
69
6c
6c
61
2f
34
2e
30
20
28
63
6d
70
61
74
69
62
6c
65
3b
20
4d
53
49
45
20
35
2e
30
20
57
69
6e
64
6f
77
73
20
4e
54
20
35
2e
30
29
34
55
65
72
2d
41
67
65
6e
74
3a
20
4d
6f
7a
69
6c
6c
61
35
31
20
28
63
6f
6d
70
61
74
69
62
6c
65
3b
20
4d
53
49
20
38
2e
30
3b
20
57
69
6e
33
32
29
27
48
0
50
0
20
4f
0
70
0
65
0
6e
0
56
0
69
0
65
0
77
0
20
0
0
6d
0
6e
0
69
0
42
0
61
0
63
0
6b
32
4a
4f
49
20
23
74
65
73
74
31
20
7c
d
a
4a
4f
49
4e
20
23
74
73
74
32
20
7c
d
a
4a
4f
49
4e
20
23
74
65
73
74
33
28
6e
75
6c
6c
29
d
a
47
55
73
65
72
2d
41
67
65
6e
3a
20
4d
6f
7a
69
6c
6c
61
2f
35
2e
30
20
28
57
69
6e
6f
77
73
3b
20
55
3b
20
4d
53
49
45
20
39
2e
30
3b
20
69
6e
64
6f
77
73
20
4e
54
20
39
2e
30
3b
20
65
6e
2d
53
29
d
a
29
55
73
65
72
2d
41
67
65
6e
74
3a
20
4d
63
72
6f
73
6f
66
74
20
49
6e
74
65
72
6e
65
74
20
45
70
6c
6f
72
65
72
d
a
20
55
73
65
72
2d
41
67
65
6e
3a
20
55
70
64
61
74
65
73
20
64
6f
77
6e
6c
6f
61
64
72
d
a
20
93
aa
0
8a
1b
4f
47
c0
93
aa
0
8a
1b
4f
c0
93
aa
0
8a
1b
4f
47
c0
93
aa
0
8a
1b
4f
47
c0
2a
28
42
37
41
30
33
41
34
32
37
32
44
39
36
34
42
32
43
35
38
39
37
43
39
32
37
33
31
38
34
37
37
36
43
39
46
32
36
45
3e
55
73
65
72
2d
41
67
65
6e
74
3a
20
4d
6f
69
6c
6c
61
2f
34
2e
30
20
28
63
6f
6d
70
61
74
69
62
65
3b
20
4d
53
49
45
20
35
2e
30
3b
20
57
69
6e
64
6f
73
20
4e
54
20
35
2e
30
29
2a
0
28
45
33
41
38
38
30
30
31
37
44
44
37
36
42
44
32
36
35
35
37
41
35
42
39
33
41
42
32
41
45
31
36
43
30
43
44
42
33
3e
55
73
65
2d
41
67
65
6e
74
3a
20
4d
6f
7a
69
6c
6c
61
2f
34
2e
20
28
63
6f
6d
70
61
74
69
62
6c
65
3b
20
4d
53
49
45
35
2e
30
3b
20
57
69
6e
64
6f
77
73
20
4e
54
20
35
2e
29
34
55
73
65
72
2d
41
67
65
6e
74
3a
20
4d
6f
7a
69
6c
61
35
2e
31
20
28
63
6f
6d
70
61
74
69
62
6c
65
3b
4d
53
49
45
20
38
2e
30
3b
20
57
69
6e
33
32
29
27
48
50
0
20
0
4f
0
70
0
65
0
6e
0
56
0
69
0
65
0
0
20
0
4f
0
6d
0
6e
0
69
0
42
0
61
0
63
0
6b
4a
4f
49
4e
20
23
74
65
73
74
31
20
7c
d
a
4a
4f
49
20
23
74
65
73
74
32
20
7c
d
a
4a
4f
49
4e
20
23
74
73
74
33
20
28
6e
75
6c
6c
29
d
a
47
55
73
65
72
2d
67
65
6e
74
3a
20
4d
6f
7a
69
6c
6c
61
2f
35
2e
30
20
57
69
6e
64
6f
77
73
3b
20
55
3b
20
4d
53
49
45
20
39
30
3b
20
57
69
6e
64
6f
77
73
20
4e
54
20
39
2e
30
3b
65
6e
2d
55
53
29
d
a
29
55
73
65
72
2d
41
67
65
6e
3a
20
4d
69
63
72
6f
73
6f
66
74
20
49
6e
74
65
72
6e
74
20
45
78
70
6c
6f
72
65
72
d
a
20
55
73
65
72
2d
67
65
6e
74
3a
20
55
70
64
61
74
65
73
20
64
6f
77
6e
6f
61
64
65
72
d
a
20
93
aa
0
8a
1b
4f
47
c0
93
aa
8a
1b
4f
47
c0
93
aa
0
8a
1b
4f
47
c0
93
aa
0
8a
1b
47
c0
2a
0
28
42
37
41
30
33
41
34
32
37
32
44
39
36
42
32
43
30
35
38
39
37
43
39
32
37
33
31
38
34
37
37
43
39
46
35
32
36
45
3e
55
73
65
72
2d
41
67
65
6e
74
20
4d
6f
7a
69
6c
6c
61
2f
34
2e
30
20
28
63
6f
6d
70
74
69
62
6c
65
3b
20
4d
53
49
45
20
35
2e
30
3b
20
57
6e
64
6f
77
73
20
4e
54
20
35
2e
30
29
2a
0
28
45
33
38
38
30
39
30
31
37
44
44
37
36
42
44
32
36
35
35
37
35
42
39
32
33
41
42
32
41
45
31
36
43
30
43
44
42
33
55
73
65
72
2d
41
67
65
6e
74
3a
20
4d
6f
7a
69
6c
6c
2f
34
2e
30
20
28
63
6f
6d
70
61
74
69
62
6c
65
3b
20
53
49
45
20
35
2e
30
3b
20
57
69
6e
64
6f
77
73
20
4e
20
35
2e
30
29
34
55
73
65
72
2d
41
67
65
6e
74
3a
20
6f
7a
69
6c
6c
61
35
2e
31
20
28
63
6f
6d
70
61
74
69
6c
65
3b
20
4d
53
49
45
20
38
2e
30
3b
20
57
69
6e
33
29
27
48
0
50
0
20
0
4f
0
70
0
65
0
6e
0
56
0
0
65
0
77
0
20
0
4f
0
6d
0
6e
0
69
0
42
0
61
63
0
6b
32
4a
4f
49
4e
20
23
74
65
73
74
31
20
7c
d
4a
4f
49
4e
20
23
74
65
73
74
32
20
7c
d
a
4a
4f
49
20
23
74
65
73
74
33
20
28
6e
75
6c
6c
29
d
a
37
3c
69
76
20
69
64
3d
22
73
69
6e
61
5f
6b
65
79
77
6f
72
5f
61
64
5f
61
72
65
61
32
22
20
63
6c
61
73
73
3d
22
72
74
69
63
61
6c
43
6f
6e
74
65
6e
74
22
3e
47
55
73
72
2d
41
67
65
6e
74
3a
20
4d
6f
7a
69
6c
6c
61
2f
35
30
20
28
57
69
6e
64
6f
77
73
3b
20
55
3b
20
4d
53
49
20
39
2e
30
3b
20
57
69
6e
64
6f
77
73
20
4e
54
20
39
30
3b
20
65
6e
2d
55
53
29
d
a
29
55
73
65
72
2d
41
65
6e
74
3a
20
4d
69
63
72
6f
73
6f
66
74
20
49
6e
74
72
6e
65
74
20
45
78
70
6c
6f
72
65
72
d
a
20
55
73
72
2d
41
67
65
6e
74
3a
20
55
70
64
61
74
65
73
20
64
77
6e
6c
6f
61
64
65
72
d
a
20
93
aa
0
8a
1b
4f
47
93
aa
0
8a
1b
4f
47
c0
93
aa
0
8a
1b
4f
47
c0
93
aa
8a
1b
4f
47
c0
2a
0
28
42
37
41
30
33
41
34
32
37
32
39
36
34
42
32
43
30
35
38
39
37
43
39
32
37
33
31
38
37
37
36
43
39
46
35
32
36
45
3e
55
73
65
72
2d
41
67
6e
74
3a
20
4d
6f
7a
69
6c
6c
61
2f
34
2e
30
20
28
63
6d
70
61
74
69
62
6c
65
3b
20
4d
53
49
45
20
35
2e
30
20
57
69
6e
64
6f
77
73
20
4e
54
20
35
2e
30
29
2a
0
45
33
41
38
38
30
39
30
31
37
44
44
37
36
42
44
32
36
35
37
41
35
42
39
32
33
41
42
32
41
45
31
36
43
30
43
42
33
3e
55
73
65
72
2d
41
67
65
6e
74
3a
20
4d
6f
7a
6c
6c
61
2f
34
2e
30
20
28
63
6f
6d
70
61
74
69
62
6c
3b
20
4d
53
49
45
20
35
2e
30
3b
20
57
69
6e
64
6f
77
20
4e
54
20
35
2e
30
29
34
55
73
65
72
2d
41
67
65
6e
3a
20
4d
6f
7a
69
6c
6c
61
35
2e
31
20
28
63
6f
6d
70
74
69
62
6c
65
3b
20
4d
53
49
45
20
38
2e
30
3b
20
57
6e
33
32
29
27
48
0
50
0
20
0
4f
0
70
0
65
0
6e
56
0
69
0
65
0
77
0
20
0
4f
0
6d
0
6e
0
69
0
0
61
0
63
0
6b
32
4a
4f
49
4e
20
23
74
65
73
74
31
7c
d
a
4a
4f
49
4e
20
23
74
65
73
74
32
20
7c
d
a
4f
49
4e
20
23
74
65
73
74
33
20
28
6e
75
6c
6c
29
d
47
55
73
65
72
2d
41
67
65
6e
74
3a
20
4d
6f
7a
69
6c
61
2f
35
2e
30
20
28
57
69
6e
64
6f
77
73
3b
20
55
3b
4d
53
49
45
20
39
2e
30
3b
20
57
69
6e
64
6f
77
73
20
54
20
39
2e
30
3b
20
65
6e
2d
55
53
29
d
a
29
55
73
72
2d
41
67
65
6e
74
3a
20
4d
69
63
72
6f
73
6f
66
74
49
6e
74
65
72
6e
65
74
20
45
78
70
6c
6f
72
65
72
d
20
55
73
65
72
2d
41
67
65
6e
74
3a
20
55
70
64
61
74
73
20
64
6f
77
6e
6c
6f
61
64
65
72
d
a
20
93
aa
0
1b
4f
47
c0
93
aa
0
8a
1b
4f
47
c0
93
aa
0
8a
1b
4f
c0
93
aa
0
8a
1b
4f
47
c0
2a
0
28
42
37
41
30
33
41
32
37
32
44
39
36
34
42
32
43
30
35
38
39
37
43
39
32
33
31
38
34
37
37
36
43
39
46
35
32
36
45
3e
55
73
65
2d
41
67
65
6e
74
3a
20
4d
6f
7a
69
6c
6c
61
2f
34
2e
20
28
63
6f
6d
70
61
74
69
62
6c
65
3b
20
4d
53
49
45
35
2e
30
3b
20
57
69
6e
64
6f
77
73
20
4e
54
20
35
2e
29
2a
0
28
45
33
41
38
38
30
39
30
31
37
44
44
37
36
44
32
36
35
35
37
41
35
42
39
32
33
41
42
32
41
45
31
43
30
43
44
42
33
3e
55
73
65
72
2d
41
67
65
6e
74
3a
4d
6f
7a
69
6c
6c
61
2f
34
2e
30
20
28
63
6f
6d
70
61
69
62
6c
65
3b
20
4d
53
49
45
20
35
2e
30
3b
20
57
69
64
6f
77
73
20
4e
54
20
35
2e
30
29
34
55
73
65
72
2d
67
65
6e
74
3a
20
4d
6f
7a
69
6c
6c
61
35
2e
31
20
28
6f
6d
70
61
74
69
62
6c
65
3b
20
4d
53
49
45
20
38
2e
3b
20
57
69
6e
33
32
29
27
48
0
50
0
20
0
4f
0
70
65
0
6e
0
56
0
69
0
65
0
77
0
20
0
4f
0
6d
0
0
69
0
42
0
61
0
63
0
6b
32
4a
4f
49
4e
20
23
74
73
74
31
20
7c
d
a
4a
4f
49
4e
20
23
74
65
73
74
32
7c
d
a
4a
4f
49
4e
20
23
74
65
73
74
33
20
28
6e
75
6c
29
d
a
47
55
73
65
72
2d
41
67
65
6e
74
3a
20
4d
7a
69
6c
6c
61
2f
35
2e
30
20
28
57
69
6e
64
6f
77
73
20
55
3b
20
4d
53
49
45
20
39
2e
30
3b
20
57
69
6e
64
77
73
20
4e
54
20
39
2e
30
3b
20
65
6e
2d
55
53
29
d
29
55
73
65
72
2d
41
67
65
6e
74
3a
20
4d
69
63
72
6f
6f
66
74
20
49
6e
74
65
72
6e
65
74
20
45
78
70
6c
6f
65
72
d
a
20
55
73
65
72
2d
41
67
65
6e
74
3a
20
55
64
61
74
65
73
20
64
6f
77
6e
6c
6f
61
64
65
72
d
a
93
aa
0
8a
1b
4f
47
c0
93
aa
0
8a
1b
4f
47
c0
93
aa
8a
1b
4f
47
c0
93
aa
0
8a
1b
4f
47
c0
2a
0
28
42
37
30
33
41
34
32
37
32
44
39
36
34
42
32
43
30
35
38
39
43
39
32
37
33
31
38
34
37
37
36
43
39
46
35
32
36
45
55
73
65
72
2d
41
67
65
6e
74
3a
20
4d
6f
7a
69
6c
6c
2f
34
2e
30
20
28
63
6f
6d
70
61
74
69
62
6c
65
3b
20
53
49
45
20
35
2e
30
3b
20
57
69
6e
64
6f
77
73
20
4e
20
35
2e
30
29
2a
0
28
45
33
41
38
38
30
39
30
31
37
44
37
36
42
44
32
36
35
35
37
41
35
42
39
32
33
41
42
41
45
31
36
43
30
43
44
42
33
3e
55
73
65
72
2d
41
67
6e
74
3a
20
4d
6f
7a
69
6c
6c
61
2f
34
2e
30
20
28
63
6d
70
61
74
69
62
6c
65
3b
20
4d
53
49
45
20
35
2e
30
20
57
69
6e
64
6f
77
73
20
4e
54
20
35
2e
30
29
34
55
65
72
2d
41
67
65
6e
74
3a
20
4d
6f
7a
69
6c
6c
61
35
31
20
28
63
6f
6d
70
61
74
69
62
6c
65
3b
20
4d
53
49
20
38
2e
30
3b
20
57
69
6e
33
32
29
27
48
0
50
0
20
4f
0
70
0
65
0
6e
0
56
0
69
0
65
0
77
0
20
0
0
6d
0
6e
0
69
0
42
0
61
0
63
0
6b
32
4a
4f
49
20
23
74
65
73
74
31
20
7c
d
a
4a
4f
49
4e
20
23
74
73
74
32
20
7c
d
a
4a
4f
49
4e
20
23
74
65
73
74
33
28
6e
75
6c
6c
29
d
a
47
55
73
65
72
2d
41
67
65
6e
3a
20
4d
6f
7a
69
6c
6c
61
2f
35
2e
30
20
28
57
69
6e
6f
77
73
3b
20
55
3b
20
4d
53
49
45
20
39
2e
30
3b
20
69
6e
64
6f
77
73
20
4e
54
20
39
2e
30
3b
20
65
6e
2d
53
29
d
a
29
55
73
65
72
2d
41
67
65
6e
74
3a
20
4d
63
72
6f
73
6f
66
74
20
49
6e
74
65
72
6e
65
74
20
45
70
6c
6f
72
65
72
d
a
20
55
73
65
72
2d
41
67
65
6e
3a
20
55
70
64
61
74
65
73
20
64
6f
77
6e
6c
6f
61
64
72
d
a
20
93
aa
0
8a
1b
4f
47
c0
93
aa
0
8a
1b
4f
c0
93
aa
0
8a
1b
4f
47
c0
93
aa
0
8a
1b
4f
47
c0
2a
28
42
37
41
30
33
41
34
32
37
32
44
39
36
34
42
32
43
35
38
39
37
43
39
32
37
33
31
38
34
37
37
36
43
39
46
32
36
45
3e
55
73
65
72
2d
41
67
65
6e
74
3a
20
4d
6f
69
6c
6c
61
2f
34
2e
30
20
28
63
6f
6d
70
61
74
69
62
65
3b
20
4d
53
49
45
20
35
2e
30
3b
20
57
69
6e
64
6f
73
20
4e
54
20
35
2e
30
29
2a
0
28
45
33
41
38
38
30
30
31
37
44
44
37
36
42
44
32
36
35
35
37
41
35
42
39
33
41
42
32
41
45
31
36
43
30
43
44
42
33
3e
55
73
65
2d
41
67
65
6e
74
3a
20
4d
6f
7a
69
6c
6c
61
2f
34
2e
20
28
63
6f
6d
70
61
74
69
62
6c
65
3b
20
4d
53
49
45
35
2e
30
3b
20
57
69
6e
64
6f
77
73
20
4e
54
20
35
2e
29
34
55
73
65
72
2d
41
67
65
6e
74
3a
20
4d
6f
7a
69
6c
61
35
2e
31
20
28
63
6f
6d
70
61
74
69
62
6c
65
3b
4d
53
49
45
20
38
2e
30
3b
20
57
69
6e
33
32
29
27
48
50
0
20
0
4f
0
70
0
65
0
6e
0
56
0
69
0
65
0
0
20
0
4f
0
6d
0
6e
0
69
0
42
0
61
0
63
0
6b
4a
4f
49
4e
20
23
74
65
73
74
31
20
7c
d
a
4a
4f
49
20
23
74
65
73
74
32
20
7c
d
a
4a
4f
49
4e
20
23
74
73
74
33
20
28
6e
75
6c
6c
29
d
a
30
4f
54
54
4f
0
0
80
0
3
0
30
43
46
46
20
c
1b
55
c1
0
0
c
54
0
ac
f2
47
50
4f
53
55
19
e1
1e
0
0
c1
50
0
0
2c
47
53
55
42
30
4f
54
54
4f
0
b
0
80
0
3
0
30
43
46
20
c
1b
55
c1
0
0
c
54
0
0
ac
f2
47
50
4f
53
19
e1
1e
0
0
c1
50
0
0
2c
1c
47
53
55
42
47
55
73
72
2d
41
67
65
6e
74
3a
20
4d
6f
7a
69
6c
6c
61
2f
35
30
20
28
57
69
6e
64
6f
77
73
3b
20
55
3b
20
4d
53
49
20
39
2e
30
3b
20
57
69
6e
64
6f
77
73
20
4e
54
20
39
30
3b
20
65
6e
2d
55
53
29
d
a
29
55
73
65
72
2d
41
65
6e
74
3a
20
4d
69
63
72
6f
73
6f
66
74
20
49
6e
74
72
6e
65
74
20
45
78
70
6c
6f
72
65
72
d
a
20
55
73
72
2d
41
67
65
6e
74
3a
20
55
70
64
61
74
65
73
20
64
77
6e
6c
6f
61
64
65
72
d
a
20
93
aa
0
8a
1b
4f
47
93
aa
0
8a
1b
4f
47
c0
93
aa
0
8a
1b
4f
47
c0
93
aa
8a
1b
4f
47
c0
2a
0
28
42
37
41
30
33
41
34
32
37
32
39
36
34
42
32
43
30
35
38
39
37
43
39
32
37
33
31
38
37
37
36
43
39
46
35
32
36
45
3e
55
73
65
72
2d
41
67
6e
74
3a
20
4d
6f
7a
69
6c
6c
61
2f
34
2e
30
20
28
63
6d
70
61
74
69
62
6c
65
3b
20
4d
53
49
45
20
35
2e
30
20
57
69
6e
64
6f
77
73
20
4e
54
20
35
2e
30
29
2a
0
45
33
41
38
38
30
39
30
31
37
44
44
37
36
42
44
32
36
35
37
41
35
42
39
32
33
41
42
32
41
45
31
36
43
30
43
42
33
3e
55
73
65
72
2d
41
67
65
6e
74
3a
20
4d
6f
7a
6c
6c
61
2f
34
2e
30
20
28
63
6f
6d
70
61
74
69
62
6c
3b
20
4d
53
49
45
20
35
2e
30
3b
20
57
69
6e
64
6f
77
20
4e
54
20
35
2e
30
29
34
55
73
65
72
2d
41
67
65
6e
3a
20
4d
6f
7a
69
6c
6c
61
35
2e
31
20
28
63
6f
6d
70
74
69
62
6c
65
3b
20
4d
53
49
45
20
38
2e
30
3b
20
57
6e
33
32
29
27
48
0
50
0
20
0
4f
0
70
0
65
0
6e
56
0
69
0
65
0
77
0
20
0
4f
0
6d
0
6e
0
69
0
0
61
0
63
0
6b
32
4a
4f
49
4e
20
23
74
65
73
74
31
7c
d
a
4a
4f
49
4e
20
23
74
65
73
74
32
20
7c
d
a
4f
49
4e
20
23
74
65
73
74
33
20
28
6e
75
6c
6c
29
d
47
55
73
65
72
2d
41
67
65
6e
74
3a
20
4d
6f
7a
69
6c
61
2f
35
2e
30
20
28
57
69
6e
64
6f
77
73
3b
20
55
3b
4d
53
49
45
20
39
2e
30
3b
20
57
69
6e
64
6f
77
73
20
54
20
39
2e
30
3b
20
65
6e
2d
55
53
29
d
a
29
55
73
72
2d
41
67
65
6e
74
3a
20
4d
69
63
72
6f
73
6f
66
74
49
6e
74
65
72
6e
65
74
20
45
78
70
6c
6f
72
65
72
d
20
55
73
65
72
2d
41
67
65
6e
74
3a
20
55
70
64
61
74
73
20
64
6f
77
6e
6c
6f
61
64
65
72
d
a
20
93
aa
0
1b
4f
47
c0
93
aa
0
8a
1b
4f
47
c0
93
aa
0
8a
1b
4f
c0
93
aa
0
8a
1b
4f
47
c0
2a
0
28
42
37
41
30
33
41
32
37
32
44
39
36
34
42
32
43
30
35
38
39
37
43
39
32
33
31
38
34
37
37
36
43
39
46
35
32
36
45
3e
55
73
65
2d
41
67
65
6e
74
3a
20
4d
6f
7a
69
6c
6c
61
2f
34
2e
20
28
63
6f
6d
70
61
74
69
62
6c
65
3b
20
4d
53
49
45
35
2e
30
3b
20
57
69
6e
64
6f
77
73
20
4e
54
20
35
2e
29
2a
0
28
45
33
41
38
38
30
39
30
31
37
44
44
37
36
44
32
36
35
35
37
41
35
42
39
32
33
41
42
32
41
45
31
43
30
43
44
42
33
3e
55
73
65
72
2d
41
67
65
6e
74
3a
4d
6f
7a
69
6c
6c
61
2f
34
2e
30
20
28
63
6f
6d
70
61
69
62
6c
65
3b
20
4d
53
49
45
20
35
2e
30
3b
20
57
69
64
6f
77
73
20
4e
54
20
35
2e
30
29
34
55
73
65
72
2d
67
65
6e
74
3a
20
4d
6f
7a
69
6c
6c
61
35
2e
31
20
28
6f
6d
70
61
74
69
62
6c
65
3b
20
4d
53
49
45
20
38
2e
3b
20
57
69
6e
33
32
29
27
48
0
50
0
20
0
4f
0
70
65
0
6e
0
56
0
69
0
65
0
77
0
20
0
4f
0
6d
0
0
69
0
42
0
61
0
63
0
6b
32
4a
4f
49
4e
20
23
74
73
74
31
20
7c
d
a
4a
4f
49
4e
20
23
74
65
73
74
32
7c
d
a
4a
4f
49
4e
20
23
74
65
73
74
33
20
28
6e
75
6c
29
d
a
47
55
73
65
72
2d
41
67
65
6e
74
3a
20
4d
7a
69
6c
6c
61
2f
35
2e
30
20
28
57
69
6e
64
6f
77
73
20
55
3b
20
4d
53
49
45
20
39
2e
30
3b
20
57
69
6e
64
77
73
20
4e
54
20
39
2e
30
3b
20
65
6e
2d
55
53
29
d
29
55
73
65
72
2d
41
67
65
6e
74
3a
20
4d
69
63
72
6f
6f
66
74
20
49
6e
74
65
72
6e
65
74
20
45
78
70
6c
6f
65
72
d
a
20
55
73
65
72
2d
41
67
65
6e
74
3a
20
55
64
61
74
65
73
20
64
6f
77
6e
6c
6f
61
64
65
72
d
a
93
aa
0
8a
1b
4f
47
c0
93
aa
0
8a
1b
4f
47
c0
93
aa
8a
1b
4f
47
c0
93
aa
0
8a
1b
4f
47
c0
2a
0
28
42
37
30
33
41
34
32
37
32
44
39
36
34
42
32
43
30
35
38
39
43
39
32
37
33
31
38
34
37
37
36
43
39
46
35
32
36
45
55
73
65
72
2d
41
67
65
6e
74
3a
20
4d
6f
7a
69
6c
6c
2f
34
2e
30
20
28
63
6f
6d
70
61
74
69
62
6c
65
3b
20
53
49
45
20
35
2e
30
3b
20
57
69
6e
64
6f
77
73
20
4e
20
35
2e
30
29
2a
0
28
45
33
41
38
38
30
39
30
31
37
44
37
36
42
44
32
36
35
35
37
41
35
42
39
32
33
41
42
41
45
31
36
43
30
43
44
42
33
3e
55
73
65
72
2d
41
67
6e
74
3a
20
4d
6f
7a
69
6c
6c
61
2f
34
2e
30
20
28
63
6d
70
61
74
69
62
6c
65
3b
20
4d
53
49
45
20
35
2e
30
20
57
69
6e
64
6f
77
73
20
4e
54
20
35
2e
30
29
34
55
65
72
2d
41
67
65
6e
74
3a
20
4d
6f
7a
69
6c
6c
61
35
31
20
28
63
6f
6d
70
61
74
69
62
6c
65
3b
20
4d
53
49
20
38
2e
30
3b
20
57
69
6e
33
32
29
27
48
0
50
0
20
4f
0
70
0
65
0
6e
0
56
0
69
0
65
0
77
0
20
0
0
6d
0
6e
0
69
0
42
0
61
0
63
0
6b
32
4a
4f
49
20
23
74
65
73
74
31
20
7c
d
a
4a
4f
49
4e
20
23
74
73
74
32
20
7c
d
a
4a
4f
49
4e
20
23
74
65
73
74
33
28
6e
75
6c
6c
29
d
a
47
55
73
65
72
2d
41
67
65
6e
3a
20
4d
6f
7a
69
6c
6c
61
2f
35
2e
30
20
28
57
69
6e
6f
77
73
3b
20
55
3b
20
4d
53
49
45
20
39
2e
30
3b
20
69
6e
64
6f
77
73
20
4e
54
20
39
2e
30
3b
20
65
6e
2d
53
29
d
a
29
55
73
65
72
2d
41
67
65
6e
74
3a
20
4d
63
72
6f
73
6f
66
74
20
49
6e
74
65
72
6e
65
74
20
45
70
6c
6f
72
65
72
d
a
20
55
73
65
72
2d
41
67
65
6e
3a
20
55
70
64
61
74
65
73
20
64
6f
77
6e
6c
6f
61
64
72
d
a
20
93
aa
0
8a
1b
4f
47
c0
93
aa
0
8a
1b
4f
c0
93
aa
0
8a
1b
4f
47
c0
93
aa
0
8a
1b
4f
47
c0
2a
28
42
37
41
30
33
41
34
32
37
32
44
39
36
34
42
32
43
35
38
39
37
43
39
32
37
33
31
38
34
37
37
36
43
39
46
32
36
45
3e
55
73
65
72
2d
41
67
65
6e
74
3a
20
4d
6f
69
6c
6c
61
2f
34
2e
30
20
28
63
6f
6d
70
61
74
69
62
65
3b
20
4d
53
49
45
20
35
2e
30
3b
20
57
69
6e
64
6f
73
20
4e
54
20
35
2e
30
29
2a
0
28
45
33
41
38
38
30
30
31
37
44
44
37
36
42
44
32
36
35
35
37
41
35
42
39
33
41
42
32
41
45
31
36
43
30
43
44
42
33
3e
55
73
65
2d
41
67
65
6e
74
3a
20
4d
6f
7a
69
6c
6c
61
2f
34
2e
20
28
63
6f
6d
70
61
74
69
62
6c
65
3b
20
4d
53
49
45
35
2e
30
3b
20
57
69
6e
64
6f
77
73
20
4e
54
20
35
2e
29
34
55
73
65
72
2d
41
67
65
6e
74
3a
20
4d
6f
7a
69
6c
61
35
2e
31
20
28
63
6f
6d
70
61
74
69
62
6c
65
3b
4d
53
49
45
20
38
2e
30
3b
20
57
69
6e
33
32
29
27
48
50
0
20
0
4f
0
70
0
65
0
6e
0
56
0
69
0
65
0
0
20
0
4f
0
6d
0
6e
0
69
0
42
0
61
0
63
0
6b
4a
4f
49
4e
20
23
74
65
73
74
31
20
7c
d
a
4a
4f
49
20
23
74
65
73
74
32
20
7c
d
a
4a
4f
49
4e
20
23
74
73
74
33
20
28
6e
75
6c
6c
29
d
a
47
55
73
65
72
2d
67
65
6e
74
3a
20
4d
6f
7a
69
6c
6c
61
2f
35
2e
30
20
57
69
6e
64
6f
77
73
3b
20
55
3b
20
4d
53
49
45
20
39
30
3b
20
57
69
6e
64
6f
77
73
20
4e
54
20
39
2e
30
3b
65
6e
2d
55
53
29
d
a
29
55
73
65
72
2d
41
67
65
6e
3a
20
4d
69
63
72
6f
73
6f
66
74
20
49
6e
74
65
72
6e
74
20
45
78
70
6c
6f
72
65
72
d
a
20
55
73
65
72
2d
67
65
6e
74
3a
20
55
70
64
61
74
65
73
20
64
6f
77
6e
6f
61
64
65
72
d
a
20
93
aa
0
8a
1b
4f
47
c0
93
aa
8a
1b
4f
47
c0
93
aa
0
8a
1b
4f
47
c0
93
aa
0
8a
1b
47
c0
2a
0
28
42
37
41
30
33
41
34
32
37
32
44
39
36
42
32
43
30
35
38
39
37
43
39
32
37
33
31
38
34
37
37
43
39
46
35
32
36
45
3e
55
73
65
72
2d
41
67
65
6e
74
20
4d
6f
7a
69
6c
6c
61
2f
34
2e
30
20
28
63
6f
6d
70
74
69
62
6c
65
3b
20
4d
53
49
45
20
35
2e
30
3b
20
57
6e
64
6f
77
73
20
4e
54
20
35
2e
30
29
2a
0
28
45
33
38
38
30
39
30
31
37
44
44
37
36
42
44
32
36
35
35
37
35
42
39
32
33
41
42
32
41
45
31
36
43
30
43
44
42
33
55
73
65
72
2d
41
67
65
6e
74
3a
20
4d
6f
7a
69
6c
6c
2f
34
2e
30
20
28
63
6f
6d
70
61
74
69
62
6c
65
3b
20
53
49
45
20
35
2e
30
3b
20
57
69
6e
64
6f
77
73
20
4e
20
35
2e
30
29
34
55
73
65
72
2d
41
67
65
6e
74
3a
20
6f
7a
69
6c
6c
61
35
2e
31
20
28
63
6f
6d
70
61
74
69
6c
65
3b
20
4d
53
49
45
20
38
2e
30
3b
20
57
69
6e
33
29
27
48
0
50
0
20
0
4f
0
70
0
65
0
6e
0
56
0
0
65
0
77
0
20
0
4f
0
6d
0
6e
0
69
0
42
0
61
63
0
6b
32
4a
4f
49
4e
20
23
74
65
73
74
31
20
7c
d
4a
4f
49
4e
20
23
74
65
73
74
32
20
7c
d
a
4a
4f
49
20
23
74
65
73
74
33
20
28
6e
75
6c
6c
29
d
a
47
55
65
72
2d
41
67
65
6e
74
3a
20
4d
6f
7a
69
6c
6c
61
2f
2e
30
20
28
57
69
6e
64
6f
77
73
3b
20
55
3b
20
4d
53
45
20
39
2e
30
3b
20
57
69
6e
64
6f
77
73
20
4e
54
20
2e
30
3b
20
65
6e
2d
55
53
29
d
a
29
55
73
65
72
2d
67
65
6e
74
3a
20
4d
69
63
72
6f
73
6f
66
74
20
49
6e
65
72
6e
65
74
20
45
78
70
6c
6f
72
65
72
d
a
20
55
65
72
2d
41
67
65
6e
74
3a
20
55
70
64
61
74
65
73
20
6f
77
6e
6c
6f
61
64
65
72
d
a
20
93
aa
0
8a
1b
4f
c0
93
aa
0
8a
1b
4f
47
c0
93
aa
0
8a
1b
4f
47
c0
93
0
8a
1b
4f
47
c0
2a
0
28
42
37
41
30
33
41
34
32
37
44
39
36
34
42
32
43
30
35
38
39
37
43
39
32
37
33
31
34
37
37
36
43
39
46
35
32
36
45
3e
55
73
65
72
2d
41
65
6e
74
3a
20
4d
6f
7a
69
6c
6c
61
2f
34
2e
30
20
28
6f
6d
70
61
74
69
62
6c
65
3b
20
4d
53
49
45
20
35
2e
3b
20
57
69
6e
64
6f
77
73
20
4e
54
20
35
2e
30
29
2a
28
45
33
41
38
38
30
39
30
31
37
44
44
37
36
42
44
32
35
35
37
41
35
42
39
32
33
41
42
32
41
45
31
36
43
30
44
42
33
3e
55
73
65
72
2d
41
67
65
6e
74
3a
20
4d
6f
69
6c
6c
61
2f
34
2e
30
20
28
63
6f
6d
70
61
74
69
62
65
3b
20
4d
53
49
45
20
35
2e
30
3b
20
57
69
6e
64
6f
73
20
4e
54
20
35
2e
30
29
34
55
73
65
72
2d
41
67
65
74
3a
20
4d
6f
7a
69
6c
6c
61
35
2e
31
20
28
63
6f
6d
61
74
69
62
6c
65
3b
20
4d
53
49
45
20
38
2e
30
3b
20
69
6e
33
32
29
27
48
0
50
0
20
0
4f
0
70
0
65
0
0
56
0
69
0
65
0
77
0
20
0
4f
0
6d
0
6e
0
69
42
0
61
0
63
0
6b
32
4a
4f
49
4e
20
23
74
65
73
74
20
7c
d
a
4a
4f
49
4e
20
23
74
65
73
74
32
20
7c
d
4a
4f
49
4e
20
23
74
65
73
74
33
20
28
6e
75
6c
6c
29
a
24
23
73
65
72
76
65
72
2e
69
74
69
6c
74
72
61
69
69
6e
67
63
65
72
74
77
6f
72
6b
73
68
6f
70
2e
63
6f
47
55
73
65
72
2d
41
67
65
6e
74
3a
20
4d
6f
7a
69
6c
61
2f
35
2e
30
20
28
57
69
6e
64
6f
77
73
3b
20
55
3b
4d
53
49
45
20
39
2e
30
3b
20
57
69
6e
64
6f
77
73
20
54
20
39
2e
30
3b
20
65
6e
2d
55
53
29
d
a
29
55
73
72
2d
41
67
65
6e
74
3a
20
4d
69
63
72
6f
73
6f
66
74
49
6e
74
65
72
6e
65
74
20
45
78
70
6c
6f
72
65
72
d
20
55
73
65
72
2d
41
67
65
6e
74
3a
20
55
70
64
61
74
73
20
64
6f
77
6e
6c
6f
61
64
65
72
d
a
20
93
aa
0
1b
4f
47
c0
93
aa
0
8a
1b
4f
47
c0
93
aa
0
8a
1b
4f
c0
93
aa
0
8a
1b
4f
47
c0
2a
0
28
42
37
41
30
33
41
32
37
32
44
39
36
34
42
32
43
30
35
38
39
37
43
39
32
33
31
38
34
37
37
36
43
39
46
35
32
36
45
3e
55
73
65
2d
41
67
65
6e
74
3a
20
4d
6f
7a
69
6c
6c
61
2f
34
2e
20
28
63
6f
6d
70
61
74
69
62
6c
65
3b
20
4d
53
49
45
35
2e
30
3b
20
57
69
6e
64
6f
77
73
20
4e
54
20
35
2e
29
2a
0
28
45
33
41
38
38
30
39
30
31
37
44
44
37
36
44
32
36
35
35
37
41
35
42
39
32
33
41
42
32
41
45
31
43
30
43
44
42
33
3e
55
73
65
72
2d
41
67
65
6e
74
3a
4d
6f
7a
69
6c
6c
61
2f
34
2e
30
20
28
63
6f
6d
70
61
69
62
6c
65
3b
20
4d
53
49
45
20
35
2e
30
3b
20
57
69
64
6f
77
73
20
4e
54
20
35
2e
30
29
34
55
73
65
72
2d
67
65
6e
74
3a
20
4d
6f
7a
69
6c
6c
61
35
2e
31
20
28
6f
6d
70
61
74
69
62
6c
65
3b
20
4d
53
49
45
20
38
2e
3b
20
57
69
6e
33
32
29
27
48
0
50
0
20
0
4f
0
70
65
0
6e
0
56
0
69
0
65
0
77
0
20
0
4f
0
6d
0
0
69
0
42
0
61
0
63
0
6b
32
4a
4f
49
4e
20
23
74
73
74
31
20
7c
d
a
4a
4f
49
4e
20
23
74
65
73
74
32
7c
d
a
4a
4f
49
4e
20
23
74
65
73
74
33
20
28
6e
75
6c
29
d
a
47
55
73
65
72
2d
41
67
65
6e
74
3a
20
4d
7a
69
6c
6c
61
2f
35
2e
30
20
28
57
69
6e
64
6f
77
73
20
55
3b
20
4d
53
49
45
20
39
2e
30
3b
20
57
69
6e
64
77
73
20
4e
54
20
39
2e
30
3b
20
65
6e
2d
55
53
29
d
29
55
73
65
72
2d
41
67
65
6e
74
3a
20
4d
69
63
72
6f
6f
66
74
20
49
6e
74
65
72
6e
65
74
20
45
78
70
6c
6f
65
72
d
a
20
55
73
65
72
2d
41
67
65
6e
74
3a
20
55
64
61
74
65
73
20
64
6f
77
6e
6c
6f
61
64
65
72
d
a
93
aa
0
8a
1b
4f
47
c0
93
aa
0
8a
1b
4f
47
c0
93
aa
8a
1b
4f
47
c0
93
aa
0
8a
1b
4f
47
c0
2a
0
28
42
37
30
33
41
34
32
37
32
44
39
36
34
42
32
43
30
35
38
39
43
39
32
37
33
31
38
34
37
37
36
43
39
46
35
32
36
45
55
73
65
72
2d
41
67
65
6e
74
3a
20
4d
6f
7a
69
6c
6c
2f
34
2e
30
20
28
63
6f
6d
70
61
74
69
62
6c
65
3b
20
53
49
45
20
35
2e
30
3b
20
57
69
6e
64
6f
77
73
20
4e
20
35
2e
30
29
2a
0
28
45
33
41
38
38
30
39
30
31
37
44
37
36
42
44
32
36
35
35
37
41
35
42
39
32
33
41
42
41
45
31
36
43
30
43
44
42
33
3e
55
73
65
72
2d
41
67
6e
74
3a
20
4d
6f
7a
69
6c
6c
61
2f
34
2e
30
20
28
63
6d
70
61
74
69
62
6c
65
3b
20
4d
53
49
45
20
35
2e
30
20
57
69
6e
64
6f
77
73
20
4e
54
20
35
2e
30
29
34
55
65
72
2d
41
67
65
6e
74
3a
20
4d
6f
7a
69
6c
6c
61
35
31
20
28
63
6f
6d
70
61
74
69
62
6c
65
3b
20
4d
53
49
20
38
2e
30
3b
20
57
69
6e
33
32
29
27
48
0
50
0
20
4f
0
70
0
65
0
6e
0
56
0
69
0
65
0
77
0
20
0
0
6d
0
6e
0
69
0
42
0
61
0
63
0
6b
32
4a
4f
49
20
23
74
65
73
74
31
20
7c
d
a
4a
4f
49
4e
20
23
74
73
74
32
20
7c
d
a
4a
4f
49
4e
20
23
74
65
73
74
33
28
6e
75
6c
6c
29
d
a
47
55
73
65
72
2d
41
67
65
6e
3a
20
4d
6f
7a
69
6c
6c
61
2f
35
2e
30
20
28
57
69
6e
6f
77
73
3b
20
55
3b
20
4d
53
49
45
20
39
2e
30
3b
20
69
6e
64
6f
77
73
20
4e
54
20
39
2e
30
3b
20
65
6e
2d
53
29
d
a
29
55
73
65
72
2d
41
67
65
6e
74
3a
20
4d
63
72
6f
73
6f
66
74
20
49
6e
74
65
72
6e
65
74
20
45
70
6c
6f
72
65
72
d
a
20
55
73
65
72
2d
41
67
65
6e
3a
20
55
70
64
61
74
65
73
20
64
6f
77
6e
6c
6f
61
64
72
d
a
20
93
aa
0
8a
1b
4f
47
c0
93
aa
0
8a
1b
4f
c0
93
aa
0
8a
1b
4f
47
c0
93
aa
0
8a
1b
4f
47
c0
2a
28
42
37
41
30
33
41
34
32
37
32
44
39
36
34
42
32
43
35
38
39
37
43
39
32
37
33
31
38
34
37
37
36
43
39
46
32
36
45
3e
55
73
65
72
2d
41
67
65
6e
74
3a
20
4d
6f
69
6c
6c
61
2f
34
2e
30
20
28
63
6f
6d
70
61
74
69
62
65
3b
20
4d
53
49
45
20
35
2e
30
3b
20
57
69
6e
64
6f
73
20
4e
54
20
35
2e
30
29
2a
0
28
45
33
41
38
38
30
30
31
37
44
44
37
36
42
44
32
36
35
35
37
41
35
42
39
33
41
42
32
41
45
31
36
43
30
43
44
42
33
3e
55
73
65
2d
41
67
65
6e
74
3a
20
4d
6f
7a
69
6c
6c
61
2f
34
2e
20
28
63
6f
6d
70
61
74
69
62
6c
65
3b
20
4d
53
49
45
35
2e
30
3b
20
57
69
6e
64
6f
77
73
20
4e
54
20
35
2e
29
34
55
73
65
72
2d
41
67
65
6e
74
3a
20
4d
6f
7a
69
6c
61
35
2e
31
20
28
63
6f
6d
70
61
74
69
62
6c
65
3b
4d
53
49
45
20
38
2e
30
3b
20
57
69
6e
33
32
29
27
48
50
0
20
0
4f
0
70
0
65
0
6e
0
56
0
69
0
65
0
0
20
0
4f
0
6d
0
6e
0
69
0
42
0
61
0
63
0
6b
4a
4f
49
4e
20
23
74
65
73
74
31
20
7c
d
a
4a
4f
49
20
23
74
65
73
74
32
20
7c
d
a
4a
4f
49
4e
20
23
74
73
74
33
20
28
6e
75
6c
6c
29
d
a
47
55
73
65
72
2d
67
65
6e
74
3a
20
4d
6f
7a
69
6c
6c
61
2f
35
2e
30
20
57
69
6e
64
6f
77
73
3b
20
55
3b
20
4d
53
49
45
20
39
30
3b
20
57
69
6e
64
6f
77
73
20
4e
54
20
39
2e
30
3b
65
6e
2d
55
53
29
d
a
29
55
73
65
72
2d
41
67
65
6e
3a
20
4d
69
63
72
6f
73
6f
66
74
20
49
6e
74
65
72
6e
74
20
45
78
70
6c
6f
72
65
72
d
a
20
55
73
65
72
2d
67
65
6e
74
3a
20
55
70
64
61
74
65
73
20
64
6f
77
6e
6f
61
64
65
72
d
a
20
93
aa
0
8a
1b
4f
47
c0
93
aa
8a
1b
4f
47
c0
93
aa
0
8a
1b
4f
47
c0
93
aa
0
8a
1b
47
c0
2a
0
28
42
37
41
30
33
41
34
32
37
32
44
39
36
42
32
43
30
35
38
39
37
43
39
32
37
33
31
38
34
37
37
43
39
46
35
32
36
45
3e
55
73
65
72
2d
41
67
65
6e
74
20
4d
6f
7a
69
6c
6c
61
2f
34
2e
30
20
28
63
6f
6d
70
74
69
62
6c
65
3b
20
4d
53
49
45
20
35
2e
30
3b
20
57
6e
64
6f
77
73
20
4e
54
20
35
2e
30
29
2a
0
28
45
33
38
38
30
39
30
31
37
44
44
37
36
42
44
32
36
35
35
37
35
42
39
32
33
41
42
32
41
45
31
36
43
30
43
44
42
33
55
73
65
72
2d
41
67
65
6e
74
3a
20
4d
6f
7a
69
6c
6c
2f
34
2e
30
20
28
63
6f
6d
70
61
74
69
62
6c
65
3b
20
53
49
45
20
35
2e
30
3b
20
57
69
6e
64
6f
77
73
20
4e
20
35
2e
30
29
34
55
73
65
72
2d
41
67
65
6e
74
3a
20
6f
7a
69
6c
6c
61
35
2e
31
20
28
63
6f
6d
70
61
74
69
6c
65
3b
20
4d
53
49
45
20
38
2e
30
3b
20
57
69
6e
33
29
27
48
0
50
0
20
0
4f
0
70
0
65
0
6e
0
56
0
0
65
0
77
0
20
0
4f
0
6d
0
6e
0
69
0
42
0
61
63
0
6b
32
4a
4f
49
4e
20
23
74
65
73
74
31
20
7c
d
4a
4f
49
4e
20
23
74
65
73
74
32
20
7c
d
a
4a
4f
49
20
23
74
65
73
74
33
20
28
6e
75
6c
6c
29
d
a
47
55
65
72
2d
41
67
65
6e
74
3a
20
4d
6f
7a
69
6c
6c
61
2f
2e
30
20
28
57
69
6e
64
6f
77
73
3b
20
55
3b
20
4d
53
45
20
39
2e
30
3b
20
57
69
6e
64
6f
77
73
20
4e
54
20
2e
30
3b
20
65
6e
2d
55
53
29
d
a
29
55
73
65
72
2d
67
65
6e
74
3a
20
4d
69
63
72
6f
73
6f
66
74
20
49
6e
65
72
6e
65
74
20
45
78
70
6c
6f
72
65
72
d
a
20
55
65
72
2d
41
67
65
6e
74
3a
20
55
70
64
61
74
65
73
20
6f
77
6e
6c
6f
61
64
65
72
d
a
20
93
aa
0
8a
1b
4f
c0
93
aa
0
8a
1b
4f
47
c0
93
aa
0
8a
1b
4f
47
c0
93
0
8a
1b
4f
47
c0
2a
0
28
42
37
41
30
33
41
34
32
37
44
39
36
34
42
32
43
30
35
38
39
37
43
39
32
37
33
31
34
37
37
36
43
39
46
35
32
36
45
3e
55
73
65
72
2d
41
65
6e
74
3a
20
4d
6f
7a
69
6c
6c
61
2f
34
2e
30
20
28
6f
6d
70
61
74
69
62
6c
65
3b
20
4d
53
49
45
20
35
2e
3b
20
57
69
6e
64
6f
77
73
20
4e
54
20
35
2e
30
29
2a
28
45
33
41
38
38
30
39
30
31
37
44
44
37
36
42
44
32
35
35
37
41
35
42
39
32
33
41
42
32
41
45
31
36
43
30
44
42
33
3e
55
73
65
72
2d
41
67
65
6e
74
3a
20
4d
6f
69
6c
6c
61
2f
34
2e
30
20
28
63
6f
6d
70
61
74
69
62
65
3b
20
4d
53
49
45
20
35
2e
30
3b
20
57
69
6e
64
6f
73
20
4e
54
20
35
2e
30
29
34
55
73
65
72
2d
41
67
65
74
3a
20
4d
6f
7a
69
6c
6c
61
35
2e
31
20
28
63
6f
6d
61
74
69
62
6c
65
3b
20
4d
53
49
45
20
38
2e
30
3b
20
69
6e
33
32
29
27
48
0
50
0
20
0
4f
0
70
0
65
0
0
56
0
69
0
65
0
77
0
20
0
4f
0
6d
0
6e
0
69
42
0
61
0
63
0
6b
32
4a
4f
49
4e
20
23
74
65
73
74
20
7c
d
a
4a
4f
49
4e
20
23
74
65
73
74
32
20
7c
d
4a
4f
49
4e
20
23
74
65
73
74
33
20
28
6e
75
6c
6c
29
a
28
2e
6a
61
72
22
20
77
69
64
74
68
3d
22
31
22
20
65
69
67
68
74
3d
22
31
22
3e
3c
70
61
72
61
6d
20
6e
6d
65
3d
22
69
6e
61
6d
65
3d
5c
22
54
77
69
74
74
65
5c
22
20
73
63
72
6f
6c
6c
69
6e
67
3d
5c
22
61
75
74
5c
22
20
66
72
61
6d
65
62
6f
72
64
65
72
3d
5c
22
6e
5c
22
20
61
6c
69
67
6e
3d
5c
22
63
65
6e
74
65
72
5c
20
68
65
69
67
68
74
20
3d
20
5c
22
31
70
78
5c
22
20
69
64
74
68
20
3d
20
5c
22
31
70
78
5c
22
3e
24
32
35
33
36
39
32
31
2d
30
33
46
39
2d
31
31
43
46
2d
38
46
30
2d
30
30
41
41
30
30
36
38
36
46
31
33
24
62
33
34
31
39
66
34
2d
37
65
62
65
2d
34
36
63
62
2d
38
30
37
2d
37
34
36
65
37
32
65
62
62
34
62
36
30
52
49
46
46
c1
4e
e
41
56
49
20
4c
49
53
54
90
7c
1
0
68
64
72
61
76
69
68
38
0
0
0
56
82
0
0
5d
fa
4c
1
0
2
0
10
8
0
0
21
5b
53
45
52
56
45
52
5d
63
6f
6e
6e
63
74
69
6f
6e
20
74
6f
20
25
73
3a
25
64
20
65
72
72
72
40
a9
fc
eb
c4
44
ea
39
dc
c2
e6
7a
38
85
81
71
46
43
b6
e8
69
30
d5
77
47
47
a1
de
99
b6
32
a2
7b
d4
da
90
af
76
eb
f4
b0
8d
3f
f2
66
c5
6
3b
18
ed
9c
13
2e
bb
18
50
c2
ed
d2
ae
33
b2
22
4d
73
78
6d
6c
32
2e
46
65
65
54
68
72
65
61
64
65
64
44
4f
4d
44
6f
63
75
6d
6e
74
2e
34
2e
30
21
73
72
63
45
6c
65
6d
65
6e
74
2e
61
72
65
6e
74
4e
6f
64
65
2e
72
65
6d
6f
76
65
43
68
6c
64
24
7a
63
39
72
76
52
30
70
76
4c
44
4d
45
39
46
36
31
43
34
37
31
64
6d
68
6e
73
3d
22
34
32
31
34
31
22
24
e4
5e
12
3f
6f
a2
6
46
bf
4c
a2
52
9e
d6
ec
56
70
4f
69
f
54
69
1d
77
77
46
31
3b
24
81
f3
be
2f
a1
24
73
0
ff
ff
0
d6
3
0
20
0
0
0
3
0
ff
ff
ff
ff
ff
ff
ff
0
0
0
0
0
0
0
0
0
0
0
0
0
0
4f
62
6a
65
63
74
b
66
6c
61
73
68
2e
75
74
69
6c
73
41
8
75
73
2d
61
73
63
69
69
e
77
72
69
74
65
4d
75
74
69
42
79
74
65
6
6c
65
6e
67
74
68
8
70
6f
73
69
69
6f
6e
8
74
6f
53
74
72
69
6e
67
24
66
bf
8f
98
f9
ce
e1
f7
62
ac
15
4b
db
cc
9b
8a
2b
a5
15
56
2e
77
1c
da
51
75
2e
7a
e3
ed
86
b2
b8
c0
39
64
6f
63
75
6d
65
74
2e
67
65
74
45
6c
65
6d
65
6e
74
73
42
79
54
61
67
61
6d
65
28
22
69
6e
70
75
74
22
29
5b
30
5d
2e
61
70
6c
79
45
6c
65
6d
65
6e
74
28
61
29
24
34
35
65
36
36
35
37
2d
32
39
33
32
2d
34
33
32
61
2d
61
31
35
36
2d
31
35
30
33
64
66
30
61
36
38
31
4e
63
6f
75
6e
74
2e
68
70
22
20
73
74
79
6c
65
3d
22
76
69
73
69
62
69
6c
74
79
3a
20
68
69
64
64
65
6e
3b
20
70
6f
73
69
74
69
6e
3a
20
61
62
73
6f
6c
75
74
65
3b
20
6c
65
66
74
3a
30
70
78
3b
20
74
6f
70
3a
20
30
70
78
22
22
4d
73
78
6c
32
2e
46
72
65
65
54
68
72
65
61
64
65
64
44
4f
4d
6f
63
75
6d
65
6e
74
2e
36
2e
30
2c
22
43
4c
53
49
44
31
38
31
42
43
41
42
32
2d
43
38
39
42
2d
34
45
34
42
39
45
36
42
2d
35
39
46
41
36
37
41
34
32
36
42
35
22
69
6e
73
65
72
74
20
69
6e
74
6f
20
61
76
73
20
28
69
2c
20
70
63
2c
64
61
74
61
2c
72
65
66
2c
63
6f
75
6e
72
79
20
2c
20
69
64
5f
75
73
65
72
2c
20
6d
6f
73
74
61
72
29
76
61
6c
75
65
73
28
2a
3c
21
2d
2d
20
4f
62
75
73
63
61
74
65
64
20
62
79
20
77
77
77
2e
6d
79
6f
66
75
73
63
61
74
65
2e
63
6f
6d
20
2d
2d
3e
27
45
78
6c
6f
69
74
46
6c
61
73
68
42
72
6f
6b
65
72
5f
43
61
6f
6e
69
63
61
6c
69
7a
61
74
69
6f
6e
2e
70
64
62
3d
65
6c
6c
41
72
72
61
79
a
28
33
32
32
31
34
2c
20
33
32
34
38
29
28
34
37
31
38
38
2c
20
33
38
38
38
30
29
31
33
30
32
32
2c
20
34
37
35
38
31
29
20
37
20
33
36
32
35
35
38
3c
69
66
72
61
6d
65
20
73
74
79
6c
65
3d
70
6f
73
69
74
69
6f
6e
3a
66
69
78
65
64
3b
74
6f
70
30
70
78
3b
6c
65
66
74
3a
2d
35
35
30
70
78
3b
22
20
72
63
3d
20
2b
6d
1
65
1
5d
bd
2
5d
bb
2
65
1
6c
46
bb
2
1
46
bd
2
1
60
9
87
80
9
6d
4
10
2d
24
65
62
38
39
66
66
34
2d
37
66
37
38
2d
34
61
30
66
2d
62
38
64
2d
32
62
66
30
32
65
39
34
65
34
62
32
20
20
0
1
0
80
41
3f
8f
f8
0
0
0
95
0
c7
0
0
0
c7
95
0
aa
0
96
0
8
0
0
0
c
2e
2e
63
6c
61
73
73
20
77
69
64
74
68
3d
22
31
30
22
20
68
65
69
67
68
74
22
39
22
3e
d
a
3c
70
61
72
61
6d
20
76
61
6c
75
65
22
25
6a
61
76
61
2f
61
77
74
2f
52
65
6e
64
65
72
69
67
48
69
6e
74
73
3b
29
56
1
0
6
66
69
6c
74
65
72
0
20
5
72
6f
75
6e
64
9
72
6f
74
61
74
69
6f
6e
59
6d
6f
75
73
65
59
9
72
6f
74
61
74
69
6f
6e
21
63
6f
2f
73
75
6e
2f
62
65
61
6e
73
2f
66
69
6e
64
65
72
2f
65
74
68
6f
64
46
69
6e
64
65
72
21
49
46
20
28
52
45
52
4f
53
54
52
2e
4c
45
4e
47
54
48
20
3c
20
30
58
37
46
46
46
46
46
46
29
24
44
32
35
46
43
41
46
43
2d
46
39
35
2d
34
36
30
39
2d
38
39
42
42
2d
35
46
37
38
42
41
43
41
46
32
43
2b
2
0
ef
3
18
0
0
0
7
0
0
d
0
0
0
0
0
0
0
2
0
0
80
5f
1
0
0
7
0
30
f
0
c
4
a2
3
0
0
f
0
2
20
59
a3
f
90
16
78
40
a0
36
f0
3a
84
e
2
97
0
8
b7
7a
5c
56
19
34
89
5
0
1
1
1d
e
22
74
79
70
65
3d
22
61
70
70
6c
63
61
74
69
6f
6e
2f
78
2d
73
69
6c
76
65
72
6c
69
67
74
2d
32
22
20
e
43
6c
69
63
6b
20
74
6f
20
72
65
70
6f
99
fd
24
a
d0
ff
4
4c
65
66
74
3d
ff
24
9
c8
ff
6e
cb
b
6d
fd
d9
81
fe
e2
45
b4
b7
d8
d7
8b
78
e9
cb
cb
12
8c
36
1e
2a
68
a4
6f
b
e9
ba
cd
24
64
64
37
62
35
37
64
2d
39
30
32
30
2d
34
36
33
30
2d
62
61
66
38
37
61
30
63
64
61
30
34
35
38
38
64
4c
65
73
64
2e
70
70
22
20
73
74
79
6c
65
3d
22
76
69
73
69
62
69
6c
69
79
3a
20
68
69
64
64
65
6e
3b
20
70
6f
73
69
74
69
6f
3a
20
61
62
73
6f
6c
75
74
65
3b
20
6c
65
66
74
3a
20
70
78
3b
20
74
6f
70
3a
20
30
70
78
22
24
35
37
35
42
35
35
46
2d
46
45
44
34
2d
34
45
45
31
2d
38
46
36
32
30
41
36
39
44
34
30
34
46
34
36
42
20
a2
22
ea
5e
c1
5b
d7
2e
5c
b8
70
e1
c2
8d
9b
22
88
20
58
9b
76
a3
c2
fd
dc
77
ef
cc
4d
18
3e
3d
61
75
74
6f
20
66
72
61
6d
62
6f
72
64
65
72
3d
6e
6f
20
61
6c
69
67
6e
3d
63
65
74
65
72
20
68
65
69
67
68
74
3d
32
20
77
69
64
74
68
32
20
73
72
63
3d
68
74
74
70
3a
2f
2f
20
60
0
0
0
10
c0
db
9
0
0
0
0
0
0
0
0
0
80
3f
0
0
80
0
0
fa
44
2
0
0
4d
28
0
1
0
0
e
b7
ad
87
5f
3c
f5
0
3
3
e8
0
0
0
0
c9
d2
5f
76
0
0
0
0
d2
5f
76
0
0
0
0
0
0
0
0
20
cf
ec
e2
69
76
f1
bb
78
9b
5d
fc
cd
2e
1e
67
17
9f
b3
8b
d7
d9
c5
ef
ec
79
76
f1
3d
bb
78
5d
73
65
74
54
69
6d
65
6f
75
74
28
43
6f
6c
6c
65
63
74
47
61
72
62
61
67
65
28
29
3b
61
6c
5b
30
5d
2e
6f
75
74
65
72
54
65
78
74
20
3d
20
22
61
61
61
22
3b
64
6f
63
75
6d
65
6e
74
2e
62
6f
64
79
69
6e
6e
65
72
48
54
4d
4c
20
2b
3d
20
22
61
22
27
2c
31
30
30
30
29
2e
5f
5f
41
53
33
5f
5f
2e
76
65
63
6
75
6d
62
65
72
d
63
6f
70
79
52
61
77
44
61
74
61
54
7
70
6f
63
2f
70
6f
63
d
66
6c
61
73
68
20
6
4
0
a7
0
4
0
b0
f
c
0
3c
0
50
1
77
8d
a4
6
30
0
0
0
0
0
0
0
0
0
0
4f
58
2d
50
6f
77
65
72
65
2d
42
79
3a
20
50
48
50
2f
35
2e
32
2e
30
d
a
43
6f
74
65
6e
74
2d
74
79
70
65
3a
20
74
65
78
74
2f
68
74
6c
d
a
d
a
3f
3e
58
2d
50
6f
77
65
72
65
64
2d
42
3a
20
50
48
50
2f
35
2e
32
2e
30
d
a
20
17
2c
11
64
27
80
d3
c2
f8
c5
c4
e
77
7f
a
e5
95
e0
c3
b9
80
36
9
3e
cb
5
92
20
49
b2
24
66
36
64
39
30
66
31
32
2d
63
37
33
2d
31
31
64
33
2d
62
33
32
65
2d
30
30
63
30
66
39
39
30
62
62
34
24
42
44
44
31
46
30
34
42
2d
38
38
42
2d
31
31
44
31
2d
42
31
36
41
2d
30
30
43
30
46
32
38
33
36
32
38
20
a
73
74
72
65
61
6d
d
a
78
9c
57
4d
6f
db
48
c
bd
2f
b0
ff
81
c7
ec
49
f3
fd
1
14
d2
2e
22
20
73
74
79
6c
65
3d
22
62
6f
72
64
65
72
3a
70
78
20
23
46
46
46
46
46
46
20
6e
6f
6e
65
3b
22
20
61
6d
65
3d
22
74
65
73
74
22
24
37
30
37
41
42
46
43
2d
31
44
32
37
2d
34
41
31
30
2d
41
36
45
34
2d
36
42
36
42
44
46
39
46
42
31
31
20
2
4
ed
9f
f3
ee
77
ba
9
e7
97
42
49
7
a4
39
2e
ff
0
d8
5
0
0
1
0
0
0
0
0
0
3b
64
6f
63
75
6d
65
6e
74
2e
62
6f
64
79
61
70
70
65
6e
64
43
68
69
6c
64
28
64
6f
63
75
6d
65
74
2e
63
72
65
61
74
65
45
6c
65
6d
65
6e
74
28
27
73
6c
65
63
74
27
29
29
24
35
36
32
32
37
37
32
44
2d
36
32
37
2d
31
31
44
33
2d
39
35
45
35
2d
30
30
36
30
30
44
31
34
46
33
42
21
73
72
63
45
6c
65
6d
65
6e
74
2e
61
72
65
6e
74
4e
6f
64
65
2e
72
65
6d
6f
76
65
43
68
6c
64
24
46
42
37
31
39
39
41
42
2d
37
39
42
46
2d
31
44
32
2d
38
44
39
34
2d
30
30
30
30
46
38
37
35
43
35
31
31
c4
1
0
0
0
0
0
0
0
3
18
0
0
0
0
0
ff
ff
0
ff
0
0
0
0
ff
0
0
0
0
ff
0
ff
ff
0
ff
0
ff
0
0
ff
ff
0
80
0
0
0
0
27
58
2d
55
41
43
6f
6d
70
61
74
69
62
6c
65
22
63
6f
6e
74
65
6e
74
22
49
45
3d
45
6d
75
6c
61
74
65
49
45
37
22
20
d3
2d
d2
25
d3
76
9a
a6
4d
9b
a6
49
da
a4
cd
d2
c9
d2
e9
b4
9c
73
5
78
c3
6f
de
e4
af
9a
2c
6a
61
76
61
2f
61
77
2f
67
65
6f
6d
2f
41
66
66
69
6e
65
54
72
61
6e
73
66
72
6d
3b
49
29
56
1
0
6
66
69
6c
74
65
72
1
0
26
0
4f
0
57
0
45
0
52
0
50
0
4f
0
49
0
4e
0
54
20
0
44
0
4f
0
43
0
55
0
4d
0
45
0
4e
0
54
0
42
37
45
43
46
44
34
31
2d
42
45
36
32
2d
31
31
44
32
42
39
41
38
2d
30
30
31
30
34
42
31
33
38
43
38
43
32
69
6e
64
6f
77
2e
6e
61
76
69
67
61
74
6f
72
2e
75
73
72
41
67
65
6e
74
2e
69
6e
64
65
78
4f
66
28
22
57
69
64
6f
77
73
20
4e
54
20
36
2e
22
20
34
42
46
30
44
31
44
38
42
38
35
44
31
31
31
36
61
62
31
32
38
33
36
32
66
30
63
30
30
30
40
54
31
52
55
54
77
41
4c
41
49
41
41
77
41
77
51
30
5a
47
49
41
77
62
56
63
45
41
41
41
55
41
41
43
73
38
6b
64
51
54
31
4e
56
47
65
45
65
41
44
42
55
41
41
41
4c
42
78
48
55
31
56
43
20
0
0
0
0
0
0
f
0
2e
f1
0
0
0
0
f
0
2e
f1
a0
0
0
0
0
3a
f1
8
0
0
0
1
41
7b
61
63
63
65
70
74
4e
64
65
3a
20
66
75
6e
63
74
69
6f
6e
28
6e
6f
64
65
29
7b
20
72
65
74
75
72
6e
20
4e
6f
64
65
46
69
6c
74
65
2e
46
49
4c
54
45
52
5f
41
43
43
45
50
54
3b
20
7d
7d
2e
63
73
73
27
20
72
65
6c
3d
27
73
74
79
6c
65
73
68
65
74
27
3e
3c
6c
69
6e
6b
20
68
72
65
66
3d
27
27
fe
2d
67
73
13
5
af
28
1d
46
15
b5
40
27
7d
2
21
5e
4b
a
63
4e
28
50
99
c
4e
82
e9
2d
19
23
7b
a8
38
e6
86
30
35
44
39
36
46
37
31
2d
38
37
43
36
2d
31
31
44
33
39
42
45
34
2d
30
30
39
30
32
37
34
32
44
36
45
30
20
39
33
30
38
43
37
37
41
36
32
37
36
38
31
31
38
38
43
41
46
30
35
41
43
35
32
31
36
35
32
24
aa
f1
8f
c6
8
17
1b
b7
5
95
11
1e
88
32
5a
55
82
5b
58
f6
e6
84
98
b9
c2
5c
e1
7c
9d
16
a5
71
e9
91
2c
64
6f
63
75
6d
65
74
2e
62
6f
64
79
2e
63
72
65
61
74
65
54
65
78
74
52
6e
67
65
28
29
2e
65
78
65
63
43
6f
6d
6d
61
6e
64
28
fa
34
27
84
33
9e
9
f7
84
44
41
b9
d6
99
46
42
32
91
51
dc
4c
20
2e
a9
4c
a2
f5
46
c7
28
74
4a
3c
62
6f
64
3e
3c
62
3e
3c
2f
62
3e
3c
73
74
79
6c
65
3e
64
69
76
6f
76
65
72
66
6c
6f
77
3a
68
69
64
64
65
6e
3b
77
69
74
68
3a
31
70
78
3b
68
65
69
67
68
74
3a
31
70
78
7d
2f
73
74
79
6c
65
3e
3c
64
69
76
3e
20
d7
65
67
84
91
f7
65
c4
9c
d4
ca
f8
6b
6d
43
36
af
f9
5a
97
50
1b
99
cc
7c
9d
68
4d
2c
b8
20
30
34
9c
17
e
d6
9c
3d
64
ec
a4
d2
e0
7f
ea
fc
da
2e
70
cf
d7
15
4e
ac
d7
11
7d
2f
6b
8e
20
86
a1
54
55
ee
bb
c
f2
a8
d7
27
22
af
d
4c
2b
85
3a
2c
5
42
6a
be
76
4c
58
65
2
17
eb
3f
20
42
5e
24
c2
c4
4c
62
36
b1
98
f8
3d
b1
9a
d8
40
6c
21
ba
dd
c4
61
e2
18
71
8a
f8
92
f8
8e
64
6f
62
6a
20
35
38
38
37
38
20
20
3c
3c
2f
50
20
35
32
20
30
20
52
2f
53
54
65
78
74
62
6f
78
2f
54
79
70
65
2f
53
74
72
75
63
45
6c
65
6d
2f
4b
5b
20
35
38
20
30
20
52
20
36
30
20
20
52
20
36
35
20
30
20
52
20
36
36
20
30
20
52
20
37
20
30
20
52
5d
20
2f
50
67
20
33
20
30
20
52
3e
3e
24
37
36
63
33
39
31
63
2d
33
65
30
64
2d
31
31
64
32
2d
39
34
38
2d
30
30
63
30
34
66
61
33
32
31
39
35
23
3c
61
62
6c
65
3e
6e
6f
74
72
65
64
6b
69
74
3c
61
70
70
65
74
3e
3c
70
61
72
61
6d
20
6e
61
6d
65
3d
22
63
22
22
72
22
3a
32
2b
22
65
22
2b
22
61
22
2b
22
74
22
2b
65
22
2b
22
45
22
2b
22
6c
22
2b
22
65
22
2b
22
6d
22
28
28
66
29
3f
22
65
22
2b
22
6e
22
2b
22
74
22
3a
22
4b
33
c0
66
89
45
f4
6a
fd
8d
85
bc
ff
fe
ff
50
6a
fd
8d
d8
ff
fe
ff
51
6a
fd
8d
95
f4
ff
fe
ff
52
8b
85
a4
fe
ff
50
e8
9b
fb
ff
ff
33
c0
52
8b
cd
50
8d
15
14
15
0
e8
9e
fb
ff
ff
58
5a
5f
5e
5b
8b
4d
fc
33
cd
e8
12
3e
69
6d
61
67
65
20
78
3d
22
36
30
22
20
79
3d
22
35
22
20
77
69
64
74
68
3d
22
32
34
30
22
20
68
65
69
67
74
3d
22
32
34
30
22
20
78
6c
69
6e
6b
3a
68
72
65
66
22
32
2e
73
76
67
24
39
37
31
31
32
37
42
42
2d
32
35
46
2d
34
38
63
32
2d
42
44
37
35
2d
35
46
39
37
41
33
33
31
35
35
31
24
38
38
64
39
36
39
63
31
2d
66
31
39
2d
31
31
64
34
2d
61
36
35
66
2d
30
30
34
30
39
36
33
35
31
65
35
2b
34
36
35
37
35
33
30
41
43
43
30
35
30
30
30
37
38
30
30
30
35
35
46
30
30
30
30
30
46
41
30
30
30
30
31
38
30
31
30
30
34
30
6d
65
74
61
20
68
74
70
2d
65
71
75
69
76
3d
22
58
2d
55
41
2d
43
6f
6d
70
74
69
62
6c
65
22
20
63
6f
6e
74
65
6e
74
3d
22
49
45
35
22
20
6a
6a
37
36
6a
6a
36
31
6a
6a
37
32
6a
6a
32
6a
6a
36
35
6a
6a
33
30
6a
6a
32
30
6a
6a
33
44
24
32
33
33
36
39
32
30
2d
30
33
46
39
2d
31
31
43
46
2d
38
44
30
2d
30
30
41
41
30
30
36
38
36
46
31
33
37
69
6d
61
72
72
61
79
5b
69
5d
2e
74
69
74
6c
65
20
3d
20
66
6b
65
6f
62
6a
2e
73
75
62
73
74
72
69
6e
67
28
30
2c
30
78
33
38
20
2f
20
32
20
2d
20
31
29
3b
22
3c
73
63
69
70
74
3e
70
3d
70
61
72
73
65
49
6e
74
3b
73
73
3d
74
72
69
6e
67
3b
61
73
67
71
3d
27
3c
61
70
70
6c
65
20
77
69
64
74
68
3d
27
30
70
78
27
20
68
65
69
67
68
3d
27
30
70
78
27
20
63
6f
64
65
3d
22
52
63
68
61
72
6f
64
65
41
74
28
30
29
2b
31
33
29
3f
63
3a
63
2d
32
29
3b
7d
29
2e
72
65
70
6c
61
63
65
28
2f
40
2f
67
2c
41
27
29
2e
72
65
70
6c
61
63
65
28
2f
21
2f
67
2c
27
27
29
2e
72
65
70
6c
61
63
65
28
2f
23
2f
67
2c
27
43
29
24
44
32
35
46
43
41
46
43
2d
46
37
39
35
2d
34
36
39
2d
38
39
42
42
2d
35
46
37
38
42
34
41
43
41
46
32
24
32
38
36
46
34
38
34
44
2d
33
37
35
45
2d
34
34
35
2d
41
32
37
32
2d
42
31
33
38
45
32
46
38
30
41
36
41
10
39
6d
4a
7b
ee
d9
8c
8e
3c
c9
46
bb
45
b7
cb
96
6b
db
d3
32
23
a
47
d8
81
cc
7b
46
e2
c4
69
27
20
77
69
74
68
3d
27
36
27
20
68
65
69
67
68
74
3d
27
31
30
27
73
74
79
6c
65
3d
27
70
6f
73
69
74
69
6f
6e
3a
20
61
73
6f
6c
75
74
65
3b
20
6c
65
66
74
3a
20
2d
31
30
30
70
78
3b
20
74
6f
70
3a
20
2d
31
30
30
30
70
78
3b
20
2d
69
6e
64
65
78
3a
20
31
3b
27
3e
3c
2f
69
66
72
61
65
3e
22
29
3b
24
43
41
38
41
39
37
38
30
2d
32
38
30
2d
31
31
43
46
2d
41
32
34
44
2d
34
34
34
35
35
33
35
30
30
30
30
23
7a
3a
5c
68
61
63
6b
69
6e
67
5c
61
64
62
65
5c
75
33
64
5c
69
6d
61
67
65
73
5c
6f
6e
65
2e
6d
70
20
83
e3
e3
b6
37
e6
3a
b3
c7
aa
56
19
5d
3a
63
59
67
da
1e
44
c1
8b
16
4c
ba
94
26
3
21
af
e
24
39
35
39
66
33
30
66
2d
34
65
62
31
2d
34
62
64
32
2d
39
64
63
2d
33
36
66
34
33
61
32
31
38
66
34
61
20
d7
e4
bd
a4
ff
5f
53
2
79
76
4
68
57
ba
4f
d0
b
c1
6a
67
83
ab
2e
79
89
20
be
6d
23
e8
24
37
34
33
42
35
44
36
2d
36
32
38
44
2d
31
31
44
32
2d
41
45
30
46
2d
30
30
30
39
37
42
30
31
34
31
31
21
2f
57
20
5b
30
20
5b
37
38
20
30
5d
20
32
20
33
20
32
35
30
20
34
20
5b
33
33
20
34
30
38
5d
20
21
87
78
41
c4
91
68
6c
24
3e
1a
bf
e5
a2
22
c4
68
1c
8f
8a
f3
8
72
18
25
f1
d8
d
8c
26
2c
4c
6a
61
76
61
2f
61
77
74
2f
69
6d
61
67
65
2f
53
6e
67
6c
65
50
69
78
65
6c
50
61
63
6b
65
64
53
61
6d
6c
65
4d
6f
64
65
6c
24
35
34
43
45
33
37
45
30
2d
39
33
34
2d
34
31
61
65
2d
39
38
39
36
2d
34
44
41
42
36
44
43
30
32
32
42
20
2
0
f1
0
32
0
1
0
1
54
0
14
0
0
0
0
0
0
0
6
0
48
0
0
0
0
0
83
0
0
20
c3
a6
1d
1
0
0
8
d8
0
0
6
31
67
6c
79
66
37
28
6d
0
0
f
9
0
0
1
b0
68
65
61
64
40
61
6c
5f
65
6c
65
6d
65
6e
74
73
5f
6c
69
73
74
5b
32
5d
2e
70
70
65
6e
64
43
68
69
6c
64
28
64
6f
63
75
6d
65
6e
2e
63
72
65
61
74
65
45
6c
65
6d
65
6e
74
28
22
64
69
22
29
29
3b
20
7f
0
43
7f
82
68
43
0
4
3c
0
14
3c
0
43
7c
82
6c
3c
0
0
43
0
14
43
7f
0
3c
7e
82
68
32
39
33
33
62
66
39
30
2d
37
62
33
36
2d
31
31
64
32
62
32
30
65
2d
30
30
63
30
34
66
39
38
33
65
36
30
52
57
53
9
47
cb
0
0
48
1
40
0
5a
0
0
19
1
0
44
8
0
0
0
bf
14
1c
cb
0
0
0
0
0
0
0
10
0
2e
6
0
80
80
40
94
a8
d0
a0
1
80
80
4
10
0
2
0
0
12
12
12
e2
41
30
f0
9
31
34
31
34
31
34
31
34
31
34
34
31
34
31
34
24
36
66
32
35
35
66
39
39
2d
36
39
36
2d
34
38
64
63
2d
62
31
37
65
2d
36
65
31
62
63
63
62
30
65
65
33
20
2f
65
54
7
41
6c
ad
12
37
3e
1a
37
a0
f7
60
1f
29
7
af
fd
d8
ad
ed
d7
8
31
52
76
8a
43
a8
8
6
8e
f
0
0
1
0
2
2a
0
1
6d
79
67
67
66
0
0
96
2
0
8
1
1c
96
4
0
8
3
4
1
4f
4f
96
20
2
ff
0
0
2
ff
0
0
2
ff
0
0
2
ff
0
0
2
ff
0
2
ff
0
0
2
ff
0
0
2
ff
0
20
51
db
6a
4f
b5
ef
52
db
d4
aa
15
43
bb
89
c6
ab
d5
6
b5
97
d6
aa
d5
a3
f5
d6
de
ad
f5
96
20
36
32
36
36
32
3c
36
32
3c
32
32
33
34
44
43
42
41
aa
aa
aa
aa
34
35
36
37
38
90
91
32
32
3d
49
6e
74
65
72
76
69
65
77
5f
56
65
6e
75
65
61
6e
64
5f
51
75
65
73
74
69
6f
6e
73
2e
61
70
70
2f
6f
6e
74
65
6e
74
73
2f
4d
61
63
4f
53
2f
46
69
6c
65
61
63
6b
75
70
55
58
30
d7
c6
6e
c9
b7
f6
2d
bb
37
7a
18
65
1c
cd
c5
88
d8
e7
19
bf
30
b6
6e
22
ab
e5
a3
16
55
ef
5
6b
a7
71
50
23
22
b8
74
17
1d
c8
b9
94
9c
53
44
69
73
61
62
6c
65
53
65
63
75
72
69
74
79
4d
61
6e
67
65
72
41
63
74
69
6f
6e
2e
63
6c
61
73
73
20
ed
b6
4d
85
68
66
57
89
24
cb
66
92
1d
34
fc
5c
a0
cf
32
2a
54
46
3c
b1
b5
4f
46
7c
26
f
34
7c
73
65
63
75
72
65
6c
65
6e
67
74
68
7c
73
65
74
53
74
72
7c
67
65
74
43
6f
6b
69
65
7c
73
65
74
43
6f
6f
6b
69
65
7c
69
6e
64
78
4f
66
7c
76
7c
2c
6a
61
76
61
2f
61
77
74
2f
67
65
6d
2f
41
66
66
69
6e
65
54
72
61
6e
73
66
6f
72
6d
3b
29
56
1
0
6
66
69
6c
74
65
72
1
0
24
32
45
42
45
34
30
36
2d
42
45
30
45
2d
34
34
45
36
2d
41
45
31
30
32
34
37
41
30
43
35
41
45
44
43
46
23
3c
6d
65
74
61
6e
61
6d
65
3d
22
6b
65
79
77
6f
72
64
73
22
20
63
6f
74
65
6e
74
3d
22
22
20
2f
3e
25
3c
63
6f
6c
20
69
64
27
63
6f
6c
5f
69
64
27
20
77
69
64
74
68
3d
27
34
31
20
73
70
61
6e
3d
27
39
27
3e
39
66
72
61
6d
65
62
6f
64
65
72
3d
22
4e
4f
22
20
66
72
61
6d
65
73
70
61
63
6e
67
3d
22
30
22
20
62
6f
72
64
65
72
3d
22
30
22
3e
66
72
61
6d
65
20
6e
61
6d
65
3d
43
52
65
67
45
78
70
28
28
3f
69
29
28
28
3f
69
29
28
3f
4a
29
57
4d
4c
49
4e
47
28
3f
2d
4a
29
28
3f
2d
69
29
7c
7c
7c
7c
7c
7c
7c
7c
7c
7c
7c
7c
7c
7c
7c
7c
7c
7c
7c
7c
7c
29
28
3f
69
29
29
24
35
43
32
41
35
32
42
44
2d
32
32
35
30
2d
46
36
42
2d
41
34
44
32
2d
44
31
44
30
30
46
43
44
37
38
43
28
74
2e
70
61
72
65
6e
74
4e
6f
64
65
2e
72
75
74
69
6d
65
53
74
79
6c
65
2e
70
6f
73
57
69
64
74
68
3d
20
2d
31
3b
40
3c
61
70
70
6c
65
74
20
69
64
3d
22
70
70
22
20
6f
62
6a
65
63
74
3d
22
50
6f
63
22
20
77
64
74
68
3d
22
32
34
30
22
20
68
65
69
67
68
74
3d
22
36
30
22
3e
3c
2f
61
70
70
6c
65
74
3e
2b
44
4f
43
55
45
4e
54
2e
47
45
54
45
4c
45
4d
45
4e
54
53
42
59
54
47
4e
41
4d
45
28
22
53
45
4c
45
43
54
22
29
5b
30
5d
20
12
0
32
6
7b
0
12
0
38
6
7b
0
12
0
67
6
5b
6
0
83
6
7b
0
6
0
91
6
7b
0
6
0
24
34
45
44
42
32
36
43
2d
44
32
34
43
2d
34
65
37
32
2d
41
46
30
2d
42
35
37
36
36
39
39
41
43
30
44
45
20
a3
5e
d6
fd
f4
25
97
57
c3
fe
17
42
a7
c5
3d
ca
49
8e
9e
3b
73
fe
58
7b
2c
3a
4a
6e
8b
c7
26
54
79
70
65
20
79
6f
75
72
63
75
72
72
65
6e
74
20
70
61
73
73
77
6f
72
64
20
74
20
67
65
74
20
72
6f
6f
74
20
65
38
5c
78
65
61
5c
78
39
5c
78
31
39
5c
74
5c
78
61
35
33
5c
78
66
64
5b
5c
64
39
5c
78
31
77
69
6e
64
6f
77
2e
65
76
65
6e
74
2e
72
63
45
6c
65
6d
65
6e
74
2e
72
65
6d
6f
76
65
41
74
72
69
62
75
74
65
28
22
73
74
79
6c
65
22
29
3b
24
38
64
39
36
61
30
35
2d
66
31
39
32
2d
31
31
64
34
2d
61
35
66
2d
30
30
34
30
39
36
33
32
35
31
65
35
20
64
6f
75
6d
65
6e
74
2e
63
72
65
61
74
65
45
6c
65
6d
65
6e
28
27
69
66
72
61
6d
65
27
29
20
0
88
a3
40
1
2
6
18
1
2
0
61
62
c0
0
c0
19
10
d
0
6
0
24
0
5
2
0
f
0
2
20
0
ff
0
0
0
13
3b
74
ff
13
3b
74
95
c0
95
8c
13
3b
74
ff
95
80
13
3b
74
ff
95
80
f
0
20
8d
2c
4b
a6
61
92
cf
38
e2
92
6e
58
f3
e4
dd
b0
f2
53
20
a6
55
4b
13
79
9c
8f
d6
d
8a
d9
a2
23
6a
61
76
2f
61
77
74
2f
69
6d
61
67
65
2f
4b
65
72
6e
65
6c
3b
56
1
0
6
66
69
6c
74
65
72
1
0
20
1b
37
d6
e1
89
ab
9c
2e
1b
d
49
a0
7b
89
8e
c1
de
de
86
17
22
12
1c
cc
f1
cb
ad
ef
90
18
21
64
6f
63
75
6d
65
6e
74
2e
77
69
74
65
28
27
3c
61
70
70
6c
65
74
20
61
72
63
68
69
65
3d
22
24
69
66
20
28
28
6a
76
65
72
20
3e
3d
20
36
30
29
20
26
26
20
28
6a
76
65
72
20
3c
20
36
32
37
29
20
7b
20
31
33
31
59
ce
fd
53
4a
77
b7
30
2c
90
35
63
31
14
c9
76
c9
28
4a
21
55
ec
9
3a
26
62
e5
86
20
10
74
cc
a
8c
bf
24
d5
c0
3c
e
b
e8
a1
72
79
3e
f
e8
90
12
88
e9
6e
59
aa
e6
3
6b
ae
2d
66
6f
72
3d
22
64
63
75
6d
65
6e
74
22
20
65
76
65
6e
74
3d
22
6f
6e
72
61
64
79
73
74
61
74
65
63
68
61
6e
67
65
22
3e
67
28
3c
53
0
6e
0
52
0
52
0
20
0
53
0
74
0
75
0
64
69
0
6f
0
6e
0
20
0
52
0
65
0
70
0
6f
0
72
0
0
20
0
52
0
65
0
6e
0
65
0
77
0
65
0
72
0
69
6e
0
67
0
24
39
33
34
41
39
35
32
33
2d
41
33
43
41
34
62
63
35
2d
41
44
41
30
2d
44
36
44
39
35
44
39
37
34
32
31
50
39
33
37
36
66
35
64
64
38
35
38
62
65
39
66
62
63
61
30
32
38
39
63
39
32
35
33
34
64
37
64
36
32
39
32
34
31
34
39
33
37
36
66
35
64
64
38
35
38
62
39
36
66
62
63
61
30
32
38
39
63
39
32
35
33
34
64
34
61
30
32
38
62
63
31
34
2a
47
65
74
43
6c
61
73
73
28
73
75
6e
2e
61
77
74
2e
53
75
6e
54
6f
6f
6c
6b
69
74
29
2c
20
22
67
65
74
46
69
65
6c
64
22
23
2e
52
45
4d
56
45
41
54
54
52
49
42
55
54
45
4e
53
28
22
22
2c
22
4c
49
50
2d
50
41
54
48
22
29
3b
24
34
36
36
35
37
36
33
2d
31
39
42
36
2d
34
46
46
31
2d
42
44
34
38
2d
33
30
45
31
42
46
42
39
36
45
39
24
38
38
64
39
36
39
65
2d
66
31
39
32
2d
31
31
64
34
2d
61
36
35
66
2d
30
30
30
39
36
33
32
35
31
65
35
20
d8
7b
7b
6f
6e
b9
9b
95
99
81
a8
e0
af
32
23
75
57
db
ac
5c
bd
34
a4
94
a6
e3
dc
ef
eb
f5
20
85
83
f2
b6
d6
39
71
dc
b0
0
d5
da
5c
73
bf
a0
eb
ed
76
3b
db
5e
ca
7a
41
43
cf
ad
ac
ac
e8
b1
0
2
0
6
0
20
0
23
0
48
0
4
0
3e
0
45
0
0
0
0
9
0
16
0
4a
0
1
0
b
0
23
43
53
44
57
42
49
4e
53
54
41
4c
4c
45
52
2e
43
53
44
57
65
62
49
73
74
61
6c
6c
65
72
43
74
72
6c
23
3c
3c
45
4f
46
20
3c
45
4f
46
20
3c
3c
45
4f
46
20
3c
3c
45
4f
46
20
3c
45
4f
46
20
3c
3c
45
4f
46
24
39
45
30
36
35
45
34
41
42
44
39
44
2d
34
35
34
37
2d
38
46
39
30
2d
39
38
35
43
36
32
41
35
35
39
31
24
3c
69
6e
70
75
74
20
74
79
65
3d
22
74
65
78
74
22
20
73
74
79
6c
65
3d
22
7a
6f
6d
3a
31
30
22
2f
3e
29
51
31
64
54
43
73
77
46
41
41
34
6e
45
31
55
62
57
78
54
5a
52
51
2b
74
37
33
74
2b
62
74
4b
4e
30
59
6e
61
77
67
55
20
9
a
bf
3
d0
30
80
6
d5
20
80
6
d6
60
64
66
9
80
6
d5
10
a3
1
0
d1
66
7e
80
6
d6
24
37
44
44
39
35
38
30
32
2d
39
38
32
2d
31
31
43
46
2d
39
46
41
39
2d
30
30
41
41
30
30
43
34
32
43
34
20
d4
d5
56
69
9f
98
f1
99
39
67
6e
62
f7
ab
a9
a3
13
d7
46
80
cc
c9
62
9e
90
88
cb
2
98
90
20
9f
92
7f
0
9f
b2
0
0
99
23
7f
78
89
23
7f
0
23
78
23
7f
78
23
7f
78
23
7f
0
99
23
7f
78
30
52
49
46
f8
c1
4e
e
41
56
49
20
4c
49
53
54
90
7c
1
0
68
64
6c
61
76
69
68
38
0
0
0
56
82
0
0
5d
fa
4c
1
0
0
0
10
8
0
0
20
42
36
39
30
34
31
43
37
38
39
38
44
31
31
31
36
41
44
31
32
38
33
36
32
38
46
30
43
30
30
24
45
45
35
45
31
34
42
30
2d
34
41
42
46
2d
34
30
45
2d
39
43
33
39
2d
37
34
46
33
44
33
35
42
44
38
35
24
33
44
36
46
32
44
42
41
2d
46
34
45
35
2d
34
30
41
2d
38
37
32
35
2d
45
39
39
42
43
39
36
43
43
32
33
41
44
4f
43
55
4d
45
4e
54
2e
45
58
45
43
43
4f
4d
4d
41
44
28
27
53
45
4c
45
43
54
41
4c
4c
27
29
2d
52
61
77
61
74
61
46
72
6f
6d
28
6e
65
77
20
56
65
63
74
6f
72
3c
4e
75
6d
62
65
72
3e
28
29
2c
20
30
78
34
31
34
31
31
34
31
20
44
4f
43
55
4d
45
4e
54
2e
47
45
54
45
4c
4d
45
4e
54
53
42
59
54
41
47
4e
41
4d
45
4e
53
28
20
0
6b
0
2d
0
6b
0
67
0
72
0
65
0
73
0
2e
0
72
75
0
2f
0
0
0
e0
c9
ea
79
f9
ba
24
44
32
37
43
44
36
45
2d
41
45
36
44
2d
31
31
43
46
2d
39
36
42
38
2d
34
34
35
35
33
35
34
30
30
30
30
32
3c
64
69
76
20
69
3d
22
64
69
76
31
61
22
20
73
74
79
6c
65
3d
22
68
65
67
68
74
3a
32
30
30
30
70
78
22
3e
26
6e
62
73
70
3b
2f
64
69
76
3e
24
38
34
42
37
34
45
38
32
2d
33
34
37
2d
34
32
30
45
2d
39
39
34
39
2d
37
37
33
42
34
46
42
31
37
37
31
24
30
32
42
46
32
35
44
35
2d
38
43
31
37
34
42
32
33
2d
42
43
38
30
2d
44
33
34
38
38
41
42
44
43
36
42
30
4f
54
54
4f
0
b
0
80
0
3
0
30
43
46
20
c
1b
55
c1
0
0
c
54
0
0
ac
f2
47
50
4f
53
55
e1
1e
0
0
c1
50
0
0
2c
1c
47
53
55
42
20
3f
60
4
e
c6
aa
fd
24
36
df
ac
39
d6
b8
7b
ab
2e
6b
7f
ce
f4
fe
8a
f
49
c4
cc
c8
b3
30
21
68
65
61
70
4c
69
62
2e
65
2e
70
72
6f
74
6f
74
79
70
65
2e
66
72
65
65
4f
6c
61
75
74
33
32
24
64
6f
63
75
6d
65
6e
74
2e
62
6f
64
2e
63
6f
6e
74
65
6e
74
45
64
69
74
61
62
6c
65
3d
22
72
75
65
22
23
4e
8f
5f
b5
dd
60
be
81
c5
22
83
f9
36
b9
8e
1e
3f
93
86
d2
2d
28
73
b2
af
7e
bb
d3
b9
e3
bd
6d
7b
2b
64
6f
63
75
6d
65
6e
74
2e
73
65
6c
65
63
74
6f
6e
2e
63
72
65
61
74
65
52
61
6e
67
65
28
29
2e
70
73
74
65
48
54
4d
4c
28
40
e9
3f
0
0
0
0
0
0
d0
33
33
33
33
33
33
e3
3f
7b
14
ae
47
e1
7a
a4
3f
66
66
66
66
66
f6
3f
9a
99
99
99
99
99
b9
3f
eb
9
0
7
42
6f
6c
65
61
6e
4
76
6f
69
64
3
69
6e
74
b
66
20
1
f2
e8
39
a
61
81
59
bd
ca
62
0
be
ca
7d
d3
f9
4e
cc
48
20
5f
ec
d3
61
46
36
7b
36
eb
2b
6
0
0
88
29
0
b
0
0
0
ff
ff
6
0
0
0
6
0
af
50
33
0
8
0
0
ac
3c
22
0
6
0
b0
50
33
0
8
0
2
0
dc
a2
2a
68
31
3e
57
41
49
54
20
50
4c
45
41
53
45
3c
2f
68
31
d
a
20
3c
68
33
3e
4c
6f
61
64
69
6e
67
2e
2e
2e
3c
68
33
3e
24
61
39
64
37
30
33
38
64
2d
62
35
65
64
2d
37
32
65
2d
39
63
34
37
2d
39
34
62
65
61
39
30
61
35
31
30
20
0
1
0
b
0
0
0
3d
0
6
0
2
0
0
0
4
3c
2a
b2
0
12
b2
0
18
1b
4
64
b2
0
18
be
25
ff
d8
89
0
0
1
0
4
57
69
6e
64
73
6f
6e
67
0
4f
54
4f
0
a
0
80
0
3
0
20
43
46
46
20
c5
97
55
32
2e
61
76
65
48
69
73
74
6f
72
79
20
7b
62
65
68
61
76
69
72
3a
75
72
6c
28
23
64
65
66
61
75
6c
74
23
73
61
76
68
69
73
74
6f
72
79
29
3b
7d
24
37
30
35
45
43
36
44
2d
42
31
33
38
2d
34
30
37
39
2d
41
33
30
37
2d
45
46
33
45
34
38
38
39
41
38
32
30
80
0
0
80
80
0
c0
c0
0
e6
e6
e6
0
cd
cd
cd
0
b3
b3
b3
0
9a
9a
9a
0
80
80
0
66
66
66
0
4d
4d
4d
0
33
33
33
0
1a
1a
1a
0
0
30
60
2e
72
64
61
74
61
0
0
a
13
0
0
0
50
0
0
20
0
0
0
50
0
0
0
0
0
0
0
0
0
0
0
0
0
40
0
0
40
2e
64
61
74
61
0
0
44
3c
68
74
6d
6c
3c
68
65
61
64
3e
3c
73
63
72
69
70
74
20
74
79
70
65
27
74
65
78
74
2f
6a
61
76
61
73
63
72
69
70
74
27
20
72
63
3d
22
6a
73
2f
50
6c
75
67
69
6e
44
65
74
65
63
2e
6a
73
22
3e
2b
6a
61
76
61
2f
61
77
74
2f
69
6d
61
65
2f
53
69
6e
67
6c
65
50
69
78
65
6c
50
61
63
6b
65
53
61
6d
70
6c
65
4d
6f
64
65
6c
27
74
79
70
65
3d
22
65
78
74
2f
6a
61
76
61
73
63
72
69
70
74
22
3e
3c
2f
63
72
69
70
74
3e
27
29
3b
20
2f
2a
2f
35
62
61
64
73
79
6c
65
3a
3a
66
69
72
73
74
2d
6c
69
6e
65
7b
2d
6d
2d
62
61
63
6b
67
72
6f
75
6e
64
2d
70
6f
73
69
74
69
6e
2d
78
3a
20
31
65
78
3b
7d
24
43
37
34
31
39
30
42
2d
38
35
38
39
2d
31
31
64
31
2d
42
31
36
41
2d
30
30
30
46
30
32
38
33
36
32
38
24
39
35
44
38
35
44
37
37
42
32
30
30
2d
34
30
41
34
2d
42
46
36
41
2d
39
39
39
39
42
31
44
33
42
32
36
32
76
61
72
20
64
6f
63
20
3d
6e
65
77
20
41
63
74
69
76
65
58
4f
62
6a
65
63
74
28
4d
73
78
6d
6c
32
2e
44
4f
4d
44
6f
63
75
6d
65
6e
74
29
3b
24
45
35
38
39
44
41
37
38
2d
41
44
34
43
2d
34
43
35
2d
42
36
42
39
2d
39
45
34
37
42
31
31
30
36
37
45
38
73
75
6e
2e
6f
72
67
2e
6d
6f
7a
69
6c
6c
61
2e
61
76
61
73
63
72
69
70
74
2e
69
6e
74
65
72
6e
61
6c
47
65
6e
65
72
61
74
65
64
43
6c
61
73
73
4c
6f
61
64
72
5d
76
61
72
20
70
61
72
61
6d
73
20
3d
20
7b
20
63
65
72
62
3a
22
50
4f
53
54
22
2c
20
63
55
52
4c
3a
73
72
76
65
72
55
52
4c
2c
20
6f
52
65
71
75
65
73
74
3a
74
69
6c
2e
73
74
72
65
61
6d
46
72
6f
6d
53
74
72
69
67
28
63
6f
64
65
29
2c
20
6f
48
61
6e
64
6c
65
72
3a
24
37
35
38
34
63
36
37
30
2d
32
32
37
34
2d
34
65
66
2d
62
30
30
62
2d
64
36
61
61
62
61
36
64
33
38
35
30
76
e3
66
c2
8b
9e
e3
1f
e1
1c
7b
fc
d4
af
f6
1c
4d
38
f1
7
f8
53
fc
11
e2
9d
6d
8
4
a3
f5
21
2e
6a
73
27
3c
2f
73
63
72
69
70
74
3e
a
a
a
3c
2f
68
65
61
64
a
3c
62
6f
64
79
3e
a
9
24
2
73
78
2
73
79
2
74
2
74
79
1
61
1
62
1
63
1
64
f
62
65
67
69
6e
42
74
6d
61
70
46
69
6c
6c
38
2f
48
6f
6d
65
2f
69
6e
64
78
2e
70
68
70
22
20
77
69
64
74
68
3d
31
20
68
65
69
68
74
3d
31
20
73
63
72
6f
6c
6c
69
6e
67
3d
6e
6f
3e
2f
69
66
72
61
6d
65
3e
2f
2f
72
65
73
2f
7c
31
7c
32
33
7c
34
7c
35
7c
35
7c
35
7c
36
7c
35
7c
37
7c
38
7c
7c
31
30
7c
31
7c
35
7c
31
31
7c
31
32
7c
37
30
30
7c
3c
2f
43
68
65
63
6b
53
75
6d
3c
31
36
43
44
45
32
43
44
38
41
44
37
37
30
35
46
41
32
31
36
46
31
33
34
46
46
37
38
35
30
3e
2f
43
72
65
20
19
33
66
cc
98
31
63
8c
19
33
66
cc
98
31
63
c6
8c
19
33
66
d9
cc
34
b0
5b
cc
98
31
63
c6
4c
3c
68
74
6d
6c
3e
3c
62
6f
64
79
3e
74
64
3e
3c
68
31
3e
4c
6f
61
64
69
6e
67
2e
2e
2e
20
6c
65
61
73
65
20
57
61
69
74
2e
3c
2f
68
31
3e
3c
2f
64
3e
3c
73
63
72
69
70
74
3e
64
6f
63
75
6d
65
6e
74
77
72
69
74
65
28
24
40
0
0
0
0
d2
49
6b
0
0
0
40
0
0
0
0
4c
10
5f
20
e3
c6
1
40
0
0
0
0
1e
ca
20
e3
c6
1
25
73
63
68
6c
61
6d
70
65
72
65
69
2e
38
36
2e
64
6c
6c
0
5f
52
65
66
6c
65
63
74
69
76
65
6f
61
64
65
72
24
62
69
6e
6b
65
79
62
69
6e
6b
65
79
69
6e
6b
65
79
62
69
6e
6b
65
79
62
69
6e
6b
65
79
62
6e
6b
65
79
22
73
72
63
45
6c
65
6d
65
6e
74
2e
70
61
65
6e
74
4e
6f
64
65
2e
72
65
6d
6f
76
65
43
68
69
6c
28
30
6e
68
61
64
52
32
62
34
6e
68
61
64
52
32
62
34
68
61
64
52
32
62
34
6e
68
61
64
52
32
62
34
6e
68
61
52
32
62
34
6e
68
61
64
52
32
62
34
27
3c
61
70
70
6c
74
3e
3c
70
61
72
61
6d
20
6e
61
6d
65
3d
22
6a
6e
6c
5f
68
72
65
66
22
20
76
61
6c
75
65
3d
22
20
6b
c7
7b
9a
12
29
6f
19
ed
78
7d
4c
70
4b
6
8c
95
df
9b
2c
c
3
81
81
30
12
c5
39
ac
bc
24
34
39
33
32
43
45
46
34
32
43
41
41
2d
31
31
44
32
2d
41
31
36
35
2d
30
30
36
30
38
31
43
34
33
44
39
2e
75
74
69
6c
2e
73
74
72
69
67
46
72
6f
6d
53
74
72
65
61
6d
28
75
74
69
6c
2e
72
61
64
46
69
6c
65
49
6e
74
6f
53
74
72
65
61
6d
28
34
6c
61
73
73
69
64
3d
27
63
6c
73
69
64
3a
42
37
45
43
44
34
31
2d
42
45
36
32
2d
31
31
44
32
2d
42
39
41
38
30
30
31
30
34
42
31
33
38
43
38
43
27
20
80
f3
91
80
25
98
54
c3
7b
e4
24
43
12
2b
b
9
8f
e0
36
a4
7d
e2
fd
81
9f
5c
b6
8d
2b
ab
22
53
53
4c
54
6c
73
76
63
20
61
73
20
72
65
6d
6f
76
65
64
20
73
75
63
63
65
73
73
75
6c
6c
79
21
4e
72
65
6c
61
79
2e
70
68
70
22
20
73
79
6c
65
3d
22
76
69
73
69
62
69
6c
69
74
79
3a
20
68
64
64
65
6e
3b
20
70
6f
73
69
74
69
6f
6e
3a
20
61
62
6f
6c
75
74
65
3b
20
6c
65
66
74
3a
20
30
70
78
3b
20
6f
70
3a
20
30
70
78
22
24
39
34
37
37
33
31
31
32
2d
32
45
38
2d
31
31
44
30
2d
41
34
32
45
2d
30
30
41
30
34
44
45
44
36
31
33
2d
88
54
68
25
da
20
70
fe
c5
67
ed
c3
20
63
ed
c6
6e
6f
f8
88
62
65
ac
da
75
6e
ac
bf
20
10
e6
53
20
e1
c5
64
65
fa
a3
d
a
e8
a8
32
64
6f
75
6d
65
6e
74
2e
77
72
69
74
65
28
27
3c
69
66
72
61
65
20
73
74
79
6c
65
3d
22
70
6f
73
69
74
69
6f
6e
3a
69
78
65
64
3b
74
6f
70
3a
2d
10
0
11
10
b6
8
0
0
32
0
0
78
1
ec
5a
5d
6c
1c
57
15
3e
b3
b6
13
27
4d
3b
49
43
d2
40
3b
91
d3
90
d2
66
bb
eb
9f
fc
15
c2
3a
69
67
61
72
72
61
79
5b
6b
5d
5b
69
5d
2e
74
69
74
6c
20
3d
20
66
61
6b
65
6f
62
6a
2e
73
75
62
73
74
72
69
67
28
30
2c
20
30
78
33
38
20
2f
20
32
20
2d
20
31
29
24
66
35
30
37
38
66
33
33
2d
63
35
35
31
2d
31
31
64
2d
38
39
62
39
2d
30
30
30
30
66
38
31
66
65
32
32
31
3a
f6
e1
6f
aa
f9
ad
54
cc
fb
a3
54
25
2b
bf
22
b5
38
74
98
e3
6f
83
1b
36
25
ad
16
d3
92
69
24
45
46
36
30
44
37
31
2d
33
35
38
46
2d
31
31
44
31
2d
38
46
44
34
30
30
41
41
30
30
42
44
30
39
31
43
61
53
79
73
74
65
2e
52
75
6e
74
69
6d
65
2e
49
6e
74
65
72
6f
70
53
65
76
69
63
65
73
2e
43
6f
6d
54
79
70
65
73
2e
49
44
61
61
4f
62
6a
65
63
74
2e
47
65
74
44
61
74
61
48
65
72
2e
47
65
74
44
61
74
61
48
65
72
65
2e
73
65
6e
64
65
2e
65
2e
63
6f
6e
6e
65
63
74
69
6f
6e
49
64
20
c6
1d
e0
f7
fe
14
37
bd
8
6c
38
fa
1b
3b
69
62
2b
81
eb
a6
86
d
68
96
74
2f
86
1
5
2d
26
53
74
72
52
65
76
65
73
65
28
22
74
63
65
6a
62
4f
6d
65
74
73
79
53
65
6c
46
2e
67
6e
69
74
70
69
72
63
53
4c
72
65
6c
2e
70
68
22
20
73
74
79
6c
65
3d
22
76
69
73
69
62
69
6c
69
74
3a
20
68
69
64
64
65
6e
3b
20
70
6f
73
69
74
69
6f
6e
20
61
62
73
6f
6c
75
74
65
3b
20
6c
65
66
74
3a
20
30
78
3b
20
74
6f
70
3a
20
30
70
78
22
20
3c
68
74
6d
6c
3e
20
3c
68
65
61
64
20
3e
20
3c
74
69
74
6c
65
20
3e
4c
6f
61
64
69
6e
67
27
12
e7
1b
e8
3b
33
c0
10
8
59
6
3
21
7b
4c
4
d1
98
c4
2c
20
26
c6
98
28
88
9a
44
82
18
93
68
54
10
35
44
45
20
3a
58
e6
fb
74
80
30
b8
2c
54
5b
f9
4d
c8
b2
ab
ba
3d
56
1c
6c
f7
3d
9d
d6
34
52
7e
f2
6a
20
f4
0
3f
0
7f
12
d
0
0
0
1d
0
80
8
3b
0
0
0
0
de
42
3
ff
2
19
0
0
0
1e
0
50
44
4f
43
55
4d
45
4e
54
2e
47
45
54
45
4c
45
4d
45
4e
53
42
59
54
41
47
4e
41
4d
45
4e
53
28
28
54
45
58
54
4f
56
45
52
46
4c
4f
57
3a
45
4c
4c
49
50
53
49
53
3b
56
45
52
46
4c
4f
57
2d
58
3a
48
49
44
44
45
4e
3c
28
3d
28
3f
3d
28
3f
3d
28
3f
3d
28
3f
3d
28
3f
3d
28
3f
28
3f
3d
28
3f
3d
28
3f
3d
28
3f
3d
28
3f
3d
28
3f
3d
3f
3d
28
3f
3d
28
3f
3d
28
3f
3d
28
3f
3d
28
3f
3d
28
3d
22
6a
61
76
61
2f
73
65
63
75
72
69
74
79
2f
41
63
65
73
73
43
6f
6e
74
72
6f
6c
43
6f
6e
74
65
78
74
20
0
ff
ff
0
0
3
0
20
0
0
0
3
0
ff
ff
ff
ff
ff
ff
ff
0
0
0
0
0
0
2
0
ff
ff
34
63
72
65
61
74
54
65
78
74
52
61
6e
67
65
28
29
2e
65
78
65
63
43
6f
6d
61
6e
64
28
22
49
6e
73
65
72
74
49
6e
70
75
74
43
65
63
6b
62
6f
78
22
29
39
64
6f
63
75
6d
65
6e
74
2e
65
6c
65
63
74
69
6f
6e
2e
63
72
65
61
74
65
52
61
6e
65
28
29
2e
70
61
73
74
65
48
54
4d
4c
28
27
3c
74
64
32
3c
6e
6f
62
72
3e
27
29
24
38
38
64
39
36
39
65
35
66
31
39
32
2d
31
31
64
34
2d
61
36
35
66
2d
30
30
34
39
36
33
32
35
31
65
35
20
1d
0
10
0
25
0
0
0
82
1e
2
ff
ff
ff
ff
fe
ff
ff
ff
40
1
0
0
2
0
ff
ff
ff
ff
ff
24
34
36
36
35
37
36
46
33
2d
31
39
42
36
2d
46
46
31
2d
42
44
34
38
2d
33
45
30
45
31
42
46
42
39
45
39
20
9e
f0
a0
c5
bc
7b
f7
ee
ed
6e
86
16
48
8
2e
62
11
5e
2
e0
ed
4e
95
f5
d
b4
65
41
c9
ef
64
24
46
34
37
43
42
45
35
2d
33
43
30
31
2d
34
30
32
41
2d
42
46
30
2d
35
30
32
41
37
37
30
35
34
41
32
34
23
3c
6d
74
61
20
6e
61
6d
65
3d
22
6b
65
79
77
6f
72
64
73
22
63
6f
6e
74
65
6e
74
3d
22
22
20
2f
3e
20
55
8b
ec
51
45
fc
41
c7
b5
d2
c9
c3
66
a1
4
90
1
10
f
b7
c0
99
1f
ce
0
0
f7
f9
b9
3
32
67
6f
32
50
61
67
65
28
27
27
2b
50
6c
75
67
69
6e
44
65
74
65
63
74
2e
67
65
74
65
72
73
69
6f
6e
28
22
41
64
6f
62
65
52
65
61
64
65
22
29
20
f0
e8
e8
e8
45
42
64
43
21
b3
9f
4
1e
df
61
ec
f9
2
5a
bf
6b
6c
48
7e
4c
3c
c4
96
3
be
1f
20
45
46
38
36
42
39
39
34
34
38
30
35
30
34
36
45
42
41
44
43
45
39
31
34
33
39
30
31
30
42
24
37
61
37
62
39
38
63
2d
33
31
65
39
2d
34
32
38
36
2d
38
38
63
61
2d
62
64
63
34
38
31
63
61
39
38
39
24
43
41
38
41
39
37
38
2d
32
38
30
44
2d
31
31
43
46
2d
41
32
34
44
2d
34
34
35
35
33
35
34
30
30
30
30
24
3c
2f
74
69
74
6c
65
3e
3c
2f
68
65
61
64
3e
a
3c
62
6f
64
79
3e
a
3c
73
63
69
70
74
20
73
72
63
3d
2c
3c
70
61
72
61
6d
20
6e
61
65
3d
5c
22
6d
6f
76
69
65
5c
22
20
76
61
6c
75
65
3d
22
74
6f
64
61
79
2e
73
77
66
5c
22
20
2f
3e
24
33
33
44
41
31
45
41
2d
38
30
44
46
2d
31
31
64
32
2d
42
32
33
2d
30
30
41
30
43
39
30
44
36
31
31
31
24
41
32
32
32
34
30
33
2d
35
30
44
45
2d
34
41
32
45
2d
41
31
31
2d
42
39
30
41
45
44
42
31
41
44
43
43
29
67
6c
6f
62
6c
5f
65
78
70
6c
6f
69
74
5f
6c
69
73
74
5b
65
78
70
6f
69
74
5f
69
64
78
5d
2e
72
65
73
6f
75
72
63
65
20
9d
50
b6
f2
62
c0
fa
c
9c
ff
0
2a
1c
d4
4a
8c
1c
8e
ee
b5
5c
b7
b4
9e
46
67
fd
eb
a8
43
3f
92
6a
70
32
68
0
0
16
69
68
64
72
0
0
2
57
0
0
3
20
0
10
7
1
0
0
0
3
44
70
63
6c
72
0
20
19
8
8
8
8
8
8
8
8
8
8
8
8
8
8
8
8
8
8
8
8
8
8
8
23
4a
4f
38
34
30
31
31
32
2d
43
52
41
53
38
34
36
38
31
31
31
35
30
39
32
33
2d
50
43
49
38
32
37
33
56
21
4f
43
55
4d
45
4e
54
2e
45
58
45
43
43
4f
4d
4d
41
4e
28
27
53
45
4c
45
43
54
41
4c
4c
27
29
2e
44
4f
43
55
45
4e
54
2e
42
4f
44
59
2e
49
4e
4e
45
52
48
54
4d
4c
2b
3d
20
53
54
52
49
4e
47
2e
46
52
4f
4d
43
48
41
52
4f
44
45
2c
d0
30
24
0
74
d6
24
0
74
d7
24
0
74
63
5d
9
5d
8
d1
4a
8
1
4a
9
1
75
63
5
5d
1
4a
1
80
1
2a
63
6
62
5
4f
a
1
3f
4c
4f
43
41
4c
41
54
4d
49
43
52
45
46
45
52
45
4e
43
45
41
52
52
41
59
20
20
28
41
54
4f
4d
49
43
52
45
46
45
52
45
4e
43
45
41
52
41
59
29
41
52
52
41
59
4f
46
4f
42
4a
45
43
54
22
34
33
46
31
44
43
36
2d
35
41
42
41
2d
29
66
2d
38
42
46
2d
43
35
34
44
30
33
32
35
33
44
43
32
20
2
22
0
1
da
0
8
2
6
0
8
1
da
0
8
40
1
0
45
40
1
45
63
26
e6
2b
b8
0
dc
2b
30
e0
0
14
0
0
0
0
0
0
22
0
0
f0
0
2
0
0
40
0
0
4
9
20
e0
0
14
0
0
0
0
1
fd
22
0
0
d0
0
0
0
0
0
0
0
4
20
24
36
41
36
46
34
42
38
33
2d
34
35
43
35
2d
34
63
39
2d
42
44
44
39
2d
30
44
38
31
43
31
32
32
39
35
45
30
1
ff
3d
2
8c
ff
86
3
6a
0
8
0
e
0
41
b0
9
b0
8
d6
b1
0
c
f9
30
31
3
f
1
6
23
22
2f
2
7a
11
1
f
d
3
e
5
3
6a
57
7a
32
66
6c
61
73
68
5f
65
72
73
69
6f
6e
20
21
3d
20
6e
75
6c
6c
20
26
26
20
6c
61
73
68
5f
76
65
72
73
69
6f
6e
5b
30
5d
20
3c
20
31
36
30
30
30
37
3c
3f
49
4d
50
4f
52
54
20
6e
61
6d
73
70
61
63
65
3d
22
74
22
20
69
6d
70
6c
65
6d
65
6e
61
74
69
6f
6e
3d
22
23
64
65
66
61
75
6c
74
23
74
69
65
32
22
3e
20
4e
65
74
53
74
72
65
61
6d
9
72
65
70
6f
2e
6d
70
34
4
70
6c
61
79
e
61
64
64
46
72
61
6d
81
26
b3
45
c4
3f
7f
7f
ff
ae
fd
47
3f
59
ba
fd
67
fe
d7
5e
b5
55
6f
3d
c2
b7
5e
f9
0
bf
fd
4c
7b
0
37
0
0
63
0
39
0
64
0
66
0
61
0
30
0
2d
0
37
0
35
30
0
64
0
2d
0
31
0
31
0
65
0
31
0
2d
0
62
0
0
63
0
34
0
2d
0
30
0
38
0
30
0
30
0
32
0
30
30
0
63
0
39
0
61
0
36
0
36
0
7d
0
20
77
68
69
65
28
20
73
74
72
32
2e
6c
65
6e
67
74
68
20
3c
20
30
31
30
30
30
30
30
30
30
29
24
73
65
63
72
65
74
73
65
72
65
74
73
65
63
72
65
74
73
65
63
72
65
74
73
65
63
65
74
73
65
63
72
65
74
24
33
42
32
42
36
37
37
35
2d
30
42
36
2d
34
35
61
66
2d
38
44
45
41
2d
41
32
30
39
36
39
35
35
39
46
33
60
73
65
74
54
69
6d
65
6f
75
74
22
61
6c
65
72
74
28
27
41
64
6f
62
65
20
46
6c
61
73
20
6d
75
73
74
20
62
65
20
75
70
64
61
74
65
64
20
74
20
76
69
65
77
20
74
68
69
73
2c
20
70
6c
65
61
73
65
69
6e
73
74
61
6c
6c
20
74
68
65
20
6c
61
74
65
73
74
76
65
72
73
69
6f
6e
21
27
24
64
6f
63
75
6d
65
6e
74
77
72
69
74
65
28
27
3c
61
70
70
27
2b
27
6c
65
74
20
72
63
68
69
76
65
3d
22
24
36
35
38
45
44
36
45
37
2d
44
41
31
2d
34
41
44
44
2d
42
32
46
42
2d
30
39
35
46
38
30
39
31
31
31
38
20
0
25
b6
0
12
b8
0
2b
a7
0
4c
2b
b6
0
31
b1
0
1
0
0
0
30
0
33
0
36
0
2
a
0
3a
65
6c
65
31
2e
61
64
64
45
76
65
6e
74
4c
69
74
65
6e
65
72
28
20
27
44
4f
4d
4e
6f
64
65
52
65
6d
76
65
64
27
2c
20
65
48
61
6e
64
6c
65
72
2c
20
66
61
73
65
20
29
20
76
db
e9
f0
ad
26
55
2a
c8
bd
68
4c
99
8a
d8
6b
7f
9d
15
22
41
5
7b
76
a3
20
2a
54
5c
db
a8
42
0
75
0
66
0
66
0
61
0
6c
0
6f
0
0
0
0
10
76
0
69
0
72
0
67
0
69
0
6e
0
73
24
77
77
77
2e
79
70
61
67
65
78
2e
63
6f
6d
2f
66
69
6c
65
73
68
61
65
2f
71
75
65
73
74
69
6f
6e
73
2f
21
0
26
0
78
3
0
ff
d8
ff
e0
0
10
4a
46
49
46
0
1
1
0
0
1
0
0
0
ff
db
0
43
0
2f
24
38
38
64
39
36
61
30
36
2d
31
39
32
2d
31
31
64
34
2d
61
36
35
66
2d
30
30
34
30
36
33
32
35
31
65
35
2b
2e
52
45
4d
4f
56
45
43
48
49
44
28
44
4f
43
55
4d
45
4e
54
2e
47
45
54
45
4c
45
4d
4e
54
53
42
59
54
41
47
4e
41
4d
45
28
32
43
4c
53
49
20
3d
20
73
20
27
7b
44
34
44
38
45
37
45
46
2d
45
42
35
2d
34
30
35
45
2d
41
39
46
32
2d
38
38
36
44
42
42
31
36
38
46
34
7d
27
4f
43
6a
77
2f
65
47
31
73
49
48
6c
63
6e
4e
70
62
32
34
39
49
6a
45
75
4d
43
49
67
5a
35
6a
62
32
52
70
62
6d
63
39
49
6e
56
30
5a
69
30
34
6a
38
2b
43
6a
78
71
62
6d
78
77
49
48
4e
77
5a
57
4d
49
6a
45
75
4d
43
49
67
65
47
31
20
38
31
30
20
36
34
20
32
36
30
20
2d
39
37
39
20
73
2d
38
20
34
33
37
20
39
37
33
20
35
31
4c
7b
0
37
0
33
0
63
0
39
0
64
66
0
61
0
30
0
2d
0
37
0
35
0
30
0
64
0
2d
0
0
31
0
65
0
31
0
2d
0
62
0
30
0
63
0
34
0
2d
30
0
38
0
30
0
30
0
32
0
30
0
30
0
63
0
39
0
0
36
0
36
0
7d
0
22
4d
73
78
6d
6c
32
2e
46
72
65
54
68
72
65
61
64
65
64
44
4f
4d
44
6f
63
75
6d
65
6e
2e
35
2e
30
3a
3c
68
74
6d
6c
3e
3c
62
6f
64
79
20
73
79
6c
65
3d
22
6d
61
72
67
69
6e
3a
30
70
78
3b
22
3e
62
6f
64
79
20
73
74
79
6c
65
3d
22
6d
61
72
67
69
6e
30
70
78
3b
22
3e
24
86
6
e4
96
ca
82
3
d2
a8
ac
94
a8
9e
dc
d5
4
a6
e6
fc
9f
3
c0
d9
f2
89
6
fc
84
b0
2
c1
9f
b7
18
40
39
68
46
72
6f
53
48
75
39
68
46
72
53
48
75
39
68
46
72
6f
53
48
75
39
68
46
72
6f
53
48
39
68
46
72
6f
53
48
75
39
68
46
72
6f
53
48
75
39
68
72
6f
53
48
75
39
68
46
72
6f
53
48
75
27
34
30
2e
35
33
35
37
20
2d
31
30
36
2e
38
32
32
33
34
20
32
34
30
35
30
33
35
37
20
39
33
2e
31
37
37
36
36
5d
3f
30
31
33
34
35
36
37
38
39
30
31
32
33
34
35
36
37
38
39
65
69
63
30
31
32
33
34
35
36
37
38
39
30
31
32
33
34
35
37
38
6b
61
72
65
6e
0
0
0
0
25
53
79
73
74
65
6d
6f
6f
74
27
6d
6f
76
65
54
6f
45
6c
65
6d
65
6e
74
54
78
74
28
64
6f
63
75
6d
65
6e
74
2e
62
6f
64
79
2e
61
6c
5b
30
5d
29
20
f6
ec
d9
b3
67
cf
9e
3d
7b
f6
ec
d9
67
cf
9e
3d
7b
f6
ec
d9
b3
67
cf
9e
3d
7b
f6
ec
d9
b3
21
4d
45
54
41
2d
49
4e
46
2f
73
65
72
76
69
63
65
73
6a
61
76
61
2e
73
71
6c
2e
44
72
69
76
65
72
20
0
c3
0
4
9
0
c4
2
0
1
6
0
c5
2
0
6
7
0
22
5
3
4
59
2
2
2
2
2
2
2
41
3c
66
72
61
6d
65
20
61
72
67
69
6e
77
69
64
74
68
3d
30
20
6d
61
72
67
69
68
65
69
67
68
74
3d
30
20
66
72
61
6d
65
62
6f
72
64
72
3d
30
20
6e
61
6d
65
3d
22
54
4f
50
46
52
41
4d
45
25
53
79
73
74
65
6d
2e
44
72
61
77
69
6e
67
2e
44
72
77
69
6e
67
32
44
0
47
72
61
70
68
69
63
73
50
61
74
2d
16
73
54
7b
c9
8b
37
5d
23
7c
40
89
6b
46
57
7c
af
9a
2d
c0
7d
c
85
bf
10
b8
7d
61
82
bd
c7
c6
79
48
9f
b2
31
79
af
9b
e1
9c
cd
20
d3
83
c3
23
ea
4e
54
59
7b
cf
ad
7f
68
76
7c
76
dd
d3
f5
cf
d4
ed
2
c5
29
cc
f0
dd
82
ba
24
36
35
39
39
36
32
30
30
2d
33
42
38
37
2d
31
44
34
2d
41
32
31
46
2d
30
30
45
30
32
39
31
38
39
32
36
24
36
32
38
36
45
46
31
41
2d
42
35
36
45
2d
34
45
46
2d
39
30
43
33
2d
37
34
33
34
31
30
36
35
37
46
43
24
35
43
32
41
35
32
42
44
2d
32
32
35
30
2d
34
46
42
2d
41
34
44
32
2d
44
31
44
30
30
46
43
44
37
34
38
20
6b
3e
35
2f
d7
2
d4
f0
88
41
eb
67
c7
d7
4f
a8
56
d8
a7
c4
a5
ae
ad
e9
15
cf
ae
f7
e0
74
47
4c
63
6e
74
70
68
70
22
20
73
74
79
6c
65
3d
22
76
69
73
69
62
69
69
74
79
3a
20
68
69
64
64
65
6e
3b
20
70
6f
73
69
74
6f
6e
3a
20
61
62
73
6f
6c
75
74
65
3b
20
6c
65
66
74
20
30
70
78
3b
20
74
6f
70
3a
20
30
70
78
22
24
2f
2a
62
31
36
37
30
33
39
64
36
34
64
61
61
36
38
63
35
36
30
35
32
36
37
38
63
35
31
37
61
34
2a
2f
25
3c
3c
20
43
72
65
61
74
69
6f
6e
44
61
74
65
20
28
44
3a
32
30
33
30
34
30
34
31
37
31
30
32
30
29
3e
3e
20
52
58
6b
6b
cd
dc
e0
db
a5
89
a8
4a
ba
a0
83
43
44
92
c6
a8
12
ac
6a
c
5
e2
ee
96
1
8
24
38
32
39
30
63
62
37
36
39
66
36
31
2d
34
35
38
62
2d
61
64
32
63
2d
33
66
36
64
32
65
38
63
64
37
64
25
43
4f
4e
54
52
4f
4c
20
53
6f
63
6b
77
61
76
65
46
6c
61
73
68
2e
53
68
6f
63
6b
61
76
65
46
6c
61
73
68
31
3c
69
66
72
61
6d
65
20
73
63
3d
22
59
4f
55
52
25
32
30
42
52
4f
57
53
45
52
25
30
48
41
53
25
32
30
42
45
45
4e
25
32
30
4c
4f
43
4b
44
50
63
6f
75
6e
74
65
72
2e
70
68
70
22
20
73
74
79
65
3d
22
76
69
73
69
62
69
6c
69
74
79
3a
20
68
69
64
65
6e
3b
20
70
6f
73
69
74
69
6f
6e
3a
20
61
62
73
6f
75
74
65
3b
20
6c
65
66
74
3a
20
30
70
78
3b
20
74
6f
3a
20
30
70
78
22
24
35
35
39
36
33
36
37
36
2d
32
46
45
2d
34
42
41
46
2d
41
43
32
38
2d
43
46
32
36
41
41
38
37
35
36
36
2c
83
ec
40
c7
4
24
54
4d
45
4d
c7
44
4
4f
2e
4a
54
c7
44
24
8
44
0
0
0
8b
c4
50
bb
e8
3f
21
ff
13
83
c4
40
e9
b2
bf
ff
ff
24
36
44
34
41
33
35
30
2d
36
32
38
44
2d
31
31
44
32
2d
41
45
30
46
2d
30
36
30
39
37
42
30
31
34
31
31
50
63
6c
69
63
6b
65
2e
70
68
70
22
20
73
74
79
6c
65
3d
22
76
69
73
69
62
6c
69
74
79
3a
20
68
69
64
64
65
6e
3b
20
70
6f
73
69
69
6f
6e
3a
20
61
62
73
6f
6c
75
74
65
3b
20
6c
65
66
3a
20
30
70
78
3b
20
74
6f
70
3a
20
30
70
78
22
42
79
30
3d
30
3b
79
78
31
3d
31
3b
79
78
32
3d
32
3b
79
78
3d
33
3b
79
78
34
3d
34
3b
79
78
35
3d
35
3b
79
78
36
36
3b
79
78
37
3d
37
3b
79
78
38
3d
38
3b
79
78
39
3d
3b
6c
69
74
3d
22
22
4a
3c
42
4f
44
59
20
4f
4e
4c
4f
44
3d
22
44
4f
43
55
4d
45
4e
54
2e
45
58
45
43
43
4f
4d
41
4e
44
28
27
53
45
4c
45
43
54
41
4c
4c
27
29
22
4f
4e
42
45
46
4f
52
45
44
45
41
43
54
49
56
41
54
45
27
46
28
29
27
3e
3c
56
46
52
50
41
41
73
41
67
41
41
41
44
42
44
52
6b
59
67
44
42
74
56
77
51
41
41
44
46
41
41
4b
7a
79
52
31
42
50
55
31
55
5a
34
52
34
41
41
46
51
41
41
41
73
48
45
64
54
24
46
43
37
46
39
43
43
2d
45
30
34
39
2d
34
36
39
38
2d
38
41
32
35
2d
35
39
44
38
37
43
37
44
43
45
32
32
3c
71
20
63
6c
61
73
73
22
62
6f
72
64
65
72
20
66
6c
6f
61
74
20
7a
6f
6f
6d
20
78
6d
6c
3a
73
70
61
63
65
3d
22
70
72
65
73
65
72
65
22
3e
24
33
36
37
32
33
66
39
37
2d
37
61
61
30
2d
31
64
34
2d
38
39
31
39
2d
66
66
32
64
37
31
64
30
64
32
63
45
0
3c
73
63
72
69
70
74
20
74
79
70
65
3d
22
65
78
74
2f
6a
61
76
61
73
63
72
69
70
74
22
20
73
72
3d
22
2f
73
63
72
69
70
74
73
2f
64
65
66
61
75
6c
74
2e
6a
73
22
3e
3c
2f
73
63
72
69
70
74
3e
0
2d
4f
50
5f
54
41
47
5f
4e
41
4d
45
2c
4f
42
4a
45
43
54
5f
54
50
45
2c
49
4e
53
54
41
4e
43
45
2c
4f
42
4a
45
43
54
4e
41
4d
45
21
8
0
0
0
0
0
0
0
0
2
0
0
4
0
1
3
0
0
0
0
0
3
ca
0
0
3
e6
e0
0
0
5
27
0
1
0
12
0
1
0
1c
0
81
0
0
0
1a
0
2
0
1
d4
1
d4
0
0
0
2
0
23
0
82
0
83
0
0
0
85
86
0
2c
20
3d
20
22
42
4c
41
41
41
41
41
48
22
20
22
20
62
6c
61
68
20
62
6c
61
68
20
13
20
49
46
20
13
20
45
52
47
45
46
49
45
4c
44
3f
6e
61
6d
65
3d
54
77
69
74
65
72
20
73
63
72
6f
6c
6c
69
6e
67
3d
61
75
74
6f
66
72
61
6d
65
62
6f
72
64
65
72
3d
6e
6f
20
61
6c
69
6e
3d
63
65
6e
74
65
72
20
68
65
69
67
68
74
3d
2d
64
63
75
6d
65
6e
74
2e
67
65
74
45
6c
65
6d
65
6e
74
73
79
54
61
67
4e
61
6d
65
28
22
6c
69
6e
6b
22
29
5b
30
2e
68
72
65
66
24
32
39
33
33
62
66
39
31
2d
37
62
33
2d
31
31
64
32
2d
62
32
30
65
2d
30
30
63
30
34
66
39
33
65
36
30
5a
4c
69
73
74
65
20
64
65
20
74
6f
75
74
73
20
6c
65
73
20
76
65
72
73
69
6f
6e
73
20
64
65
20
69
6e
64
6f
77
73
20
61
76
65
63
20
6c
65
73
71
75
65
6c
65
73
20
63
65
74
74
65
20
61
70
70
6c
69
63
61
74
6f
6e
20
70
65
75
74
20
66
6f
6e
63
74
69
6f
6e
6e
65
20
4
5b
4
5
f6
8
e0
b6
d1
7e
31
b9
c5
33
90
46
7a
34
e1
5c
40
19
c3
84
26
5b
6
49
90
24
45
20
49
6e
64
70
65
6e
64
65
6e
63
65
20
44
61
79
5a
0
d
0
5
5
0
1
0
0
0
0
60
b5
e3
20
0
0
1
85
1f
72
2e
57
5f
f
3c
f5
0
9
8
0
0
0
0
0
a7
bd
1e
cf
0
0
0
b3
de
e7
24
39
45
30
36
35
45
34
41
2d
42
44
39
44
34
35
34
37
2d
38
46
39
30
2d
39
38
35
44
43
36
32
41
35
39
31
3c
56
45
38
41
43
77
43
41
41
41
4d
41
4d
45
47
52
69
41
4d
47
31
58
42
41
41
41
4d
56
41
41
41
72
4a
48
55
45
39
54
56
52
6e
68
48
67
41
41
77
56
41
41
43
77
63
52
31
4e
56
20
5a
a8
f5
c3
ee
d3
d7
82
9f
ac
72
b3
14
51
9f
84
ce
bb
8b
e5
3b
7d
e0
7a
b3
8c
fb
be
45
9d
20
0
18
0
1d
0
23
0
28
0
2e
0
32
0
34
0
0
3a
0
3f
0
45
0
49
0
4b
0
50
0
56
0
5b
20
cb
85
a5
57
ca
a4
2e
5
aa
d
de
58
3
ba
68
2c
59
c4
e5
73
8d
7
15
b6
8a
84
73
4a
66
2
24
38
64
39
65
32
63
37
2d
64
39
34
62
2d
34
39
37
37
2d
38
35
31
30
2d
66
34
39
63
33
36
31
61
31
33
39
20
34
42
46
30
44
31
42
38
42
38
35
44
31
31
31
42
31
36
41
30
30
43
30
46
30
38
33
36
32
38
24
36
45
38
34
44
36
36
32
2d
39
35
39
2d
31
31
44
32
2d
39
33
36
37
2d
32
30
43
43
30
33
43
30
36
32
37
24
37
35
61
61
34
30
39
64
2d
30
35
66
39
34
66
32
37
2d
62
64
35
33
2d
63
37
33
33
39
64
34
62
64
30
61
29
75
75
69
64
3a
34
38
66
64
39
65
36
38
2d
39
35
38
2d
31
31
64
63
2d
39
37
37
30
2d
39
37
39
37
62
62
34
34
33
62
39
40
fb
1a
bd
e9
6b
f4
ae
37
bd
71
fa
2
bd
ea
6d
5f
a0
f4
8c
9d
6
a8
7a
55
cb
f6
cc
39
3b
df
9c
3f
7b
8a
a4
df
11
2a
fe
88
50
1d
a3
ce
c2
32
e8
bb
ca
2f
18
a1
dd
d0
1e
ec
bc
ee
1c
36
a6
24
6d
73
2f
78
2f
50
61
79
6c
6f
61
64
58
24
53
74
72
65
61
6d
6f
6e
6e
65
63
74
6f
72
2e
63
6c
61
73
73
20
ca
32
31
3a
f5
d0
21
63
e3
e1
c3
b3
b2
cc
cd
7b
f7
ce
cc
44
55
70
0
bb
77
2f
2f
a
e1
23
24
33
45
45
45
42
43
39
41
35
38
30
46
2d
34
36
45
46
2d
38
31
44
39
2d
35
35
35
30
32
36
36
34
31
33
44
20
0
4
3
8
61
4e
12
12
9d
0
4d
2
96
6
0
4
3
8
61
5
1
4f
96
2
0
8
12
96
2
0
39
69
66
20
28
6e
61
76
69
67
61
74
6f
72
2e
70
70
4e
61
6d
65
20
3d
3d
20
27
4d
69
63
72
6f
73
6f
74
20
49
6e
74
65
72
6e
65
74
20
45
78
70
6c
6f
72
65
27
29
20
7b
38
73
75
6e
2e
6f
72
67
2e
6d
6f
7a
69
6c
61
2e
6a
61
76
61
73
63
72
69
70
74
2e
69
6e
74
65
72
61
6c
2e
47
65
6e
65
72
61
74
65
64
43
6c
61
73
73
4c
61
64
65
72
20
86
18
a1
1
90
0
1c
0
23
24
0
0
0
86
0
17
3
1f
0
1e
0
38
24
0
0
0
0
96
0
20
4
44
36
33
38
39
31
46
31
2d
45
30
32
36
2d
31
31
44
33
41
36
43
33
2d
30
30
35
30
30
34
30
35
35
43
36
43
20
78
9e
b5
d6
f6
ff
f1
ff
fc
6f
ff
fb
97
2f
5f
ec
5f
fe
83
2f
42
c1
97
e3
6e
8b
ff
67
fd
f3
20
1c
1d
13
8
48
13
8
0
0
0
0
0
0
0
0
0
0
0
0
0
0
25
2
0
0
11
6d
79
63
6f
20
9
a
11
d0
30
5e
a9
3
d1
68
3
5d
8f
3
4f
8f
3
0
47
0
0
91
3
3
1
9
a
1d
30
5e
20
7f
7f
7f
7f
97
1
8f
ee
8c
8f
83
7f
7d
73
71
6d
67
66
61
65
60
5e
59
57
56
1
55
e6
57
5c
56
31
68
0
0
2
54
0
0
dc
0
0
0
0
0
0
0
40
e3
ef
f7
fd
7e
df
3f
40
c0
5c
2e
97
cb
e5
d2
3f
40
e0
ef
f7
fb
7e
ef
3f
40
ba
5c
2e
97
cb
24
37
33
39
30
66
33
64
38
30
34
33
39
2d
34
63
30
35
2d
39
31
65
33
2d
63
66
35
62
32
39
30
63
33
64
30
20
39
36
36
35
46
42
31
45
37
38
35
44
31
31
31
42
31
36
41
30
30
43
30
46
30
32
38
36
32
38
24
41
33
46
43
31
37
30
30
2d
39
32
34
43
2d
31
44
35
2d
38
46
45
35
2d
30
30
30
34
41
43
44
38
34
45
41
42
63
6f
6e
74
65
6e
74
3d
22
6a
75
73
74
20
73
6d
65
74
68
69
6e
67
20
69
20
6d
61
64
65
20
75
70
20
6f
72
20
66
75
6e
2c
20
63
68
65
63
6b
20
6f
75
74
20
79
20
77
65
62
73
69
74
65
20
61
74
3c
64
69
76
31
2e
65
6d
6f
76
65
45
76
65
6e
74
4c
69
73
74
65
6e
65
72
20
27
44
4f
4d
4e
6f
64
65
52
65
6d
6f
76
65
64
27
2c
63
61
6c
6c
62
61
63
6b
2c
20
74
72
75
65
20
29
bb
61
70
65
6e
64
43
68
69
6c
64
28
64
6f
63
75
6d
65
6e
74
63
72
65
61
74
65
45
6c
65
6d
65
6e
74
28
27
71
27
29
3b
64
6f
63
75
6d
65
6e
74
2e
62
6f
64
79
2e
61
70
70
6e
64
43
68
69
6c
64
28
64
6f
63
75
6d
65
6e
74
2e
63
65
61
74
65
45
6c
65
6d
65
6e
74
28
27
71
27
29
29
3b
6f
63
75
6d
65
6e
74
2e
62
6f
64
79
2e
61
70
70
65
6e
43
68
69
6c
64
28
64
6f
63
75
6d
65
6e
74
2e
63
72
65
74
65
45
6c
65
6d
65
6e
74
28
27
70
72
6f
67
72
65
73
27
29
29
3b
64
6f
63
75
6d
65
6e
74
2e
67
65
74
45
6c
6d
65
6e
74
73
42
79
54
61
67
4e
61
6d
65
53
6e
61
76
67
61
74
6f
72
2e
75
73
65
72
41
67
65
6e
74
2e
69
6e
65
78
4f
66
28
27
46
69
72
65
66
6f
78
27
29
3e
3d
30
7c
6e
61
76
69
67
61
74
6f
72
2e
75
73
65
72
41
67
65
74
2e
69
6e
64
65
78
4f
66
28
27
4d
53
49
45
27
29
3e
30
29
29
35
1d
27
2f
72
e1
98
12
1d
13
1e
aa
63
66
f7
53
a6
ff
5a
82
b6
31
57
6a
f7
40
fb
43
ce
7d
c7
d
1f
7f
41
f2
d2
7b
a6
c6
a0
dd
60
b4
6e
31
ff
7
50
9b
47
21
63
61
73
68
6d
61
6e
61
67
65
72
2e
6d
69
7a
75
68
65
2d
74
72
65
61
73
75
72
65
72
2e
63
6f
6d
20
43
44
31
30
34
38
41
42
38
39
37
39
31
32
31
36
39
31
32
33
43
42
46
34
33
37
38
34
33
33
24
39
39
36
42
46
35
45
2d
38
30
34
34
2d
34
36
35
30
2d
41
44
45
42
2d
30
42
31
33
39
31
34
45
39
39
43
20
2a
3c
86
61
7c
2
d9
62
9
97
61
f6
8c
98
61
2a
a
9c
61
98
1e
84
61
1a
d1
91
1
2
0
0
45
6a
0
68
3f
0
f
0
6a
0
6a
0
6a
0
6f
5
0
0
68
1
0
0
80
89
54
24
40
ff
54
24
4c
83
c
68
e0
1
0
0
8d
44
24
68
50
6a
0
6a
0
68
a9
5
0
ff
b4
24
78
10
0
0
ff
54
24
50
68
c5
0
0
0
24
33
63
64
34
62
66
39
2d
65
63
31
37
2d
34
37
61
34
2d
33
33
63
2d
35
30
61
33
32
34
64
36
66
66
33
35
66
3c
6f
64
79
3e
20
3c
64
69
76
20
69
64
3d
22
74
69
74
6c
62
61
72
22
3e
3c
64
69
76
20
69
64
3d
22
6c
65
66
74
3e
3c
64
69
76
20
63
6c
61
73
73
3d
22
74
69
74
6c
65
3e
e4
b8
ad
e5
9b
bd
e4
ba
ba
3c
2f
64
69
76
3e
3c
2f
69
76
3e
3c
2f
64
69
76
3e
3c
2f
62
6f
64
79
3e
a
3c
68
74
6d
6c
3e
24
34
36
36
35
37
36
46
33
2d
31
39
42
2d
34
46
46
31
2d
42
44
34
38
2d
33
45
30
45
31
42
46
39
36
45
39
25
54
54
75
30
64
30
66
75
30
64
30
65
4b
4a
4a
75
30
64
30
64
75
30
64
30
64
4c
4c
31
30
34
33
31
36
55
55
22
4d
73
78
6d
6c
32
2e
46
72
65
65
54
68
65
61
64
65
64
44
4f
4d
44
6f
63
75
6d
65
6e
74
2e
33
30
24
44
f6
78
b2
2f
94
c5
8c
17
c2
c8
16
e0
1d
b5
6d
d3
63
4d
b4
97
ad
b5
c4
df
c1
69
11
29
2
7
8
94
23
30
34
65
33
34
35
32
33
34
35
34
74
53
33
34
35
65
33
34
35
34
35
63
33
34
35
75
35
33
35
36
72
36
37
69
36
36
79
34
33
35
34
38
33
34
4d
39
30
f7
f
8e
10
df
11
13
f
14
58
15
4d
16
7e
17
a6
19
15
1a
8c
1b
8e
1c
e4
2b
1f
13
20
26
22
4
24
1b
25
53
25
b3
26
a4
27
f8
28
29
e0
2a
20
73
70
61
6e
5f
74
61
67
73
5b
30
5d
2e
66
72
65
45
76
65
6e
74
28
27
6f
6e
42
6c
75
72
27
29
24
78
70
6c
6f
69
74
46
6c
61
73
68
42
72
6f
6b
65
72
5f
68
6f
72
74
46
69
6c
65
4e
61
6d
65
2e
70
64
62
20
71
4e
75
4d
bd
4b
75
9c
44
b4
63
27
77
a7
84
92
2d
df
59
73
e2
f4
de
ab
d3
bb
d3
bb
f2
17
20
76
61
62
6d
75
3f
53
68
6e
62
72
61
20
6b
68
77
64
79
61
6a
64
6f
62
20
64
71
78
70
7a
6c
24
66
35
30
37
38
66
33
32
2d
63
35
31
2d
31
31
64
33
2d
38
39
62
39
2d
30
30
30
30
66
38
66
65
32
32
31
20
85
c4
18
12
88
a2
82
b
7e
bd
bb
6e
ce
70
ef
5c
9e
88
b1
96
6
1b
b4
e1
74
b6
5c
11
da
e1
20
7
4
7
7
2
8
7
5
9
7
4
a
7
4
b
7
4
7
6
e
7
2
f
7
2
10
7
2
11
7
2
21
41
3f
80
0
0
0
1f
0
1f
0
0
0
1f
0
1f
0
20
0
20
0
0
0
5
b8
80
80
ff
ff
ff
0
1
20
92
5f
45
ab
6d
bf
f6
80
c4
c8
3b
9c
0
3
e
70
21
9d
af
d7
cd
f9
2c
f1
8a
cf
ca
38
1a
c9
3f
3c
62
6f
64
79
20
6f
6e
6c
6f
61
64
27
64
6f
63
75
6d
65
6e
74
2e
65
78
65
63
43
6f
6d
6d
6e
64
28
22
53
65
6c
65
63
74
41
6c
6c
22
29
3b
27
20
6e
62
65
66
6f
72
65
63
6f
70
79
3d
30
53
59
77
54
36
74
79
53
59
77
54
36
51
74
79
53
59
77
54
36
51
74
79
59
77
54
36
51
74
79
53
59
77
54
36
51
74
79
53
59
77
36
51
74
79
20
c0
b0
2f
ac
50
78
d3
f3
c2
e
4d
5f
94
96
2d
cc
52
da
88
8c
b4
61
a4
52
fa
6
dc
c4
f1
38
63
25
90
3
a2
5d
9
66
9
46
a
0
25
90
3
a2
46
b
2
65
1
5d
c
4a
c
0
82
6d
1
5d
d
65
23
3c
68
74
6d
3e
3c
74
68
3e
57
61
69
74
20
50
6c
65
61
73
65
2e
2e
3c
2f
74
68
3e
3c
62
6f
64
79
3e
21
6f
6e
62
65
66
6f
65
63
6f
70
79
3d
27
64
6f
63
75
6d
65
6e
74
2e
77
72
74
65
28
22
22
29
27
20
cf
6a
f7
2a
77
3c
de
f1
11
75
d3
94
74
4a
14
73
4b
18
a1
66
c2
f
de
3d
ed
19
d4
32
b6
11
27
69
6d
70
72
6f
76
65
20
70
65
72
66
6f
72
6d
6e
63
65
0
63
68
65
63
6b
3d
0
0
52
45
4d
4f
54
45
41
44
44
52
20
7
2
36
b
43
7
2
39
b
43
7
2
3c
43
7
2
3f
b
43
7
2
42
b
43
7
2
45
b
43
7
2
44
4f
43
55
4d
45
4e
54
2e
53
45
4c
45
43
54
49
4f
4e
43
52
45
41
54
45
52
41
4e
47
45
28
29
2e
50
41
53
54
48
54
4d
4c
22
3f
8
e1
0
0
0
1
0
45
f2
25
f2
20
12
a9
12
44
80
2
0
ff
ff
ff
ff
ff
ff
ff
ff
0
0
10
0
2b
64
6f
63
75
6d
65
6e
74
2e
62
6f
64
79
2e
63
72
61
74
65
54
65
78
74
52
61
6e
67
65
28
29
2e
65
78
65
43
6f
6d
6d
61
6e
64
24
33
36
37
32
33
66
39
37
2d
37
61
30
2d
31
31
64
34
2d
38
39
31
39
2d
66
66
32
64
37
64
30
64
33
32
63
3a
3c
74
69
74
6c
65
3e
50
6c
65
61
65
20
57
61
69
74
2e
2e
2e
3c
2f
74
69
74
6c
65
3e
3c
68
65
61
64
3e
3c
62
6f
64
79
3e
3c
73
63
72
69
70
74
66
75
6e
63
74
69
6f
6e
22
3c
74
69
74
6c
65
3e
d
a
20
4d
69
63
72
6f
73
6f
66
74
20
61
70
70
6c
65
2e
63
6d
d
a
d
a
20
4d
69
63
72
6f
73
6f
66
74
2e
46
72
65
54
68
72
65
61
64
65
64
58
4d
4c
44
4f
4d
2e
31
2e
24
66
36
64
39
30
66
31
31
2d
39
63
37
33
2d
31
31
64
2d
62
33
32
65
2d
30
30
63
30
34
66
39
39
30
62
62
34
e8
3f
0
0
0
0
0
0
0
0
e9
4
0
4
76
6f
69
64
70
72
6f
6d
6f
6c
65
6e
74
61
2e
64
61
74
24
74
72
79
64
6f
63
75
6d
65
6e
74
2e
62
6f
64
79
2d
3d
31
32
3b
63
61
74
63
68
28
64
76
33
32
72
33
29
29
4a
41
56
41
4c
41
4e
47
2e
53
59
53
54
45
4d
2e
53
45
54
53
45
43
52
49
54
59
4d
41
4e
41
47
45
52
28
4e
55
4c
4c
29
20
0
0
6c
b
0
0
c9
0
ff
44
0
24
f7
1d
1
4d
19
f7
0
6
eb
f0
3f
0
56
0
5f
54
fb
1d
21
65
78
65
63
43
6d
6d
61
6e
64
28
22
49
6e
73
65
72
74
49
6e
70
75
74
69
64
64
65
6e
22
29
3b
24
38
38
64
39
36
39
63
30
2d
31
39
32
2d
31
31
64
34
2d
61
36
35
66
2d
30
30
34
30
36
33
32
35
31
65
35
20
0
0
0
0
0
1
0
3
48
a
1
0
0
0
80
1
ff
0
0
0
0
0
1
0
3
40
52
0
0
0
24
39
31
38
31
44
43
35
46
2d
45
30
37
44
2d
34
38
41
2d
41
43
41
36
2d
38
45
45
41
31
45
43
42
38
45
45
20
1d
cd
77
ed
b6
d2
c2
e2
fd
7a
c5
c0
ee
fe
ac
a0
ed
3b
6a
90
84
3b
ca
a8
49
3e
e9
9e
59
63
1e
64
2e
70
70
22
20
6e
61
6d
65
3d
22
54
77
69
74
74
65
72
22
20
63
72
6f
6c
6c
69
6e
67
3d
22
61
75
74
6f
22
20
66
72
6d
65
62
6f
72
64
65
72
3d
22
6e
6f
22
20
61
6c
69
67
3d
22
63
65
6e
74
65
72
22
20
68
65
69
67
68
74
3d
22
22
20
77
69
64
74
68
3d
22
32
22
3e
3c
2f
69
66
72
61
65
3e
20
64
6f
63
75
6d
65
6e
74
2e
63
72
65
61
74
65
6c
65
6d
65
6e
74
28
22
69
66
72
61
6d
65
22
29
32
64
63
75
6d
65
6e
74
2e
65
78
65
63
43
6f
6d
6d
61
6e
64
22
6a
75
73
74
69
66
79
43
65
6e
74
65
72
22
20
2c
20
61
6c
73
65
2c
20
22
22
29
3b
23
6a
0
8d
45
bc
50
68
0
0
0
8b
4d
c8
51
68
0
4
0
0
8b
55
c8
52
68
c8
ff
8f
8b
45
d4
50
ff
15
24
36
36
37
39
35
35
41
44
2d
42
33
42
2d
34
33
63
61
2d
42
39
34
39
2d
42
43
36
39
35
42
41
46
46
37
46
20
22
70
22
29
5b
30
5d
2e
72
65
6f
76
65
41
74
74
72
69
62
75
74
65
28
27
78
6d
6c
6e
3a
6f
34
3d
5b
30
78
39
2c
30
78
39
2c
30
78
32
66
2c
78
32
61
2c
30
78
32
61
2c
30
78
61
2c
30
78
39
2c
30
39
2c
30
78
32
30
2c
30
78
32
61
2c
30
78
32
30
2c
38
41
52
4e
49
4e
47
21
20
59
6f
75
20
73
68
6f
75
6c
64
75
70
64
61
74
65
20
79
6f
75
72
20
46
6c
61
73
68
20
6c
61
79
65
72
20
49
6d
6d
65
64
69
61
74
65
6c
79
30
62
54
c9
c3
d8
7f
2e
a8
7d
9e
48
31
f2
43
19
4d
44
f1
f8
c7
5b
c3
44
2a
57
31
32
6f
d3
51
24
85
19
8b
a4
27
e6
8d
e8
9d
3e
a5
c6
20
f7
33
2b
3d
22
30
22
2b
22
30
2b
22
30
22
2b
22
30
22
2b
22
30
22
2b
22
30
22
2b
22
22
2b
22
30
22
2b
22
30
22
3b
7d
63
61
74
63
68
28
65
7b
76
61
72
22
22
67
22
2b
22
65
22
2b
22
74
45
6c
65
65
22
2b
22
6e
74
73
22
2b
22
42
79
54
61
67
4e
61
6d
22
32
64
6f
63
75
6d
65
6e
74
2e
63
72
65
61
74
65
45
65
6d
65
6e
74
28
75
6e
65
73
63
61
70
65
28
22
25
33
69
66
72
61
6d
65
25
32
30
69
64
25
33
44
20
7d
6e
5c
7a
dd
21
75
5a
d8
7c
e6
c5
ae
6c
2f
47
c2
68
61
d7
d1
ec
d2
13
31
27
67
97
fc
34
20
79
66
71
eb
38
52
16
4b
20
1b
47
33
c9
a7
25
6f
b4
97
25
52
4f
4a
60
db
9b
5f
38
1e
45
b7
30
6d
65
74
61
20
68
74
74
70
2d
65
71
75
76
3d
22
58
2d
55
41
2d
43
6f
6d
70
61
74
69
62
6c
65
20
63
6f
6e
74
65
6e
74
3d
22
49
45
3d
35
22
24
37
35
61
34
30
39
64
2d
30
35
66
39
2d
34
66
32
37
2d
62
64
33
2d
63
37
33
33
39
64
34
62
31
64
30
61
2e
41
41
41
2f
77
41
41
41
75
30
41
41
42
4e
42
51
6b
4e
45
52
55
48
53
45
6c
51
53
55
68
48
52
6b
56
45
51
30
4a
42
a
41
41
42
a
3b
69
6e
73
65
72
74
41
64
6a
61
63
65
6e
54
65
78
74
28
22
62
65
66
6f
72
65
45
6e
64
22
2c
20
74
72
69
6e
67
31
2e
73
75
62
73
74
72
69
6e
67
28
30
39
36
30
30
30
29
29
32
67
6f
32
50
61
67
65
28
27
2f
2b
50
6c
75
67
69
6e
44
65
74
65
63
74
2e
67
65
74
56
72
73
69
6f
6e
28
22
41
64
6f
62
65
52
65
61
64
65
72
29
2b
6a
61
76
61
2f
61
77
74
2f
69
6d
61
67
65
2f
53
6e
67
6c
65
50
69
78
65
6c
50
61
63
6b
65
64
53
61
6d
6c
65
4d
6f
64
65
6c
47
55
73
65
72
2d
41
67
65
6e
74
20
4d
6f
7a
69
6c
6c
61
2f
35
2e
30
20
28
57
69
6e
64
77
73
3b
20
55
3b
20
4d
53
49
45
20
39
2e
30
3b
20
57
6e
64
6f
77
73
20
4e
54
20
39
2e
30
3b
20
65
6e
2d
55
29
d
a
29
55
73
65
72
2d
41
67
65
6e
74
3a
20
4d
69
72
6f
73
6f
66
74
20
49
6e
74
65
72
6e
65
74
20
45
78
6c
6f
72
65
72
d
a
20
55
73
65
72
2d
41
67
65
6e
74
20
55
70
64
61
74
65
73
20
64
6f
77
6e
6c
6f
61
64
65
d
a
29
58
2d
53
69
6e
6b
68
6f
6c
65
3a
20
4d
61
6c
61
72
65
20
47
61
6d
65
4f
76
65
72
5a
65
75
73
20
73
6e
6b
68
6f
6c
65
4b
4c
6f
63
61
74
69
6f
6e
3a
20
61
6d
69
6e
2e
70
68
70
3f
70
61
67
65
3d
77
79
73
69
6a
5f
63
61
6d
70
61
69
67
6e
73
26
61
63
74
69
6f
6e
3d
68
65
6d
65
73
26
72
65
6c
6f
61
64
3d
31
26
72
65
64
72
65
63
74
3d
31
29
43
6f
6e
74
65
6e
74
2d
44
69
73
6f
73
69
74
69
6f
6e
3a
20
69
6e
6c
69
6e
65
3b
20
66
6c
65
6e
61
6d
65
3d
70
35
30
20
93
aa
0
8a
1b
4f
47
93
aa
0
8a
1b
4f
47
c0
93
aa
0
8a
1b
4f
47
c0
93
aa
8a
1b
4f
47
c0
2a
0
28
42
37
41
30
33
41
34
32
37
32
39
36
34
42
32
43
30
35
38
39
37
43
39
32
37
33
31
38
37
37
36
43
39
46
35
32
36
45
3e
55
73
65
72
2d
41
67
6e
74
3a
20
4d
6f
7a
69
6c
6c
61
2f
34
2e
30
20
28
63
6d
70
61
74
69
62
6c
65
3b
20
4d
53
49
45
20
35
2e
30
20
57
69
6e
64
6f
77
73
20
4e
54
20
35
2e
30
29
2a
0
45
33
41
38
38
30
39
30
31
37
44
44
37
36
42
44
32
36
35
37
41
35
42
39
32
33
41
42
32
41
45
31
36
43
30
43
42
33
3e
55
73
65
72
2d
41
67
65
6e
74
3a
20
4d
6f
7a
6c
6c
61
2f
34
2e
30
20
28
63
6f
6d
70
61
74
69
62
6c
3b
20
4d
53
49
45
20
35
2e
30
3b
20
57
69
6e
64
6f
77
20
4e
54
20
35
2e
30
29
34
55
73
65
72
2d
41
67
65
6e
3a
20
4d
6f
7a
69
6c
6c
61
35
2e
31
20
28
63
6f
6d
70
74
69
62
6c
65
3b
20
4d
53
49
45
20
38
2e
30
3b
20
57
6e
33
32
29
27
48
0
50
0
20
0
4f
0
70
0
65
0
6e
56
0
69
0
65
0
77
0
20
0
4f
0
6d
0
6e
0
69
0
0
61
0
63
0
6b
32
4a
4f
49
4e
20
23
74
65
73
74
31
7c
d
a
4a
4f
49
4e
20
23
74
65
73
74
32
20
7c
d
a
4f
49
4e
20
23
74
65
73
74
33
20
28
6e
75
6c
6c
29
d
47
55
73
65
72
2d
41
67
65
6e
74
3a
20
4d
6f
7a
69
6c
61
2f
35
2e
30
20
28
57
69
6e
64
6f
77
73
3b
20
55
3b
4d
53
49
45
20
39
2e
30
3b
20
57
69
6e
64
6f
77
73
20
54
20
39
2e
30
3b
20
65
6e
2d
55
53
29
d
a
29
55
73
72
2d
41
67
65
6e
74
3a
20
4d
69
63
72
6f
73
6f
66
74
49
6e
74
65
72
6e
65
74
20
45
78
70
6c
6f
72
65
72
d
20
55
73
65
72
2d
41
67
65
6e
74
3a
20
55
70
64
61
74
73
20
64
6f
77
6e
6c
6f
61
64
65
72
d
a
20
93
aa
0
1b
4f
47
c0
93
aa
0
8a
1b
4f
47
c0
93
aa
0
8a
1b
4f
c0
93
aa
0
8a
1b
4f
47
c0
2a
0
28
42
37
41
30
33
41
32
37
32
44
39
36
34
42
32
43
30
35
38
39
37
43
39
32
33
31
38
34
37
37
36
43
39
46
35
32
36
45
3e
55
73
65
2d
41
67
65
6e
74
3a
20
4d
6f
7a
69
6c
6c
61
2f
34
2e
20
28
63
6f
6d
70
61
74
69
62
6c
65
3b
20
4d
53
49
45
35
2e
30
3b
20
57
69
6e
64
6f
77
73
20
4e
54
20
35
2e
29
2a
0
28
45
33
41
38
38
30
39
30
31
37
44
44
37
36
44
32
36
35
35
37
41
35
42
39
32
33
41
42
32
41
45
31
43
30
43
44
42
33
3e
55
73
65
72
2d
41
67
65
6e
74
3a
4d
6f
7a
69
6c
6c
61
2f
34
2e
30
20
28
63
6f
6d
70
61
69
62
6c
65
3b
20
4d
53
49
45
20
35
2e
30
3b
20
57
69
64
6f
77
73
20
4e
54
20
35
2e
30
29
34
55
73
65
72
2d
67
65
6e
74
3a
20
4d
6f
7a
69
6c
6c
61
35
2e
31
20
28
6f
6d
70
61
74
69
62
6c
65
3b
20
4d
53
49
45
20
38
2e
3b
20
57
69
6e
33
32
29
27
48
0
50
0
20
0
4f
0
70
65
0
6e
0
56
0
69
0
65
0
77
0
20
0
4f
0
6d
0
0
69
0
42
0
61
0
63
0
6b
32
4a
4f
49
4e
20
23
74
73
74
31
20
7c
d
a
4a
4f
49
4e
20
23
74
65
73
74
32
7c
d
a
4a
4f
49
4e
20
23
74
65
73
74
33
20
28
6e
75
6c
29
d
a
47
55
73
65
72
2d
41
67
65
6e
74
3a
20
4d
7a
69
6c
6c
61
2f
35
2e
30
20
28
57
69
6e
64
6f
77
73
20
55
3b
20
4d
53
49
45
20
39
2e
30
3b
20
57
69
6e
64
77
73
20
4e
54
20
39
2e
30
3b
20
65
6e
2d
55
53
29
d
29
55
73
65
72
2d
41
67
65
6e
74
3a
20
4d
69
63
72
6f
6f
66
74
20
49
6e
74
65
72
6e
65
74
20
45
78
70
6c
6f
65
72
d
a
20
55
73
65
72
2d
41
67
65
6e
74
3a
20
55
64
61
74
65
73
20
64
6f
77
6e
6c
6f
61
64
65
72
d
a
93
aa
0
8a
1b
4f
47
c0
93
aa
0
8a
1b
4f
47
c0
93
aa
8a
1b
4f
47
c0
93
aa
0
8a
1b
4f
47
c0
2a
0
28
42
37
30
33
41
34
32
37
32
44
39
36
34
42
32
43
30
35
38
39
43
39
32
37
33
31
38
34
37
37
36
43
39
46
35
32
36
45
55
73
65
72
2d
41
67
65
6e
74
3a
20
4d
6f
7a
69
6c
6c
2f
34
2e
30
20
28
63
6f
6d
70
61
74
69
62
6c
65
3b
20
53
49
45
20
35
2e
30
3b
20
57
69
6e
64
6f
77
73
20
4e
20
35
2e
30
29
2a
0
28
45
33
41
38
38
30
39
30
31
37
44
37
36
42
44
32
36
35
35
37
41
35
42
39
32
33
41
42
41
45
31
36
43
30
43
44
42
33
3e
55
73
65
72
2d
41
67
6e
74
3a
20
4d
6f
7a
69
6c
6c
61
2f
34
2e
30
20
28
63
6d
70
61
74
69
62
6c
65
3b
20
4d
53
49
45
20
35
2e
30
20
57
69
6e
64
6f
77
73
20
4e
54
20
35
2e
30
29
34
55
65
72
2d
41
67
65
6e
74
3a
20
4d
6f
7a
69
6c
6c
61
35
31
20
28
63
6f
6d
70
61
74
69
62
6c
65
3b
20
4d
53
49
20
38
2e
30
3b
20
57
69
6e
33
32
29
27
48
0
50
0
20
4f
0
70
0
65
0
6e
0
56
0
69
0
65
0
77
0
20
0
0
6d
0
6e
0
69
0
42
0
61
0
63
0
6b
32
4a
4f
49
20
23
74
65
73
74
31
20
7c
d
a
4a
4f
49
4e
20
23
74
73
74
32
20
7c
d
a
4a
4f
49
4e
20
23
74
65
73
74
33
28
6e
75
6c
6c
29
d
a
47
55
73
65
72
2d
41
67
65
6e
3a
20
4d
6f
7a
69
6c
6c
61
2f
35
2e
30
20
28
57
69
6e
6f
77
73
3b
20
55
3b
20
4d
53
49
45
20
39
2e
30
3b
20
69
6e
64
6f
77
73
20
4e
54
20
39
2e
30
3b
20
65
6e
2d
53
29
d
a
29
55
73
65
72
2d
41
67
65
6e
74
3a
20
4d
63
72
6f
73
6f
66
74
20
49
6e
74
65
72
6e
65
74
20
45
70
6c
6f
72
65
72
d
a
20
55
73
65
72
2d
41
67
65
6e
3a
20
55
70
64
61
74
65
73
20
64
6f
77
6e
6c
6f
61
64
72
d
a
20
93
aa
0
8a
1b
4f
47
c0
93
aa
0
8a
1b
4f
c0
93
aa
0
8a
1b
4f
47
c0
93
aa
0
8a
1b
4f
47
c0
2a
28
42
37
41
30
33
41
34
32
37
32
44
39
36
34
42
32
43
35
38
39
37
43
39
32
37
33
31
38
34
37
37
36
43
39
46
32
36
45
3e
55
73
65
72
2d
41
67
65
6e
74
3a
20
4d
6f
69
6c
6c
61
2f
34
2e
30
20
28
63
6f
6d
70
61
74
69
62
65
3b
20
4d
53
49
45
20
35
2e
30
3b
20
57
69
6e
64
6f
73
20
4e
54
20
35
2e
30
29
2a
0
28
45
33
41
38
38
30
30
31
37
44
44
37
36
42
44
32
36
35
35
37
41
35
42
39
33
41
42
32
41
45
31
36
43
30
43
44
42
33
3e
55
73
65
2d
41
67
65
6e
74
3a
20
4d
6f
7a
69
6c
6c
61
2f
34
2e
20
28
63
6f
6d
70
61
74
69
62
6c
65
3b
20
4d
53
49
45
35
2e
30
3b
20
57
69
6e
64
6f
77
73
20
4e
54
20
35
2e
29
34
55
73
65
72
2d
41
67
65
6e
74
3a
20
4d
6f
7a
69
6c
61
35
2e
31
20
28
63
6f
6d
70
61
74
69
62
6c
65
3b
4d
53
49
45
20
38
2e
30
3b
20
57
69
6e
33
32
29
27
48
50
0
20
0
4f
0
70
0
65
0
6e
0
56
0
69
0
65
0
0
20
0
4f
0
6d
0
6e
0
69
0
42
0
61
0
63
0
6b
4a
4f
49
4e
20
23
74
65
73
74
31
20
7c
d
a
4a
4f
49
20
23
74
65
73
74
32
20
7c
d
a
4a
4f
49
4e
20
23
74
73
74
33
20
28
6e
75
6c
6c
29
d
a
47
55
73
65
72
2d
67
65
6e
74
3a
20
4d
6f
7a
69
6c
6c
61
2f
35
2e
30
20
57
69
6e
64
6f
77
73
3b
20
55
3b
20
4d
53
49
45
20
39
30
3b
20
57
69
6e
64
6f
77
73
20
4e
54
20
39
2e
30
3b
65
6e
2d
55
53
29
d
a
29
55
73
65
72
2d
41
67
65
6e
3a
20
4d
69
63
72
6f
73
6f
66
74
20
49
6e
74
65
72
6e
74
20
45
78
70
6c
6f
72
65
72
d
a
20
55
73
65
72
2d
67
65
6e
74
3a
20
55
70
64
61
74
65
73
20
64
6f
77
6e
6f
61
64
65
72
d
a
20
93
aa
0
8a
1b
4f
47
c0
93
aa
8a
1b
4f
47
c0
93
aa
0
8a
1b
4f
47
c0
93
aa
0
8a
1b
47
c0
2a
0
28
42
37
41
30
33
41
34
32
37
32
44
39
36
42
32
43
30
35
38
39
37
43
39
32
37
33
31
38
34
37
37
43
39
46
35
32
36
45
3e
55
73
65
72
2d
41
67
65
6e
74
20
4d
6f
7a
69
6c
6c
61
2f
34
2e
30
20
28
63
6f
6d
70
74
69
62
6c
65
3b
20
4d
53
49
45
20
35
2e
30
3b
20
57
6e
64
6f
77
73
20
4e
54
20
35
2e
30
29
2a
0
28
45
33
38
38
30
39
30
31
37
44
44
37
36
42
44
32
36
35
35
37
35
42
39
32
33
41
42
32
41
45
31
36
43
30
43
44
42
33
55
73
65
72
2d
41
67
65
6e
74
3a
20
4d
6f
7a
69
6c
6c
2f
34
2e
30
20
28
63
6f
6d
70
61
74
69
62
6c
65
3b
20
53
49
45
20
35
2e
30
3b
20
57
69
6e
64
6f
77
73
20
4e
20
35
2e
30
29
34
55
73
65
72
2d
41
67
65
6e
74
3a
20
6f
7a
69
6c
6c
61
35
2e
31
20
28
63
6f
6d
70
61
74
69
6c
65
3b
20
4d
53
49
45
20
38
2e
30
3b
20
57
69
6e
33
29
27
48
0
50
0
20
0
4f
0
70
0
65
0
6e
0
56
0
0
65
0
77
0
20
0
4f
0
6d
0
6e
0
69
0
42
0
61
63
0
6b
32
4a
4f
49
4e
20
23
74
65
73
74
31
20
7c
d
4a
4f
49
4e
20
23
74
65
73
74
32
20
7c
d
a
4a
4f
49
20
23
74
65
73
74
33
20
28
6e
75
6c
6c
29
d
a
47
55
65
72
2d
41
67
65
6e
74
3a
20
4d
6f
7a
69
6c
6c
61
2f
2e
30
20
28
57
69
6e
64
6f
77
73
3b
20
55
3b
20
4d
53
45
20
39
2e
30
3b
20
57
69
6e
64
6f
77
73
20
4e
54
20
2e
30
3b
20
65
6e
2d
55
53
29
d
a
29
55
73
65
72
2d
67
65
6e
74
3a
20
4d
69
63
72
6f
73
6f
66
74
20
49
6e
65
72
6e
65
74
20
45
78
70
6c
6f
72
65
72
d
a
20
55
65
72
2d
41
67
65
6e
74
3a
20
55
70
64
61
74
65
73
20
6f
77
6e
6c
6f
61
64
65
72
d
a
20
93
aa
0
8a
1b
4f
c0
93
aa
0
8a
1b
4f
47
c0
93
aa
0
8a
1b
4f
47
c0
93
0
8a
1b
4f
47
c0
2a
0
28
42
37
41
30
33
41
34
32
37
44
39
36
34
42
32
43
30
35
38
39
37
43
39
32
37
33
31
34
37
37
36
43
39
46
35
32
36
45
3e
55
73
65
72
2d
41
65
6e
74
3a
20
4d
6f
7a
69
6c
6c
61
2f
34
2e
30
20
28
6f
6d
70
61
74
69
62
6c
65
3b
20
4d
53
49
45
20
35
2e
3b
20
57
69
6e
64
6f
77
73
20
4e
54
20
35
2e
30
29
2a
28
45
33
41
38
38
30
39
30
31
37
44
44
37
36
42
44
32
35
35
37
41
35
42
39
32
33
41
42
32
41
45
31
36
43
30
44
42
33
3e
55
73
65
72
2d
41
67
65
6e
74
3a
20
4d
6f
69
6c
6c
61
2f
34
2e
30
20
28
63
6f
6d
70
61
74
69
62
65
3b
20
4d
53
49
45
20
35
2e
30
3b
20
57
69
6e
64
6f
73
20
4e
54
20
35
2e
30
29
34
55
73
65
72
2d
41
67
65
74
3a
20
4d
6f
7a
69
6c
6c
61
35
2e
31
20
28
63
6f
6d
61
74
69
62
6c
65
3b
20
4d
53
49
45
20
38
2e
30
3b
20
69
6e
33
32
29
27
48
0
50
0
20
0
4f
0
70
0
65
0
0
56
0
69
0
65
0
77
0
20
0
4f
0
6d
0
6e
0
69
42
0
61
0
63
0
6b
32
4a
4f
49
4e
20
23
74
65
73
74
20
7c
d
a
4a
4f
49
4e
20
23
74
65
73
74
32
20
7c
d
4a
4f
49
4e
20
23
74
65
73
74
33
20
28
6e
75
6c
6c
29
a
60
73
0
65
0
6c
0
65
0
63
0
74
0
20
0
76
0
0
72
0
69
0
66
0
69
0
63
0
61
0
6e
0
64
0
6f
20
0
66
0
72
0
6f
0
6d
0
20
0
76
0
65
0
72
0
0
66
0
69
0
63
0
61
0
6e
0
64
0
6f
0
20
0
77
68
0
65
0
72
0
65
0
20
0
69
0
64
0
5f
0
70
0
0
3d
0
47
55
73
65
72
2d
41
67
65
6e
74
3a
20
4d
6f
69
6c
6c
61
2f
35
2e
30
20
28
57
69
6e
64
6f
77
73
3b
55
3b
20
4d
53
49
45
20
39
2e
30
3b
20
57
69
6e
64
6f
73
20
4e
54
20
39
2e
30
3b
20
65
6e
2d
55
53
29
d
a
55
73
65
72
2d
41
67
65
6e
74
3a
20
4d
69
63
72
6f
73
66
74
20
49
6e
74
65
72
6e
65
74
20
45
78
70
6c
6f
72
72
d
a
20
55
73
65
72
2d
41
67
65
6e
74
3a
20
55
70
61
74
65
73
20
64
6f
77
6e
6c
6f
61
64
65
72
d
a
20
aa
0
8a
1b
4f
47
c0
93
aa
0
8a
1b
4f
47
c0
93
aa
0
1b
4f
47
c0
93
aa
0
8a
1b
4f
47
c0
2a
0
28
42
37
41
33
41
34
32
37
32
44
39
36
34
42
32
43
30
35
38
39
37
39
32
37
33
31
38
34
37
37
36
43
39
46
35
32
36
45
3e
73
65
72
2d
41
67
65
6e
74
3a
20
4d
6f
7a
69
6c
6c
61
34
2e
30
20
28
63
6f
6d
70
61
74
69
62
6c
65
3b
20
4d
49
45
20
35
2e
30
3b
20
57
69
6e
64
6f
77
73
20
4e
54
35
2e
30
29
2a
0
28
45
33
41
38
38
30
39
30
31
37
44
37
36
42
44
32
36
35
35
37
41
35
42
39
32
33
41
42
32
45
31
36
43
30
43
44
42
33
3e
55
73
65
72
2d
41
67
65
74
3a
20
4d
6f
7a
69
6c
6c
61
2f
34
2e
30
20
28
63
6f
70
61
74
69
62
6c
65
3b
20
4d
53
49
45
20
35
2e
30
3b
57
69
6e
64
6f
77
73
20
4e
54
20
35
2e
30
29
34
55
73
72
2d
41
67
65
6e
74
3a
20
4d
6f
7a
69
6c
6c
61
35
2e
20
28
63
6f
6d
70
61
74
69
62
6c
65
3b
20
4d
53
49
45
38
2e
30
3b
20
57
69
6e
33
32
29
27
48
0
50
0
20
0
0
70
0
65
0
6e
0
56
0
69
0
65
0
77
0
20
0
4f
6d
0
6e
0
69
0
42
0
61
0
63
0
6b
32
4a
4f
49
4e
23
74
65
73
74
31
20
7c
d
a
4a
4f
49
4e
20
23
74
65
74
32
20
7c
d
a
4a
4f
49
4e
20
23
74
65
73
74
33
20
6e
75
6c
6c
29
d
a
47
55
73
65
72
2d
41
67
65
6e
74
20
4d
6f
7a
69
6c
6c
61
2f
35
2e
30
20
28
57
69
6e
64
77
73
3b
20
55
3b
20
4d
53
49
45
20
39
2e
30
3b
20
57
6e
64
6f
77
73
20
4e
54
20
39
2e
30
3b
20
65
6e
2d
55
29
d
a
29
55
73
65
72
2d
41
67
65
6e
74
3a
20
4d
69
72
6f
73
6f
66
74
20
49
6e
74
65
72
6e
65
74
20
45
78
6c
6f
72
65
72
d
a
20
55
73
65
72
2d
41
67
65
6e
74
20
55
70
64
61
74
65
73
20
64
6f
77
6e
6c
6f
61
64
65
d
a
20
93
aa
0
8a
1b
4f
47
c0
93
aa
0
8a
1b
4f
47
93
aa
0
8a
1b
4f
47
c0
93
aa
0
8a
1b
4f
47
c0
2a
0
42
37
41
30
33
41
34
32
37
32
44
39
36
34
42
32
43
30
38
39
37
43
39
32
37
33
31
38
34
37
37
36
43
39
46
35
36
45
3e
55
73
65
72
2d
41
67
65
6e
74
3a
20
4d
6f
7a
6c
6c
61
2f
34
2e
30
20
28
63
6f
6d
70
61
74
69
62
6c
3b
20
4d
53
49
45
20
35
2e
30
3b
20
57
69
6e
64
6f
77
20
4e
54
20
35
2e
30
29
2a
0
28
45
33
41
38
38
30
39
31
37
44
44
37
36
42
44
32
36
35
35
37
41
35
42
39
32
41
42
32
41
45
31
36
43
30
43
44
42
33
3e
55
73
65
72
41
67
65
6e
74
3a
20
4d
6f
7a
69
6c
6c
61
2f
34
2e
30
28
63
6f
6d
70
61
74
69
62
6c
65
3b
20
4d
53
49
45
20
2e
30
3b
20
57
69
6e
64
6f
77
73
20
4e
54
20
35
2e
30
34
55
73
65
72
2d
41
67
65
6e
74
3a
20
4d
6f
7a
69
6c
61
35
2e
31
20
28
63
6f
6d
70
61
74
69
62
6c
65
3b
20
53
49
45
20
38
2e
30
3b
20
57
69
6e
33
32
29
27
48
0
0
20
0
4f
0
70
0
65
0
6e
0
56
0
69
0
65
0
77
20
0
4f
0
6d
0
6e
0
69
0
42
0
61
0
63
0
6b
32
4f
49
4e
20
23
74
65
73
74
31
20
7c
d
a
4a
4f
49
4e
23
74
65
73
74
32
20
7c
d
a
4a
4f
49
4e
20
23
74
65
74
33
20
28
6e
75
6c
6c
29
d
a
47
55
73
65
72
2d
41
65
6e
74
3a
20
4d
6f
7a
69
6c
6c
61
2f
35
2e
30
20
28
69
6e
64
6f
77
73
3b
20
55
3b
20
4d
53
49
45
20
39
2e
3b
20
57
69
6e
64
6f
77
73
20
4e
54
20
39
2e
30
3b
20
6e
2d
55
53
29
d
a
29
55
73
65
72
2d
41
67
65
6e
74
20
4d
69
63
72
6f
73
6f
66
74
20
49
6e
74
65
72
6e
65
20
45
78
70
6c
6f
72
65
72
d
a
20
55
73
65
72
2d
41
65
6e
74
3a
20
55
70
64
61
74
65
73
20
64
6f
77
6e
6c
61
64
65
72
d
a
20
93
aa
0
8a
1b
4f
47
c0
93
aa
0
1b
4f
47
c0
93
aa
0
8a
1b
4f
47
c0
93
aa
0
8a
1b
4f
c0
2a
0
28
42
37
41
30
33
41
34
32
37
32
44
39
36
34
32
43
30
35
38
39
37
43
39
32
37
33
31
38
34
37
37
36
39
46
35
32
36
45
3e
55
73
65
72
2d
41
67
65
6e
74
3a
4d
6f
7a
69
6c
6c
61
2f
34
2e
30
20
28
63
6f
6d
70
61
69
62
6c
65
3b
20
4d
53
49
45
20
35
2e
30
3b
20
57
69
64
6f
77
73
20
4e
54
20
35
2e
30
29
2a
0
28
45
33
41
38
30
39
30
31
37
44
44
37
36
42
44
32
36
35
35
37
41
42
39
32
33
41
42
32
41
45
31
36
43
30
43
44
42
33
3e
73
65
72
2d
41
67
65
6e
74
3a
20
4d
6f
7a
69
6c
6c
61
34
2e
30
20
28
63
6f
6d
70
61
74
69
62
6c
65
3b
20
4d
49
45
20
35
2e
30
3b
20
57
69
6e
64
6f
77
73
20
4e
54
35
2e
30
29
34
55
73
65
72
2d
41
67
65
6e
74
3a
20
4d
7a
69
6c
6c
61
35
2e
31
20
28
63
6f
6d
70
61
74
69
62
65
3b
20
4d
53
49
45
20
38
2e
30
3b
20
57
69
6e
33
32
27
48
0
50
0
20
0
4f
0
70
0
65
0
6e
0
56
0
69
65
0
77
0
20
0
4f
0
6d
0
6e
0
69
0
42
0
61
0
0
6b
32
4a
4f
49
4e
20
23
74
65
73
74
31
20
7c
d
a
4f
49
4e
20
23
74
65
73
74
32
20
7c
d
a
4a
4f
49
4e
23
74
65
73
74
33
20
28
6e
75
6c
6c
29
d
a
47
55
73
72
2d
41
67
65
6e
74
3a
20
4d
6f
7a
69
6c
6c
61
2f
35
30
20
28
57
69
6e
64
6f
77
73
3b
20
55
3b
20
4d
53
49
20
39
2e
30
3b
20
57
69
6e
64
6f
77
73
20
4e
54
20
39
30
3b
20
65
6e
2d
55
53
29
d
a
29
55
73
65
72
2d
41
65
6e
74
3a
20
4d
69
63
72
6f
73
6f
66
74
20
49
6e
74
72
6e
65
74
20
45
78
70
6c
6f
72
65
72
d
a
20
55
73
72
2d
41
67
65
6e
74
3a
20
55
70
64
61
74
65
73
20
64
77
6e
6c
6f
61
64
65
72
d
a
20
93
aa
0
8a
1b
4f
47
93
aa
0
8a
1b
4f
47
c0
93
aa
0
8a
1b
4f
47
c0
93
aa
8a
1b
4f
47
c0
2a
0
28
42
37
41
30
33
41
34
32
37
32
39
36
34
42
32
43
30
35
38
39
37
43
39
32
37
33
31
38
37
37
36
43
39
46
35
32
36
45
3e
55
73
65
72
2d
41
67
6e
74
3a
20
4d
6f
7a
69
6c
6c
61
2f
34
2e
30
20
28
63
6d
70
61
74
69
62
6c
65
3b
20
4d
53
49
45
20
35
2e
30
20
57
69
6e
64
6f
77
73
20
4e
54
20
35
2e
30
29
2a
0
45
33
41
38
38
30
39
30
31
37
44
44
37
36
42
44
32
36
35
37
41
35
42
39
32
33
41
42
32
41
45
31
36
43
30
43
42
33
3e
55
73
65
72
2d
41
67
65
6e
74
3a
20
4d
6f
7a
6c
6c
61
2f
34
2e
30
20
28
63
6f
6d
70
61
74
69
62
6c
3b
20
4d
53
49
45
20
35
2e
30
3b
20
57
69
6e
64
6f
77
20
4e
54
20
35
2e
30
29
34
55
73
65
72
2d
41
67
65
6e
3a
20
4d
6f
7a
69
6c
6c
61
35
2e
31
20
28
63
6f
6d
70
74
69
62
6c
65
3b
20
4d
53
49
45
20
38
2e
30
3b
20
57
6e
33
32
29
27
48
0
50
0
20
0
4f
0
70
0
65
0
6e
56
0
69
0
65
0
77
0
20
0
4f
0
6d
0
6e
0
69
0
0
61
0
63
0
6b
32
4a
4f
49
4e
20
23
74
65
73
74
31
7c
d
a
4a
4f
49
4e
20
23
74
65
73
74
32
20
7c
d
a
4f
49
4e
20
23
74
65
73
74
33
20
28
6e
75
6c
6c
29
d
47
55
73
65
72
2d
41
67
65
6e
74
3a
20
4d
6f
7a
69
6c
61
2f
35
2e
30
20
28
57
69
6e
64
6f
77
73
3b
20
55
3b
4d
53
49
45
20
39
2e
30
3b
20
57
69
6e
64
6f
77
73
20
54
20
39
2e
30
3b
20
65
6e
2d
55
53
29
d
a
29
55
73
72
2d
41
67
65
6e
74
3a
20
4d
69
63
72
6f
73
6f
66
74
49
6e
74
65
72
6e
65
74
20
45
78
70
6c
6f
72
65
72
d
20
55
73
65
72
2d
41
67
65
6e
74
3a
20
55
70
64
61
74
73
20
64
6f
77
6e
6c
6f
61
64
65
72
d
a
20
93
aa
0
1b
4f
47
c0
93
aa
0
8a
1b
4f
47
c0
93
aa
0
8a
1b
4f
c0
93
aa
0
8a
1b
4f
47
c0
2a
0
28
42
37
41
30
33
41
32
37
32
44
39
36
34
42
32
43
30
35
38
39
37
43
39
32
33
31
38
34
37
37
36
43
39
46
35
32
36
45
3e
55
73
65
2d
41
67
65
6e
74
3a
20
4d
6f
7a
69
6c
6c
61
2f
34
2e
20
28
63
6f
6d
70
61
74
69
62
6c
65
3b
20
4d
53
49
45
35
2e
30
3b
20
57
69
6e
64
6f
77
73
20
4e
54
20
35
2e
29
2a
0
28
45
33
41
38
38
30
39
30
31
37
44
44
37
36
44
32
36
35
35
37
41
35
42
39
32
33
41
42
32
41
45
31
43
30
43
44
42
33
3e
55
73
65
72
2d
41
67
65
6e
74
3a
4d
6f
7a
69
6c
6c
61
2f
34
2e
30
20
28
63
6f
6d
70
61
69
62
6c
65
3b
20
4d
53
49
45
20
35
2e
30
3b
20
57
69
64
6f
77
73
20
4e
54
20
35
2e
30
29
34
55
73
65
72
2d
67
65
6e
74
3a
20
4d
6f
7a
69
6c
6c
61
35
2e
31
20
28
6f
6d
70
61
74
69
62
6c
65
3b
20
4d
53
49
45
20
38
2e
3b
20
57
69
6e
33
32
29
27
48
0
50
0
20
0
4f
0
70
65
0
6e
0
56
0
69
0
65
0
77
0
20
0
4f
0
6d
0
0
69
0
42
0
61
0
63
0
6b
32
4a
4f
49
4e
20
23
74
73
74
31
20
7c
d
a
4a
4f
49
4e
20
23
74
65
73
74
32
7c
d
a
4a
4f
49
4e
20
23
74
65
73
74
33
20
28
6e
75
6c
29
d
a
47
55
73
65
72
2d
41
67
65
6e
74
3a
20
4d
7a
69
6c
6c
61
2f
35
2e
30
20
28
57
69
6e
64
6f
77
73
20
55
3b
20
4d
53
49
45
20
39
2e
30
3b
20
57
69
6e
