47
68
30
73
74
93
aa
0
8a
1b
4f
47
c0
93
aa
0
8a
1b
4f
47
c0
93
aa
0
8a
1b
4f
47
c0
93
aa
0
8a
1b
4f
47
c0
21
2a
20
53
43
41
4e
4e
45
52
20
4f
4e
22
29
3b
a
d
a
3c
2f
73
63
72
69
70
74
3e
30
30
37
72
50
41
53
53
20
73
75
31
63
31
64
33
42
55
49
4c
44
20
58
38
36
a
67
65
74
6d
65
d
a
0
28
42
37
41
30
33
41
34
32
37
32
44
39
36
34
42
32
43
30
35
38
39
37
43
39
32
37
33
31
38
34
37
37
36
43
39
46
35
32
36
45
50
41
53
53
2d
4f
4e
30
48
65
61
72
74
32
0
31
0
31
0
0
0
20
0
52
45
41
44
44
a
4d
58
74
66
33
54
55
53
45
52
20
41
53
5f
20
23
20
23
20
3a
32
0
36
0
34
0
0
0
20
0
77
1
0
e9
3
e9
3
0
0
0
0
0
0
3
0
0
0
d
2a
2f
61
64
76
3d
27
4f
72
62
69
74
57
68
69
74
65
27
2f
2a
20
55
73
65
72
2d
41
67
65
6e
74
3a
20
4d
6f
7a
69
6c
6c
61
2f
34
2e
30
20
28
63
6f
6d
70
61
74
69
62
6c
65
3b
20
4d
53
49
45
20
35
2e
30
3b
20
57
69
6e
64
6f
77
73
20
4e
54
20
35
2e
30
29
3f
54
3d
6d
61
63
68
69
6e
65
69
6e
66
6f
26
26
4b
65
79
3d