f
53
79
6c
76
61
69
6e
2c
20
49
6e
67
72
69
64
d
4b
65
72
72
69
67
61
6e
2c
20
4d
69
6e
e
41
6e
67
77
69
6e
2c
20
48
65
74
74
69
65
a
54
79
2c
20
4f
6c
69
76
65
72
f
42
72
61
6e
6b
65
72
2c
20
52
61
66
61
65
6c
d
48
61
6e
73
2c
20
53
70
65
6e
63
65
72
d
44
6f
77
64
73
2c
20
57
69
6e
6f
6e
61
10
42
61
72
63
65
6c
6f
2c
20
44
6f
6e
6e
65
6c
6c
10
48
61
65
73
73
69
67
2c
20
48
61
72
6d
6f
6e
79
b
4d
63
6c
75
72
65
2c
20
4c
61
69
13
42
72
61
64
62
75
72
79
2c
20
4b
61
74
68
65
72
69
6e
61
d
43
6f
79
74
2c
20
4b
61
74
65
6c
69
6e
d
4d
61
72
73
68
61
6c
2c
20
41
6c
76
61
f
47
6f
75
6c
64
69
65
2c
20
4c
6f
72
65
6e
65
e
47
6c
65
61
76
65
2c
20
42
72
61
64
6c
79
d
50
68
69
62
62
73
2c
20
50
69
70
65
72
a
4d
6f
75
61
2c
20
5a
65
6e
61
e
43
69
70
72
69
61
6e
69
2c
20
4c
79
6c
65
d
47
61
7a
7a
6f
2c
20
45
6c
69
63
69
61
10
45
6e
64
65
72
6c
69
6e
2c
20
54
61
6d
6d
69
65
13
45
72
69
6b
73
73
6f
6e
2c
20
43
61
74
68
61
72
69
6e
65
e
4d
61
72
75
73
68
69
61
2c
20
59
75
6e
67
e
4b
6e
61
61
6b
2c
20
53
68
61
6e
6e
6f
6e
e
53
74
65
66
66
61
2c
20
4d
69
72
69
61
6e
e
47
6f
64
62
65
65
2c
20
4b
61
74
68
65
79
b
48
79
65
72
2c
20
44
65
6e
6e
79
10
54
65
69
63
68
72
6f
77
2c
20
54
69
6c
6c
69
65
f
48
75
67
67
65
72
2c
20
53
65
79
6d
6f
75
72
f
56
69
6c
74
7a
2c
20
46
72
61
6e
6b
6c
69
6e
10
4c
61
67
72
61
73
73
65
2c
20
4d
61
72
69
6c
75
10
43
6c
65
6e
64
65
6e
6f
6e
2c
20
5a
65
74
74
61
d
42
6f
62
6c
69
74
74
2c
20
53
6f
6f
6b
11
48
65
66
66
65
72
61
6e
2c
20
43
6f
72
72
69
6e
61
f
48
65
6e
63
68
65
63
6b
2c
20
42
75
6c
61
68
10
59
76
6f
6e
2c
20
47
65
6f
72
67
69
61
6e
6e
61
e
4c
6f
74
61
6e
2c
20
43
61
72
6c
74
6f
6e
d
42
61
6c
6c
6f
77
65
2c
20
48
79
75
6e
c
4e
6f
2c
20
53
68
61
6c
61
6e
64
61
10
56
65
72
6c
69
6e
67
2c
20
4c
69
6c
69
61
6e
61
e
44
61
76
69
61
75
2c
20
4d
65
6c
76
69
6e
f
57
6f
72
6b
73
2c
20
46
61
75
73
74
69
6e
6f
c
53
61
79
6b
6f
2c
20
4b
65
6e
6e
79
f
50
69
6e
74
6f
72
2c
20
4c
69
6e
77
6f
6f
64
a
54
61
64
64
2c
20
45
72
6e
61
d
4d
65
6d
6d
65
72
2c
20
45
72
69
63
6b
f
53
63
75
63
63
68
69
2c
20
4b
61
79
6c
65
65
f
56
61
6e
62
65
63
6b
2c
20
41
6e
69
73
68
61
e
53
65
6e
66
74
2c
20
4e
61
74
61
73
68
61
d
53
63
68
6f
70
2c
20
45
72
69
63
6b
61
10
53
74
65
66
66
65
73
2c
20
4c
6f
75
65
74
74
61
d
51
75
61
73
68
69
65
2c
20
54
6f
72
79
e
4c
6f
73
65
6b
65
2c
20
41
73
68
6c
65
79
d
54
75
6c
65
79
2c
20
43
61
72
6c
79
6e
d
50
61
6e
63
68
6f
2c
20
4b
65
76
69
6e
e
4d
75
6c
6b
69
6e
2c
20
4c
6f
75
69
73
61
d
50
61
72
72
69
6c
6c
2c
20
53
69
6e
61
10
50
6f
77
6c
65
73
2c
20
4c
69
7a
61
62
65
74
68
d
52
65
65
76
65
2c
20
56
65
6e
69
63
65
d
50
61
75
6b
65
72
74
2c
20
47
69
74
61
9
4c
65
6c
69
73
2c
20
41
6e
b
4b
6f
7a
75
62
2c
20
4d
61
72
61
e
4b
69
65
66
65
72
74
2c
20
54
79
73
6f
6e
e
4d
75
6d
66
6f
72
64
2c
20
42
6c
61
6b
65
b
42
65
6c
73
65
72
2c
20
57
65
73
10
46
72
65
65
73
65
2c
20
41
6e
67
65
6c
69
6e
65
d
50
6f
6b
6f
72
6e
79
2c
20
4a
6f
68
6e
10
43
61
6d
6d
61
72
6f
74
61
2c
20
4d
6f
6e
74
65
11
53
74
6f
62
69
65
2c
20
41
6c
65
78
61
6e
64
65
72
c
50
65
6e
77
65
6c
6c
2c
20
4d
75
69
f
5a
75
65
72
63
68
65
72
2c
20
53
61
6c
6c
79
d
47
6f
69
6e
2c
20
50
65
61
72
6c
69
65
e
42
61
6c
6c
6d
61
6e
6e
2c
20
43
68
61
6e
f
4d
61
6e
7a
75
65
74
61
2c
20
4b
61
72
6f
6c
d
54
72
75
73
74
79
2c
20
4d
6f
73
65
73
c
50
61
75
6c
61
2c
20
53
74
61
63
69
11
46
69
6e
6b
6c
65
61
2c
20
43
68
65
72
69
6c
79
6e
13
47
6f
72
63
7a
79
6e
73
6b
69
2c
20
46
72
61
6e
63
69
73
12
4c
65
61
63
68
6d
61
6e
2c
20
53
68
61
6c
6f
6e
64
61
d
47
61
72
76
69
6e
2c
20
41
73
68
6c
79
11
43
65
72
65
67
68
69
6e
6f
2c
20
54
6f
6d
65
6b
61
f
4d
69
6e
61
72
69
2c
20
56
61
6e
65
74
74
61
e
57
69
6e
67
65
2c
20
4e
61
74
61
6c
69
65
10
52
6f
68
72
64
61
6e
7a
2c
20
44
65
77
69
74
74
d
50
65
73
6b
69
6e
64
2c
20
4a
6f
73
65
10
42
6c
6f
6f
64
73
61
77
2c
20
53
68
61
6e
6e
61
f
42
6f
79
65
6e
67
61
2c
20
53
68
61
72
69
65
b
4b
61
65
61
2c
20
52
75
74
68
65
10
42
65
6e
61
73
68
65
72
2c
20
43
72
65
6f
6c
61
f
50
61
74
72
69
65
2c
20
53
68
69
72
6c
65
79
11
4d
61
63
6b
65
6e
7a
69
65
2c
20
48
69
6c
61
72
79
c
43
69
61
6e
63
69
6f
2c
20
54
6f
6d
11
4f
63
68
69
6c
74
72
65
65
2c
20
45
69
6c
65
65
6e
c
4e
75
6d
61
6e
2c
20
4d
61
74
68
61
c
42
69
6e
65
74
2c
20
54
61
72
65
6e
a
42
69
73
65
6c
2c
20
52
69
61
d
4c
61
6e
6d
61
6e
2c
20
4a
65
77
65
6c
e
4b
72
61
63
68
2c
20
4e
65
76
69
6c
6c
65
12
50
65
6e
77
61
72
64
65
6e
2c
20
4c
61
76
65
72
6e
61
11
50
61
6e
61
67
6f
73
2c
20
42
6c
6f
6e
64
65
6c
6c
c
4c
61
6c
61
74
61
2c
20
45
6c
73
65
f
42
61
63
68
65
72
74
2c
20
44
65
78
74
65
72
d
4f
6c
76
65
79
2c
20
4f
72
65
74
68
61
f
50
72
65
73
65
72
65
6e
2c
20
4c
61
75
6e
61
13
4d
65
73
65
6e
62
72
69
6e
67
2c
20
4a
65
72
72
6f
6c
64
11
4b
75
65
6e
73
74
6c
65
72
2c
20
53
75
73
61
6e
61
f
4d
75
6c
63
61
68
65
79
2c
20
4f
73
63
61
72
e
48
61
6e
6e
75
6c
61
2c
20
4b
69
74
74
79
11
4f
72
6c
6f
77
73
6b
69
2c
20
42
72
61
6e
64
6f
6e
a
52
69
78
2c
20
49
73
73
61
63
d
4a
6f
73
65
66
79
2c
20
41
6c
61
6e
65
12
44
72
6f
70
69
6e
73
6b
69
2c
20
4b
65
6e
6e
69
74
68
f
42
6f
6c
64
65
6e
6f
77
2c
20
44
65
6e
6e
79
f
57
61
73
68
6b
6f
2c
20
4d
61
74
69
6c
64
61
f
4d
65
61
64
65
2c
20
46
72
65
64
65
72
69
63
13
44
65
6c
61
63
75
65
73
74
61
2c
20
52
6f
73
65
74
74
65
14
4b
69
73
69
65
6c
65
77
73
6b
69
2c
20
59
6f
73
68
69
6b
6f
c
53
79
7a
64
65
6b
2c
20
4b
69
72
61
e
44
65
72
72
69
63
6f
2c
20
4b
65
6e
69
61
10
53
74
61
6b
65
72
2c
20
4c
6f
72
72
61
69
6e
65
12
44
72
61
69
6e
76
69
6c
6c
65
2c
20
47
6c
61
64
79
73
f
50
61
68
6d
65
69
65
72
2c
20
54
65
72
72
69
e
4d
6f
79
65
72
6d
61
6e
2c
20
44
69
63
6b
13
47
61
72
64
65
6e
61
73
2c
20
42
65
72
6e
61
64
69
6e
65
d
4f
6d
6c
69
6e
2c
20
56
6f
6e
6e
69
65
f
4d
61
72
72
61
62
6c
65
2c
20
44
65
62
62
79
e
47
72
61
6e
64
65
6c
2c
20
42
6f
6e
6e
79
12
45
61
73
74
6d
61
6e
2c
20
4d
61
63
6b
65
6e
7a
69
65
f
41
75
79
65
75
6e
67
2c
20
44
6f
72
72
69
73
12
4c
61
6e
73
64
6f
77
6e
65
2c
20
41
6e
74
68
6f
6e
79
b
53
6c
6f
77
6e
2c
20
4b
6f
72
79
d
53
68
6f
70
70
2c
20
56
61
6c
65
72
79
d
4f
73
62
65
72
67
2c
20
4c
6f
72
6e
61
11
4e
69
6c
6d
65
69
65
72
2c
20
52
6f
73
61
75
72
61
f
52
69
7a
7a
75
74
69
2c
20
44
61
72
77
69
6e
e
48
6f
72
76
61
74
2c
20
4a
6f
61
6e
6e
65
13
54
72
6f
6a
69
6c
6c
6f
2c
20
4d
61
72
63
65
6c
69
6e
65
f
53
74
6f
68
72
65
72
2c
20
4e
6f
72
69
6e
65
12
52
75
73
73
61
6b
2c
20
4c
69
65
73
65
6c
6f
74
74
65
d
57
69
63
6b
65
72
73
2c
20
43
61
72
6c
13
4e
75
72
6e
62
65
72
67
65
72
2c
20
4e
6f
76
65
6c
6c
61
c
47
61
6e
65
72
2c
20
41
6c
69
6e
61
16
48
6f
75
67
68
74
65
6c
6c
69
6e
67
2c
20
43
6f
6c
6c
65
74
74
65
11
53
70
6f
68
6e
68
6f
6c
7a
2c
20
43
61
74
68
65
79
f
46
6c
61
6d
6d
2c
20
4b
68
61
6c
69
6c
61
68
12
48
69
6e
74
65
72
67
61
72
64
74
2c
20
4d
6f
69
72
61
a
4d
65
65
2c
20
42
75
6c
61
68
d
53
65
74
6c
61
6b
2c
20
52
69
6c
65
79
10
4d
6f
72
72
65
61
6c
65
2c
20
49
73
72
61
65
6c
16
56
61
6e
64
65
72
73
63
68
61
65
67
65
2c
20
57
69
6c
62
65
72
74
e
50
6f
73
69
73
2c
20
43
6c
61
75
64
69
65
f
48
61
62
65
72
6b
61
6d
70
2c
20
41
6c
64
6f
c
59
6f
68
65
2c
20
53
68
6f
6e
6e
61
12
44
69
66
66
65
6e
64
61
6c
2c
20
4b
6f
72
74
6e
65
79
f
47
69
72
61
64
2c
20
56
69
6e
63
65
6e
7a
6f
f
4b
69
72
6b
65
79
2c
20
46
6c
6f
72
69
6e
65
10
43
72
6f
6f
6b
65
73
2c
20
4d
61
72
63
65
6c
6c
f
43
6f
75
73
61
69
6e
2c
20
41
6e
74
77
61
6e
12
4c
61
6e
64
61
6b
65
72
2c
20
4c
69
7a
61
62
65
74
68
d
53
74
65
6d
70
65
72
2c
20
43
68
61
73
c
58
69
6f
6e
67
2c
20
4d
61
67
65
6e
e
53
74
6f
6b
61
6e
2c
20
44
61
76
69
64
61
f
57
69
6e
74
6c
65
2c
20
41
6e
74
6f
6e
69
6f
d
53
65
6d
72
61
64
2c
20
4c
69
6c
6c
61
11
42
6f
75
72
6e
73
2c
20
4a
6f
68
6e
61
74
68
61
6e
e
44
61
6d
6f
72
6f
2c
20
4d
69
67
6e
6f
6e
d
4d
63
6b
65
72
6e
2c
20
56
61
6e
63
65
e
50
65
74
65
75
69
6c
2c
20
45
6c
6d
65
72
f
4c
65
67
65
74
74
65
2c
20
4d
61
72
67
69
65
12
4d
6f
64
64
65
6a
6f
6e
67
65
2c
20
52
6f
62
62
69
6e
10
48
69
70
73
68
65
72
2c
20
42
72
69
74
74
6e
79
d
4d
61
6c
61
62
65
79
2c
20
52
69
63
68
f
4d
61
67
69
6e
6e
2c
20
42
72
65
61
6e
6e
65
d
56
61
6e
70
65
6c
74
2c
20
43
61
72
79
e
48
75
73
61
72
2c
20
4c
61
75
72
69
6e
65
10
4a
61
76
69
73
2c
20
52
6f
6f
73
65
76
65
6c
74
d
4b
6f
77
61
6c
6c
69
73
2c
20
54
68
75
16
57
6f
6c
66
73
62
65
72
67
65
72
2c
20
43
6f
72
6e
65
6c
69
75
73
d
56
61
75
74
65
72
2c
20
47
61
72
72
79
10
4c
61
6d
62
6c
69
6e
2c
20
4d
61
72
6c
65
6e
61
10
4c
61
72
61
73
6f
6e
2c
20
4d
6f
64
65
73
74
61
c
50
65
74
72
69
2c
20
54
65
72
72
79
13
54
75
72
6e
71
75
69
73
74
2c
20
53
75
73
61
6e
6e
61
68
e
46
69
6e
63
68
61
6d
2c
20
42
72
61
69
6e
13
57
69
74
68
65
72
69
6e
67
74
6f
6e
2c
20
49
73
61
61
63
e
53
6b
6f
72
61
2c
20
54
61
62
69
74
68
61
a
43
61
64
61
2c
20
48
61
6e
68
c
48
6f
6c
6c
65
6e
2c
20
43
6f
72
79
10
50
72
69
74
63
68
65
74
74
2c
20
57
69
6c
6c
61
12
4d
63
63
6c
65
6e
64
6f
6e
2c
20
44
61
72
6c
65
6e
65
c
54
75
72
62
65
73
2c
20
41
6c
69
78
d
53
65
2c
20
56
61
6c
65
6e
74
69
6e
65
e
4a
65
66
66
72
65
79
73
2c
20
59
75
6b
69
10
43
69
62
72
69
61
6e
2c
20
42
72
69
74
74
6e
79
10
43
6c
61
72
6f
73
2c
20
4a
65
6e
69
66
66
65
72
10
56
65
72
6e
6f
79
2c
20
43
61
73
61
6e
64
72
61
13
42
75
67
61
72
65
77
69
63
7a
2c
20
4d
61
72
6b
69
74
61
d
43
75
62
69
6e
65
2c
20
53
74
61
63
69
d
4a
6f
68
61
72
2c
20
54
6f
6d
6f
6b
6f
12
59
67
6c
65
73
69
61
73
2c
20
47
65
72
6d
61
69
6e
65
11
48
6f
6c
74
68
61
75
73
2c
20
46
72
65
64
64
69
65
13
42
61
73
65
68
6f
72
65
2c
20
53
61
6c
76
61
74
6f
72
65
f
52
65
70
6c
6f
67
6c
65
2c
20
48
6f
6c
6c
79
f
42
72
61
63
6b
6c
69
6e
2c
20
50
65
72
63
79
e
54
75
72
6b
69
6e
2c
20
49
72
61
69
64
61
10
48
6f
73
61
63
6b
2c
20
4d
61
64
65
6c
69
6e
65
c
45
78
6c
65
72
2c
20
52
6f
62
79
6e
12
50
69
63
6b
65
74
74
65
2c
20
45
76
65
72
65
74
74
65
12
45
73
61
6e
6e
61
73
6f
6e
2c
20
41
6c
6c
69
73
6f
6e
11
59
6f
75
6e
67
73
74
72
6f
6d
2c
20
4d
79
72
74
61
e
44
6f
7a
6f
69
73
2c
20
53
68
65
69
6c
61
b
4c
61
6c
61
2c
20
4c
75
63
69
61
b
44
75
68
6c
2c
20
44
61
76
69
64
d
42
61
67
67
65
2c
20
41
72
69
61
6e
61
9
5a
61
6b
69
2c
20
49
6b
65
d
52
65
63
61
6c
64
65
2c
20
4a
6f
73
65
e
4b
65
6d
70
65
6c
2c
20
53
61
6e
74
6f
73
d
57
69
6e
73
6c
6f
77
2c
20
43
6f
72
79
d
4d
69
65
6c
65
73
2c
20
4a
65
6e
6e
61
f
48
6f
72
76
69
74
7a
2c
20
53
68
65
72
6f
6e
f
42
6f
62
73
65
69
6e
65
2c
20
4b
65
65
6e
61
f
53
6b
69
6c
64
75
6d
2c
20
4d
65
6c
61
6e
79
10
47
69
6c
68
6f
6f
6c
79
2c
20
43
68
65
72
72
79
f
48
61
6e
73
65
6c
6c
2c
20
54
6f
6e
69
74
61
e
47
61
7a
65
6c
6c
61
2c
20
44
61
77
6e
65
c
43
68
69
7a
2c
20
4d
61
74
68
65
77
e
4d
61
6e
64
2c
20
53
68
61
71
75
61
6e
61
12
48
61
75
70
74
6d
61
6e
6e
2c
20
53
68
61
77
6e
6e
61
10
4c
75
62
65
6c
73
6b
69
2c
20
4d
6f
6e
72
6f
65
f
43
69
61
6e
63
69
6f
6c
61
2c
20
45
64
69
65
d
44
75
62
65
6c
2c
20
52
65
61
67
61
6e
10
52
65
64
65
6d
65
72
2c
20
4d
61
72
69
65
6c
61
10
4e
69
6d
6d
65
72
2c
20
50
61
75
6c
65
74
74
61
b
4d
65
6e
61
2c
20
4a
61
6e
65
74
11
46
65
74
74
65
72
68
6f
66
66
2c
20
43
61
72
6c
6f
f
43
68
61
70
6d
6f
6e
64
2c
20
44
65
6e
69
73
e
4d
61
68
61
78
61
79
2c
20
45
62
6f
6e
69
12
53
63
68
75
65
72
6d
61
6e
6e
2c
20
4d
69
63
68
65
6c
d
42
61
74
65
73
2c
20
4d
69
63
6b
65
79
10
57
69
6e
74
65
72
62
65
72
67
2c
20
4c
61
6c
61
f
45
72
6d
69
74
61
6e
69
6f
2c
20
54
6f
62
79
13
4d
61
73
68
62
75
72
6e
2c
20
41
6e
6a
61
6e
65
74
74
65
10
43
61
72
64
6f
6e
2c
20
48
79
61
63
69
6e
74
68
c
4d
63
6b
65
72
6e
2c
20
4f
77
65
6e
15
46
72
65
64
65
72
69
63
6b
73
65
6e
2c
20
4b
72
69
73
74
65
6c
c
43
6c
6f
7a
7a
61
2c
20
59
75
6b
6f
f
44
61
71
75
69
6e
6f
2c
20
54
65
72
65
73
65
13
52
6f
73
65
62
61
75
67
68
2c
20
50
72
65
63
69
6f
75
73
e
51
75
61
74
72
61
72
6f
2c
20
45
63
68
6f
10
43
68
61
6e
63
65
79
2c
20
4c
61
74
72
69
6e
61
d
56
69
65
6e
2c
20
57
69
6c
62
75
72
6e
16
53
77
61
72
74
7a
65
6e
74
72
75
62
65
2c
20
4c
61
75
72
69
63
65
d
44
6f
6e
61
68
75
65
2c
20
43
61
6d
69
f
44
75
65
6e
65
73
2c
20
43
61
72
6c
74
6f
6e
c
4f
6c
63
75
73
2c
20
53
75
64
69
65
12
42
61
63
68
69
63
68
61
2c
20
41
73
75
6e
63
69
6f
6e
10
42
72
61
6e
64
65
72
2c
20
43
68
65
72
79
6c
65
12
43
61
74
61
6c
64
6f
2c
20
47
61
62
72
69
65
6c
6c
61
f
4c
61
6e
74
69
67
75
61
2c
20
51
75
69
6e
6e
14
4b
61
70
70
65
72
6d
61
6e
2c
20
47
65
72
74
72
75
64
69
73
f
46
69
75
6d
61
72
61
2c
20
4a
6f
68
6e
6e
79
11
44
65
74
75
72
65
6e
6e
65
2c
20
59
61
73
75
6b
6f
c
45
6b
6b
65
72
2c
20
4d
61
72
67
65
14
48
61
79
73
62
65
72
74
2c
20
43
72
69
73
74
6f
70
68
65
72
c
47
6f
61
72
64
2c
20
4b
6f
72
65
79
f
4c
6f
6d
61
63
6b
2c
20
48
6f
75
73
74
6f
6e
e
54
65
72
70
73
74
72
61
2c
20
53
6f
6e
61
c
54
61
72
6c
6f
77
2c
20
56
69
6b
69
f
4c
65
68
61
72
2c
20
45
6c
65
6f
6e
6f
72
65
f
50
6f
61
67
75
65
2c
20
48
65
61
74
68
65
72
f
43
72
65
65
63
68
2c
20
47
65
6f
72
67
69
65
b
47
6f
6c
61
2c
20
42
72
69
61
6e
c
42
65
72
73
6f
6e
2c
20
56
61
64
61
f
44
65
62
69
61
73
65
2c
20
43
61
72
73
6f
6e
f
42
72
6f
65
72
69
6e
67
2c
20
43
68
65
72
69
d
56
72
62
61
73
2c
20
54
68
6f
6d
61
73
12
42
6f
6e
6e
65
61
75
2c
20
43
6c
65
6d
65
6e
63
69
61
d
48
69
6e
73
65
79
2c
20
4c
61
79
6e
65
12
43
61
73
74
61
6e
65
64
6f
2c
20
43
6c
61
72
69
73
61
c
52
68
65
65
73
2c
20
52
6f
78
69
65
10
43
72
6f
75
73
6f
72
65
2c
20
41
75
64
72
69
65
e
46
6f
72
69
6e
67
65
72
2c
20
41
76
69
73
b
46
72
61
7a
65
72
2c
20
4d
61
65
f
43
69
74
72
6f
6e
69
2c
20
42
6c
61
69
6e
65
f
4b
61
77
61
69
61
65
61
2c
20
53
75
73
69
65
f
4d
61
75
66
66
72
61
79
2c
20
4d
65
67
61
6e
10
4c
65
61
76
65
6e
73
2c
20
4a
6f
65
6c
6c
65
6e
b
46
75
67
6c
65
2c
20
4b
72
69
73
d
48
65
61
67
6e
65
79
2c
20
4a
75
6c
65
d
4d
65
6e
73
65
6e
2c
20
4c
6f
79
63
65
d
56
6f
72
61
6e
2c
20
4c
69
6e
64
73
79
f
47
69
72
6f
6e
2c
20
57
69
6c
6c
65
74
74
65
e
4c
75
6b
69
6e
73
2c
20
44
69
6f
6e
6e
61
11
46
72
65
64
6c
75
6e
64
2c
20
43
6c
61
72
69
74
61
f
53
70
65
72
72
79
2c
20
53
68
65
6c
6c
65
79
e
53
68
75
6e
6b
2c
20
4c
61
6b
65
6e
79
61
12
44
69
6d
75
63
63
69
6f
2c
20
52
6f
73
61
6c
69
6e
61
11
42
69
64
64
75
6c
70
68
2c
20
45
73
74
65
6c
6c
65
f
44
69
6e
6f
2c
20
4b
61
74
68
65
72
69
6e
61
11
43
6c
61
70
68
61
6d
2c
20
4d
61
72
67
65
72
65
74
b
50
65
70
70
69
6e
2c
20
4c
75
65
f
44
65
67
72
65
65
2c
20
42
72
65
6e
74
6f
6e
10
4e
6f
74
69
73
2c
20
46
69
6c
69
62
65
72
74
6f
f
4d
6f
72
72
69
73
73
2c
20
4e
69
63
6f
6c
61
d
41
6e
69
64
69
2c
20
53
75
6d
69
6b
6f
f
4a
75
6e
69
6f
72
2c
20
43
68
61
72
6c
65
73
b
48
61
6e
73
2c
20
43
68
6f
6e
67
e
59
61
72
62
65
72
2c
20
41
75
74
75
6d
6e
d
4a
61
63
6f
6d
65
2c
20
50
61
75
6c
61
d
53
61
6e
63
65
6e
2c
20
4e
69
6c
73
61
10
54
69
6d
6d
65
72
6d
61
6e
6e
2c
20
4d
61
69
61
e
4c
6f
63
75
73
2c
20
52
6f
73
61
6c
69
61
f
4d
61
63
69
6e
61
2c
20
4c
61
77
61
6e
64
61
10
47
65
72
73
68
6d
61
6e
2c
20
57
69
6c
62
75
72
c
4e
65
65
2c
20
54
79
6e
69
73
68
61
8
4c
65
79
73
2c
20
4f
6b
10
47
69
6c
6c
69
6e
73
2c
20
41
6c
76
65
72
74
61
d
4d
65
6e
65
65
6c
79
2c
20
4c
65
61
68
10
50
68
65
61
73
61
6e
74
2c
20
42
65
72
74
69
65
10
41
72
75
6e
64
65
6c
2c
20
53
68
65
72
69
63
65
b
4d
6f
68
72
2c
20
43
68
65
72
65
10
4b
61
65
6c
6b
65
72
2c
20
44
65
72
72
69
63
6b
e
53
6f
6e
64
61
79
2c
20
4d
61
72
68
74
61
e
4d
61
72
74
69
6e
2c
20
4e
65
6c
69
64
61
d
4c
61
70
65
72
2c
20
4a
75
6c
69
65
74
c
59
61
67
69
6e
2c
20
4b
79
6f
6b
6f
e
4d
65
6c
6f
64
79
2c
20
4e
65
63
6f
6c
65
11
4d
63
6b
69
6c
6c
69
70
2c
20
51
75
69
6e
74
6f
6e
11
53
61
6e
74
6f
72
65
6c
6c
61
2c
20
43
61
72
79
6c
10
46
6c
65
69
73
6e
65
72
2c
20
4c
65
69
67
68
61
e
53
68
69
6e
6b
6f
2c
20
48
69
72
6f
6b
6f
13
54
72
65
6d
61
79
6e
65
2c
20
4a
61
63
71
75
65
6c
69
6e
c
4f
6c
76
65
79
2c
20
45
6c
6d
65
72
e
4d
61
64
65
6a
61
2c
20
43
68
65
72
79
6c
e
54
75
65
6c
6c
65
72
2c
20
4d
69
6b
6b
69
e
43
72
79
61
6e
2c
20
43
61
72
6d
65
6c
6f
10
4d
61
74
74
75
2c
20
4d
61
72
67
75
72
69
74
65
c
56
61
72
67
61
2c
20
42
72
79
6f
6e
f
47
61
69
65
74
74
6f
2c
20
4a
65
72
72
69
65
b
59
61
75
2c
20
4c
65
61
6e
6e
61
f
44
65
6c
61
6e
65
79
2c
20
44
65
6c
6f
72
61
c
44
69
72
6c
61
6d
2c
20
45
75
6c
61
12
46
72
61
6e
73
73
65
6e
2c
20
4b
61
74
65
72
69
6e
65
11
53
63
68
65
75
65
72
2c
20
4b
65
6d
62
65
72
6c
79
d
52
6f
75
74
6f
6e
2c
20
4b
61
74
68
79
10
4c
61
6e
64
62
6f
72
67
2c
20
4a
61
6e
79
63
65
c
41
6c
66
61
72
6f
2c
20
4c
61
6e
61
e
53
75
6d
6c
61
72
2c
20
50
68
79
6c
69
73
f
4d
61
73
6c
6f
77
73
6b
69
2c
20
4a
65
6e
61
10
4c
65
66
66
65
6c
6d
61
6e
2c
20
4d
61
72
65
6e
10
4f
72
6c
61
6e
64
6f
2c
20
53
68
69
72
6c
65
79
10
4d
69
79
61
7a
61
6b
69
2c
20
53
6f
6e
64
72
61
e
52
65
69
6c
79
2c
20
52
65
62
62
65
63
61
d
42
65
7a
7a
6f
2c
20
4c
61
74
69
6e
61
15
46
72
65
64
65
72
69
63
6b
73
65
6e
2c
20
4d
61
72
79
6c
69
6e
10
47
61
62
65
72
2c
20
53
65
70
74
65
6d
62
65
72
10
53
74
75
74
73
6d
61
6e
2c
20
57
69
6e
74
65
72
f
53
74
65
6e
64
61
6c
2c
20
44
61
72
65
6c
6c
d
47
6c
6f
77
73
6b
69
2c
20
4a
6f
64
79
f
42
65
72
6b
6d
61
6e
2c
20
43
61
72
6d
61
6e
d
52
69
6c
69
6e
67
2c
20
53
75
73
61
6e
12
47
75
65
72
65
74
74
61
2c
20
54
68
65
72
65
73
69
61
14
51
75
65
72
74
65
72
6d
6f
75
73
2c
20
43
61
72
6d
69
6e
65
13
43
6f
72
70
6f
72
61
6c
2c
20
4d
61
72
63
65
6c
6c
75
73
e
47
6f
6f
6c
73
62
79
2c
20
52
6f
62
62
79
10
52
61
6d
62
65
72
67
2c
20
41
6c
66
6f
6e
73
6f
f
53
63
69
61
6c
70
69
2c
20
4a
61
6e
65
61
6e
e
41
6c
74
79
2c
20
42
65
72
6e
65
69
63
65
f
43
61
62
62
65
6c
6c
2c
20
43
6c
61
72
69
73
11
4b
61
73
7a
69
6e
73
6b
69
2c
20
4c
79
6e
64
6f
6e
d
41
79
72
65
73
2c
20
44
65
6c
65
6e
61
f
48
6f
62
65
72
74
2c
20
43
61
70
72
69
63
65
11
57
65
6e
64
65
6c
6b
65
6e
2c
20
43
6f
72
69
6e
65
d
50
65
61
72
73
6f
6e
2c
20
41
6c
65
63
e
53
61
6c
6c
69
65
2c
20
4b
72
69
73
74
69
f
53
61
6e
74
75
63
63
69
2c
20
50
65
74
65
72
c
54
65
65
2c
20
43
72
79
73
74
6c
65
11
46
6c
61
64
75
6e
67
2c
20
43
61
74
61
6c
69
6e
61
10
43
61
76
69
63
63
68
69
2c
20
53
65
72
69
74
61
e
53
6c
75
6e
61
6b
65
72
2c
20
44
61
76
65
f
4d
61
68
61
6c
6c
2c
20
4e
61
6e
65
74
74
65
d
42
72
61
62
73
6f
6e
2c
20
4f
74
68
61
11
4d
69
6c
6c
61
72
64
2c
20
4b
61
74
68
61
72
79
6e
d
48
65
65
72
73
2c
20
47
75
73
73
69
65
b
52
75
70
70
2c
20
45
6c
6f
69
73
10
42
69
73
73
6f
6e
6e
65
74
74
65
2c
20
53
61
6d
f
4d
63
6b
69
6e
6e
79
2c
20
59
75
6f
6e
6e
65
b
50
69
6d
2c
20
43
61
72
69
73
61
13
53
74
72
69
74
74
6d
61
74
74
65
72
2c
20
54
6f
6e
69
61
13
51
75
61
72
74
61
72
61
72
6f
2c
20
4c
6f
75
65
74
74
61
f
47
75
65
63
68
6f
2c
20
44
65
6c
6f
72
65
73
10
4c
69
6d
62
65
72
67
2c
20
41
62
69
67
61
69
6c
e
54
6f
6e
63
68
65
2c
20
52
6f
6e
61
6c
64
c
4b
69
72
6f
76
61
63
2c
20
44
61
6e
c
41
76
69
6c
65
73
2c
20
4a
61
6e
69
f
53
63
68
6c
65
6e
7a
2c
20
4a
61
6e
69
63
65
10
47
65
6c
67
65
72
2c
20
4d
61
72
6b
65
74
74
61
f
46
65
64
72
69
63
6b
2c
20
41
6d
61
6c
69
61
11
46
69
6c
69
63
65
74
74
69
2c
20
4b
61
72
72
69
65
e
42
6f
6c
73
74
65
72
2c
20
4a
6f
76
61
6e
d
42
69
7a
7a
61
72
6f
2c
20
54
6f
62
69
d
52
69
68
65
72
64
2c
20
4f
6c
65
6e
65
10
44
65
6d
61
72
61
69
73
2c
20
4e
69
63
68
6f
6c
12
44
69
6c
6c
61
62
6f
75
67
68
2c
20
4c
6f
74
74
69
65
a
4b
65
61
6e
2c
20
4a
65
6e
65
12
56
61
6e
64
65
72
6e
6f
6f
74
2c
20
43
61
72
72
6f
6c
c
45
72
73
6b
69
6e
65
2c
20
45
76
61
f
54
65
72
61
6d
6f
74
6f
2c
20
43
6c
79
64
65
e
43
61
70
65
6c
6c
61
73
2c
20
44
65
6e
61
c
42
69
73
73
65
6c
2c
20
4b
65
72
61
b
4f
6c
69
6e
2c
20
54
61
6e
79
61
b
43
68
61
79
2c
20
52
6f
63
6b
79
7
4f
6c
6b
2c
20
4c
65
e
52
6f
63
63
68
69
2c
20
4e
69
63
6f
6c
65
14
53
77
61
74
73
77
6f
72
74
68
2c
20
56
61
6e
6e
65
73
73
61
f
42
61
72
62
65
74
74
61
2c
20
54
72
75
6c
61
11
48
61
72
61
6c
73
6f
6e
2c
20
43
61
70
72
69
63
65
10
53
61
72
61
69
76
61
2c
20
42
65
61
75
6c
61
68
11
4f
73
6d
75
6e
64
73
6f
6e
2c
20
4a
6f
65
74
74
61
f
4c
65
65
74
2c
20
44
6f
6d
6f
6e
69
71
75
65
10
5a
61
6c
64
69
76
61
72
2c
20
44
65
62
62
69
65
13
53
63
68
6f
70
6d
65
79
65
72
2c
20
41
72
6e
75
6c
66
6f
d
47
61
6d
61
67
65
2c
20
4c
69
73
73
61
d
42
61
72
65
73
69
2c
20
47
69
6c
64
61
f
53
63
68
72
61
6e
7a
2c
20
41
6e
61
62
65
6c
11
43
68
65
72
75
62
69
6e
6f
2c
20
44
61
6e
79
65
6c
12
53
63
68
69
66
66
6d
61
6e
2c
20
4c
6f
72
72
69
6e
65
d
47
61
6c
76
61
6e
69
2c
20
54
79
72
61
a
4d
65
64
69
2c
20
42
69
62
69
11
53
63
68
6c
69
63
6b
2c
20
4d
69
74
63
68
65
6c
6c
d
4d
63
63
61
75
6c
6c
65
79
2c
20
54
79
e
46
72
6f
6e
65
6b
2c
20
4d
69
74
73
75
65
d
50
6f
6b
6f
72
61
2c
20
44
6f
72
6c
61
10
4d
65
72
63
79
2c
20
52
6f
73
61
6d
61
72
69
61
10
50
6c
65
73
6e
61
72
73
6b
69
2c
20
45
6c
6c
61
d
53
61
79
65
72
2c
20
44
65
6c
63
69
65
f
50
61
72
61
74
2c
20
45
6c
65
61
6e
6f
72
61
12
53
75
6e
64
65
72
6d
65
79
65
72
2c
20
47
72
61
69
67
e
4c
75
6b
61
73
69
6b
2c
20
44
61
72
65
6e
10
5a
6e
69
64
61
72
73
69
63
2c
20
52
65
6e
65
65
11
4e
69
63
6f
64
65
6d
75
73
2c
20
4b
69
65
73
68
61
e
45
67
67
65
2c
20
4c
61
77
72
65
6e
63
65
f
4d
61
6e
6a
61
72
72
65
7a
2c
20
4c
61
64
79
c
4e
6f
61
63
6b
2c
20
4f
6c
6c
69
65
c
57
69
62
62
65
6e
73
2c
20
54
61
69
11
4d
61
67
64
61
6c
65
6e
6f
2c
20
57
69
6c
6c
69
73
11
56
61
6e
72
75
6c
65
72
2c
20
43
61
72
69
73
73
61
e
54
72
75
73
73
2c
20
4f
6c
79
6d
70
69
61
e
4d
6f
6e
74
69
65
2c
20
41
6e
64
72
65
61
d
52
75
62
65
72
74
2c
20
52
65
6e
61
65
d
47
68
61
6d
64
69
2c
20
44
61
72
6c
61
c
4d
6f
74
74
73
2c
20
4a
61
69
6d
65
f
52
75
64
69
67
2c
20
43
6c
61
72
69
73
73
61
e
41
6e
67
61
6c
69
63
68
2c
20
54
61
6d
61
d
54
72
69
74
74
2c
20
4b
61
72
69
6e
61
d
4d
65
73
65
72
76
65
2c
20
4c
75
69
73
e
50
61
72
73
65
6c
6c
73
2c
20
45
72
69
63
c
46
72
61
74
74
61
2c
20
42
65
73
73
f
53
65
69
73
6c
65
72
2c
20
4d
6f
6e
69
6b
61
e
59
6f
63
6f
6d
2c
20
4d
61
6a
6f
72
69
65
10
54
72
65
61
6d
65
72
2c
20
52
75
73
73
65
6c
6c
f
4d
75
67
67
6c
65
79
2c
20
45
6c
65
61
73
65
f
4e
65
65
6d
61
6e
6e
2c
20
45
6d
69
6c
69
6f
a
5a
69
64
65
2c
20
4a
6f
68
6e
c
52
75
62
65
72
74
2c
20
45
72
69
6e
10
4c
65
61
76
69
67
6e
65
2c
20
46
61
72
72
61
68
d
48
61
72
63
75
73
2c
20
43
61
72
65
79
15
44
69
7a
61
64
61
72
65
2c
20
50
72
6f
76
69
64
65
6e
63
69
61
e
44
65
64
6d
6f
6e
2c
20
43
61
72
72
6f
6c
10
43
6f
63
6f
7a
7a
61
2c
20
4a
65
72
6c
65
6e
65
10
53
65
74
74
6c
65
73
2c
20
56
61
6c
6f
72
69
65
b
57
61
6e
6b
2c
20
4c
69
6c
6c
69
f
50
61
63
6f
2c
20
41
6e
74
6f
6e
65
74
74
61
d
4d
69
7a
65
72
2c
20
4c
6f
72
65
74
61
b
44
6f
67
61
6e
2c
20
54
6f
6d
69
f
42
61
73
74
75
72
61
2c
20
44
65
6e
69
63
65
11
42
6c
61
6e
64
6f
6e
2c
20
43
61
6c
61
6e
64
72
61
c
4b
61
6e
7a
6c
65
72
2c
20
53
69
64
10
43
68
72
69
73
74
6f
70
68
65
2c
20
48
6f
6e
67
11
52
6f
75
74
6f
6e
2c
20
53
65
62
61
73
74
69
61
6e
10
50
6f
6c
76
69
6e
6f
2c
20
42
72
61
6e
64
6f
6e
b
50
6f
74
74
2c
20
4a
61
72
65
64
e
4e
65
75
6d
61
6e
2c
20
4b
61
72
69
6e
65
12
4d
63
63
75
6c
6c
61
72
2c
20
46
72
61
6e
63
65
6e
65
f
56
61
71
75
65
72
6f
2c
20
4c
69
6e
73
65
79
10
52
6f
73
6d
61
72
69
6e
2c
20
4b
61
72
72
65
6e
d
47
61
72
64
6c
65
79
2c
20
4a
65
6e
61
f
42
65
6e
77
61
72
64
2c
20
45
6c
6f
69
73
61
14
56
61
6e
68
6f
6f
7a
65
72
2c
20
43
61
72
6d
65
6c
69
74
61
e
50
65
73
6e
65
6c
6c
2c
20
4a
65
73
75
73
f
46
72
65
69
72
65
2c
20
4c
61
74
6f
73
68
61
11
50
61
75
6b
65
72
74
2c
20
53
68
69
72
6c
65
65
6e
b
5a
68
65
6e
67
2c
20
47
65
6e
65
e
52
6f
6c
6c
65
2c
20
52
6f
73
61
6c
62
61
11
44
65
6c
67
72
61
6e
64
65
2c
20
4e
65
73
74
6f
72
f
53
68
61
72
70
6e
61
63
6b
2c
20
4f
74
74
6f
11
57
69
6c
6c
69
66
6f
72
64
2c
20
52
6f
78
61
6e
65
13
53
61
6e
64
73
74
72
6f
6d
2c
20
4c
75
63
72
65
63
69
61
d
50
6c
79
65
72
2c
20
56
65
72
64
69
65
10
50
65
64
72
6f
7a
61
2c
20
43
61
72
6c
65
65
6e
10
4a
75
65
6c
66
73
2c
20
4c
65
61
74
72
69
63
65
9
42
6f
76
65
65
2c
20
54
75
c
41
70
6b
65
72
2c
20
4c
65
6f
6d
61
12
47
72
6f
6e
71
75
69
73
74
2c
20
44
6f
6c
6f
72
69
73
e
42
75
72
72
65
73
6f
6e
2c
20
44
6f
6e
67
f
46
72
69
64
61
6c
2c
20
4c
61
75
72
65
65
6e
e
43
72
6f
63
65
2c
20
45
6c
65
6f
6e
6f
72
e
4b
72
61
61
63
6b
2c
20
4d
69
67
6e
6f
6e
16
53
63
68
77
69
63
68
74
65
6e
62
65
72
2c
20
50
72
65
73
74
6f
6e
e
43
65
73
70
65
64
65
73
2c
20
4e
6f
6d
61
e
4d
65
68
6c
65
72
2c
20
4c
61
64
61
77
6e
e
50
69
67
6f
74
74
2c
20
4a
65
72
69
63
61
c
4d
61
64
67
65
2c
20
4b
79
6f
6e
67
10
54
69
70
70
69
6e
67
2c
20
4d
69
63
68
61
6c
65
f
53
68
65
72
6c
65
79
2c
20
4c
61
76
69
6e
61
c
46
61
63
65
72
2c
20
52
75
62
65
6e
14
4b
61
6e
6a
69
72
61
74
68
69
6e
67
61
2c
20
4e
69
67
65
6c
d
50
75
73
68
2c
20
47
6c
65
6e
6e
69
73
f
4e
65
73
73
65
6c
2c
20
45
64
67
61
72
64
6f
c
48
61
6e
7a
2c
20
47
72
61
68
61
6d
13
47
69
6c
6c
69
6e
67
73
2c
20
4d
61
72
67
75
72
69
74
65
d
53
6f
6f
68
6f
6f
2c
20
43
68
65
72
65
1a
53
65
6e
73
65
6e
62
72
65
6e
6e
65
72
2c
20
43
68
72
69
73
74
6f
70
68
65
72
11
42
61
6c
7a
61
72
69
6e
65
2c
20
4a
61
72
72
6f
64
10
50
65
74
65
65
74
2c
20
56
65
72
6e
65
74
74
61
b
50
61
75
6c
6f
2c
20
4c
61
6c
61
e
48
75
64
6c
65
79
2c
20
4d
61
64
64
69
65
10
53
68
6f
77
64
65
6e
2c
20
54
61
62
61
74
68
61
11
52
61
69
6e
76
69
6c
6c
65
2c
20
43
68
61
72
6c
61
e
46
61
6c
6c
73
2c
20
4c
61
72
6f
6e
64
61
f
57
69
6e
62
65
72
67
2c
20
59
61
73
75
6b
6f
10
42
72
65
6e
67
6c
65
2c
20
4f
6c
79
6d
70
69
61
e
5a
65
61
6e
61
68
2c
20
53
68
61
73
74
61
e
44
75
6e
6e
2c
20
57
69
6e
69
66
72
65
64
f
48
65
79
6d
61
6e
2c
20
52
6f
62
65
72
74
6f
11
43
68
69
76
65
72
74
6f
6e
2c
20
44
65
6e
69
74
61
e
50
75
69
74
61
2c
20
4a
65
6e
65
6c
6c
65
10
49
76
65
73
74
65
72
2c
20
4d
65
72
72
69
6c
6c
e
54
61
63
6b
65
74
74
2c
20
44
61
72
79
6c
e
4d
65
6e
64
65
6e
2c
20
44
6f
6e
61
6c
64
11
4b
6c
65
6d
65
6e
74
2c
20
47
72
65
67
6f
72
69
6f
d
46
6f
78
6d
61
6e
2c
20
42
65
74
74
79
f
4c
65
64
6f
6e
6e
65
2c
20
43
61
72
6c
79
6e
e
53
63
68
77
69
6e
6e
2c
20
4c
69
6c
6c
61
10
4b
61
6c
6c
68
6f
66
66
2c
20
43
61
72
74
65
72
c
48
75
68
6e
2c
20
53
79
6c
76
69
61
12
48
6f
66
6d
61
6e
73
2c
20
44
65
6d
65
74
72
69
75
73
c
4f
70
65
6c
6c
2c
20
46
61
69
72
79
10
52
61
6d
73
69
65
72
2c
20
4c
6f
75
65
6c
6c
61
10
46
6c
6f
72
65
6e
2c
20
4e
69
63
68
6f
6c
61
73
f
53
6c
61
76
69
63
6b
2c
20
4c
65
73
6c
65
65
d
52
6f
68
72
69
67
2c
20
4d
69
6b
6b
69
b
43
61
72
62
61
63
6b
2c
20
54
61
c
4f
73
6f
6c
2c
20
4a
6f
61
6e
6e
65
e
47
72
75
64
65
6d
2c
20
54
79
72
6f
6e
65
d
41
64
64
69
65
2c
20
44
65
69
64
72
61
f
50
65
74
72
6f
63
63
6f
2c
20
48
6f
6d
65
72
10
54
79
70
68
61
69
72
2c
20
42
72
61
6e
64
6f
6e
11
46
6f
72
62
75
73
68
2c
20
4c
69
6c
6c
69
61
6e
61
e
53
74
6f
74
73
6b
79
2c
20
54
69
74
75
73
12
47
72
61
64
69
6c
6c
61
73
2c
20
50
68
79
6c
69
73
73
10
47
61
73
63
6f
6e
2c
20
4d
61
72
61
67
72
65
74
e
44
65
6d
61
72
69
6f
2c
20
44
69
78
69
65
e
52
6f
75
69
73
73
65
2c
20
4a
61
69
6d
65
b
48
61
6e
6f
2c
20
48
65
72
74
61
11
42
65
72
74
6f
76
69
63
68
2c
20
41
6e
64
72
65
77
12
42
69
6c
62
65
72
72
79
2c
20
45
70
69
66
61
6e
69
61
12
4c
61
67
61
6e
61
2c
20
4d
61
72
67
75
65
72
69
74
61
b
44
61
72
74
2c
20
53
61
72
61
68
e
48
65
6e
64
72
69
63
6b
2c
20
4a
65
61
6e
f
57
65
67
6c
61
67
65
2c
20
4b
65
69
73
68
61
f
42
65
6c
6f
66
66
2c
20
53
74
65
70
68
65
6e
e
4d
61
69
6c
6d
61
6e
2c
20
46
72
61
6e
6b
13
41
68
72
65
6e
73
74
6f
72
66
66
2c
20
45
76
65
6c
69
61
c
4d
61
67
6f
2c
20
4d
69
67
6e
6f
6e
10
47
6f
6c
64
62
61
75
6d
2c
20
4d
69
6e
6e
69
65
f
43
61
72
65
77
2c
20
43
68
72
69
73
74
69
61
13
51
75
69
6e
74
61
6e
61
2c
20
50
61
72
74
68
65
6e
69
61
d
43
72
61
76
65
79
2c
20
57
69
6c
6d
61
e
48
65
6d
72
79
2c
20
4b
61
74
72
69
63
65
13
46
65
69
6d
73
74
65
72
2c
20
44
65
6d
65
74
72
69
63
65
10
43
6f
67
6c
69
61
6e
6f
2c
20
50
61
6d
75
6c
61
e
4e
65
73
6c
61
6e
64
2c
20
50
61
75
6c
61
e
4e
6f
73
69
73
2c
20
4e
69
63
6f
6c
6c
65
e
43
61
73
74
69
6f
6c
61
2c
20
56
65
6e
61
f
42
72
7a
65
7a
69
63
6b
69
2c
20
4b
79
6c
61
e
57
69
6b
65
72
74
2c
20
4b
61
72
6d
65
6e
c
45
67
69
7a
69
2c
20
4c
6f
72
72
69
f
4e
65
79
68
61
72
74
2c
20
44
61
6e
69
63
61
a
4e
61
62
2c
20
53
61
6e
74
6f
12
4d
6f
6e
74
61
6c
67
6f
2c
20
4c
61
75
72
65
6e
63
65
12
43
61
73
74
65
6c
6c
61
6e
6f
73
2c
20
47
61
72
74
68
d
4b
75
6e
61
75
2c
20
58
61
76
69
65
72
c
4b
61
72
61
6d
2c
20
4d
61
72
67
6f
c
53
68
61
79
2c
20
52
6f
6e
6e
69
65
15
4b
6c
61
61
6d
65
79
65
72
2c
20
46
72
65
64
65
72
69
63
6b
61
f
42
6f
75
77
6b
61
6d
70
2c
20
4b
69
61
6e
61
11
43
69
61
6e
66
72
69
6e
69
2c
20
41
72
63
68
69
65
e
47
69
6c
67
61
6e
2c
20
54
6f
6d
6d
69
65
d
52
69
65
73
6b
65
2c
20
41
6c
65
65
6e
c
54
6f
70
61
6c
2c
20
4d
61
72
63
6f
10
48
65
72
6c
69
6e
65
2c
20
4a
61
6e
69
65
63
65
c
44
61
76
65
2c
20
52
6f
73
63
6f
65
12
4d
63
64
6f
6e
6e
65
6c
6c
2c
20
52
61
70
68
61
65
6c
11
48
65
61
64
69
6e
67
74
6f
6e
2c
20
45
6d
65
6c
79
11
45
69
64
65
6d
69
6c
6c
65
72
2c
20
54
77
61
6e
61
12
48
69
6c
63
68
65
79
2c
20
4b
61
74
68
61
72
69
6e
61
e
53
70
61
74
65
73
2c
20
52
65
75
62
65
6e
d
47
72
61
6e
65
79
2c
20
4b
61
72
79
6c
10
4b
6f
6f
69
73
74
72
61
2c
20
4c
65
6e
6f
72
61
10
4d
69
72
61
72
63
68
69
2c
20
4d
61
72
76
69
6e
10
48
61
6c
6c
69
63
6b
2c
20
4d
6f
6e
69
71
75
65
11
50
69
63
6f
74
2c
20
45
61
72
6e
65
73
74
69
6e
65
d
41
6c
6d
61
73
2c
20
43
75
72
74
69
73
e
50
69
74
74
61
2c
20
54
61
74
79
61
6e
61
e
54
65
6e
65
72
79
2c
20
57
65
73
6c
65
79
f
52
69
63
6b
65
72
6c
2c
20
52
65
6e
69
74
61
10
4c
61
6e
61
67
61
6e
2c
20
4c
61
64
6f
6e
6e
61
d
44
65
73
61
6e
74
69
2c
20
45
76
6f
6e
10
43
72
6f
77
73
6f
6e
2c
20
43
6f
72
61
6c
69
65
e
4d
63
62
65
61
6e
2c
20
59
61
73
75
6b
6f
10
56
69
6c
6c
65
64
61
2c
20
43
68
61
72
6c
65
73
e
43
68
61
73
73
2c
20
59
6f
6c
61
6e
64
6f
d
48
61
67
67
61
72
2c
20
4a
61
73
6f
6e
d
4c
69
6c
6a
61
2c
20
41
73
74
72
69
64
d
45
6c
73
62
72
65
65
2c
20
4d
69
6e
68
f
44
61
6a
61
6e
69
2c
20
4d
61
6e
75
65
6c
61
d
48
65
76
65
73
73
79
2c
20
47
69
6e
61
b
4d
61
68
6f
6e
79
2c
20
4a
61
6e
f
43
69
74
72
61
6e
6f
2c
20
41
72
6e
69
74
61
f
4a
61
6b
75
62
69
6b
2c
20
45
6c
77
6f
6f
64
10
4d
69
7a
65
6e
6b
6f
2c
20
53
74
65
77
61
72
74
13
4d
6f
72
69
6e
76
69
6c
6c
65
2c
20
4b
61
79
6c
65
65
6e
10
4d
61
6e
77
61
72
72
65
6e
2c
20
44
65
62
62
69
f
50
61
73
65
75
72
2c
20
4c
65
74
69
74
69
61
e
52
61
68
6d
61
6e
2c
20
55
6c
72
69
6b
65
a
44
69
61
73
2c
20
42
6f
6e
67
b
53
70
72
6f
77
6c
2c
20
41
73
61
d
42
6f
61
68
6e
2c
20
44
61
72
63
65
6c
e
53
63
68
75
62
61
63
68
2c
20
46
72
61
6e
b
44
69
63
6b
65
2c
20
52
6f
73
65
f
54
72
75
66
69
6e
2c
20
41
6d
65
72
69
63
61
12
45
73
63
68
65
6e
62
75
72
67
2c
20
43
61
72
6d
6f
6e
c
46
6c
6f
72
65
6b
2c
20
44
61
6c
65
10
42
6c
6f
63
6b
6c
69
6e
67
65
72
2c
20
41
62
65
b
42
61
63
63
68
69
2c
20
4a
69
6e
e
54
75
72
6b
65
6c
2c
20
4a
61
72
72
65
64
11
48
65
64
69
67
65
72
2c
20
4c
61
73
61
6e
64
72
61
c
43
75
74
72
6f
6e
61
2c
20
43
6f
79
e
57
69
6e
67
68
61
6d
2c
20
4a
61
6d
65
65
e
42
72
61
75
6e
65
72
2c
20
41
62
72
61
6d
f
42
69
72
65
6e
62
61
75
6d
2c
20
4c
61
6e
65
f
42
69
72
64
73
65
6c
6c
2c
20
52
75
62
69
6e
d
46
6f
75
6c
6b
65
2c
20
41
70
72
69
6c
10
49
6e
6e
6f
63
65
6e
74
2c
20
43
68
65
72
6c
79
d
4d
6f
74
74
6f
2c
20
4a
65
77
65
6c
6c
e
44
65
62
72
6f
74
2c
20
4c
65
6e
69
74
61
f
45
6e
63
61
6c
61
64
65
2c
20
45
72
6e
69
65
d
42
75
73
74
6f
2c
20
42
6c
61
69
6e
65
c
4c
75
65
68
72
69
6e
67
2c
20
56
69
f
42
61
72
61
6b
61
74
2c
20
56
65
72
65
6e
61
e
48
6f
6d
6d
65
6c
6c
2c
20
45
6c
72
6f
79
d
42
6c
69
6e
64
2c
20
4b
65
72
6d
69
74
c
53
74
65
65
64
2c
20
43
61
72
65
79
11
4d
63
63
61
72
72
61
68
65
72
2c
20
46
61
6e
6e
79
f
42
72
61
6e
61
67
61
6e
2c
20
44
69
6f
6e
65
f
43
65
72
72
69
6c
6c
6f
2c
20
48
65
69
64
65
e
56
61
73
74
61
6e
6f
2c
20
52
6f
62
62
79
11
42
61
72
75
66
66
61
2c
20
47
65
72
6d
61
69
6e
65
c
44
69
70
69
65
72
6f
2c
20
52
6f
79
f
57
65
79
6b
65
72
2c
20
4d
61
72
74
69
6e
65
13
44
61
72
63
61
6e
67
65
6c
6f
2c
20
44
65
6c
69
6c
61
68
10
53
69
6b
61
72
73
6b
69
65
2c
20
4d
61
67
65
6e
b
4d
61
6c
65
74
7a
2c
20
49
73
61
d
53
65
75
72
65
72
2c
20
53
61
6e
64
61
11
4b
68
61
6c
65
65
6c
2c
20
52
6f
73
61
6d
6f
6e
64
10
4c
79
6d
61
73
74
65
72
2c
20
4d
61
72
69
6e
61
10
4e
6f
67
61
6c
65
73
2c
20
4b
65
6e
64
61
6c
6c
f
48
69
6c
64
61
68
6c
2c
20
4a
61
6e
6e
65
74
10
48
69
62
64
6f
6e
2c
20
56
65
72
6e
65
74
74
61
c
48
75
69
73
68
2c
20
43
69
6e
64
69
d
42
61
62
62
73
2c
20
4a
6f
6e
65
6c
6c
13
4b
72
65
69
6e
68
61
67
65
6e
2c
20
42
72
69
74
74
6e
69
11
43
61
70
70
65
6c
6c
75
74
69
2c
20
4d
69
6b
65
6c
10
54
79
62
75
72
73
6b
69
2c
20
54
61
69
73
68
61
f
43
6f
6e
73
69
67
6c
69
2c
20
57
69
6e
64
79
d
42
69
61
67
69
2c
20
4d
69
6c
74
6f
6e
d
4f
72
73
6f
6e
2c
20
45
6c
69
73
65
6f
12
4e
65
77
6d
65
79
65
72
2c
20
4c
69
73
61
62
65
74
68
d
4b
6c
65
62
65
2c
20
42
65
6e
69
74
6f
11
47
72
61
6e
74
68
61
6e
2c
20
54
61
6e
65
73
68
61
11
48
65
6c
66
67
6f
74
74
2c
20
4e
6f
76
65
6c
6c
61
10
4d
63
6c
61
6e
61
68
61
6e
2c
20
43
68
61
6e
67
a
47
79
75
72
6b
6f
2c
20
4d
61
f
52
69
6e
6b
65
6c
2c
20
41
6e
74
69
6f
6e
65
f
53
6e
75
66
66
65
72
2c
20
48
65
73
74
65
72
10
42
72
61
75
6e
73
64
6f
72
66
2c
20
53
63
6f
74
f
4c
65
61
74
68
65
72
73
2c
20
4c
65
74
68
61
f
4b
61
74
63
68
65
72
2c
20
56
69
6f
6c
65
74
d
50
65
72
65
67
6f
2c
20
53
74
65
76
65
f
4d
63
63
61
73
6b
69
6e
2c
20
44
65
62
62
79
12
4e
61
6c
62
61
6e
64
69
61
6e
2c
20
42
61
72
62
72
61
f
42
61
6c
6f
77
73
6b
69
2c
20
48
65
6c
65
6e
f
4b
69
6d
6d
65
74
2c
20
4d
61
72
64
65
6c
6c
f
4b
72
61
6d
70
65
72
2c
20
4a
65
72
61
6d
79
d
41
72
72
65
79
2c
20
46
72
65
69
64
61
f
50
72
61
7a
61
6b
2c
20
4c
69
6e
77
6f
6f
64
f
4b
68
6f
75
2c
20
41
6e
6e
61
6d
61
72
69
61
f
50
72
75
64
6f
6d
2c
20
4e
65
72
65
69
64
61
e
45
62
65
72
73
6f
6c
2c
20
53
61
72
61
68
10
48
65
72
6e
61
6e
64
61
7a
2c
20
48
61
6c
65
79
11
47
6f
74
74
64
65
6e
67
65
72
2c
20
42
75
6e
6e
79
d
52
61
73
6b
65
2c
20
41
6c
61
69
6e
61
b
41
6d
61
6e
6e
2c
20
50
61
75
6c
f
4d
69
6e
67
65
2c
20
4d
61
72
69
65
74
74
65
10
48
6f
6c
6c
6d
61
6e
6e
2c
20
57
65
73
6c
65
79
f
59
6f
6e
74
73
2c
20
4d
61
72
79
61
6e
6e
65
d
48
65
61
72
6f
6e
2c
20
43
61
72
65
6e
10
46
6a
65
74
6c
61
6e
64
2c
20
44
6f
6e
61
6c
64
10
42
61
6e
65
72
6a
65
65
2c
20
45
75
6e
69
63
65
e
50
61
6a
74
61
73
2c
20
4d
65
67
68
61
6e
c
48
75
72
65
74
2c
20
4a
61
6e
65
6c
f
43
75
72
74
73
2c
20
42
65
76
65
72
6c
65
65
13
59
75
6e
67
62
6c
75
74
68
2c
20
4a
61
63
6b
65
6c
79
6e
f
44
69
70
61
6e
66
69
6c
6f
2c
20
44
61
6e
61
e
4e
6f
63
6b
65
6c
73
2c
20
54
6f
62
69
65
e
44
61
72
76
69
73
68
2c
20
53
6f
6e
6e
79
d
43
6f
6b
65
72
2c
20
45
6c
6f
64
69
61
e
47
6f
64
61
2c
20
4e
69
63
68
6f
6c
61
73
e
48
69
6e
63
68
65
79
2c
20
4d
61
72
6e
61
e
42
75
74
74
72
61
6d
2c
20
4d
6f
6e
74
65
f
50
72
6f
65
73
63
68
65
72
2c
20
52
6f
73
65
11
43
6f
6c
65
67
72
6f
76
65
2c
20
41
69
6c
65
65
6e
13
4d
61
73
69
6e
63
75
70
2c
20
41
6e
74
6f
6e
65
74
74
61
10
52
69
6e
64
65
72
6c
65
2c
20
46
6f
73
74
65
72
f
50
61
62
65
6c
69
63
6b
2c
20
4b
69
7a
7a
79
e
52
61
6d
6c
65
72
2c
20
4b
69
6d
62
65
72
e
42
75
72
74
73
63
68
69
2c
20
4d
69
73
73
d
4e
6f
76
69
6b
2c
20
43
61
72
72
6f
6c
f
42
61
64
61
6d
69
2c
20
4b
61
6e
64
69
63
65
c
53
65
6d
62
65
72
2c
20
49
6f
6e
65
f
50
6c
75
6d
62
65
72
2c
20
57
61
6e
69
74
61
b
4d
69
6e
2c
20
4e
69
63
6f
6c
65
10
4b
6f
72
6e
65
67
61
79
2c
20
53
68
61
6e
74
65
c
48
61
72
6e
64
65
6e
2c
20
52
61
79
f
43
6f
62
65
72
6c
65
79
2c
20
42
69
6c
6c
79
d
56
61
73
74
61
72
64
69
73
2c
20
4c
69
15
42
72
65
63
6b
65
6e
73
74
65
69
6e
2c
20
47
72
65
67
6f
72
79
d
50
6f
6c
65
6b
2c
20
49
64
65
6c
6c
61
11
42
72
65
7a
6e
61
79
2c
20
54
68
65
72
65
73
69
61
c
50
61
73
65
2c
20
44
65
61
6e
6e
65
12
4c
61
66
6f
75
6e
74
61
69
6e
2c
20
4a
61
6e
79
63
65
b
4a
69
61
75
2c
20
4a
65
73
75
73
a
53
6f
6c
69
64
2c
20
4a
6f
6e
11
4b
6f
70
65
72
73
6b
69
2c
20
52
65
62
62
65
63
61
13
42
75
72
72
69
65
73
63
69
2c
20
53
74
65
66
61
6e
69
65
9
4c
75
79
2c
20
4c
69
64
61
c
42
72
65
65
6e
2c
20
4a
75
6e
69
65
11
4d
65
61
6c
6f
72
2c
20
43
68
72
69
73
74
65
65
6e
f
56
69
6e
63
6b
2c
20
52
6f
73
61
6c
69
6e
64
c
53
65
6e
66
66
2c
20
4c
69
6c
69
61
d
52
75
69
76
6f
2c
20
4d
65
6c
6f
6e
79
9
42
61
2c
20
4b
6f
72
65
79
11
53
74
6f
65
73
73
65
72
2c
20
44
61
6e
65
74
74
65
f
53
74
69
6c
6c
65
79
2c
20
49
73
6f
62
65
6c
e
46
69
65
63
68
74
65
72
2c
20
44
65
6f
6e
f
56
61
6c
6c
61
6e
63
65
2c
20
4c
75
63
69
65
10
43
6f
6d
6d
65
73
2c
20
4a
65
61
6e
65
74
74
61
10
4d
61
72
74
69
6e
6f
76
2c
20
56
61
6e
65
73
61
e
56
65
72
6d
69
6c
79
65
61
2c
20
4f
6c
61
f
44
72
61
67
6e
61
2c
20
44
65
73
69
72
65
65
9
4e
69
70
2c
20
53
75
6e
67
e
46
65
64
6f
72
63
68
61
6b
2c
20
52
6f
6e
11
41
72
6e
73
70
69
67
65
72
2c
20
47
69
64
67
65
74
f
44
61
6e
67
6c
65
72
2c
20
53
69
64
6e
65
79
10
4c
61
67
75
65
72
72
65
2c
20
41
6e
64
72
65
77
10
53
74
65
66
61
6e
69
63
68
2c
20
54
6f
72
69
65
e
4d
65
74
69
65
72
2c
20
46
72
65
65
64
61
d
53
65
69
6c
73
2c
20
4f
72
65
74
68
61
13
4d
61
72
74
65
6e
65
79
2c
20
41
6c
65
78
61
6e
64
65
72
12
42
61
72
74
6f
6c
6f
6d
75
63
63
69
2c
20
4c
69
6e
67
a
56
6f
69
74
2c
20
44
65
6c
6c
e
47
65
6e
64
6c
65
72
2c
20
4d
61
72
6e
69
f
4e
61
74
61
6c
2c
20
57
61
6c
74
72
61
75
64
e
44
65
76
6c
69
6e
2c
20
57
61
6c
6b
65
72
12
4d
65
68
61
72
72
79
2c
20
46
72
61
6e
63
6f
69
73
65
f
53
74
72
61
73
73
65
6c
2c
20
4e
61
6f
6d
61
9
4d
72
61
77
2c
20
50
61
7a
f
4b
72
65
69
64
6c
65
72
2c
20
4c
69
61
6e
61
e
4d
61
6c
6c
61
6b
2c
20
53
6f
70
68
69
61
e
44
65
67
65
79
74
65
72
2c
20
52
65
62
61
e
4b
69
6e
73
6b
79
2c
20
52
65
67
65
6e
61
10
4d
69
6c
6c
6f
77
61
79
2c
20
41
75
73
74
69
6e
c
53
77
6f
72
64
2c
20
41
6e
64
72
65
d
4b
65
69
62
2c
20
59
61
73
6d
69
6e
65
f
50
61
72
6d
65
6c
79
2c
20
41
72
6c
65
61
6e
d
59
61
6e
6b
65
65
2c
20
52
61
6e
64
79
14
4a
6f
68
6e
73
74
6f
6e
62
61
75
67
68
2c
20
4a
61
6e
61
65
11
53
63
61
72
66
6f
6e
65
2c
20
43
79
72
73
74
61
6c
d
41
7a
75
72
65
2c
20
53
65
6c
69
6e
61
f
59
61
6e
74
69
73
2c
20
43
6f
72
65
74
74
61
d
42
61
63
61
2c
20
4c
69
6e
64
73
65
79
e
52
6f
6e
65
73
2c
20
54
69
6d
6f
74
68
79
d
44
6f
6e
68
6f
65
2c
20
52
69
6c
65
79
f
54
68
61
6e
61
73
6f
75
6b
2c
20
41
62
65
6c
d
52
6f
6d
61
6e
6f
2c
20
44
6f
6e
6e
79
12
48
6f
6c
6c
69
6e
67
77
6f
72
74
68
2c
20
59
61
6e
67
c
42
61
78
2c
20
54
72
69
73
74
61
6e
e
52
65
68
61
72
74
2c
20
4a
75
6c
69
61
6e
a
59
61
66
65
69
2c
20
59
65
65
f
47
72
69
62
62
6c
65
2c
20
4a
75
73
74
69
6e
e
4b
61
6c
65
72
74
2c
20
42
65
63
6b
69
65
d
4b
6e
6f
72
70
2c
20
48
61
79
6c
65
79
f
44
75
74
65
6c
2c
20
53
61
6d
61
6e
74
68
61
e
4f
63
6f
6e
6e
65
6c
6c
2c
20
48
79
6f
6e
f
43
7a
61
70
73
6b
69
2c
20
43
61
72
6c
6f
73
e
4d
65
72
72
79
6d
61
6e
2c
20
45
74
68
61
f
43
7a
61
63
68
6f
72
2c
20
53
68
61
77
6e
61
11
56
6f
6e
64
65
72
6b
65
6c
6c
2c
20
4c
79
6d
61
6e
f
48
61
6d
6d
6f
63
6b
2c
20
43
61
74
69
6e
61
c
4b
69
62
65
6c
2c
20
4a
65
72
72
69
e
53
6f
77
65
6c
73
2c
20
47
69
73
65
6c
61
11
4c
65
76
65
6e
64
6f
73
6b
79
2c
20
43
79
72
69
6c
c
46
6c
75
65
74
2c
20
54
61
6e
69
61
f
50
72
65
65
72
2c
20
56
65
72
6e
65
74
74
61
e
4d
75
6e
64
7a
2c
20
4c
69
6c
69
61
6e
61
f
4e
65
79
65
72
2c
20
45
6d
6d
61
6c
69
6e
65
e
54
72
61
62
65
72
2c
20
4a
6f
65
74
74
61
f
43
6f
73
61
6e
6f
2c
20
43
61
72
6c
74
6f
6e
c
44
6f
6c
6c
65
79
2c
20
4c
61
6e
65
10
54
6f
6c
6c
6d
61
6e
2c
20
53
75
73
61
6e
6e
65
a
44
61
73
65
6e
2c
20
48
77
61
e
4d
61
72
63
69
61
2c
20
44
65
6c
6f
72
61
d
53
61
63
68
61
72
2c
20
4a
61
6e
65
6c
f
52
65
79
6e
76
61
61
6e
2c
20
4d
65
6c
76
61
10
50
72
69
74
7a
65
6c
2c
20
57
69
6c
6c
65
6e
65
12
52
6f
7a
65
62
6f
6f
6d
2c
20
47
72
69
63
65
6c
64
61
e
53
74
65
72
62
61
2c
20
54
68
6f
6d
61
73
12
44
6f
6e
6e
61
6c
6c
79
2c
20
4d
61
72
79
6a
61
6e
65
12
53
61
6d
61
6e
6c
65
67
6f
2c
20
4a
61
6e
75
61
72
79
f
43
6f
72
74
69
6e
65
7a
2c
20
4a
61
6d
69
65
e
54
72
61
6e
65
72
2c
20
53
68
61
6e
61
65
b
50
6f
61
74
2c
20
4c
65
65
73
61
b
4a
61
73
73
2c
20
54
6f
72
72
69
f
4d
65
6c
6c
69
73
2c
20
44
61
70
68
69
6e
65
f
42
61
75
63
6f
6d
2c
20
4c
61
64
6f
6e
6e
61
f
4c
65
75
73
69
6e
6b
2c
20
47
6c
61
64
69
73
e
57
61
6e
6b
6f
2c
20
53
74
61
6e
74
6f
6e
10
4b
69
6e
67
68
6f
72
6e
2c
20
43
6c
61
72
69
73
11
53
6c
69
67
68
74
61
6d
2c
20
4e
75
6d
62
65
72
73
10
42
61
72
6e
68
61
72
64
74
2c
20
43
65
63
69
6c
c
56
6c
65
6d
69
6e
67
2c
20
41
6e
61
11
45
6e
67
6c
65
62
65
72
74
2c
20
47
6c
79
6e
69
73
12
4a
6f
6e
67
65
6c
69
6e
67
2c
20
42
72
65
6e
64
61
6e
11
4d
65
72
73
63
68
2c
20
4d
61
72
63
65
6c
69
6e
65
c
50
6f
73
74
6c
65
73
2c
20
48
75
69
d
4d
63
67
6f
65
79
2c
20
4a
61
6d
65
65
11
43
72
69
70
70
69
6e
2c
20
4a
61
6e
6e
65
74
74
65
e
57
6f
6e
2c
20
41
64
61
6c
62
65
72
74
6f
10
4c
75
6c
65
77
69
63
7a
2c
20
42
72
61
64
6c
79
f
50
61
62
69
63
68
2c
20
41
6c
6c
79
73
6f
6e
f
50
65
73
74
61
2c
20
53
68
61
72
6c
65
6e
65
f
42
65
72
74
72
61
6d
2c
20
4d
65
72
76
69
6e
e
4d
6f
65
73
63
68
2c
20
43
61
73
73
65
79
12
4b
6f
73
74
65
6c
65
63
6b
79
2c
20
41
73
68
6c
65
79
f
41
6e
73
65
6c
6c
2c
20
4f
6c
69
6d
70
69
61
12
43
68
65
65
76
65
73
2c
20
41
6e
61
73
74
61
63
69
61
10
43
6f
6e
6e
65
6c
6c
2c
20
58
69
6f
6d
61
72
61
10
42
65
6c
6c
6d
6f
72
65
2c
20
56
65
72
6e
6f
6e
10
4b
75
74
69
6c
2c
20
52
6f
73
61
6d
61
72
69
61
11
42
61
72
72
61
6e
63
6f
2c
20
4a
61
75
6e
69
74
61
b
48
65
77
73
2c
20
52
68
6f
6e
61
d
53
63
68
6f
6e
74
7a
2c
20
43
69
72
61
d
45
67
67
61
72
74
2c
20
42
75
6e
6e
79
11
4d
61
72
71
75
69
73
2c
20
53
61
6d
61
6e
74
68
61
a
4e
6f
72
65
6e
2c
20
49
6b
65
c
48
69
6c
6c
65
72
2c
20
50
68
69
6c
10
54
61
72
6e
6f
66
66
2c
20
4c
65
61
6e
64
72
61
c
48
61
6d
6d
65
64
2c
20
47
65
6e
65
d
4f
73
74
65
72
2c
20
4f
72
61
6c
65
65
10
4d
61
68
61
6e
6e
61
2c
20
54
65
6e
69
73
68
61
b
46
65
72
69
73
2c
20
56
65
72
6e
f
4f
75
72
61
64
61
2c
20
56
61
6e
65
73
73
61
10
46
72
6f
68
77
65
69
6e
2c
20
45
6c
65
61
73
65
f
52
65
63
6b
6e
65
72
2c
20
44
65
6c
69
73
61
10
53
65
76
65
72
69
6e
2c
20
4b
72
69
73
74
61
6c
10
42
61
74
72
69
63
68
2c
20
43
61
72
79
6c
6f
6e
d
52
61
67
61
6e
2c
20
41
6c
6f
6e
73
6f
f
52
69
64
65
6e
2c
20
42
72
69
74
74
61
6e
79
12
4f
6c
65
73
6b
69
65
77
69
63
7a
2c
20
43
61
73
73
79
b
47
6c
61
64
6e
65
79
2c
20
4a
69
10
4a
75
73
74
6d
61
6e
2c
20
52
6f
73
65
6c
6c
65
f
42
6f
72
74
69
67
6e
6f
6e
2c
20
4a
6f
79
65
e
44
65
6d
61
74
74
65
6f
2c
20
4a
6f
65
79
f
49
73
61
67
62
61
2c
20
53
65
62
72
69
6e
61
e
47
6f
73
69
65
72
2c
20
54
69
65
73
68
61
11
54
61
6b
65
6e
61
6b
61
2c
20
4b
61
74
68
79
72
6e
e
4c
61
6d
6d
65
79
2c
20
48
61
72
6c
61
6e
e
4d
61
6e
65
79
2c
20
4b
72
69
73
74
65
6e
d
42
75
66
6b
69
6e
2c
20
4c
69
6e
64
79
c
54
72
69
63
68
65
2c
20
54
69
6e
61
f
53
70
69
76
65
79
2c
20
53
61
6e
74
61
6e
61
c
48
61
64
6e
6f
74
2c
20
48
79
6f
6e
c
4c
61
68
61
6d
2c
20
54
79
6c
65
72
d
4b
69
6c
76
65
72
2c
20
4a
65
77
65
6c
f
52
75
6e
66
6f
6c
61
2c
20
4e
61
64
65
6e
65
10
4e
6f
79
65
72
2c
20
44
6f
6d
69
6e
69
71
75
65
10
4b
75
72
65
74
69
63
68
2c
20
46
72
65
64
64
79
11
4c
75
6e
67
73
74
72
6f
6d
2c
20
54
6f
6d
6d
79
65
12
4b
69
67
68
74
6c
69
6e
67
65
72
2c
20
41
6c
69
6e
61
c
52
61
6e
73
66
6f
72
64
2c
20
4e
61
f
42
6f
79
6c
61
6e
64
2c
20
43
61
6e
64
69
65
11
42
65
64
65
6c
6c
2c
20
42
72
6f
64
65
72
69
63
6b
c
53
76
61
79
2c
20
59
61
6e
69
72
61
e
54
61
72
64
75
6e
6f
2c
20
43
79
72
75
73
14
56
69
6c
6c
61
72
72
76
65
6c
2c
20
43
6f
75
72
74
6e
65
79
e
5a
65
6d
6b
65
2c
20
4d
61
72
71
75
69
73
f
53
63
68
61
75
73
2c
20
43
61
72
6f
6c
69
6e
d
47
75
6d
70
65
72
74
2c
20
4f
6c
69
6e
b
4f
75
72
79
2c
20
45
66
66
69
65
d
43
65
6c
75
63
68
2c
20
4d
6f
6e
74
79
f
51
75
65
6e
7a
65
6c
2c
20
4a
75
6c
69
75
73
e
43
72
61
62
69
6c
6c
2c
20
4c
61
72
61
65
14
4c
61
66
72
6f
6d
62
6f
69
73
65
2c
20
56
69
6f
6c
65
74
61
d
41
63
6b
6c
65
73
2c
20
45
6c
73
69
65
d
42
65
65
6d
6f
6e
2c
20
5a
65
6c
6d
61
e
4c
65
67
72
6f
2c
20
42
72
79
61
6e
6e
61
10
44
61
6d
65
77
6f
6f
64
2c
20
52
6f
62
62
69
65
d
41
6c
74
6f
6e
2c
20
4c
69
62
62
69
65
11
53
68
65
68
6f
72
6e
2c
20
53
68
61
6e
65
6c
6c
65
d
53
69
6c
76
65
72
2c
20
45
74
74
69
65
f
48
65
79
69
6e
67
2c
20
4b
61
74
68
72
69
6e
e
57
61
67
6e
65
72
2c
20
42
6f
6f
6b
65
72
10
4b
6f
63
6f
75
72
65
6b
2c
20
4e
6f
68
65
6d
69
d
41
75
79
6f
6e
2c
20
4b
65
65
6e
61
6e
f
56
61
6c
69
65
6e
74
65
2c
20
4d
61
6e
69
65
10
42
6f
74
68
77
65
6c
6c
2c
20
4f
64
65
74
74
65
10
52
75
73
73
65
6c
6c
6f
2c
20
41
6e
74
6f
6e
65
e
41
72
6d
77
6f
6f
64
2c
20
46
72
61
6e
6b
11
44
65
72
6f
73
69
65
72
2c
20
57
69
6c
66
72
65
64
e
44
6f
72
73
6f
6e
2c
20
4a
6f
68
6e
6e
79
11
43
68
61
72
6c
65
62
6f
69
73
2c
20
56
65
6c
6d
61
e
4b
69
6e
6c
6f
63
6b
2c
20
44
61
6e
69
61
e
47
61
67
6c
69
61
2c
20
53
68
61
72
69
65
c
43
61
73
74
6f
2c
20
52
68
65
74
74
12
42
6f
63
63
68
69
6e
6f
2c
20
42
65
72
6e
65
69
63
65
13
53
74
61
6e
73
62
65
72
72
79
2c
20
4d
61
75
72
69
63
65
10
52
65
76
61
6b
2c
20
56
61
6c
65
6e
74
69
6e
65
b
55
76
61
6c
6c
65
73
2c
20
55
6e
e
46
72
61
73
65
72
2c
20
53
68
61
6e
74
65
d
52
6f
63
6b
68
6f
6c
74
2c
20
4f
64
61
e
4c
69
6e
6e
65
6e
2c
20
45
61
72
6c
69
65
b
44
61
6e
63
6f
2c
20
54
68
65
6f
d
4f
75
7a
74
73
2c
20
45
6c
69
6e
6f
72
d
42
69
6c
6b
61
2c
20
45
64
77
69
6e
61
e
4d
75
6e
73
65
6c
6c
65
2c
20
47
61
72
79
e
51
75
69
6c
74
79
2c
20
4b
65
72
72
69
65
13
48
61
77
74
68
72
6f
6e
65
2c
20
42
65
72
6e
61
72
64
6f
f
54
75
72
70
69
61
6e
6f
2c
20
49
7a
6f
6c
61
13
49
61
6e
6e
61
63
63
6f
6e
65
2c
20
4d
61
72
69
73
73
61
e
56
69
6e
74
69
6c
61
2c
20
41
6c
79
63
65
f
53
75
6c
69
70
69
7a
69
6f
2c
20
4e
65
61
6c
f
45
67
75
63
68
69
2c
20
53
68
61
72
69
6b
61
13
48
61
72
74
65
61
75
2c
20
4d
61
72
71
75
65
72
69
74
65
f
4d
79
72
69
63
6b
2c
20
4d
69
6c
69
73
73
61
11
57
69
6c
64
65
79
2c
20
56
69
63
74
6f
72
69
6e
61
a
4a
61
63
6f
2c
20
4f
72
65
6e
10
47
6c
61
64
6c
65
2c
20
56
65
72
6f
6e
69
63
61
f
48
75
65
72
74
61
73
2c
20
4a
65
72
6f
6d
65
12
48
61
6e
6e
65
6d
61
6e
2c
20
43
68
61
6e
74
65
6c
6c
b
5a
6f
6d
65
72
2c
20
45
61
72
6c
c
4d
61
6e
6b
6f
2c
20
50
61
6f
6c
61
10
46
6f
6c
6c
65
74
74
2c
20
4c
6f
75
61
6e
6e
65
e
47
72
69
65
6d
65
2c
20
4b
61
6d
61
6c
61
f
44
65
73
63
68
61
6d
70
73
2c
20
4b
75
72
74
d
42
6f
73
6b
6f
2c
20
43
68
61
6e
64
61
10
54
69
6e
64
65
6c
6c
2c
20
43
65
63
69
6c
69
61
12
50
69
6c
6c
73
62
75
72
79
2c
20
44
6f
72
65
74
68
61
10
56
6f
6c
6b
65
6e
73
2c
20
4b
61
6e
64
61
63
65
12
4c
61
6d
75
6e
79
6f
6e
2c
20
43
68
61
64
77
69
63
6b
c
48
6f
6e
64
61
2c
20
44
61
72
62
79
f
4a
6f
72
72
69
73
63
68
2c
20
4b
65
6e
69
61
f
4d
6f
6c
65
73
6b
69
2c
20
43
6f
6c
65
65
6e
e
4c
61
68
61
79
65
2c
20
43
61
72
6c
6f
73
d
48
72
61
64
65
63
6b
79
2c
20
4c
69
7a
f
4c
6f
72
69
63
6b
2c
20
41
64
72
69
65
6e
65
e
52
69
7a
6f
72
2c
20
43
72
79
73
74
61
6c
f
43
61
62
65
7a
61
2c
20
4d
61
74
69
6c
64
65
d
4d
65
75
61
2c
20
52
65
62
65
63
6b
61
e
42
61
6b
65
6c
65
79
2c
20
4b
61
72
6c
79
e
50
65
6e
73
69
65
72
6f
2c
20
52
65
6e
65
e
4b
68
6f
6b
68
65
72
2c
20
4c
65
69
64
61
d
4c
6f
7a
65
61
75
2c
20
4d
65
67
61
6e
12
42
6f
72
64
65
6e
65
74
2c
20
46
6c
6f
72
69
6e
64
61
f
53
68
65
61
6c
79
2c
20
4b
61
6e
64
69
63
65
c
59
75
73
6b
6f
2c
20
5a
65
6c
6c
61
12
4d
61
73
73
69
6e
67
69
6c
6c
2c
20
4d
61
72
76
69
6e
f
50
72
63
68
6c
69
6b
2c
20
53
68
61
6e
64
69
b
4b
6f
68
73
2c
20
54
61
72
65
6e
11
53
63
68
6f
63
6b
6c
65
79
2c
20
41
75
72
6f
72
65
f
46
6f
6c
73
6f
6d
2c
20
4a
6f
68
61
6e
6e
65
f
4d
61
74
65
72
2c
20
52
6f
73
61
6d
6f
6e
64
f
52
65
6e
65
67
61
72
2c
20
4b
65
6c
6c
79
65
f
4c
65
72
6d
6f
6e
2c
20
46
6c
6f
72
65
6e
65
e
47
6f
65
72
74
7a
2c
20
4e
69
63
6b
69
65
e
42
72
61
6c
6c
65
79
2c
20
4d
61
78
69
65
b
48
65
66
66
65
72
6e
2c
20
54
75
f
44
75
73
68
6b
69
6e
2c
20
53
69
6c
76
69
61
12
42
6f
65
68
6d
6b
65
2c
20
4a
65
66
66
65
72
73
6f
6e
f
53
61
62
6f
72
69
6f
2c
20
4d
65
6c
6f
64
69
e
42
61
66
66
75
74
6f
2c
20
4d
61
62
65
6c
c
51
75
61
79
6c
65
2c
20
5a
6f
72
61
10
4d
63
67
72
61
6e
65
2c
20
44
6f
6e
6e
65
6c
6c
f
43
68
65
76
61
73
2c
20
52
6f
73
61
6c
69
65
a
45
73
73
65
73
2c
20
50
61
6d
c
41
63
6b
6c
65
6e
2c
20
54
6f
62
79
f
53
6c
6f
73
74
61
64
2c
20
43
61
72
6c
6f
73
f
44
61
6e
6f
66
66
2c
20
4a
75
6c
69
65
74
61
d
4a
61
6e
69
74
7a
2c
20
4d
69
6c
61
6e
13
57
69
63
68
72
6f
77
73
6b
69
2c
20
4d
61
6a
6f
72
69
65
e
57
68
69
74
74
69
65
2c
20
43
61
72
69
65
e
48
6f
6c
74
7a
65
6e
2c
20
53
68
61
72
69
12
53
65
61
62
6f
6c
64
2c
20
42
72
6f
64
65
72
69
63
6b
e
45
6c
6c
79
73
6f
6e
2c
20
4d
61
72
76
61
10
50
72
61
73
65
6b
2c
20
42
65
6e
6a
61
6d
69
6e
c
54
68
69
65
6d
2c
20
44
6f
74
74
79
c
47
72
61
6e
6f
2c
20
53
69
62
79
6c
c
42
6c
61
6e
67
61
2c
20
4f
70
61
6c
10
52
6f
64
6f
6c
70
68
2c
20
4e
69
63
68
6f
6c
65
10
57
65
73
73
65
6c
2c
20
52
65
69
6e
61
6c
64
6f
c
53
79
6c
65
72
2c
20
46
61
69
72
79
10
57
61
72
65
68
69
6d
65
2c
20
57
69
6c
62
75
72
e
42
72
75
64
6e
65
72
2c
20
45
6c
6c
69
65
d
52
6f
73
73
62
61
63
68
2c
20
48
61
6c
e
42
69
72
6b
65
79
2c
20
4b
61
6c
6c
69
65
d
4d
6f
74
74
72
61
6d
2c
20
41
6c
64
6f
c
53
74
6f
70
61
2c
20
45
6c
69
7a
61
11
41
6e
64
72
65
61
74
74
61
2c
20
44
61
6c
6c
61
73
10
50
61
72
74
69
62
6c
65
2c
20
54
65
72
69
73
61
f
41
6e
74
6f
6c
6f
73
2c
20
42
72
61
6e
64
61
10
53
63
68
6c
65
69
66
66
2c
20
47
65
6e
6e
69
65
b
4b
65
61
6e
75
2c
20
59
75
72
69
c
53
6f
6e
73
2c
20
47
72
69
73
65
6c
12
4a
6f
73
65
70
68
2c
20
47
65
6f
72
67
65
61
6e
6e
61
15
45
69
63
6b
68
6f
72
73
74
2c
20
4a
61
63
71
75
69
6c
69
6e
65
b
45
6c
6c
69
65
73
2c
20
41
6d
69
f
50
72
69
74
63
68
65
74
2c
20
4c
65
65
73
61
12
53
75
6d
65
72
69
73
6b
69
2c
20
44
61
6e
69
65
6c
6c
e
47
75
65
72
72
79
2c
20
4e
69
63
68
6f
6c
e
47
65
69
73
73
2c
20
45
6c
6f
75
69
73
65
12
53
74
66
6c
65
75
72
2c
20
4b
69
6d
62
65
72
6c
69
65
10
53
6f
65
6e
6b
73
65
6e
2c
20
48
61
6c
6c
69
65
10
4d
6f
6e
74
70
61
73
2c
20
4d
61
64
65
6c
79
6e
d
41
70
65
6c
61
2c
20
50
61
74
72
69
61
c
52
69
70
6b
61
2c
20
4e
61
6e
63
69
f
54
69
73
63
68
65
72
2c
20
54
6f
62
69
61
73
c
4b
61
75
6d
6f
2c
20
43
79
72
69
6c
f
4f
73
74
65
72
6d
61
6e
2c
20
4a
75
64
69
65
d
4c
61
72
65
6e
63
65
2c
20
58
69
61
6f
10
43
61
6c
64
61
72
65
72
61
2c
20
53
61
64
79
65
f
4b
79
7a
65
72
2c
20
4b
68
61
64
69
6a
61
68
10
4d
6f
72
64
69
6e
69
2c
20
4d
61
6c
69
73
73
61
b
54
6f
6e
67
2c
20
4b
65
69
74
68
e
43
79
70
68
65
72
74
2c
20
4b
69
61
72
61
13
52
65
6e
7a
75
6c
6c
6f
2c
20
57
69
6c
6c
6f
64
65
61
6e
d
41
6c
62
75
2c
20
43
68
65
72
69
73
65
11
50
65
72
72
69
63
6f
6e
65
2c
20
53
68
61
69
6e
61
f
54
61
72
74
65
2c
20
43
61
72
6f
6c
79
6e
65
11
42
69
73
6f
6e
2c
20
41
6c
65
78
61
6e
64
72
69
61
d
48
61
62
69
66
2c
20
42
69
61
6e
63
61
f
4c
61
74
75
6c
61
73
2c
20
54
79
65
73
68
61
e
4d
65
6e
74
69
6f
6e
2c
20
45
6c
74
6f
6e
e
52
61
6e
73
62
75
72
67
2c
20
45
6c
62
61
10
53
69
6d
6f
65
6e
73
2c
20
4d
61
72
74
69
6e
65
d
4b
6f
72
66
66
2c
20
43
6f
6e
63
68
61
10
4d
65
77
62
6f
75
72
6e
2c
20
44
6f
72
72
69
73
a
45
64
65
6c
2c
20
43
6f
64
69
10
47
72
61
67
65
64
61
2c
20
53
68
65
72
72
79
6c
13
54
61
6e
65
6e
62
61
75
6d
2c
20
50
6f
72
66
69
72
69
6f
f
44
75
6e
6b
61
6e
2c
20
46
65
72
6d
69
6e
61
e
4c
65
69
74
68
2c
20
4a
65
6e
65
6c
6c
65
11
50
65
6e
61
68
65
72
72
65
72
61
2c
20
4d
79
72
6c
d
42
65
6c
77
6f
6f
64
2c
20
54
6f
6e
61
12
4d
65
6d
6f
72
79
2c
20
43
68
72
69
73
74
69
6e
69
61
d
43
61
6e
63
72
6f
2c
20
42
6f
72
69
73
11
59
61
6e
6e
75
7a
7a
69
2c
20
43
61
72
6c
65
65
6e
f
44
65
6c
6d
6f
6e
74
65
2c
20
54
79
72
6f
6e
f
56
69
72
65
6c
6c
61
2c
20
53
6f
6d
6d
65
72
d
42
61
63
6d
61
6e
2c
20
48
61
6c
65
79
10
42
65
63
6e
65
6c
2c
20
4c
75
63
72
65
63
69
61
c
4d
6f
69
6e
65
2c
20
52
6f
63
69
6f
10
50
61
6e
6e
68
6f
66
66
2c
20
4b
65
6c
6c
69
65
e
53
75
70
70
61
2c
20
41
6e
74
68
6f
6e
79
f
44
75
6e
74
6c
65
79
2c
20
54
77
61
6e
64
61
e
41
76
61
6e
73
2c
20
4c
61
74
6f
72
69
61
b
53
77
69
6c
65
72
2c
20
41
6d
69
10
45
6c
6c
69
66
72
69
74
7a
2c
20
4c
79
64
69
61
e
41
6d
6f
72
65
6c
6c
6f
2c
20
44
65
61
6e
f
57
69
61
63
65
6b
2c
20
4a
75
6c
69
61
6e
6e
14
53
68
65
6c
6c
65
6e
62
61
72
67
65
72
2c
20
42
61
73
69
6c
d
42
65
65
73
6c
65
79
2c
20
48
61
6e
68
d
4c
69
67
68
74
6c
65
2c
20
53
74
61
6e
e
46
61
72
65
6e
2c
20
59
6f
6c
6f
6e
64
61
f
4a
6f
6e
64
6c
65
2c
20
41
6e
74
6f
6e
69
6f
f
4d
63
67
69
6e
6e
69
73
2c
20
42
6c
61
6b
65
12
4d
61
72
73
6f
6c
65
6b
2c
20
52
61
73
68
65
65
64
61
14
4e
6f
74
65
62
6f
6f
6d
2c
20
4d
6f
6e
73
65
72
72
61
74
65
f
4c
61
70
6f
72
74
61
2c
20
54
61
6e
6e
65
72
c
4f
72
69
74
69
2c
20
43
68
75
63
6b
f
54
72
75
6c
6f
63
6b
2c
20
45
6c
6d
69
72
61
f
42
65
6c
6b
61
2c
20
46
69
6c
6f
6d
65
6e
61
f
52
6f
62
69
6e
73
6f
2c
20
41
75
73
74
69
6e
e
46
65
6c
69
63
6f
2c
20
43
72
69
73
74
69
e
50
61
6c
65
61
61
65
2c
20
4b
69
73
68
61
10
42
61
74
74
61
67
6c
69
61
2c
20
4d
65
67
61
6e
e
59
6f
71
75
65
6c
65
74
2c
20
44
65
6a
61
e
50
69
65
63
75
63
68
2c
20
52
6f
6e
64
61
10
55
72
62
61
63
68
2c
20
4a
65
61
6e
65
6c
6c
65
12
46
65
61
7a
65
6c
6c
65
2c
20
4e
69
63
68
65
6c
6c
65
13
47
72
69
67
61
6c
69
75
6e
61
73
2c
20
44
6f
6e
69
74
61
13
53
75
66
66
72
69
64
67
65
2c
20
56
69
63
74
6f
72
69
61
13
47
75
69
6c
6c
69
61
6d
73
2c
20
43
61
74
65
72
69
6e
61
11
53
74
65
61
72
6e
65
73
2c
20
4d
69
72
61
6e
64
61
11
4d
61
6e
73
70
65
61
6b
65
72
2c
20
41
6e
64
72
61
10
4d
69
6c
6c
69
6d
61
6e
2c
20
53
68
65
72
72
79
c
44
69
70
61
6c
6d
61
2c
20
52
61
65
10
42
61
73
6b
65
74
74
65
2c
20
4f
74
65
6c
69
61
13
4c
65
66
6b
6f
77
69
74
7a
2c
20
53
74
65
70
68
69
6e
65
b
42
65
6e
6f
79
2c
20
5a
6f
72
61
12
4e
65
77
68
6f
75
73
65
2c
20
49
73
61
62
65
6c
6c
61
13
44
75
72
69
73
73
65
61
75
2c
20
46
65
64
65
72
69
63
6f
e
42
61
73
64
65
6e
2c
20
53
69
6d
6f
6e
65
f
52
65
62
75
63
6b
2c
20
52
61
6c
65
69
67
68
a
52
75
73
74
2c
20
41
6e
6e
65
e
48
61
68
6e
65
72
2c
20
43
65
63
69
6c
61
d
4b
72
6f
6c
61
6b
2c
20
4c
61
6e
6e
79
9
43
68
65
2c
20
4a
65
73
73
d
4c
75
63
65
79
2c
20
4c
69
61
6e
6e
65
f
43
65
6e
64
61
6e
2c
20
42
72
65
61
6e
6e
61
c
59
6f
75
2c
20
50
61
75
6c
65
6e
65
17
46
65
72
64
69
6e
61
6e
64
73
65
6e
2c
20
42
72
69
64
67
65
74
74
65
11
46
69
73
61
6e
69
63
6b
2c
20
4c
61
77
61
6e
64
61
11
47
6f
72
65
6e
63
65
2c
20
44
65
61
6e
67
65
6c
6f
12
48
79
70
70
6f
6c
69
74
65
2c
20
4d
61
72
79
6c
69
6e
f
53
6d
65
6c
74
7a
65
72
2c
20
44
61
76
69
64
c
43
68
6f
61
74
2c
20
54
79
6c
65
72
c
44
65
75
65
6c
6c
2c
20
47
69
74
61
12
53
74
65
69
64
6c
2c
20
45
61
72
6e
65
73
74
69
6e
65
d
56
61
73
74
61
2c
20
4c
6f
72
65
65
6e
e
47
72
61
76
65
6c
2c
20
44
61
6c
65
6e
65
c
42
6f
69
6c
65
73
2c
20
4e
6f
76
61
b
52
6f
6e
2c
20
4d
61
72
67
69
65
12
42
6f
63
6b
6c
61
67
65
2c
20
4a
75
6c
69
65
74
74
65
f
48
65
64
67
65
72
2c
20
44
6f
72
74
68
65
61
e
53
74
72
61
68
61
6e
2c
20
4d
61
75
72
61
c
41
6c
65
66
66
2c
20
42
72
69
63
65
f
41
63
63
6f
6c
61
2c
20
4d
61
72
69
73
73
61
f
50
72
7a
65
77
6f
7a
6d
61
6e
2c
20
52
6f
64
d
42
72
65
61
6e
2c
20
4f
64
65
73
73
61
10
53
65
61
72
6c
65
73
2c
20
4b
72
79
73
74
61
6c
d
4d
61
72
73
65
65
2c
20
45
62
6f
6e
79
b
47
75
61
6e
69
6f
2c
20
43
6f
79
10
46
72
65
63
68
2c
20
47
65
6e
65
76
69
65
76
65
f
52
61
6c
6c
69
73
6f
6e
2c
20
52
65
65
6e
61
d
56
6f
63
65
2c
20
4b
72
79
73
74
69
6e
d
4b
69
65
73
2c
20
43
68
61
72
6c
65
79
d
53
65
72
76
61
6e
2c
20
44
65
72
65
6b
a
53
61
6d
61
73
2c
20
45
6d
61
f
42
65
6c
6c
75
65
2c
20
4c
61
6b
65
73
68
61
f
4d
65
74
68
76
69
6e
2c
20
43
61
74
68
65
79
14
52
65
69
6e
69
6e
67
65
72
2c
20
47
65
6f
72
67
65
61
6e
6e
e
4a
61
63
6f
62
75
73
2c
20
41
6d
69
6e
61
10
4d
65
79
65
72
6f
77
69
74
7a
2c
20
4b
72
69
73
11
48
6f
67
73
65
74
74
65
2c
20
53
68
61
77
61
6e
61
e
56
69
74
61
6c
65
2c
20
52
6f
6c
61
6e
64
e
52
65
69
6c
79
2c
20
43
6f
6c
65
6d
61
6e
10
46
6c
65
6e
73
2c
20
48
65
6e
72
69
65
74
74
61
11
48
61
67
67
61
6e
73
2c
20
46
72
61
6e
6b
6c
69
6e
e
56
69
64
72
69
6f
2c
20
56
69
6e
6e
69
65
11
4d
61
6c
61
6e
64
72
61
2c
20
43
61
72
6f
6c
69
6e
c
53
6f
64
65
72
2c
20
4b
69
72
62
79
d
52
69
73
6b
61
2c
20
4c
65
74
74
69
65
11
50
61
74
74
65
72
73
6f
6e
2c
20
57
69
6e
6e
69
65
11
50
72
65
76
65
74
74
2c
20
4c
75
64
69
76
69
6e
61
c
48
65
72
72
2c
20
4b
72
69
73
74
79
14
53
77
61
72
74
7a
65
6e
64
72
75
62
65
2c
20
4f
6e
69
74
61
f
42
72
75
74
75
73
2c
20
45
76
65
72
65
74
74
10
4d
61
74
72
6f
73
2c
20
54
68
61
64
64
65
75
73
10
4d
65
61
72
69
6e
67
2c
20
41
6e
74
69
6f
6e
65
14
52
6f
64
72
69
71
75
65
73
2c
20
4d
61
72
67
61
72
65
74
61
f
50
72
65
73
74
61
2c
20
54
61
6d
65
6b
69
61
f
44
65
76
65
72
79
2c
20
42
61
72
62
65
72
61
f
44
65
73
70
61
69
6e
2c
20
45
75
6e
69
63
65
15
4b
6c
69
6e
65
66
65
6c
74
65
72
2c
20
43
6c
61
72
69
6e
64
61
d
4f
72
6f
75
6b
65
2c
20
44
6f
72
6c
61
13
44
65
6c
6c
69
76
65
6e
65
72
69
2c
20
43
69
63
65
6c
79
10
4b
75
6e
65
79
2c
20
43
65
6c
65
73
74
69
6e
61
11
4d
63
63
61
73
6b
69
6e
2c
20
46
72
65
64
64
69
65
f
53
68
61
72
69
66
69
2c
20
41
74
68
65
6e
61
e
4d
6f
6f
73
2c
20
4a
6f
73
65
66
69
6e
65
e
47
61
73
6b
69
6e
2c
20
59
75
6b
69
6b
6f
13
4b
61
6d
65
6c
61
6d
65
6c
61
2c
20
4c
6f
75
61
6e
6e
65
d
41
62
62
61
73
69
2c
20
41
67
6e
65
73
e
48
75
65
2c
20
53
68
61
72
6d
61
69
6e
65
d
4a
75
63
6b
65
74
74
2c
20
4c
79
64
61
f
4a
65
6e
72
65
74
74
65
2c
20
53
68
61
75
6e
10
42
65
65
68
6c
65
72
2c
20
4b
61
69
74
6c
79
6e
e
54
68
69
6c
6c
2c
20
43
61
6d
69
6c
6c
65
12
54
79
6b
73
69
6e
73
6b
69
2c
20
54
61
6c
69
73
68
61
11
4b
6f
72
6e
72
65
69
63
68
2c
20
42
6f
6e
6e
69
65
f
50
75
72
73
6c
6f
77
2c
20
4d
79
72
69
61
6d
c
53
61
6c
6c
69
65
2c
20
54
75
6c
61
11
53
63
68
6d
61
75
74
7a
2c
20
41
6e
74
6f
6e
69
61
e
50
68
61
72
69
73
73
2c
20
52
6f
62
62
79
d
47
72
65
6e
65
74
2c
20
50
61
69
67
65
e
53
74
65
69
74
7a
65
72
2c
20
50
61
75
6c
f
57
65
6e
74
7a
6c
61
66
66
2c
20
41
6c
65
63
11
44
65
70
70
69
6e
67
2c
20
53
68
61
77
61
6e
64
61
a
44
61
75
73
65
2c
20
46
61
65
e
44
65
62
6c
61
73
69
6f
2c
20
52
6f
72
79
d
42
6c
6f
73
65
2c
20
53
65
72
65
6e
61
11
41
6d
61
76
69
73
63
61
2c
20
4f
72
6c
61
6e
64
6f
d
4c
6f
71
75
65
2c
20
45
64
69
73
6f
6e
e
50
65
69
72
63
65
2c
20
52
6f
78
61
6e
61
10
57
69
70
70
65
72
74
2c
20
43
68
72
69
73
74
61
d
44
6f
6e
69
73
2c
20
41
73
68
6c
65
65
c
46
69
6e
63
68
2c
20
44
65
76
69
6e
a
57
61
6c
2c
20
4c
61
72
65
65
d
47
72
65
6e
64
61
2c
20
4c
61
6d
61
72
f
50
65
6e
71
75
69
74
65
2c
20
44
65
6e
6e
79
c
48
75
72
64
65
2c
20
43
61
72
65
79
f
4c
69
73
65
6e
62
79
2c
20
41
6c
76
69
6e
61
12
53
6f
6c
6f
6d
6f
6e
2c
20
43
68
61
6e
74
65
6c
6c
65
d
46
72
65
64
6c
65
79
2c
20
41
64
61
6d
10
4b
65
65
74
63
68
2c
20
44
72
75
63
69
6c
6c
61
f
44
6f
73
68
69
65
72
2c
20
45
72
6c
65
6e
65
10
53
74
65
6d
70
6c
65
2c
20
50
61
75
6c
69
6e
65
b
52
61
75
65
6c
6f
2c
20
4a
69
6d
f
4d
61
6e
69
67
6f
2c
20
43
61
72
6f
6c
69
6e
10
48
6f
6c
6c
69
77
61
79
2c
20
4b
65
65
6e
61
6e
e
4c
61
72
61
62
79
2c
20
4c
61
76
65
74
61
d
4e
65
79
65
72
2c
20
4a
75
64
73
6f
6e
12
41
75
67
6c
69
61
6e
6f
2c
20
54
68
65
72
65
73
73
61
12
52
65
6e
74
73
63
68
6c
65
72
2c
20
4d
6f
72
67
61
6e
e
52
65
79
6e
61
75
64
2c
20
4c
61
6b
69
61
e
54
73
75
74
73
75
69
2c
20
4e
6f
65
6d
69
d
44
61
72
6f
6e
2c
20
4c
6f
75
69
73
61
d
4d
63
66
61
6c
6c
2c
20
41
6e
6e
69
65
d
4c
79
74
65
72
2c
20
4a
6f
65
74
74
61
c
4b
75
63
68
65
6c
2c
20
41
64
61
68
11
48
65
6c
6c
69
77
65
6c
6c
2c
20
57
65
6e
64
69
65
f
42
75
73
73
6c
65
72
2c
20
4d
61
72
6e
69
65
12
46
69
6c
69
61
75
6c
74
2c
20
45
76
65
72
65
74
74
65
f
53
69
70
70
6c
65
2c
20
4d
61
72
79
6c
65
65
e
4d
75
72
61
77
73
6b
69
2c
20
4d
61
63
79
f
44
65
6c
68
6f
6d
6d
65
2c
20
4c
65
6f
74
61
e
44
6f
76
65
72
2c
20
44
6f
6d
69
6e
67
6f
e
46
6f
6f
74
6d
61
6e
2c
20
4d
61
79
6d
65
e
4d
65
64
69
6e
61
2c
20
4c
61
6e
65
6c
6c
e
59
61
6e
61
6e
2c
20
42
65
61
75
6c
61
68
11
48
75
63
6b
65
62
61
2c
20
50
68
79
6c
69
63
69
61
e
41
6e
74
69
6f
6e
65
2c
20
4b
61
79
6c
61
10
4d
63
63
6c
79
6d
6f
6e
64
73
2c
20
54
6f
79
61
f
54
79
73
6b
61
2c
20
52
6f
73
61
6c
69
6e
64
f
44
75
6e
61
68
6f
65
2c
20
53
61
6d
61
72
61
e
48
61
6e
73
65
6c
6d
61
6e
2c
20
42
61
6f
e
53
61
62
69
6f
2c
20
52
61
63
68
61
65
6c
f
57
65
69
68
6c
2c
20
45
6c
66
72
69
65
64
65
13
42
6c
6f
6f
64
77
6f
72
74
68
2c
20
48
61
79
77
6f
6f
64
e
44
6f
6f
73
65
2c
20
43
61
69
74
6c
69
6e
e
4e
61
65
68
65
72
2c
20
52
65
67
69
6e
65
c
43
6f
70
69
65
72
2c
20
53
68
61
65
16
50
61
72
6c
61
76
65
63
63
68
69
6f
2c
20
45
73
74
65
66
61
6e
61
10
52
61
77
73
6f
6e
2c
20
54
69
66
66
61
6e
65
79
11
53
70
69
74
73
62
65
72
67
2c
20
54
79
65
73
68
61
12
4c
6f
6e
67
68
75
72
73
74
2c
20
4b
72
79
73
74
61
6c
9
4e
65
74
2c
20
53
6f
6e
61
f
46
75
72
66
61
72
6f
2c
20
48
69
72
6f
6b
6f
13
53
63
68
69
66
66
6d
61
6e
6e
2c
20
4a
75
73
74
69
6e
65
e
50
72
6f
76
65
6e
63
61
6c
2c
20
4a
69
6d
d
4e
69
73
68
69
2c
20
4b
65
6c
6c
65
65
d
42
61
67
73
62
79
2c
20
44
61
72
69
6e
11
47
72
61
6e
73
74
72
6f
6d
2c
20
44
6f
6c
6c
69
65
13
48
65
72
6e
61
6e
64
65
72
2c
20
41
64
72
69
61
6e
6e
65
12
4d
69
6b
6f
6c
61
6a
63
7a
79
6b
2c
20
4b
69
61
72
61
c
52
69
63
68
65
2c
20
4d
6f
6e
74
79
b
57
68
69
72
72
79
2c
20
57
61
6e
10
56
65
72
67
61
6d
69
6e
69
2c
20
42
72
79
6f
6e
c
53
65
64
61
2c
20
59
76
6f
6e
6e
65
f
44
69
6d
61
69
6f
2c
20
4b
61
6e
64
69
63
65
d
53
74
6f
66
66
2c
20
4d
69
63
6b
65
79
11
4c
61
6e
67
68
61
72
74
2c
20
4a
65
73
73
69
63
61
b
53
61
77
65
72
2c
20
44
61
6e
65
f
53
69
70
70
6c
65
2c
20
44
6f
72
6f
74
68
61
f
50
72
65
76
6f
73
74
2c
20
45
6c
69
73
68
61
14
56
61
6e
68
61
6d
65
72
73
76
65
6c
64
2c
20
4d
61
79
6d
65
e
48
61
77
6b
65
79
2c
20
43
61
6e
64
69
73
11
50
61
73
74
72
61
6e
61
2c
20
4c
61
72
61
69
6e
65
d
46
6c
6f
74
2c
20
4c
6f
76
65
74
74
61
d
44
65
6c
61
67
6f
6c
2c
20
43
75
72
74
12
44
69
64
6f
6d
65
6e
69
63
6f
2c
20
46
72
65
69
64
61
e
50
69
6c
6c
65
79
2c
20
4a
65
73
73
69
61
e
52
69
7a
7a
75
74
6f
2c
20
45
72
69
6e
6e
e
53
68
61
6e
65
72
2c
20
41
6e
67
65
6c
6f
10
50
69
65
72
65
74
74
69
2c
20
4c
6f
75
69
73
65
c
42
6f
65
68
2c
20
56
69
63
74
6f
72
e
44
75
66
66
65
72
2c
20
4c
75
63
69
75
73
b
48
65
72
72
65
72
6f
2c
20
53
6f
10
4f
65
64
65
6b
65
72
6b
2c
20
42
65
6c
6b
69
73
f
50
69
6e
74
61
64
6f
2c
20
44
75
6c
63
69
65
10
54
61
72
61
73
2c
20
43
6c
65
6f
74
69
6c
64
65
10
5a
75
6c
66
65
72
2c
20
46
61
75
73
74
69
6e
6f
11
53
69
72
72
69
6e
65
2c
20
43
61
74
68
6c
65
65
6e
f
44
7a
69
6e
73
6b
69
2c
20
45
6c
69
63
69
61
d
4f
72
61
6d
61
2c
20
51
75
69
6e
63
79
10
47
75
7a
6d
64
6e
2c
20
45
74
68
65
6c
65
6e
65
c
41
73
68
65
2c
20
4d
61
72
79
61
6d
d
43
61
75
64
65
6c
6c
2c
20
42
72
65
65
d
4b
6e
65
73
65
6c
2c
20
54
61
6c
69
61
c
4c
65
63
61
74
6f
2c
20
44
61
6e
65
e
53
70
61
6b
65
2c
20
42
72
69
74
74
6e
69
f
4f
75
74
63
61
6c
74
2c
20
4d
69
71
75
65
6c
10
47
6f
64
6c
65
73
6b
69
2c
20
48
65
72
74
68
61
e
42
65
6e
61
76
69
64
65
73
2c
20
4e
65
64
c
4b
75
6b
61
2c
20
4d
6f
69
73
65
73
c
53
74
65
72
2c
20
43
6c
65
74
75
73
a
50
75
63
2c
20
47
61
79
6c
65
e
4b
65
6c
6c
69
6e
67
2c
20
43
61
72
6c
79
d
43
75
6c
6c
61
72
2c
20
5a
65
74
74
61
c
49
63
61
72
64
2c
20
45
6c
76
69
65
10
57
69
6e
73
74
6f
6e
2c
20
42
61
73
69
6c
69
61
10
53
74
61
6d
70
6c
65
79
2c
20
53
75
6d
6d
65
72
f
53
74
75
74
74
67
65
6e
2c
20
42
6f
6e
6e
79
d
42
75
72
67
65
2c
20
43
61
72
6f
6c
61
12
47
65
6c
65
72
74
65
72
2c
20
53
74
61
6e
66
6f
72
64
d
52
6f
68
72
73
2c
20
47
6c
69
6e
64
61
12
47
72
65
65
6e
62
6c
61
74
74
2c
20
44
6f
6e
6e
69
65
f
52
61
64
61
6b
65
72
2c
20
4d
61
72
76
69
73
11
53
68
6f
75
6d
61
6b
65
72
2c
20
43
68
61
72
69
73
f
42
75
74
63
68
6b
6f
2c
20
4d
61
72
63
6f
73
e
52
61
6d
65
6c
6c
69
2c
20
41
72
6c
69
65
10
4c
61
72
6f
73
65
2c
20
42
65
72
65
6e
69
63
65
d
45
75
67
65
6e
69
6f
2c
20
44
6f
6e
6e
e
49
6c
61
72
64
69
2c
20
4a
61
63
71
75
65
f
4f
64
65
74
74
65
2c
20
41
6c
66
72
65
64
61
d
48
65
65
62
6e
65
72
2c
20
45
72
69
63
d
47
6f
64
64
61
72
64
2c
20
4a
6f
6e
69
c
42
6f
68
6c
6d
61
6e
2c
20
4d
65
69
e
53
68
61
6e
6c
65
79
2c
20
41
6c
6c
61
6e
a
53
69
72
63
79
2c
20
59
65
6e
10
42
72
6f
7a
69
6e
61
2c
20
46
65
6c
69
63
69
61
11
4d
63
63
6c
65
73
74
65
72
2c
20
42
65
73
73
69
65
11
46
72
65
64
64
72
69
63
6b
2c
20
54
6f
6d
65
6b
61
e
43
6f
74
61
2c
20
4c
61
63
72
65
73
68
61
e
52
75
62
65
6f
2c
20
43
61
6d
65
72
6f
6e
c
52
65
61
73
2c
20
44
61
6c
65
6e
65
e
4b
65
6c
6c
69
65
2c
20
45
6c
6f
64
69
61
f
56
65
72
67
65
73
2c
20
41
6c
6c
79
73
6f
6e
e
53
75
6c
69
70
69
7a
69
6f
2c
20
54
61
69
c
53
63
68
65
63
68
2c
20
4f
6e
69
65
11
53
6b
72
65
74
6f
77
69
63
7a
2c
20
4b
65
72
72
79
10
54
61
6c
68
65
6c
6d
2c
20
41
6e
6e
61
6c
65
65
e
53
69
77
69
65
63
2c
20
53
68
61
76
6f
6e
11
43
6f
72
73
69
6e
69
2c
20
43
61
6e
64
61
6e
63
65
a
4d
69
73
6b
6f
2c
20
52
65
78
f
42
69
65
6c
73
65
72
2c
20
42
65
74
74
69
65
9
56
69
74
74
2c
20
4b
69
61
f
48
61
6e
6c
69
6e
65
2c
20
53
68
65
72
72
79
c
48
61
6d
69
6c
2c
20
4d
61
72
63
79
e
54
61
6d
6b
69
6e
2c
20
44
65
6e
6e
69
73
11
50
6f
64
65
6c
6c
2c
20
43
61
74
68
61
72
69
6e
65
e
41
73
6b
69
6e
2c
20
53
69
6f
62
68
61
6e
f
42
61
6e
63
72
6f
66
74
2c
20
42
65
72
72
79
e
4d
61
73
63
68
69
6e
6f
2c
20
45
75
6c
61
f
54
72
75
63
63
6f
2c
20
4e
65
72
69
73
73
61
c
48
75
74
7a
65
6c
2c
20
53
68
69
6e
c
46
72
65
69
73
65
2c
20
54
6f
76
61
a
43
75
65
2c
20
43
61
6c
65
62
f
42
6c
61
6e
71
75
61
72
74
2c
20
54
65
73
73
b
52
61
75
65
6c
6f
2c
20
4d
69
61
10
54
6f
65
6c
6b
65
2c
20
43
68
72
69
73
74
65
6e
c
4d
61
63
68
65
6e
72
79
2c
20
45
64
10
4c
61
77
61
6c
69
6e
2c
20
48
65
6c
61
69
6e
65
c
44
61
69
67
6c
65
2c
20
41
6c
6d
61
d
47
6c
61
6e
63
65
2c
20
46
72
69
74
7a
f
54
72
6f
73
74
6c
65
2c
20
49
73
61
75
72
61
f
45
63
6b
65
6c
2c
20
43
6f
6e
63
65
74
74
61
f
56
61
6c
6f
72
69
65
2c
20
4d
61
65
67
61
6e
10
41
72
6d
77
6f
6f
64
2c
20
44
65
6c
69
6e
64
61
d
45
6b
69
73
2c
20
53
68
61
77
6e
6e
61
10
42
72
61
64
64
6f
63
6b
2c
20
44
65
6c
6f
72
61
13
53
74
61
73
63
68
6b
65
2c
20
41
6e
6e
61
6d
61
72
69
61
11
53
68
65
61
72
64
2c
20
43
6c
61
75
64
65
74
74
65
e
44
69
63
61
70
75
61
2c
20
54
79
72
6f
6e
10
48
61
72
74
68
6f
72
6e
65
2c
20
5a
65
74
74
61
c
59
6f
75
6e
61
6e
2c
20
53
68
61
6e
e
57
65
72
6b
2c
20
43
6f
6e
73
75
65
6c
6f
f
44
65
6b
6c
65
2c
20
43
6f
6e
63
68
69
74
61
e
4d
61
79
62
75
72
79
2c
20
4a
61
73
6f
6e
9
53
6f
77
2c
20
4f
74
69
73
10
4d
61
77
68
6f
72
74
65
72
2c
20
41
6c
6c
61
6e
e
45
73
63
6f
72
63
69
61
2c
20
41
6c
74
61
d
4d
63
6b
69
6e
6e
79
2c
20
59
6f
6b
6f
f
47
6f
69
6e
73
2c
20
43
6f
72
64
65
6c
69
61
11
50
61
70
73
74
65
69
6e
2c
20
4d
65
6c
61
6e
69
61
10
43
68
72
69
73
74
2c
20
52
61
79
6d
6f
6e
64
65
9
45
6d
62
74
2c
20
4d
75
69
11
46
65
65
6c
65
79
2c
20
45
73
70
65
72
61
6e
7a
61
d
43
61
72
6f
6e
65
2c
20
4a
61
6d
61
72
f
46
72
69
73
63
68
2c
20
44
65
76
6f
72
61
68
11
4c
61
64
65
72
6d
61
6e
2c
20
4c
65
74
69
73
68
61
e
44
65
62
65
6c
6c
61
2c
20
43
68
61
6e
61
e
42
6f
68
6c
65
79
2c
20
57
61
6e
69
74
61
c
41
6d
77
65
67
2c
20
41
6e
69
6b
61
12
4c
61
6d
62
72
6f
73
2c
20
4d
69
67
75
65
6c
69
6e
61
d
53
6b
75
72
61
2c
20
47
75
64
72
75
6e
d
4c
65
69
65
72
2c
20
41
72
69
61
6e
65
f
43
68
68
6f
6e
2c
20
4d
61
67
64
61
6c
65
6e
11
45
69
66
65
72
74
2c
20
43
61
74
68
61
72
69
6e
65
c
48
75
67
75
73
2c
20
4e
79
64
69
61
f
43
61
62
72
65
72
61
2c
20
4d
65
72
6c
69
6e
e
42
75
72
73
63
68
2c
20
44
6f
6e
6e
69
65
10
43
75
62
69
74
2c
20
49
6e
6f
63
65
6e
63
69
61
f
46
61
67
65
6e
2c
20
4d
61
72
79
65
74
74
61
10
45
62
65
72
6c
79
2c
20
4d
65
6c
69
73
73
69
61
a
42
6f
72
69
73
2c
20
54
6f
6d
11
42
65
72
67
73
74
65
6e
2c
20
41
6c
66
6f
6e
73
6f
f
47
72
65
65
6e
6c
79
2c
20
53
68
69
72
6c
79
16
41
70
70
65
6e
7a
65
6c
6c
65
72
2c
20
4d
61
72
69
61
6e
65
6c
61
d
4d
61
64
72
75
67
61
2c
20
52
69
63
68
d
4c
6f
79
61
63
6b
2c
20
44
6f
6e
79
61
10
46
6f
72
74
6e
65
72
2c
20
43
6f
6c
65
6d
61
6e
e
48
61
6e
64
73
2c
20
54
61
6d
69
73
68
61
d
43
61
72
76
65
6c
2c
20
42
6c
61
6b
65
c
43
75
6d
69
6e
67
73
2c
20
4e
67
61
e
45
62
65
72
74
73
2c
20
42
72
65
61
6e
6e
e
4f
73
6f
6c
6c
6f
2c
20
49
6e
67
72
69
64
e
43
61
72
6c
79
65
2c
20
53
63
6f
74
74
79
11
46
65
72
6e
62
65
72
67
2c
20
50
72
65
73
74
6f
6e
e
56
61
6c
6f
74
2c
20
42
72
61
6e
64
69
65
b
50
61
6e
69
6b
2c
20
4c
79
6e
6e
d
4d
61
6c
61
77
79
2c
20
5a
65
6c
64
61
14
4d
61
6e
7a
61
6e
61
72
65
7a
2c
20
45
6d
6d
61
6c
69
6e
65
c
43
6f
70
65
6e
2c
20
4b
61
72
65
6e
10
42
6f
75
63
68
65
79
2c
20
4d
65
6c
69
6e
64
61
10
50
69
6e
6e
6f
63
6b
2c
20
48
65
61
74
68
65
72
14
47
69
61
6e
6e
65
74
74
69
2c
20
49
6c
75
6d
69
6e
61
64
61
d
41
75
73
74
69
6e
65
2c
20
4d
6f
6e
61
e
4d
61
73
63
61
6c
6c
2c
20
57
61
6c
6c
79
f
56
61
72
61
67
6f
6e
61
2c
20
45
6d
69
6c
65
f
48
79
6e
65
6b
2c
20
4b
61
72
6f
6c
69
6e
65
d
46
65
63
74
6f
2c
20
45
6c
76
69
6e
61
e
57
69
6e
63
68
2c
20
4d
6f
6e
69
71
75
65
12
52
69
73
62
65
63
6b
2c
20
4e
61
74
69
76
69
64
61
64
e
53
61
62
6c
65
73
2c
20
41
6e
74
77
61
6e
d
4b
72
69
62
73
2c
20
5a
61
6e
64
72
61
c
53
65
69
6c
2c
20
4a
65
74
74
69
65
16
53
63
69
63
75
74
65
6c
6c
61
2c
20
43
72
69
73
74
6f
70
68
65
72
f
50
65
61
6b
65
72
2c
20
54
61
62
61
74
68
61
e
44
6f
6c
6c
79
2c
20
56
61
6e
65
74
74
61
c
41
73
6e
65
72
2c
20
54
61
6e
64
79
f
55
6c
72
69
63
68
2c
20
45
73
74
65
6c
6c
65
e
43
6f
72
61
64
69
2c
20
4d
61
72
63
65
6c
c
4d
69
73
6d
69
74
2c
20
4a
75
61
6e
e
42
72
69
61
6e
73
2c
20
42
72
6f
6f
6b
73
10
42
65
72
72
69
61
6e
2c
20
41
6e
74
6f
69
6e
65
11
5a
75
6d
77
61
6c
74
2c
20
50
61
75
6c
65
74
74
61
10
4d
61
6e
6f
6b
65
79
2c
20
43
6c
61
72
69
63
65
10
53
65
77
79
65
72
64
2c
20
4c
6f
76
65
6c
6c
61
10
47
61
64
64
69
73
2c
20
44
6f
72
65
74
68
65
61
12
4d
61
72
73
68
61
6b
2c
20
43
68
72
69
73
74
69
6e
61
c
49
76
6f
72
79
2c
20
45
6d
69
6b
6f
10
52
75
64
64
6f
63
6b
2c
20
4d
61
72
79
6c
69
6e
e
4c
61
76
69
6e
65
2c
20
41
6c
65
63
69
61
c
42
65
6a
61
2c
20
4d
61
6e
75
65
6c
12
53
6d
61
6c
6c
69
64
67
65
2c
20
41
62
69
67
61
69
6c
12
4b
69
6d
62
6c
65
79
2c
20
4a
65
66
66
65
72
73
6f
6e
10
46
61
74
63
68
65
74
74
2c
20
44
61
6e
69
61
6c
10
52
65
69
64
65
6e
62
61
63
68
2c
20
53
75
6e
67
e
42
6c
6f
65
73
65
72
2c
20
4d
79
6c
65
73
11
45
6d
62
72
65
79
2c
20
4b
61
73
73
61
6e
64
72
61
b
44
65
72
6b
73
2c
20
4e
6f
6c
61
e
53
77
65
6e
6f
72
2c
20
41
72
64
61
74
68
10
44
69
67
69
6f
72
67
69
2c
20
52
75
65
62
65
6e
10
43
6c
75
6d
70
6e
65
72
2c
20
4b
69
74
74
69
65
d
4d
6f
6e
73
65
6e
2c
20
4c
65
6f
6e
61
c
4b
61
74
6f
2c
20
4a
61
63
6b
69
65
13
54
61
72
6b
6f
77
73
6b
69
2c
20
46
65
72
6e
61
6e
64
6f
11
53
68
65
6c
6c
68
61
61
73
2c
20
44
65
73
73
69
65
f
52
61
74
6c
69
66
66
2c
20
42
65
6e
69
74
61
14
43
68
6f
6c
65
77
69
6e
73
6b
69
2c
20
4c
65
65
61
6e
6e
65
c
57
61
6e
6b
65
6c
2c
20
4c
79
64
61
d
42
75
69
6b
65
2c
20
43
6f
6c
6c
65
6e
10
47
6f
72
64
69
6e
69
65
72
2c
20
41
79
61
6b
6f
d
53
75
65
72
6f
2c
20
4a
61
6e
65
6c
6c
11
43
72
75
69
7a
2c
20
57
69
6c
68
65
6c
6d
69
6e
61
e
42
69
67
66
6f
72
64
2c
20
56
69
6c
6d
61
10
57
69
6c
6c
62
61
6e
6b
73
2c
20
5a
65
6c
64
61
e
48
75
66
66
2c
20
42
72
69
74
74
65
6e
79
d
4c
61
73
74
65
6c
6c
61
2c
20
4d
65
65
b
53
68
6f
6e
65
73
2c
20
41
6e
61
f
4d
69
6c
61
6e
64
2c
20
59
65
73
65
6e
69
61
e
50
72
69
65
73
74
6c
65
79
2c
20
56
61
6c
d
4e
6f
6c
69
2c
20
54
61
6d
6d
65
72
61
c
45
61
67
6c
65
2c
20
52
65
6e
61
79
12
4b
69
6e
6e
65
62
72
65
77
2c
20
41
6e
67
65
6c
65
73
14
57
61
6c
64
68
61
75
73
65
72
2c
20
4c
61
73
68
75
6e
64
61
12
44
61
6e
6e
65
63
6b
65
72
2c
20
44
65
6c
6f
72
69
73
e
5a
61
77
61
73
6b
79
2c
20
44
61
76
69
64
c
53
74
61
76
65
2c
20
52
61
6e
65
65
10
41
73
73
61
65
6c
2c
20
44
6f
6d
65
6e
69
63
61
b
4c
69
65
73
73
2c
20
4a
75
64
79
11
48
65
72
72
65
72
61
73
2c
20
4c
61
75
72
69
63
65
e
50
75
74
7a
65
6c
2c
20
43
68
61
6e
74
65
b
53
63
68
65
70
70
2c
20
45
6e
61
13
4d
69
6e
73
68
61
6c
6c
2c
20
53
74
65
66
66
61
6e
69
65
c
42
69
73
61
72
64
2c
20
5a
69
74
61
12
53
63
68
6e
65
63
6b
6c
6f
74
68
2c
20
53
75
73
61
6e
10
4e
61
64
65
6c
62
61
63
68
2c
20
54
61
6e
79
61
10
46
6f
65
72
74
73
63
68
2c
20
52
65
6e
61
74
65
10
52
6f
63
6b
66
6f
72
64
2c
20
43
68
65
72
6c
79
f
47
69
72
61
6c
64
6f
2c
20
44
6f
72
73
65
79
11
49
61
6c
6f
6e
67
6f
2c
20
4b
61
74
68
6c
69
6e
65
e
4b
65
61
72
62
79
2c
20
4d
61
72
76
65
6c
f
54
61
62
6f
6e
2c
20
4d
61
72
61
67
72
65
74
e
46
69
6c
74
68
61
75
74
2c
20
4b
6f
72
79
11
47
75
74
65
72
6d
75
74
68
2c
20
4c
61
76
65
72
6e
15
52
61
6d
63
68
61
72
72
61
6e
2c
20
46
65
6c
69
63
69
64
61
64
11
41
74
68
65
72
74
6f
6e
2c
20
4d
61
72
63
65
6e
65
d
43
75
72
6c
69
73
2c
20
45
6c
76
69
61
10
44
69
65
6d
65
72
2c
20
44
6f
6d
69
74
69
6c
61
e
44
6f
6c
6c
69
73
6f
6e
2c
20
54
68
61
64
c
4c
61
63
65
72
2c
20
4a
61
6d
61
6c
c
4d
65
6c
69
73
2c
20
53
68
69
72
6c
b
4d
61
75
73
2c
20
44
61
76
69
64
a
41
6e
63
65
6c
2c
20
4c
69
7a
f
4d
65
68
6c
69
67
2c
20
53
74
65
70
68
65
6e
11
4c
65
63
68
6c
61
6b
2c
20
43
68
61
72
6c
65
65
6e
13
44
65
73
68
6f
6e
67
2c
20
4a
61
63
71
75
65
6c
79
6e
65
11
57
68
65
64
62
65
65
2c
20
46
61
75
73
74
69
6e
61
e
41
67
72
61
77
61
6c
2c
20
4a
65
61
6e
65
b
4b
61
6c
61
73
2c
20
4a
6f
68
6e
d
46
65
6c
74
6f
6e
2c
20
4a
61
6d
65
73
b
4d
61
62
72
61
79
2c
20
4c
65
6e
c
46
65
74
74
2c
20
54
72
65
76
6f
72
11
4d
75
72
74
6f
6e
2c
20
43
68
72
69
73
74
65
65
6e
c
4b
6c
65
65
6d
61
6e
2c
20
49
76
61
10
50
65
67
72
61
6d
2c
20
4d
61
64
65
6c
65
6e
65
f
57
65
69
73
64
6f
72
66
65
72
2c
20
4e
67
61
f
4c
61
6d
65
6e
64
6f
6c
61
2c
20
48
65
72
62
f
50
6f
6c
6c
65
74
2c
20
45
6d
65
72
61
6c
64
10
48
61
6c
63
6f
6d
62
2c
20
4d
61
72
67
65
72
79
10
57
61
6c
63
75
74
74
2c
20
54
69
66
66
61
6e
69
e
4e
6f
62
62
65
2c
20
41
72
76
69
6c
6c
61
f
44
6f
72
6f
73
6b
79
2c
20
45
6c
69
73
68
61
f
52
61
6d
65
6c
6c
61
2c
20
54
72
65
61
73
61
d
48
65
72
6d
73
2c
20
4a
6f
73
65
66
61
c
42
79
72
6f
6d
2c
20
4e
65
6f
6d
69
d
48
6f
75
70
65
2c
20
52
65
67
69
6e
65
10
57
69
6e
61
72
73
6b
69
2c
20
52
6f
73
6c
79
6e
11
57
61
69
74
65
73
2c
20
4b
69
6d
62
65
72
6c
65
79
b
48
61
65
72
2c
20
4e
6f
72
61
68
12
44
65
6c
6c
61
70
61
6f
6c
65
72
61
2c
20
4b
6f
72
69
e
54
65
6e
63
65
72
2c
20
44
61
72
63
65
6c
11
42
75
63
6b
65
6c
2c
20
41
6c
65
78
61
6e
64
65
72
e
43
72
75
73
6f
6e
2c
20
53
68
65
6c
6c
69
10
53
68
75
67
72
75
65
2c
20
43
61
72
6f
6c
69
6e
11
52
6f
64
65
69
67
75
65
73
2c
20
52
65
6e
61
74
61
e
47
72
69
66
66
65
65
2c
20
45
6c
6c
69
65
c
45
6c
6d
65
73
2c
20
54
72
65
73
61
11
42
65
61
75
6d
61
6e
2c
20
41
6e
67
65
6c
69
6b
61
e
43
6f
6e
6f
76
65
72
2c
20
44
65
61
6e
6e
11
53
74
72
61
74
6f
6e
2c
20
46
65
72
6e
61
6e
64
61
f
53
61
65
6c
65
6e
73
2c
20
54
68
65
6f
6c
61
e
4b
72
61
76
65
74
7a
2c
20
47
65
72
72
79
10
47
69
6c
6c
6d
69
6e
67
2c
20
44
61
6c
6c
61
73
f
47
69
6c
6c
65
74
74
2c
20
42
6c
61
69
6e
65
12
50
61
63
63
68
69
61
6e
61
2c
20
41
7a
75
63
65
6e
61
13
53
63
68
6c
69
74
7a
65
72
2c
20
46
72
65
64
72
69
63
6b
f
4d
65
69
74
7a
6c
65
72
2c
20
48
6f
6e
65
79
11
50
61
6c
61
63
69
6f
75
73
2c
20
41
75
73
74
69
6e
e
46
6c
61
74
61
75
2c
20
46
61
74
69
6d
61
12
47
6f
62
6c
69
72
73
63
68
2c
20
42
72
79
61
6e
6e
61
d
56
69
65
72
73
2c
20
45
61
72
6c
69
65
11
4f
76
65
72
6f
63
6b
65
72
2c
20
44
61
70
68
6e
65
10
42
65
79
64
6f
75
6e
2c
20
53
74
65
70
68
65
6e
b
57
65
73
63
68
2c
20
54
6f
6e
69
10
53
65
64
62
65
72
72
79
2c
20
4d
61
72
69
6e
61
f
53
6b
6f
72
64
61
68
6c
2c
20
4a
6f
6e
69
65
d
4d
6f
79
64
2c
20
4a
6f
65
6c
6c
65
6e
b
53
75
63
68
79
2c
20
52
6f
73
73
c
4b
6f
73
63
68
6f
2c
20
4d
75
6f
69
d
4d
63
66
61
75
6c
2c
20
4c
6f
6e
64
61
12
4d
61
72
74
69
6e
73
6f
6e
2c
20
41
6e
64
72
65
61
73
8
4d
75
6e
73
2c
20
53
75
d
48
75
67
65
2c
20
4c
61
71
75
69
74
61
e
41
6e
64
6f
2c
20
52
6f
73
61
6c
69
6e
65
10
45
73
74
65
72
6c
79
2c
20
41
72
67
65
6c
69
61
14
53
69
6c
76
65
72
73
74
6f
6e
65
2c
20
41
6c
65
69
73
68
61
d
43
61
6c
7a
61
64
6f
2c
20
52
6f
73
73
e
42
61
72
79
2c
20
47
69
6f
76
61
6e
6e
61
d
4c
65
68
72
6b
65
2c
20
4b
69
61
72
61
c
4c
6f
61
74
73
2c
20
53
6f
6e
69
61
f
4a
61
63
6b
6f
77
69
61
6b
2c
20
45
72
6d
61
10
43
61
6d
61
6e
6f
2c
20
59
65
73
73
65
6e
69
61
15
4b
65
6f
62
61
75
6e
6c
65
75
61
6e
67
2c
20
44
6f
72
65
6e
65
b
53
6f
66
65
72
2c
20
4c
75
72
61
e
42
72
61
67
75
65
2c
20
54
72
65
76
6f
72
d
54
72
6f
79
2c
20
4d
69
63
68
69
6b
6f
10
4f
6d
61
72
61
2c
20
41
72
67
65
6e
74
69
6e
61
11
53
68
75
66
65
6c
74
2c
20
45
6c
65
61
6e
6f
72
61
e
52
65
65
67
65
72
2c
20
53
69
72
65
6e
61
e
43
6c
69
76
65
2c
20
42
6c
6f
73
73
6f
6d
15
53
74
72
69
74
74
6d
61
74
65
72
2c
20
4c
65
6f
6e
61
72
64
61
9
44
6f
69
2c
20
4a
6f
64
79
f
53
6c
6f
73
73
2c
20
46
72
61
6e
63
65
6e
65
e
59
65
6c
6c
65
2c
20
43
68
61
6e
74
61
79
f
4d
65
69
73
73
6e
65
72
2c
20
45
72
77
69
6e
d
47
6f
72
72
69
2c
20
42
72
69
74
74
61
10
42
65
6e
6e
61
67
65
2c
20
4b
72
79
73
74
6c
65
b
4e
6f
76
61
72
61
2c
20
53
75
65
e
48
75
72
6c
62
75
74
2c
20
41
6e
6e
69
73
d
4d
6f
68
72
69
6e
67
2c
20
45
76
61
6e
e
43
65
72
6f
6e
65
2c
20
43
6c
61
75
64
65
e
4d
6f
72
65
74
2c
20
52
6f
73
61
6c
69
65
a
53
70
72
65
68
65
2c
20
49
6e
e
50
72
61
6c
6c
2c
20
47
61
79
6e
65
6c
6c
12
4b
69
6d
6d
69
6e
73
2c
20
4d
61
72
61
67
61
72
65
74
c
4a
6f
2c
20
41
67
72
69
70
69
6e
61
13
43
61
72
61
63
63
69
6f
6c
61
2c
20
47
65
72
74
75
64
65
b
42
75
65
6e
6f
2c
20
4c
61
63
79
14
47
75
67
6c
69
65
6c
6d
69
6e
61
2c
20
53
75
73
61
6e
6e
61
10
41
6e
64
65
72
61
2c
20
4d
61
72
67
61
72
65
74
14
42
72
69
64
65
6e
73
74
69
6e
65
2c
20
56
69
63
65
6e
74
65
f
44
6f
6e
6e
65
6c
73
6f
6e
2c
20
4c
69
6c
69
f
53
70
65
6c
6c
65
72
2c
20
4a
6f
73
6c
79
6e
10
53
68
69
68
2c
20
43
6f
6e
63
65
70
74
69
6f
6e
10
41
70
65
6c
69
61
6e
2c
20
53
61
6d
65
6c
6c
61
10
4b
6f
73
74
65
6c
2c
20
4d
61
72
69
65
6c
6c
61
f
57
68
69
74
73
65
6c
6c
2c
20
53
68
65
72
69
a
44
65
6c
6f
2c
20
4b
65
6e
61
12
50
65
72
72
65
69
72
61
2c
20
45
6c
65
6f
6e
6f
72
61
e
56
61
6e
61
73
73
65
6c
74
2c
20
49
6d
61
11
43
61
70
70
65
6c
6c
65
74
74
69
2c
20
59
6f
6b
6f
11
48
6f
64
67
69
6e
73
2c
20
44
6f
6d
69
6e
69
63
6b
d
52
61
79
79
61
6e
2c
20
50
65
6e
6e
79
13
4b
61
6c
6c
65
6e
62
61
63
68
2c
20
4c
75
63
69
6c
6c
61
e
46
72
61
6e
74
7a
2c
20
4e
67
75
79
65
74
13
44
69
6c
6c
77
6f
72
74
68
2c
20
53
68
61
77
61
6e
64
61
e
48
65
72
65
6b
2c
20
53
6f
63
6f
72
72
6f
e
48
79
6c
61
6e
64
2c
20
4c
61
77
61
6e
61
10
4d
63
68
61
66
66
69
65
2c
20
4c
65
73
6c
65
79
f
41
75
64
75
6f
6e
67
2c
20
44
65
62
62
69
65
c
4d
6f
65
73
65
72
2c
20
48
61
6e
6b
c
4d
6f
6c
6c
6f
79
2c
20
4c
6f
72
61
e
43
6f
6c
6c
65
74
74
69
2c
20
4e
61
64
61
14
4d
69
74
6b
6f
77
73
6b
69
2c
20
4e
69
63
6f
6c
65
74
74
65
10
44
65
6c
61
73
62
6f
75
72
2c
20
48
75
6f
6e
67
10
53
61
6e
74
6f
72
79
2c
20
52
6f
62
65
72
74
6f
10
45
6c
6c
69
66
72
69
74
7a
2c
20
42
72
79
63
65
10
48
6f
66
66
69
6e
65
2c
20
4d
65
72
72
69
6c
6c
15
4d
63
65
6c
68
65
6e
6e
65
79
2c
20
42
72
69
64
67
65
74
74
65
b
4d
61
73
65
72
2c
20
45
72
69
63
c
48
6f
74
74
65
72
2c
20
44
6f
6e
6e
f
42
6f
6e
61
64
6f
6e
61
2c
20
41
6c
69
73
61
13
4f
68
6c
65
6d
61
63
68
65
72
2c
20
43
61
72
6d
69
6e
61
10
53
69
6d
6f
6e
65
61
75
2c
20
4d
65
72
76
69
6e
b
5a
61
62
65
6c
2c
20
52
75
62
69
12
44
75
72
6d
61
6e
2c
20
41
6c
74
61
67
72
61
63
69
61
10
5a
65
6c
61
73
6b
6f
2c
20
47
6f
6e
7a
61
6c
6f
13
45
6c
64
65
72
69
64
67
65
2c
20
4e
6f
72
62
65
72
74
6f
e
57
68
69
6e
65
72
79
2c
20
53
68
61
72
61
14
46
69
6c
6c
69
6e
67
65
72
2c
20
4e
61
74
68
61
6e
69
61
6c
11
56
61
6c
65
72
61
2c
20
45
6c
6c
73
77
6f
72
74
68
d
54
61
62
69
6f
6e
2c
20
45
6d
69
6c
79
11
52
6f
62
65
72
72
74
73
6f
6e
2c
20
42
6f
6e
6e
79
11
48
69
6e
64
6d
61
72
73
68
2c
20
56
69
63
74
6f
72
10
4d
63
63
61
64
65
2c
20
53
68
69
72
6c
65
6e
65
13
50
69
65
74
72
6f
70
61
6f
6c
6f
2c
20
44
61
6e
69
63
61
12
57
61
72
6f
77
61
79
2c
20
53
74
65
70
68
61
6e
69
65
10
52
65
61
73
65
2c
20
46
65
72
64
69
6e
61
6e
64
9
52
61
73
70
2c
20
54
69
6d
10
56
65
73
65
6c
6b
61
2c
20
46
6c
6f
72
69
64
61
e
44
6f
63
74
6f
72
2c
20
54
6f
73
68
69
61
e
4b
6f
65
72
62
65
72
2c
20
4b
65
63
69
61
c
4e
6f
63
6f
6e
2c
20
4b
61
63
69
65
b
57
65
67
6e
65
72
2c
20
48
79
65
c
41
62
65
64
2c
20
45
73
74
68
65
72
e
53
65
65
6c
65
79
2c
20
41
6c
61
69
6e
65
d
4f
70
65
6c
61
2c
20
4c
75
63
69
6e
61
10
47
65
6e
74
68
65
72
2c
20
4c
61
6a
75
61
6e
61
14
44
61
6e
6e
75
6e
7a
69
6f
2c
20
56
61
6c
65
6e
74
69
6e
65
d
43
61
72
6e
65
79
2c
20
56
61
6e
6e
61
d
56
65
63
63
68
69
2c
20
4c
6f
69
73
65
e
4d
61
6e
67
61
6e
2c
20
4d
61
72
67
6f
74
d
43
61
6e
65
73
2c
20
45
6c
61
69
6e
65
f
50
75
72
73
65
6c
6c
2c
20
4a
6f
73
6c
79
6e
e
42
75
73
65
72
2c
20
53
6f
63
6f
72
72
6f
10
50
61
72
69
73
65
61
75
2c
20
44
61
6e
69
6c
6f
f
43
6c
61
79
74
65
72
2c
20
4a
61
6e
69
6e
65
f
4d
61
73
73
65
6e
61
2c
20
43
61
72
6f
6c
6c
f
43
79
72
75
6c
69
6b
2c
20
48
65
6c
6c
65
6e
11
4e
61
79
73
6d
69
74
68
2c
20
52
61
79
6d
6f
6e
64
c
4a
61
70
70
2c
20
45
6c
76
69
6e
61
10
4d
65
65
6e
61
63
68
2c
20
52
61
79
66
6f
72
64
d
4d
6f
75
6e
64
2c
20
4c
61
76
65
74
61
d
47
72
61
67
65
2c
20
4d
6f
72
67
61
6e
e
42
6c
6f
63
68
65
72
2c
20
4d
61
72
63
79
12
54
65
73
73
65
6e
65
65
72
2c
20
43
61
72
79
6c
6f
6e
d
50
65
73
69
6e
61
2c
20
44
6f
72
69
65
10
4b
61
61
6e
2c
20
43
6f
6e
63
65
70
74
69
6f
6e
10
41
64
65
72
6d
61
6e
2c
20
41
6e
61
6c
69
73
61
10
4b
6f
72
61
6c
65
77
73
6b
69
2c
20
4e
65
72
79
d
41
73
61
74
6f
2c
20
52
75
66
69
6e
61
16
4e
69
65
64
65
72
6d
65
69
65
72
2c
20
4c
61
73
68
61
77
6e
64
61
14
47
69
6c
62
72
65
74
68
2c
20
47
65
6f
72
67
65
61
6e
6e
61
12
47
72
69
65
73
73
2c
20
47
65
6f
72
67
69
61
6e
6e
65
c
54
61
69
2c
20
44
65
65
61
6e
6e
61
11
4d
6f
6e
61
74
68
2c
20
54
68
6f
6d
61
73
65
6e
61
e
43
61
64
64
69
67
61
6e
2c
20
4c
79
6e
6e
f
52
6f
74
74
6d
61
6e
2c
20
45
76
65
6c
79
6e
10
42
75
72
67
68
61
72
64
74
2c
20
4d
69
73
74
69
e
4e
61
77
77
61
72
2c
20
56
69
63
6b
65
79
f
4a
61
6d
6f
6e
2c
20
42
65
72
6e
65
74
74
61
f
4e
6f
72
61
6c
65
73
2c
20
46
72
65
69
64
61
10
52
7a
65
73
7a
75
74
6b
6f
2c
20
42
72
65
74
74
12
44
75
72
73
74
65
6c
65
72
2c
20
4c
65
61
6e
6f
72
61
e
4f
72
64
77
61
79
2c
20
4d
6f
6e
69
6b
61
e
43
65
72
61
6f
73
2c
20
4a
65
6e
69
73
65
10
42
69
6e
65
67
61
72
2c
20
43
6c
61
72
69
63
65
f
4d
61
6e
67
68
61
6e
65
2c
20
4b
65
69
6c
61
f
48
6f
77
6c
69
6e
2c
20
4d
61
74
74
68
65
77
e
4a
61
63
69
6e
74
6f
2c
20
43
72
61
69
67
d
50
65
6c
6c
69
73
68
2c
20
4e
65
64
61
c
47
6f
64
65
61
75
78
2c
20
4d
65
67
e
52
65
69
67
6c
65
2c
20
4a
6f
6c
65
6e
65
f
42
65
72
73
2c
20
42
65
72
6e
61
64
69
6e
65
10
56
61
6c
6c
69
65
72
2c
20
45
6c
65
6e
6f
72
61
9
41
62
62
65
2c
20
56
61
6e
10
53
68
61
64
6c
65
72
2c
20
53
68
65
72
6c
65
79
e
4a
61
72
61
64
61
74
2c
20
4d
69
63
61
68
e
52
75
79
73
2c
20
42
65
72
6e
61
72
64
6f
d
46
61
76
75
7a
7a
69
2c
20
43
6f
72
79
11
56
6f
6e
72
75
64
65
6e
2c
20
44
61
72
72
69
63
6b
11
44
61
6d
6d
65
79
65
72
2c
20
4c
6f
75
65
74
74
61
c
52
6f
6d
70
66
2c
20
4b
61
72
65
6e
e
52
61
6d
6f
6e
65
7a
2c
20
52
75
62
69
65
e
42
75
72
64
6f
63
6b
2c
20
42
65
72
79
6c
e
56
65
72
61
6e
6f
2c
20
4e
61
6e
63
65
65
e
4d
65
72
72
6f
77
2c
20
4d
69
73
74
69
65
10
42
6c
6f
73
73
2c
20
53
74
65
70
68
61
6e
69
61
f
4c
6f
70
65
7a
2c
20
52
68
69
61
6e
6e
6f
6e
e
48
65
6b
6d
61
6e
2c
20
44
69
6c
6c
6f
6e
12
48
6f
70
70
65
72
73
74
61
64
2c
20
44
6f
72
65
6e
65
b
52
61
6e
66
74
2c
20
4a
69
6c
6c
12
54
65
66
65
72
74
69
6c
6c
65
72
2c
20
45
72
77
69
6e
e
52
79
6e
65
72
2c
20
43
6f
72
61
6c
69
65
b
4b
75
74
69
2c
20
4d
65
6c
76
61
d
57
68
61
69
74
65
2c
20
50
68
75
6e
67
f
4d
69
73
75
6d
69
2c
20
47
75
73
74
61
76
6f
e
46
6f
65
63
6b
65
2c
20
54
6f
6d
61
73
61
13
41
72
72
65
6e
64
65
6c
6c
2c
20
48
61
72
72
69
65
74
74
e
4c
6f
6b
65
72
2c
20
4a
6f
6e
65
6c
6c
65
f
53
70
69
6e
63
69
63
2c
20
43
68
65
72
6c
79
d
43
6f
64
61
2c
20
53
68
61
72
69
63
65
e
43
69
76
61
6c
65
2c
20
4b
61
72
69
6e
61
f
43
69
6d
6f
72
65
6c
6c
69
2c
20
44
61
6e
61
e
53
63
6f
62
69
65
2c
20
4d
61
6d
6d
69
65
10
56
6f
67
65
6c
7a
61
6e
67
2c
20
4d
69
73
73
79
10
44
65
61
63
65
74
69
73
2c
20
53
68
69
7a
75
65
d
53
74
6f
77
65
2c
20
4c
79
6e
73
65
79
f
50
61
78
73
6f
6e
2c
20
4a
65
6e
69
66
65
72
c
52
69
64
64
65
72
73
2c
20
53
6f
6c
d
44
65
75
73
65
72
2c
20
47
61
72
74
68
e
54
72
61
76
65
72
73
2c
20
4e
69
6e
66
61
11
59
61
6b
6c
69
6e
2c
20
4d
61
64
65
6c
65
69
6e
65
10
41
6d
6f
72
69
6d
2c
20
52
6f
73
61
6d
6f
6e
64
d
41
6d
69
73
6f
6e
2c
20
57
6f
6e
64
61
11
4d
69
65
6c
73
63
68
2c
20
4b
72
79
73
74
79
6e
61
11
44
69
65
6e
73
74
2c
20
47
65
72
74
72
75
64
69
73
f
53
70
69
77
61
6b
2c
20
50
61
75
6c
65
6e
65
e
45
6c
65
77
61
2c
20
43
68
61
73
69
74
79
d
50
61
6c
6d
69
6f
74
74
6f
2c
20
4c
65
11
43
6c
61
75
64
65
2c
20
4d
61
72
67
61
72
69
74
61
11
44
75
72
62
6f
72
61
77
2c
20
44
65
6c
70
68
69
61
12
41
67
6f
73
74
69
6e
65
6c
6c
69
2c
20
42
72
65
74
74
11
50
72
75
64
65
6e
74
65
2c
20
45
64
77
61
72
64
6f
b
42
6f
72
62
61
2c
20
53
75
7a
69
f
4b
72
6f
70
66
2c
20
44
61
6e
6e
65
74
74
65
d
48
61
61
73
65
2c
20
4e
65
74
74
69
65
e
43
72
61
6c
6c
2c
20
45
73
74
65
6c
6c
65
e
45
70
65
72
73
6f
6e
2c
20
41
67
6e
75
73
d
4c
61
6e
7a
6f
2c
20
4d
61
72
6b
75
73
f
54
61
72
6e
6f
77
73
6b
69
2c
20
4a
61
6d
65
12
56
61
6e
7a
61
6e
74
65
6e
2c
20
4d
61
72
69
73
73
61
f
44
65
76
69
6e
2c
20
57
69
6c
6c
69
61
6d
73
f
42
65
72
6e
65
2c
20
41
6e
6e
6d
61
72
69
65
e
4b
72
69
64
6c
65
72
2c
20
44
61
79
73
69
12
4e
61
63
69
73
73
65
2c
20
4e
61
74
68
61
6e
61
65
6c
f
43
61
72
72
61
6f
2c
20
5a
65
6e
61
69
64
61
15
50
66
61
6e
6e
65
6e
73
74
65
69
6e
2c
20
4a
65
73
65
6e
69
61
d
48
61
6c
74
6f
6e
2c
20
52
6f
6e
64
61
12
56
61
6e
64
72
65
73
61
72
2c
20
4b
69
6d
62
65
72
79
e
54
75
67
6d
61
6e
2c
20
43
6f
72
65
6e
65
10
4d
61
6c
61
67
6f
6e
2c
20
43
6f
6c
65
74
74
61
10
4d
61
72
75
73
69
61
6b
2c
20
42
65
6e
69
74
61
e
46
6c
65
67
6c
65
2c
20
48
61
69
6c
65
79
14
46
61
75
6c
6b
65
6e
62
65
72
72
79
2c
20
50
65
61
72
6c
65
10
43
6c
61
77
73
6f
6e
2c
20
4d
65
6c
61
69
6e
65
f
4d
72
61
7a
65
6b
2c
20
4a
65
61
6e
69
63
65
a
49
6d
61
6d
2c
20
4e
6f
6c
61
e
45
76
65
74
74
2c
20
4d
61
72
6c
65
6e
65
f
57
65
61
67
6c
65
2c
20
53
70
65
6e
63
65
72
b
53
69
72
6b
6f
63
68
2c
20
59
69
c
49
72
69
6e
65
6f
2c
20
47
65
72
69
c
50
6c
75
74
61
2c
20
43
6c
69
66
66
f
44
69
6d
6d
61
63
6b
2c
20
56
65
6c
76
65
74
d
4f
6c
72
69
63
68
2c
20
41
73
68
6c
69
10
50
65
69
74
7a
2c
20
46
72
61
6e
63
6f
69
73
65
e
41
73
73
61
6e
74
65
2c
20
4c
6f
69
73
65
10
52
6f
68
72
73
2c
20
47
61
62
72
69
65
6c
6c
65
d
53
74
72
65
69
2c
20
4d
61
72
69
63
61
11
53
7a
6b
6c
61
72
73
6b
69
2c
20
4b
65
65
6e
61
6e
11
4d
65
6e
6e
69
6e
67
65
72
2c
20
41
6c
79
63
69
61
e
50
61
73
61
6e
61
2c
20
48
61
6c
69
6e
61
10
4c
69
6e
63
6f
75
72
74
2c
20
4b
75
72
74
69
73
a
53
7a
65
2c
20
4d
61
72
63
6f
e
41
62
73
6f
6e
2c
20
4c
6f
72
65
6e
7a
61
f
48
6f
6c
77
65
67
65
72
2c
20
4c
69
67
69
61
d
4b
6f
7a
6f
6c
61
2c
20
54
65
72
72
61
e
42
65
72
67
65
72
74
2c
20
56
65
6c
6d
61
f
43
61
62
75
67
6f
73
2c
20
4d
69
67
6e
6f
6e
d
54
6f
72
72
65
64
2c
20
41
62
64
75
6c
d
42
6f
79
64
61
2c
20
56
65
72
6c
69
65
e
50
69
65
6c
6f
77
2c
20
4a
61
69
6d
65
65
10
46
6f
72
65
6a
74
2c
20
4c
65
69
67
68
61
6e
6e
12
53
6c
6f
67
65
72
69
73
2c
20
43
6f
6e
73
75
65
6c
61
f
4c
61
73
73
77
65
6c
6c
2c
20
4b
69
72
62
79
f
53
63
68
6f
72
7a
6d
61
6e
2c
20
4a
6f
65
6c
a
53
6f
75
63
79
2c
20
4d
61
65
c
45
6e
73
7a
2c
20
4c
61
6e
69
74
61
10
53
70
6f
6e
61
75
67
6c
65
2c
20
4a
65
6e
6e
79
c
57
69
6e
6b
6c
65
2c
20
4c
69
73
61
10
43
6f
6e
63
69
6e
69
2c
20
41
72
69
61
6e
6e
61
10
47
6c
69
6e
73
6b
69
2c
20
59
75
6c
61
6e
64
61
f
42
6c
6f
6f
6d
65
72
2c
20
41
72
6e
69
74
61
10
48
6f
75
74
6d
61
6e
2c
20
44
65
73
70
69
6e
61
f
4c
69
73
68
6d
61
6e
2c
20
45
64
77
61
72
64
11
4d
63
6d
69
63
6b
6c
65
2c
20
4a
61
63
71
75
65
73
e
50
69
6f
63
68
65
2c
20
48
75
62
65
72
74
10
4a
61
63
71
75
65
2c
20
41
67
75
73
74
69
6e
61
d
44
6f
6c
73
65
6e
2c
20
45
6c
6d
65
72
9
54
61
6e
6b
2c
20
53
6f
6e
d
4b
61
6c
61
73
2c
20
56
69
76
69
65
6e
10
4d
63
6b
69
73
73
69
63
2c
20
4a
61
6e
69
6e
65
e
4d
61
6b
6f
2c
20
46
72
61
6e
6b
6c
79
6e
f
42
75
64
7a
69
6b
2c
20
5a
61
63
6b
61
72
79
13
44
65
73
70
6f
73
69
74
6f
2c
20
43
68
61
6e
65
6c
6c
65
e
50
69
6e
6b
65
6c
74
6f
6e
2c
20
4c
65
6f
a
5a
61
70
66
2c
20
41
6c
65
78
d
53
77
69
6e
64
6c
65
2c
20
42
65
73
73
f
45
69
73
62
61
63
68
2c
20
53
6f
6d
6d
65
72
11
49
73
65
6e
68
6f
77
65
72
2c
20
44
65
6e
65
65
6e
e
44
61
6d
70
66
2c
20
4e
6f
76
65
6c
6c
61
10
54
6f
72
72
61
6e
6f
2c
20
44
65
62
6f
72
61
68
10
4b
68
65
6e
73
6f
76
61
6e
2c
20
44
61
67
6e
79
e
42
72
75
6e
6a
65
73
2c
20
45
76
69
74
61
f
53
65
72
72
61
74
6f
2c
20
53
75
61
6e
6e
65
10
46
61
6c
6c
69
6e
2c
20
4c
61
74
72
69
63
69
61
10
53
61
67
61
79
61
67
61
2c
20
4c
75
61
6e
6e
65
12
4a
6f
68
61
6e
6e
65
73
73
65
6e
2c
20
52
6f
73
69
61
13
4c
61
6d
61
72
63
68
65
2c
20
47
61
62
72
69
65
6c
6c
65
12
53
69
6c
76
65
72
69
6f
2c
20
42
65
76
65
72
6c
65
79
10
42
72
69
64
64
65
6c
6c
2c
20
44
61
72
72
6f
6e
e
55
6e
72
61
75
2c
20
47
69
73
65
6c
6c
65
12
4c
61
76
69
73
74
61
2c
20
4e
61
74
68
61
6e
69
61
6c
11
4d
63
67
69
62
62
6f
6e
2c
20
4e
65
76
69
6c
6c
65
10
4c
75
62
6b
65
2c
20
48
6f
72
74
65
6e
73
69
61
10
57
72
7a
65
73
69
65
6e
2c
20
4d
69
74
73
75
65
f
4d
61
64
64
69
6e
2c
20
42
6f
62
65
74
74
65
c
47
65
66
66
72
65
2c
20
4c
6f
6d
61
e
44
69
6b
65
2c
20
52
6f
64
65
72
69
63
6b
f
56
61
6e
65
66
66
65
6e
2c
20
57
61
79
6e
65
c
4c
65
69
63
68
2c
20
4d
61
72
79
61
14
4d
61
74
75
73
7a
65
77
73
6b
69
2c
20
47
65
6f
72
67
69
61
11
4b
73
68
79
77
6f
6e
69
73
2c
20
41
6e
64
72
65
61
f
53
63
68
61
6d
70
2c
20
4c
61
75
72
65
6e
61
e
43
6f
6e
64
69
65
2c
20
4c
6f
6e
6e
69
65
11
50
69
63
63
75
69
6c
6c
6f
2c
20
54
65
72
72
69
65
c
49
64
61
2c
20
52
65
62
65
63
6b
61
10
42
61
64
67
65
74
74
2c
20
51
75
65
6e
74
69
6e
f
50
6f
65
70
70
6c
65
69
6e
2c
20
54
68
61
64
b
42
65
6c
6b
65
2c
20
54
68
65
61
12
4c
75
6e
64
65
6d
6f
2c
20
4d
61
72
61
67
61
72
65
74
d
46
69
6c
6f
2c
20
52
6f
73
65
6c
79
6e
c
4d
61
69
72
2c
20
42
61
72
6e
65
79
11
54
72
61
6d
65
6c
6c
2c
20
45
6c
66
72
69
65
64
65
f
43
6f
6e
73
69
67
6c
69
6f
2c
20
54
75
61
6e
d
4e
61
62
68
61
6e
2c
20
47
6c
65
6e
6e
e
48
65
64
6c
65
72
2c
20
4a
6f
65
61
6e
6e
d
59
6f
63
68
69
6d
2c
20
44
61
69
6e
65
e
43
61
6c
61
69
73
2c
20
44
69
6f
6e
6e
61
c
42
6f
77
6c
69
63
6b
2c
20
53
61
75
e
42
75
74
74
73
2c
20
41
75
72
65
6c
69
6f
12
45
73
63
68
65
6e
62
72
65
6e
6e
65
72
2c
20
4d
61
6e
11
4d
63
6e
65
69
6c
2c
20
47
65
6f
72
67
65
74
74
65
f
4d
75
73
69
74
61
6e
6f
2c
20
54
69
65
72
61
11
43
6f
6e
79
65
72
73
2c
20
43
68
69
71
75
69
74
61
11
46
69
73
68
65
72
6d
61
6e
2c
20
41
6e
64
65
72
61
e
4c
69
6f
74
74
61
2c
20
43
65
64
72
69
63
11
53
63
68
65
6c
6c
65
72
6d
61
6e
6e
2c
20
47
69
61
b
48
65
65
70
2c
20
41
6e
64
72
61
10
45
73
63
61
72
65
6e
6f
2c
20
47
61
72
72
65
74
f
44
61
6c
73
61
6e
74
6f
2c
20
54
6f
62
69
65
e
43
65
6c
6c
69
2c
20
45
6c
6c
69
6f
74
74
10
48
61
61
6b
65
6e
73
6f
6e
2c
20
4f
64
65
6c
6c
11
45
6e
67
6c
65
6d
61
6e
6e
2c
20
4c
75
63
69
6c
61
e
4b
6f
65
70
2c
20
4c
75
63
72
65
63
69
61
c
43
72
6f
6f
6d
2c
20
4b
69
73
68
61
11
4c
75
6e
64
67
72
65
6e
2c
20
43
68
65
72
72
79
6c
f
49
6d
6c
61
79
2c
20
4e
61
74
68
61
6c
69
65
12
48
65
70
70
65
61
72
64
2c
20
52
65
62
62
65
63
63
61
10
44
65
6c
68
69
65
72
72
6f
2c
20
45
6d
69
6c
79
10
54
61
75
62
65
72
74
2c
20
4b
65
6e
6e
65
74
68
d
4d
77
61
79
2c
20
48
6f
75
73
74
6f
6e
c
53
65
6e
6e
2c
20
52
6f
6d
61
6e
61
c
42
6f
61
6d
61
68
2c
20
54
69
6e
61
10
52
75
63
69
6e
73
6b
69
2c
20
4d
61
72
74
68
61
c
45
73
74
65
73
73
2c
20
4d
69
73
73
e
42
61
6c
61
73
73
69
2c
20
41
73
68
6c
69
e
42
61
72
61
68
6f
6e
61
2c
20
52
61
75
6c
13
4b
6f
65
6e
69
67
73
66
65
6c
64
2c
20
4b
69
6d
62
72
61
c
54
61
70
70
2c
20
4d
69
6c
74
6f
6e
d
4b
6f
76
65
73
2c
20
47
6c
61
64
79
73
10
54
6f
68
69
6c
6c
2c
20
56
69
6e
63
65
6e
7a
6f
d
48
65
79
6d
61
6e
6e
2c
20
44
6f
6e
67
13
53
77
65
61
72
6e
67
69
6e
2c
20
41
6c
66
72
65
64
69
61
e
53
74
61
63
79
2c
20
41
72
6e
75
6c
66
6f
10
4c
65
67
61
75
6c
74
2c
20
4b
69
6d
62
65
72
79
c
4a
65
73
6b
6f
2c
20
4d
69
6e
74
61
f
4a
61
72
76
65
72
2c
20
42
65
72
74
72
61
6d
9
53
65
72
6c
2c
20
4c
65
73
f
4d
6f
72
67
61
6e
6f
2c
20
45
6c
6c
69
6f
74
c
4d
61
7a
7a
61
77
69
2c
20
59
65
72
c
41
68
61
72
6f
6e
2c
20
50
61
75
6c
11
46
6c
65
75
72
69
6c
75
73
2c
20
42
61
69
6c
65
79
f
50
61
72
6d
65
6c
65
2c
20
49
6c
65
61
6e
61
f
4c
61
6d
62
6f
75
72
6e
65
2c
20
50
61
67
65
f
52
69
76
61
72
64
2c
20
4e
69
63
6f
6c
61
73
10
41
75
6d
69
63
6b
2c
20
43
68
65
79
65
6e
6e
65
c
4c
61
72
61
2c
20
48
6f
6c
6c
69
65
11
50
61
72
6e
65
6c
6c
2c
20
46
72
61
6e
63
69
6e
61
11
48
65
6c
66
65
6e
62
65
69
6e
2c
20
41
6e
69
73
61
a
53
65
63
6f
72
2c
20
4a
6f
65
b
57
61
67
61
72
2c
20
53
6b
79
65
f
4d
61
72
69
61
6e
69
2c
20
50
61
74
74
69
65
10
41
68
6c
75
77
61
6c
69
61
2c
20
4b
61
72
72
79
e
53
68
65
72
72
65
72
2c
20
45
6c
69
7a
61
10
41
6e
73
62
61
63
68
65
72
2c
20
4a
69
6d
6d
79
f
4c
6f
63
6b
6d
61
6e
2c
20
44
65
6f
6e
6e
61
d
41
6c
64
72
65
64
2c
20
4a
65
72
72
69
c
5a
65
69
74
7a
2c
20
57
6f
6e
64
61
11
43
65
6e
74
72
6f
6e
65
2c
20
54
69
66
66
69
6e
79
e
53
61
6c
69
6e
61
73
2c
20
56
65
6f
6c
61
c
44
75
72
73
6f
2c
20
53
61
6d
6d
79
f
41
68
6c
6d
61
6e
2c
20
48
65
72
6d
69
6e
61
11
48
6f
65
72
61
75
66
2c
20
4e
61
6e
6e
65
74
74
65
f
53
68
69
67
6f
2c
20
41
64
65
6c
61
69
64
65
d
4d
61
7a
65
79
2c
20
43
6f
72
65
65
6e
12
4c
69
6e
6b
6b
69
6c
61
2c
20
42
65
72
6e
65
69
63
65
11
43
61
72
6d
69
6e
2c
20
4c
61
73
68
61
75
6e
64
61
d
48
61
72
64
65
72
2c
20
4b
69
72
62
79
e
41
6e
64
72
69
61
6e
2c
20
44
69
67
6e
61
f
53
6f
62
72
69
6f
2c
20
41
64
65
6c
69
6e
61
f
48
6f
67
61
69
6e
73
2c
20
44
61
6d
69
6f
6e
10
4b
6f
72
6e
72
75
6d
70
66
2c
20
4b
79
6c
69
65
12
43
72
61
6e
73
68
61
77
2c
20
42
65
61
74
72
69
63
65
e
4b
69
6c
63
6f
79
6e
65
2c
20
44
61
6c
65
11
53
61
72
6e
69
63
6f
6c
61
2c
20
45
66
72
61
69
6e
11
43
61
74
61
6c
69
6e
6f
2c
20
43
79
72
73
74
61
6c
12
53
6f
6c
76
65
72
73
6f
6e
2c
20
43
68
65
72
6c
79
6e
d
41
75
74
6f
62
65
65
2c
20
4a
6f
6e
65
c
4f
75
6d
2c
20
43
6c
61
72
69
74
61
e
54
75
6e
6b
73
2c
20
4d
69
63
68
65
6c
65
e
53
75
72
69
65
6c
2c
20
4d
61
72
76
69
6e
11
4c
75
6d
69
6e
61
74
69
2c
20
46
61
74
69
6d
61
68
14
52
75
73
73
6f
6d
61
6e
6e
6f
2c
20
44
6f
72
6f
74
68
65
61
e
52
6f
6e
64
65
6c
6c
2c
20
45
72
69
6e
6e
13
47
6f
75
62
65
61
75
78
2c
20
57
69
6c
6c
69
65
6d
61
65
d
45
62
62
65
74
74
2c
20
44
65
6e
69
73
10
4d
61
72
67
61
69
74
69
73
2c
20
4d
79
72
6e
61
f
44
65
70
65
74
72
6f
2c
20
45
6c
69
6e
6f
72
10
48
61
6e
73
63
6f
6d
2c
20
43
61
72
79
6c
6f
6e
f
44
65
63
61
72
72
2c
20
4b
61
6e
64
69
63
65
f
4a
65
73
74
69
73
2c
20
43
68
65
72
69
73
65
10
4d
65
6c
6c
69
65
2c
20
41
64
65
6c
61
69
64
65
11
44
69
6c
63
68
61
6e
64
2c
20
44
65
61
6e
64
72
61
f
57
69
6c
6c
65
74
2c
20
44
6f
6d
69
6e
67
6f
d
4e
6f
62
69
73
2c
20
42
65
75
6c
61
68
c
44
69
65
68
6d
2c
20
4c
6f
75
69
73
12
42
65
72
67
61
6d
69
6e
65
2c
20
4d
65
6c
79
6e
64
61
a
56
69
76
6f
2c
20
54
6f
72
79
11
50
61
70
69
6c
6c
69
6f
6e
2c
20
53
65
6c
65
6e
65
e
56
61
6c
65
6c
61
2c
20
44
65
6e
65
73
65
10
4d
63
63
6f
6e
69
63
6f
2c
20
4a
6f
61
6e
6e
65
e
50
61
63
6b
65
62
75
73
68
2c
20
4a
69
6d
f
46
6f
6c
6c
6f
77
65
6c
6c
2c
20
54
75
61
6e
10
47
61
75
63
68
65
72
2c
20
43
72
79
73
74
6c
65
10
42
72
69
6e
69
63
68
2c
20
4d
61
64
69
73
6f
6e
a
4d
75
68
6e
2c
20
59
6f
6b
6f
d
42
75
65
68
6c
65
72
2c
20
47
77
65
6e
12
45
73
70
69
6e
6f
73
61
2c
20
47
65
6f
66
66
72
65
79
f
46
6f
73
73
65
74
74
2c
20
4e
61
6e
6e
69
65
b
46
65
6c
75
78
2c
20
44
61
6e
65
10
50
72
65
73
73
65
6c
2c
20
53
68
61
6e
74
61
65
d
53
61
6c
74
75
73
2c
20
53
6f
6e
69
61
f
52
75
62
65
6e
73
74
65
69
6e
2c
20
44
65
65
13
42
61
72
74
75
6e
65
6b
2c
20
48
65
6e
72
69
65
74
74
61
c
51
75
65
72
79
2c
20
45
6c
76
69
65
10
57
65
73
74
65
72
6e
2c
20
4c
65
6f
6e
69
6c
61
14
47
61
62
72
69
65
6c
73
65
6e
2c
20
43
68
65
72
65
6c
6c
65
b
45
6c
79
2c
20
4e
6f
68
65
6d
69
13
4d
63
6d
65
6e
61
6d
69
6e
2c
20
43
68
65
72
69
6c
79
6e
a
4b
6e
6f
72
69
2c
20
4e
61
6d
c
47
61
72
67
2c
20
41
6e
64
72
65
65
10
4c
61
67
72
61
6e
67
65
2c
20
41
6c
62
65
72
74
f
48
6f
75
73
65
6d
61
6e
2c
20
41
6c
61
6e
65
13
44
69
74
6f
6d
61
73
73
6f
2c
20
42
65
76
65
72
6c
65
65
12
52
61
64
61
62
61
75
67
68
2c
20
4d
65
72
69
6c
79
6e
c
4f
6c
6c
65
72
2c
20
41
72
72
6f
6e
d
43
6f
79
6e
65
72
2c
20
41
76
72
69
6c
d
4d
61
72
74
68
61
2c
20
4a
6f
64
65
65
b
43
68
61
6f
2c
20
53
75
73
61
6e
e
5a
6f
6e
69
61
2c
20
52
75
73
73
65
6c
6c
10
45
6c
62
65
72
73
6f
6e
2c
20
49
73
69
64
72
6f
11
46
65
67
61
72
6f
2c
20
45
73
6d
65
72
61
6c
64
61
f
4d
69
74
6d
61
6e
2c
20
5a
61
63
68
65
72
79
b
5a
65
6e
73
2c
20
4a
6f
61
6e
6e
12
53
70
75
72
6c
69
6e
67
2c
20
50
72
75
64
65
6e
63
65
e
4c
6f
64
65
69
72
6f
2c
20
4a
61
6d
69
65
f
46
69
6e
6b
6c
65
72
2c
20
4d
65
6c
6f
64
79
13
56
6f
6e
64
65
72
68
65
69
64
65
2c
20
4b
69
6d
69
6b
6f
12
53
63
61
67
6c
69
6f
6e
65
2c
20
44
6f
6d
65
6e
69
63
f
42
61
67
68
65
72
69
2c
20
41
72
6c
69
6e
65
e
54
61
70
69
6a
61
2c
20
53
61
6c
6f
6d
65
f
4d
61
72
6b
6c
65
79
2c
20
4b
61
6d
61
6c
61
12
43
61
76
65
6e
65
73
73
2c
20
44
6f
6d
69
6e
71
75
65
10
4d
6f
65
6c
6c
65
72
2c
20
54
68
65
72
65
73
61
c
54
61
69
2c
20
49
73
61
62
65
6c
6c
15
48
75
6d
65
72
69
63
6b
68
6f
75
73
65
2c
20
4a
6f
68
6e
6e
61
10
4d
61
7a
7a
6f
6e
65
2c
20
56
69
63
65
6e
74
65
d
4c
6f
6e
67
61
63
72
65
2c
20
4c
61
6e
f
53
74
75
6e
6b
61
72
64
2c
20
4a
6f
79
63
65
e
4b
75
6e
6b
6c
65
2c
20
53
74
61
63
65
79
e
57
65
73
6c
65
72
2c
20
4a
65
61
6e
69
65
f
53
70
72
69
67
67
6c
65
2c
20
54
65
6c
6d
61
f
43
6f
6f
74
65
72
2c
20
53
68
65
72
6d
61
6e
b
50
69
73
63
6f
2c
20
4b
61
72
6c
c
45
6d
6f
2c
20
4a
65
6e
6e
69
6e
65
e
53
63
68
61
6c
6c
2c
20
4c
61
6b
69
74
61
e
4c
65
68
6e
6f
72
74
74
2c
20
4a
61
6d
65
c
4b
79
6c
65
72
2c
20
45
6d
69
6c
79
e
57
69
6c
64
69
6e
67
2c
20
53
68
69
6c
61
10
4d
6f
6e
74
65
61
6c
65
67
72
65
2c
20
50
61
74
e
44
69
62
72
69
74
6f
2c
20
50
68
65
62
65
11
43
61
72
74
61
67
65
6e
61
2c
20
46
75
6d
69
6b
6f
10
54
69
6e
73
6d
61
6e
2c
20
44
61
6d
61
72
69
73
f
41
61
64
6c
61
6e
64
2c
20
49
73
72
65
61
6c
c
47
61
72
72
2c
20
4a
65
61
6e
69
65
f
4d
6f
72
73
65
6c
6c
2c
20
56
65
72
6e
6f
6e
b
46
72
61
6e
6b
73
2c
20
43
68
69
f
52
69
66
65
6e
62
61
72
6b
2c
20
45
6c
73
65
e
56
61
6e
62
65
72
67
65
6e
2c
20
44
6f
6e
f
44
65
73
61
75
74
65
6c
2c
20
54
65
73
68
61
f
43
61
72
72
69
6e
6f
2c
20
4e
69
63
6f
6c
65
b
43
72
75
65
61
2c
20
4c
69
6e
68
11
4b
69
72
6b
70
61
74
72
69
63
2c
20
43
79
72
69
6c
d
42
65
63
6b
79
2c
20
44
65
6c
63
69
65
14
56
61
6e
64
65
72
68
6f
65
66
2c
20
4c
61
77
72
65
6e
63
65
d
48
65
73
6c
69
6e
2c
20
43
61
73
73
79
e
41
6e
69
63
6b
2c
20
43
79
6e
74
68
69
61
10
46
72
61
77
6c
65
79
2c
20
43
6c
61
72
69
73
61
f
46
6c
61
6e
64
65
72
73
2c
20
4c
75
69
67
69
12
42
65
6e
6e
69
6e
67
65
72
2c
20
43
68
61
72
6c
69
65
f
57
68
69
74
69
6b
65
72
2c
20
41
62
72
61
6d
10
49
72
69
67
6f
79
65
6e
2c
20
56
6f
6e
6e
69
65
e
53
68
65
72
6e
2c
20
4c
6f
75
65
6c
6c
61
11
47
75
6d
6d
65
72
73
61
6c
6c
2c
20
48
61
72
72
79
d
52
65
71
75
65
6e
61
2c
20
4a
6f
61
6e
10
47
75
72
61
6c
6e
69
63
6b
2c
20
54
72
65
73
61
e
42
61
73
6b
6f
77
2c
20
4a
61
6e
65
65
6e
f
44
75
6e
6d
6f
72
65
2c
20
4e
6f
65
6c
6c
61
10
57
65
6c
63
68
65
72
2c
20
4d
61
6c
6f
72
69
65
e
48
61
6e
6b
65
6c
2c
20
41
6e
67
69
6c
61
11
45
76
61
6e
6f
73
6b
79
2c
20
44
65
62
6f
72
61
68
e
43
61
72
61
6d
2c
20
4c
6f
75
72
64
65
73
f
56
65
72
6b
6c
65
72
2c
20
4a
69
6d
6d
69
65
10
4d
6f
72
61
76
65
63
2c
20
46
72
61
6e
63
69
73
11
44
69
6e
67
69
6c
6c
6f
2c
20
43
6f
6c
65
6d
61
6e
e
53
75
70
70
6c
65
65
2c
20
4a
61
6d
65
73
9
4b
65
2c
20
45
6c
73
69
65
e
48
72
69
62
61
72
2c
20
4e
6f
72
69
6e
65
d
4f
71
75
69
6e
2c
20
42
65
72
6e
69
65
d
46
61
75
62
75
73
2c
20
45
6c
76
69
73
a
4d
6f
72
6b
2c
20
5a
61
6e
65
e
47
6f
64
64
65
6e
2c
20
43
68
65
72
6c
79
e
4b
6c
69
6e
67
2c
20
45
75
73
65
62
69
61
a
48
75
6c
73
2c
20
4a
75
64
79
e
4c
61
69
67
6c
65
2c
20
53
68
65
72
6f
6e
11
52
79
62
6f
77
69
61
6b
2c
20
4c
61
74
61
6e
79
61
f
57
61
6c
6c
62
65
72
67
2c
20
4c
65
6e
6e
61
11
44
65
76
61
6c
6c
65
2c
20
4d
61
72
69
63
72
75
7a
10
42
6f
7a
69
63
68
2c
20
4b
72
69
73
74
65
65
6e
c
4d
63
6e
65
6d
65
2c
20
41
6e
64
79
c
47
65
65
2c
20
45
6c
6c
69
6f
74
74
b
44
72
65
79
2c
20
50
61
74
74
79
e
54
61
75
74
6f
6c
6f
2c
20
41
67
6e
75
73
d
48
6f
6c
79
6f
6b
65
2c
20
4a
65
6e
61
10
4a
61
73
6d
69
6e
65
2c
20
43
68
61
6e
65
6c
6c
13
53
63
68
6f
65
6e
6c
65
62
65
72
2c
20
44
61
6c
69
6c
61
f
44
65
6c
70
6f
7a
6f
2c
20
41
6c
65
78
69
73
e
44
75
65
69
74
74
2c
20
46
72
65
65
64
61
e
50
69
65
72
72
6f
74
2c
20
42
65
63
6b
69
f
54
69
6d
70
73
6f
6e
2c
20
45
6c
61
64
69
61
f
50
6f
69
6e
74
65
2c
20
47
75
73
74
61
76
6f
e
4b
65
70
6c
65
79
2c
20
44
61
6e
69
63
61
f
52
65
69
68
65
72
2c
20
4b
65
6e
6e
65
74
68
e
5a
61
64
6f
72
61
2c
20
41
6e
64
72
65
61
e
53
6e
6f
77
64
79
2c
20
4d
61
72
76
65
6c
d
42
61
72
62
75
72
2c
20
53
69
6d
6f
6e
c
54
65
65
73
2c
20
4b
65
65
73
68
61
d
4c
61
6d
61
69
74
72
65
2c
20
53
6f
6f
c
53
63
68
61
75
6c
2c
20
4a
61
63
6b
13
4b
61
6c
74
65
6e
68
61
75
73
65
72
2c
20
4d
61
6e
64
61
b
53
65
70
65
2c
20
48
65
6e
72
79
12
4e
61
67
61
73
61
77
61
2c
20
4c
61
73
68
61
77
6e
61
12
44
65
69
6e
65
72
74
2c
20
4b
61
74
68
65
72
69
6e
65
e
57
61
66
66
6f
72
64
2c
20
4c
65
69
64
61
c
45
73
6e
61
72
64
2c
20
4d
69
6e
61
b
4f
61
74
69
73
2c
20
45
6c
69
6e
c
47
6c
75
6e
7a
2c
20
4c
75
69
73
65
11
53
63
68
77
61
72
74
7a
65
72
2c
20
45
6e
6f
6c
61
d
43
65
63
65
6e
61
2c
20
42
72
6f
63
6b
d
4c
75
74
68
2c
20
41
72
6e
6f
6c
64
6f
c
43
72
6f
73
65
2c
20
52
61
6d
6f
6e
f
4d
69
63
68
61
6e
64
2c
20
4d
6f
6e
69
6b
61
f
47
61
76
65
6c
2c
20
4c
61
75
72
65
6e
63
65
10
49
6e
73
61
6c
61
63
6f
2c
20
4b
65
65
6c
65
79
e
4c
61
6e
73
6f
6e
2c
20
45
73
74
65
6c
61
e
42
69
6e
67
6d
61
6e
2c
20
4c
6f
72
72
69
d
5a
61
76
61
6c
61
2c
