5
47
68
30
73
74
20
93
aa
0
8a
1b
4f
47
c0
93
aa
0
8a
1b
4f
47
c0
93
aa
0
8a
1b
4f
47
c0
93
aa
0
8a
1b
4f
47
c0
d
21
2a
20
53
43
41
4e
4e
45
52
20
4f
4e
f
22
29
3b
a
d
a
3c
2f
73
63
72
69
70
74
3e
4
30
30
37
72
c
50
41
53
53
20
73
75
31
63
31
64
33
a
42
55
49
4c
44
20
58
38
36
a
7
67
65
74
6d
65
d
a
2a
0
28
42
37
41
30
33
41
34
32
37
32
44
39
36
34
42
32
43
30
35
38
39
37
43
39
32
37
33
31
38
34
37
37
36
43
39
46
35
32
36
45
8
50
41
53
53
2d
4f
4e
30
5
48
65
61
72
74
a
32
0
31
0
31
0
0
0
20
0
6
52
45
41
44
44
a
6
4d
58
74
66
33
54
e
55
53
45
52
20
41
53
5f
20
23
20
23
20
3a
a
32
0
36
0
34
0
0
0
20
0
12
77
1
0
e9
3
e9
3
0
0
0
0
0
0
3
0
0
0
d
15
2a
2f
61
64
76
3d
27
4f
72
62
69
74
57
68
69
74
65
27
2f
2a
20
3e
55
73
65
72
2d
41
67
65
6e
74
3a
20
4d
6f
7a
69
6c
6c
61
2f
34
2e
30
20
28
63
6f
6d
70
61
74
69
62
6c
65
3b
20
4d
53
49
45
20
35
2e
30
3b
20
57
69
6e
64
6f
77
73
20
4e
54
20
35
2e
30
29
14
3f
54
3d
6d
61
63
68
69
6e
65
69
6e
66
6f
26
26
4b
65
79
3d
d
48
4f
52
53
45
5f
41
53
53
45
52
54
21
5
70
69
6e
67
7c
4
0
5
f3
d9
1f
4f
70
65
72
61
74
69
6e
67
20
53
79
73
74
65
6d
20
49
6e
74
65
6c
20
52
65
63
6f
76
65
72
79
14
50
4f
53
54
20
2f
77
72
69
74
65
20
48
54
54
50
2f
31
2e
31
2a
0
28
45
33
41
38
38
30
39
30
31
37
44
44
37
36
42
44
32
36
35
35
37
41
35
42
39
32
33
41
42
32
41
45
31
36
43
30
43
44
42
33
12
50
43
5f
41
63
74
69
76
65
5f
54
69
6d
65
2e
74
78
74
a
32
0
31
0
30
0
0
0
20
0
e
78
5f
4d
2
64
19
1a
fa
8b
56
9f
51
de
7c
a
32
0
30
0
37
0
0
0
20
0
7
5b
74
8
4d
9b
39
c1
f
4a
4f
49
4e
20
23
72
61
70
65
20
61
6e
61
6c
1c
d
a
4c
6f
67
66
69
6c
65
20
6f
66
20
53
79
73
74
65
6d
49
6e
66
6f
4c
4f
47
d
a
3
5
0
0
a
32
0
36
0
33
0
0
0
20
0
f
26
53
54
41
54
50
41
53
53
3d
42
50
41
53
53
10
ce
d7
41
87
c6
9f
ac
87
2
73
da
87
7a
9b
5f
87
a
43
4f
4e
4e
45
43
54
45
44
3e
3e
55
73
65
72
2d
41
67
65
6e
74
3a
20
4d
6f
7a
69
6c
6c
61
2f
34
2e
30
20
28
63
6f
6d
70
61
74
69
62
6c
65
3b
20
4d
53
49
45
20
35
2e
30
3b
20
57
69
6e
64
6f
77
73
20
4e
54
20
35
2e
30
29
a
32
0
33
0
36
0
0
0
20
0
3
2f
33
2f
7
50
41
53
53
2d
4f
4e
a
47
48
7a
d
cd
e2
cd
f8
d
20
17
2f
73
74
61
72
67
61
6c
61
78
79
2e
70
68
70
3f
6e
65
62
75
6c
61
3d
a
0
0
0
57
69
6e
64
6f
77
73
12
2f
50
6f
73
74
2e
50
68
70
3f
55
73
65
72
4e
61
6d
65
c
ba
da
c2
f3
cd
f8
c2
e7
44
44
4f
53
b
2f
74
65
73
74
69
2e
6a
6e
6c
70
1e
67
65
74
45
6c
65
6d
65
6e
74
73
42
79
54
61
67
4e
61
6d
65
28
22
68
67
72
6f
75
70
22
29
18
70
78
27
3b
65
6c
65
6d
65
6e
74
2e
73
74
79
6c
65
2e
74
6f
70
3d
27
2d
5
58
59
54
76
6e
6
48
45
4c
4c
4f
a
e
43
6f
6f
6b
69
65
3a
20
63
61
74
69
64
3d
f
4a
4f
49
4e
20
23
62
69
7a
20
61
62
63
d
a
12
55
53
45
52
20
44
49
58
20
30
20
2a
20
3a
20
44
49
58
a
47
48
7a
d
c4
da
cd
f8
d
20
a
47
48
7a
d
ce
b4
d6
aa
d
20
4
2e
6d
6b
76
17
5f
30
64
61
79
32
5f
66
6c
61
c
4d
61
69
6e
54
69
6d
65
6c
69
6e
65
8
20
0
5
0
0
0
6
0
34
55
73
65
72
2d
41
67
65
6e
74
3a
20
4d
6f
7a
69
6c
6c
61
35
2e
31
20
28
63
6f
6d
70
61
74
69
62
6c
65
3b
20
4d
53
49
45
20
38
2e
30
3b
20
57
69
6e
33
32
29
27
48
0
50
0
20
0
4f
0
70
0
65
0
6e
0
56
0
69
0
65
0
77
0
20
0
4f
0
6d
0
6e
0
69
0
42
0
61
0
63
0
6b
e
3c
2f
74
69
74
6c
65
3e
3c
62
6f
64
79
3e
a
2f
73
74
61
74
3f
75
69
64
3d
a
32
0
36
0
35
0
0
0
20
0
8
3c
7c
49
6e
66
6f
7c
3e
c
0
5
f3
dd
0
0
0
2
0
0
0
6
c
31
0
30
0
39
0
32
0
0
0
20
0
3
75
72
0
a
32
0
31
0
36
0
0
0
20
0
c
31
0
30
0
39
0
31
0
0
0
20
0
a
32
0
33
0
35
0
0
0
20
0
6
50
43
52
61
74
64
9
66
69
6c
65
6e
61
6d
65
3d
14
4b
65
79
20
6c
6f
67
67
65
72
20
69
73
20
6e
6f
77
20
6f
6e
7
0
0
64
1c
1
0
0
13
55
73
65
72
2d
41
67
65
6e
74
3a
20
54
72
65
63
6b
d
a
14
ff
ff
ff
ff
c2
1f
96
9b
5f
3
d3
3d
43
e0
4f
8f
13
6e
76
82
a
32
0
32
0
37
0
0
0
20
0
a
32
0
34
0
33
0
0
0
20
0
3
2f
33
2f
a
f4
1
0
0
32
0
0
0
e8
3
10
5d
0
20
0
68
0
69
0
6b
0
69
0
74
0
3e
0
b
2f
70
75
62
6c
69
63
6b
65
79
2f
12
56
45
52
3a
47
48
4f
53
54
20
56
45
52
53
49
4f
4e
20
15
55
73
65
72
2d
41
67
65
6e
74
3a
20
49
6e
73
74
61
6c
6c
d
a
7
55
50
44
41
54
45
7c
a
32
0
31
0
35
0
0
0
20
0
a
32
0
33
0
34
0
0
0
20
0
a
33
0
30
0
35
0
0
0
20
0
b
21
64
6c
20
68
74
74
70
3a
2f
2f
3
5
0
0
a
32
0
31
0
31
0
0
0
20
0
b
2d
72
77
78
72
2d
78
72
2d
78
20
14
11
0
0
0
bd
b4
e8
be
b6
75
9c
a0
80
44
8b
eb
82
8b
a3
93
a
32
0
35
0
39
0
0
0
20
0
a
32
0
35
0
37
0
0
0
20
0
a
32
0
31
0
34
0
0
0
20
0
9
47
45
54
20
2f
33
30
31
30
7
3a
62
70
61
73
73
a
c
0
5
f3
d9
0
0
0
5
0
0
0
9
a
1f
8b
8
0
0
0
0
0
0
0
6
52
45
41
44
59
a
7
49
4e
46
45
43
54
7c
10
f6
f6
f6
f6
f6
f6
f6
f6
f6
f6
f6
f6
f6
f6
f6
f6
e
4a
4f
49
4e
20
23
6e
20
6a
6f
62
73
d
a
5
2e
64
6a
76
75
b
7c
4d
69
63
72
6f
73
6f
66
74
20
a
4f
6e
43
6f
6e
6e
65
63
74
7c
c
14
0
0
0
2
0
14
20
2
5
5
0
a
32
0
36
0
30
0
0
0
20
0
c
53
45
52
56
49
43
45
20
50
41
43
4b
e
53
65
72
76
65
72
3a
20
53
74
61
6c
69
6e
32
4a
4f
49
4e
20
23
74
65
73
74
31
20
7c
d
a
4a
4f
49
4e
20
23
74
65
73
74
32
20
7c
d
a
4a
4f
49
4e
20
23
74
65
73
74
33
20
28
6e
75
6c
6c
29
d
a
9
7c
57
69
6e
64
6f
77
73
20
a
32
0
31
0
39
0
0
0
20
0
10
4a
4f
49
4e
20
23
23
33
76
69
6c
20
6e
33
74
21
a
47
48
7a
d
b4
fa
c0
ed
d
20
f
26
73
74
61
74
70
61
73
73
3d
62
70
61
73
73
9
66
69
6c
65
3a
2f
2f
5c
5c
9
2f
67
61
74
65
2e
70
68
70
10
69
6e
73
64
62
2e
70
68
70
3f
74
61
62
6c
65
3d
9
2f
67
61
74
65
2e
70
68
70
c
2f
74
2f
64
32
68
73
64
57
46
33
4f
47
55
73
65
72
2d
41
67
65
6e
74
3a
20
4d
6f
7a
69
6c
6c
61
2f
35
2e
30
20
28
57
69
6e
64
6f
77
73
3b
20
55
3b
20
4d
53
49
45
20
39
2e
30
3b
20
57
69
6e
64
6f
77
73
20
4e
54
20
39
2e
30
3b
20
65
6e
2d
55
53
29
d
a
29
55
73
65
72
2d
41
67
65
6e
74
3a
20
4d
69
63
72
6f
73
6f
66
74
20
49
6e
74
65
72
6e
65
74
20
45
78
70
6c
6f
72
65
72
d
a
20
55
73
65
72
2d
41
67
65
6e
74
3a
20
55
70
64
61
74
65
73
20
64
6f
77
6e
6c
6f
61
64
65
72
d
a
5
47
68
30
73
74
20
93
aa
0
8a
1b
4f
47
c0
93
aa
0
8a
1b
4f
47
c0
93
aa
0
8a
1b
4f
47
c0
93
aa
0
8a
1b
4f
47
c0
d
21
2a
20
53
43
41
4e
4e
45
52
20
4f
4e
f
22
29
3b
a
d
a
3c
2f
73
63
72
69
70
74
3e
4
30
30
37
72
c
50
41
53
53
20
73
75
31
63
31
64
33
a
42
55
49
4c
44
20
58
38
36
a
7
67
65
74
6d
65
d
a
2a
0
28
42
37
41
30
33
41
34
32
37
32
44
39
36
34
42
32
43
30
35
38
39
37
43
39
32
37
33
31
38
34
37
37
36
43
39
46
35
32
36
45
8
50
41
53
53
2d
4f
4e
30
5
48
65
61
72
74
a
32
0
31
0
31
0
0
0
20
0
6
52
45
41
44
44
a
6
4d
58
74
66
33
54
e
55
53
45
52
20
41
53
5f
20
23
20
23
20
3a
a
32
0
36
0
34
0
0
0
20
0
12
77
1
0
e9
3
e9
3
0
0
0
0
0
0
3
0
0
0
d
15
2a
2f
61
64
76
3d
27
4f
72
62
69
74
57
68
69
74
65
27
2f
2a
20
3e
55
73
65
72
2d
41
67
65
6e
74
3a
20
4d
6f
7a
69
6c
6c
61
2f
34
2e
30
20
28
63
6f
6d
70
61
74
69
62
6c
65
3b
20
4d
53
49
45
20
35
2e
30
3b
20
57
69
6e
64
6f
77
73
20
4e
54
20
35
2e
30
29
14
3f
54
3d
6d
61
63
68
69
6e
65
69
6e
66
6f
26
26
4b
65
79
3d
d
48
4f
52
53
45
5f
41
53
53
45
52
54
21
5
70
69
6e
67
7c
4
0
5
f3
d9
1f
4f
70
65
72
61
74
69
6e
67
20
53
79
73
74
65
6d
20
49
6e
74
65
6c
20
52
65
63
6f
76
65
72
79
14
50
4f
53
54
20
2f
77
72
69
74
65
20
48
54
54
50
2f
31
2e
31
2a
0
28
45
33
41
38
38
30
39
30
31
37
44
44
37
36
42
44
32
36
35
35
37
41
35
42
39
32
33
41
42
32
41
45
31
36
43
30
43
44
42
33
12
50
43
5f
41
63
74
69
76
65
5f
54
69
6d
65
2e
74
78
74
a
32
0
31
0
30
0
0
0
20
0
e
78
5f
4d
2
64
19
1a
fa
8b
56
9f
51
de
7c
a
32
0
30
0
37
0
0
0
20
0
7
5b
74
8
4d
9b
39
c1
f
4a
4f
49
4e
20
23
72
61
70
65
20
61
6e
61
6c
1c
d
a
4c
6f
67
66
69
6c
65
20
6f
66
20
53
79
73
74
65
6d
49
6e
66
6f
4c
4f
47
d
a
3
5
0
0
a
32
0
36
0
33
0
0
0
20
0
f
26
53
54
41
54
50
41
53
53
3d
42
50
41
53
53
10
ce
d7
41
87
c6
9f
ac
87
2
73
da
87
7a
9b
5f
87
a
43
4f
4e
4e
45
43
54
45
44
3e
3e
55
73
65
72
2d
41
67
65
6e
74
3a
20
4d
6f
7a
69
6c
6c
61
2f
34
2e
30
20
28
63
6f
6d
70
61
74
69
62
6c
65
3b
20
4d
53
49
45
20
35
2e
30
3b
20
57
69
6e
64
6f
77
73
20
4e
54
20
35
2e
30
29
a
32
0
33
0
36
0
0
0
20
0
3
2f
33
2f
7
50
41
53
53
2d
4f
4e
a
47
48
7a
d
cd
e2
cd
f8
d
20
17
2f
73
74
61
72
67
61
6c
61
78
79
2e
70
68
70
3f
6e
65
62
75
6c
61
3d
a
0
0
0
57
69
6e
64
6f
77
73
12
2f
50
6f
73
74
2e
50
68
70
3f
55
73
65
72
4e
61
6d
65
c
ba
da
c2
f3
cd
f8
c2
e7
44
44
4f
53
b
2f
74
65
73
74
69
2e
6a
6e
6c
70
1e
67
65
74
45
6c
65
6d
65
6e
74
73
42
79
54
61
67
4e
61
6d
65
28
22
68
67
72
6f
75
70
22
29
18
70
78
27
3b
65
6c
65
6d
65
6e
74
2e
73
74
79
6c
65
2e
74
6f
70
3d
27
2d
5
58
59
54
76
6e
6
48
45
4c
4c
4f
a
e
43
6f
6f
6b
69
65
3a
20
63
61
74
69
64
3d
f
4a
4f
49
4e
20
23
62
69
7a
20
61
62
63
d
a
12
55
53
45
52
20
44
49
58
20
30
20
2a
20
3a
20
44
49
58
a
47
48
7a
d
c4
da
cd
f8
d
20
a
47
48
7a
d
ce
b4
d6
aa
d
20
4
2e
6d
6b
76
17
5f
30
64
61
79
32
5f
66
6c
61
c
4d
61
69
6e
54
69
6d
65
6c
69
6e
65
8
20
0
5
0
0
0
6
0
34
55
73
65
72
2d
41
67
65
6e
74
3a
20
4d
6f
7a
69
6c
6c
61
35
2e
31
20
28
63
6f
6d
70
61
74
69
62
6c
65
3b
20
4d
53
49
45
20
38
2e
30
3b
20
57
69
6e
33
32
29
27
48
0
50
0
20
0
4f
0
70
0
65
0
6e
0
56
0
69
0
65
0
77
0
20
0
4f
0
6d
0
6e
0
69
0
42
0
61
0
63
0
6b
e
3c
2f
74
69
74
6c
65
3e
3c
62
6f
64
79
3e
a
2f
73
74
61
74
3f
75
69
64
3d
a
32
0
36
0
35
0
0
0
20
0
8
3c
7c
49
6e
66
6f
7c
3e
c
0
5
f3
dd
0
0
0
2
0
0
0
6
c
31
0
30
0
39
0
32
0
0
0
20
0
3
75
72
0
a
32
0
31
0
36
0
0
0
20
0
c
31
0
30
0
39
0
31
0
0
0
20
0
a
32
0
33
0
35
0
0
0
20
0
6
50
43
52
61
74
64
9
66
69
6c
65
6e
61
6d
65
3d
14
4b
65
79
20
6c
6f
67
67
65
72
20
69
73
20
6e
6f
77
20
6f
6e
7
0
0
64
1c
1
0
0
13
55
73
65
72
2d
41
67
65
6e
74
3a
20
54
72
65
63
6b
d
a
14
ff
ff
ff
ff
c2
1f
96
9b
5f
3
d3
3d
43
e0
4f
8f
13
6e
76
82
a
32
0
32
0
37
0
0
0
20
0
a
32
0
34
0
33
0
0
0
20
0
3
2f
33
2f
a
f4
1
0
0
32
0
0
0
e8
3
10
5d
0
20
0
68
0
69
0
6b
0
69
0
74
0
3e
0
b
2f
70
75
62
6c
69
63
6b
65
79
2f
12
56
45
52
3a
47
48
4f
53
54
20
56
45
52
53
49
4f
4e
20
15
55
73
65
72
2d
41
67
65
6e
74
3a
20
49
6e
73
74
61
6c
6c
d
a
7
55
50
44
41
54
45
7c
a
32
0
31
0
35
0
0
0
20
0
a
32
0
33
0
34
0
0
0
20
0
a
33
0
30
0
35
0
0
0
20
0
b
21
64
6c
20
68
74
74
70
3a
2f
2f
3
5
0
0
a
32
0
31
0
31
0
0
0
20
0
b
2d
72
77
78
72
2d
78
72
2d
78
20
14
11
0
0
0
bd
b4
e8
be
b6
75
9c
a0
80
44
8b
eb
82
8b
a3
93
a
32
0
35
0
39
0
0
0
20
0
a
32
0
35
0
37
0
0
0
20
0
a
32
0
31
0
34
0
0
0
20
0
9
47
45
54
20
2f
33
30
31
30
7
3a
62
70
61
73
73
a
c
0
5
f3
d9
0
0
0
5
0
0
0
9
a
1f
8b
8
0
0
0
0
0
0
0
6
52
45
41
44
59
a
7
49
4e
46
45
43
54
7c
10
f6
f6
f6
f6
f6
f6
f6
f6
f6
f6
f6
f6
f6
f6
f6
f6
e
4a
4f
49
4e
20
23
6e
20
6a
6f
62
73
d
a
5
2e
64
6a
76
75
b
7c
4d
69
63
72
6f
73
6f
66
74
20
a
4f
6e
43
6f
6e
6e
65
63
74
7c
c
14
0
0
0
2
0
14
20
2
5
5
0
a
32
0
36
0
30
0
0
0
20
0
c
53
45
52
56
49
43
45
20
50
41
43
4b
e
53
65
72
76
65
72
3a
20
53
74
61
6c
69
6e
32
4a
4f
49
4e
20
23
74
65
73
74
31
20
7c
d
a
4a
4f
49
4e
20
23
74
65
73
74
32
20
7c
d
a
4a
4f
49
4e
20
23
74
65
73
74
33
20
28
6e
75
6c
6c
29
d
a
9
7c
57
69
6e
64
6f
77
73
20
a
32
0
31
0
39
0
0
0
20
0
10
4a
4f
49
4e
20
23
23
33
76
69
6c
20
6e
33
74
21
a
47
48
7a
d
b4
fa
c0
ed
d
20
f
26
73
74
61
74
70
61
73
73
3d
62
70
61
73
73
9
63
6f
6e
6e
65
63
74
65
64
6
63
6c
69
65
6e
74
9
2f
67
61
74
65
2e
70
68
70
10
69
6e
73
64
62
2e
70
68
70
3f
74
61
62
6c
65
3d
9
2f
67
61
74
65
2e
70
68
70
c
2f
74
2f
64
32
68
73
64
57
46
33
4f
47
55
73
65
72
2d
41
67
65
6e
74
3a
20
4d
6f
7a
69
6c
6c
61
2f
35
2e
30
20
28
57
69
6e
64
6f
77
73
3b
20
55
3b
20
4d
53
49
45
20
39
2e
30
3b
20
57
69
6e
64
6f
77
73
20
4e
54
20
39
2e
30
3b
20
65
6e
2d
55
53
29
d
a
29
55
73
65
72
2d
41
67
65
6e
74
3a
20
4d
69
63
72
6f
73
6f
66
74
20
49
6e
74
65
72
6e
65
74
20
45
78
70
6c
6f
72
65
72
d
a
20
55
73
65
72
2d
41
67
65
6e
74
3a
20
55
70
64
61
74
65
73
20
64
6f
77
6e
6c
6f
61
64
65
72
d
a
5
47
68
30
73
74
20
93
aa
0
8a
1b
4f
47
c0
93
aa
0
8a
1b
4f
47
c0
93
aa
0
8a
1b
4f
47
c0
93
aa
0
8a
1b
4f
47
c0
d
21
2a
20
53
43
41
4e
4e
45
52
20
4f
4e
f
22
29
3b
a
d
a
3c
2f
73
63
72
69
70
74
3e
4
30
30
37
72
c
50
41
53
53
20
73
75
31
63
31
64
33
a
42
55
49
4c
44
20
58
38
36
a
7
67
65
74
6d
65
d
a
2a
0
28
42
37
41
30
33
41
34
32
37
32
44
39
36
34
42
32
43
30
35
38
39
37
43
39
32
37
33
31
38
34
37
37
36
43
39
46
35
32
36
45
8
50
41
53
53
2d
4f
4e
30
5
48
65
61
72
74
a
32
0
31
0
31
0
0
0
20
0
6
52
45
41
44
44
a
6
4d
58
74
66
33
54
e
55
53
45
52
20
41
53
5f
20
23
20
23
20
3a
a
32
0
36
0
34
0
0
0
20
0
12
77
1
0
e9
3
e9
3
0
0
0
0
0
0
3
0
0
0
d
15
2a
2f
61
64
76
3d
27
4f
72
62
69
74
57
68
69
74
65
27
2f
2a
20
3e
55
73
65
72
2d
41
67
65
6e
74
3a
20
4d
6f
7a
69
6c
6c
61
2f
34
2e
30
20
28
63
6f
6d
70
61
74
69
62
6c
65
3b
20
4d
53
49
45
20
35
2e
30
3b
20
57
69
6e
64
6f
77
73
20
4e
54
20
35
2e
30
29
14
3f
54
3d
6d
61
63
68
69
6e
65
69
6e
66
6f
26
26
4b
65
79
3d
d
48
4f
52
53
45
5f
41
53
53
45
52
54
21
5
70
69
6e
67
7c
4
0
5
f3
d9
1f
4f
70
65
72
61
74
69
6e
67
20
53
79
73
74
65
6d
20
49
6e
74
65
6c
20
52
65
63
6f
76
65
72
79
14
50
4f
53
54
20
2f
77
72
69
74
65
20
48
54
54
50
2f
31
2e
31
2a
0
28
45
33
41
38
38
30
39
30
31
37
44
44
37
36
42
44
32
36
35
35
37
41
35
42
39
32
33
41
42
32
41
45
31
36
43
30
43
44
42
33
12
50
43
5f
41
63
74
69
76
65
5f
54
69
6d
65
2e
74
78
74
a
32
0
31
0
30
0
0
0
20
0
e
78
5f
4d
2
64
19
1a
fa
8b
56
9f
51
de
7c
a
32
0
30
0
37
0
0
0
20
0
7
5b
74
8
4d
9b
39
c1
f
4a
4f
49
4e
20
23
72
61
70
65
20
61
6e
61
6c
1c
d
a
4c
6f
67
66
69
6c
65
20
6f
66
20
53
79
73
74
65
6d
49
6e
66
6f
4c
4f
47
d
a
3
5
0
0
a
32
0
36
0
33
0
0
0
20
0
f
26
53
54
41
54
50
41
53
53
3d
42
50
41
53
53
10
ce
d7
41
87
c6
9f
ac
87
2
73
da
87
7a
9b
5f
87
a
43
4f
4e
4e
45
43
54
45
44
3e
3e
55
73
65
72
2d
41
67
65
6e
74
3a
20
4d
6f
7a
69
6c
6c
61
2f
34
2e
30
20
28
63
6f
6d
70
61
74
69
62
6c
65
3b
20
4d
53
49
45
20
35
2e
30
3b
20
57
69
6e
64
6f
77
73
20
4e
54
20
35
2e
30
29
a
32
0
33
0
36
0
0
0
20
0
3
2f
33
2f
7
50
41
53
53
2d
4f
4e
a
47
48
7a
d
cd
e2
cd
f8
d
20
17
2f
73
74
61
72
67
61
6c
61
78
79
2e
70
68
70
3f
6e
65
62
75
6c
61
3d
a
0
0
0
57
69
6e
64
6f
77
73
12
2f
50
6f
73
74
2e
50
68
70
3f
55
73
65
72
4e
61
6d
65
c
ba
da
c2
f3
cd
f8
c2
e7
44
44
4f
53
b
2f
74
65
73
74
69
2e
6a
6e
6c
70
1e
67
65
74
45
6c
65
6d
65
6e
74
73
42
79
54
61
67
4e
61
6d
65
28
22
68
67
72
6f
75
70
22
29
18
70
78
27
3b
65
6c
65
6d
65
6e
74
2e
73
74
79
6c
65
2e
74
6f
70
3d
27
2d
5
58
59
54
76
6e
6
48
45
4c
4c
4f
a
e
43
6f
6f
6b
69
65
3a
20
63
61
74
69
64
3d
f
4a
4f
49
4e
20
23
62
69
7a
20
61
62
63
d
a
12
55
53
45
52
20
44
49
58
20
30
20
2a
20
3a
20
44
49
58
a
47
48
7a
d
c4
da
cd
f8
d
20
a
47
48
7a
d
ce
b4
d6
aa
d
20
4
2e
6d
6b
76
17
5f
30
64
61
79
32
5f
66
6c
61
c
4d
61
69
6e
54
69
6d
65
6c
69
6e
65
8
20
0
5
0
0
0
6
0
34
55
73
65
72
2d
41
67
65
6e
74
3a
20
4d
6f
7a
69
6c
6c
61
35
2e
31
20
28
63
6f
6d
70
61
74
69
62
6c
65
3b
20
4d
53
49
45
20
38
2e
30
3b
20
57
69
6e
33
32
29
27
48
0
50
0
20
0
4f
0
70
0
65
0
6e
0
56
0
69
0
65
0
77
0
20
0
4f
0
6d
0
6e
0
69
0
42
0
61
0
63
0
6b
e
3c
2f
74
69
74
6c
65
3e
3c
62
6f
64
79
3e
a
2f
73
74
61
74
3f
75
69
64
3d
a
32
0
36
0
35
0
0
0
20
0
8
3c
7c
49
6e
66
6f
7c
3e
c
0
5
f3
dd
0
0
0
2
0
0
0
6
c
31
0
30
0
39
0
32
0
0
0
20
0
3
75
72
0
a
32
0
31
0
36
0
0
0
20
0
c
31
0
30
0
39
0
31
0
0
0
20
0
a
32
0
33
0
35
0
0
0
20
0
6
50
43
52
61
74
64
9
66
69
6c
65
6e
61
6d
65
3d
14
4b
65
79
20
6c
6f
67
67
65
72
20
69
73
20
6e
6f
77
20
6f
6e
7
0
0
64
1c
1
0
0
13
55
73
65
72
2d
41
67
65
6e
74
3a
20
54
72
65
63
6b
d
a
14
ff
ff
ff
ff
c2
1f
96
9b
5f
3
d3
3d
43
e0
4f
8f
13
6e
76
82
a
32
0
32
0
37
0
0
0
20
0
a
32
0
34
0
33
0
0
0
20
0
3
2f
33
2f
a
f4
1
0
0
32
0
0
0
e8
3
10
5d
0
20
0
68
0
69
0
6b
0
69
0
74
0
3e
0
b
2f
70
75
62
6c
69
63
6b
65
79
2f
12
56
45
52
3a
47
48
4f
53
54
20
56
45
52
53
49
4f
4e
20
15
55
73
65
72
2d
41
67
65
6e
74
3a
20
49
6e
73
74
61
6c
6c
d
a
7
55
50
44
41
54
45
7c
a
32
0
31
0
35
0
0
0
20
0
a
32
0
33
0
34
0
0
0
20
0
a
33
0
30
0
35
0
0
0
20
0
b
21
64
6c
20
68
74
74
70
3a
2f
2f
3
5
0
0
a
32
0
31
0
31
0
0
0
20
0
b
2d
72
77
78
72
2d
78
72
2d
78
20
14
11
0
0
0
bd
b4
e8
be
b6
75
9c
a0
80
44
8b
eb
82
8b
a3
93
a
32
0
35
0
39
0
0
0
20
0
a
32
0
35
0
37
0
0
0
20
0
a
32
0
31
0
34
0
0
0
20
0
9
47
45
54
20
2f
33
30
31
30
7
3a
62
70
61
73
73
a
c
0
5
f3
d9
0
0
0
5
0
0
0
9
a
1f
8b
8
0
0
0
0
0
0
0
6
52
45
41
44
59
a
7
49
4e
46
45
43
54
7c
10
f6
f6
f6
f6
f6
f6
f6
f6
f6
f6
f6
f6
f6
f6
f6
f6
e
4a
4f
49
4e
20
23
6e
20
6a
6f
62
73
d
a
5
2e
64
6a
76
75
b
7c
4d
69
63
72
6f
73
6f
66
74
20
a
4f
6e
43
6f
6e
6e
65
63
74
7c
c
14
0
0
0
2
0
14
20
2
5
5
0
a
32
0
36
0
30
0
0
0
20
0
c
53
45
52
56
49
43
45
20
50
41
43
4b
e
53
65
72
76
65
72
3a
20
53
74
61
6c
69
6e
32
4a
4f
49
4e
20
23
74
65
73
74
31
20
7c
d
a
4a
4f
49
4e
20
23
74
65
73
74
32
20
7c
d
a
4a
4f
49
4e
20
23
74
65
73
74
33
20
28
6e
75
6c
6c
29
d
a
9
7c
57
69
6e
64
6f
77
73
20
a
32
0
31
0
39
0
0
0
20
0
10
4a
4f
49
4e
20
23
23
33
76
69
6c
20
6e
33
74
21
a
47
48
7a
d
b4
fa
c0
ed
d
20
f
26
73
74
61
74
70
61
73
73
3d
62
70
61
73
73
37
3c
64
69
76
20
69
64
3d
22
73
69
6e
61
5f
6b
65
79
77
6f
72
64
5f
61
64
5f
61
72
65
61
32
22
20
63
6c
61
73
73
3d
22
61
72
74
69
63
61
6c
43
6f
6e
74
65
6e
74
22
3e
9
2f
67
61
74
65
2e
70
68
70
10
69
6e
73
64
62
2e
70
68
70
3f
74
61
62
6c
65
3d
9
2f
67
61
74
65
2e
70
68
70
c
2f
74
2f
64
32
68
73
64
57
46
33
4f
47
55
73
65
72
2d
41
67
65
6e
74
3a
20
4d
6f
7a
69
6c
6c
61
2f
35
2e
30
20
28
57
69
6e
64
6f
77
73
3b
20
55
3b
20
4d
53
49
45
20
39
2e
30
3b
20
57
69
6e
64
6f
77
73
20
4e
54
20
39
2e
30
3b
20
65
6e
2d
55
53
29
d
a
29
55
73
65
72
2d
41
67
65
6e
74
3a
20
4d
69
63
72
6f
73
6f
66
74
20
49
6e
74
65
72
6e
65
74
20
45
78
70
6c
6f
72
65
72
d
a
20
55
73
65
72
2d
41
67
65
6e
74
3a
20
55
70
64
61
74
65
73
20
64
6f
77
6e
6c
6f
61
64
65
72
d
a
5
47
68
30
73
74
20
93
aa
0
8a
1b
4f
47
c0
93
aa
0
8a
1b
4f
47
c0
93
aa
0
8a
1b
4f
47
c0
93
aa
0
8a
1b
4f
47
c0
d
21
2a
20
53
43
41
4e
4e
45
52
20
4f
4e
f
22
29
3b
a
d
a
3c
2f
73
63
72
69
70
74
3e
4
30
30
37
72
c
50
41
53
53
20
73
75
31
63
31
64
33
a
42
55
49
4c
44
20
58
38
36
a
7
67
65
74
6d
65
d
a
2a
0
28
42
37
41
30
33
41
34
32
37
32
44
39
36
34
42
32
43
30
35
38
39
37
43
39
32
37
33
31
38
34
37
37
36
43
39
46
35
32
36
45
8
50
41
53
53
2d
4f
4e
30
5
48
65
61
72
74
a
32
0
31
0
31
0
0
0
20
0
6
52
45
41
44
44
a
6
4d
58
74
66
33
54
e
55
53
45
52
20
41
53
5f
20
23
20
23
20
3a
a
32
0
36
0
34
0
0
0
20
0
12
77
1
0
e9
3
e9
3
0
0
0
0
0
0
3
0
0
0
d
15
2a
2f
61
64
76
3d
27
4f
72
62
69
74
57
68
69
74
65
27
2f
2a
20
3e
55
73
65
72
2d
41
67
65
6e
74
3a
20
4d
6f
7a
69
6c
6c
61
2f
34
2e
30
20
28
63
6f
6d
70
61
74
69
62
6c
65
3b
20
4d
53
49
45
20
35
2e
30
3b
20
57
69
6e
64
6f
77
73
20
4e
54
20
35
2e
30
29
14
3f
54
3d
6d
61
63
68
69
6e
65
69
6e
66
6f
26
26
4b
65
79
3d
d
48
4f
52
53
45
5f
41
53
53
45
52
54
21
5
70
69
6e
67
7c
4
0
5
f3
d9
1f
4f
70
65
72
61
74
69
6e
67
20
53
79
73
74
65
6d
20
49
6e
74
65
6c
20
52
65
63
6f
76
65
72
79
14
50
4f
53
54
20
2f
77
72
69
74
65
20
48
54
54
50
2f
31
2e
31
2a
0
28
45
33
41
38
38
30
39
30
31
37
44
44
37
36
42
44
32
36
35
35
37
41
35
42
39
32
33
41
42
32
41
45
31
36
43
30
43
44
42
33
12
50
43
5f
41
63
74
69
76
65
5f
54
69
6d
65
2e
74
78
74
a
32
0
31
0
30
0
0
0
20
0
e
78
5f
4d
2
64
19
1a
fa
8b
56
9f
51
de
7c
a
32
0
30
0
37
0
0
0
20
0
7
5b
74
8
4d
9b
39
c1
f
4a
4f
49
4e
20
23
72
61
70
65
20
61
6e
61
6c
1c
d
a
4c
6f
67
66
69
6c
65
20
6f
66
20
53
79
73
74
65
6d
49
6e
66
6f
4c
4f
47
d
a
3
5
0
0
a
32
0
36
0
33
0
0
0
20
0
f
26
53
54
41
54
50
41
53
53
3d
42
50
41
53
53
10
ce
d7
41
87
c6
9f
ac
87
2
73
da
87
7a
9b
5f
87
a
43
4f
4e
4e
45
43
54
45
44
3e
3e
55
73
65
72
2d
41
67
65
6e
74
3a
20
4d
6f
7a
69
6c
6c
61
2f
34
2e
30
20
28
63
6f
6d
70
61
74
69
62
6c
65
3b
20
4d
53
49
45
20
35
2e
30
3b
20
57
69
6e
64
6f
77
73
20
4e
54
20
35
2e
30
29
a
32
0
33
0
36
0
0
0
20
0
3
2f
33
2f
7
50
41
53
53
2d
4f
4e
a
47
48
7a
d
cd
e2
cd
f8
d
20
17
2f
73
74
61
72
67
61
6c
61
78
79
2e
70
68
70
3f
6e
65
62
75
6c
61
3d
a
0
0
0
57
69
6e
64
6f
77
73
12
2f
50
6f
73
74
2e
50
68
70
3f
55
73
65
72
4e
61
6d
65
c
ba
da
c2
f3
cd
f8
c2
e7
44
44
4f
53
b
2f
74
65
73
74
69
2e
6a
6e
6c
70
1e
67
65
74
45
6c
65
6d
65
6e
74
73
42
79
54
61
67
4e
61
6d
65
28
22
68
67
72
6f
75
70
22
29
18
70
78
27
3b
65
6c
65
6d
65
6e
74
2e
73
74
79
6c
65
2e
74
6f
70
3d
27
2d
5
58
59
54
76
6e
6
48
45
4c
4c
4f
a
e
43
6f
6f
6b
69
65
3a
20
63
61
74
69
64
3d
f
4a
4f
49
4e
20
23
62
69
7a
20
61
62
63
d
a
12
55
53
45
52
20
44
49
58
20
30
20
2a
20
3a
20
44
49
58
a
47
48
7a
d
c4
da
cd
f8
d
20
a
47
48
7a
d
ce
b4
d6
aa
d
20
4
2e
6d
6b
76
17
5f
30
64
61
79
32
5f
66
6c
61
c
4d
61
69
6e
54
69
6d
65
6c
69
6e
65
8
20
0
5
0
0
0
6
0
34
55
73
65
72
2d
41
67
65
6e
74
3a
20
4d
6f
7a
69
6c
6c
61
35
2e
31
20
28
63
6f
6d
70
61
74
69
62
6c
65
3b
20
4d
53
49
45
20
38
2e
30
3b
20
57
69
6e
33
32
29
27
48
0
50
0
20
0
4f
0
70
0
65
0
6e
0
56
0
69
0
65
0
77
0
20
0
4f
0
6d
0
6e
0
69
0
42
0
61
0
63
0
6b
e
3c
2f
74
69
74
6c
65
3e
3c
62
6f
64
79
3e
a
2f
73
74
61
74
3f
75
69
64
3d
a
32
0
36
0
35
0
0
0
20
0
8
3c
7c
49
6e
66
6f
7c
3e
c
0
5
f3
dd
0
0
0
2
0
0
0
6
c
31
0
30
0
39
0
32
0
0
0
20
0
3
75
72
0
a
32
0
31
0
36
0
0
0
20
0
c
31
0
30
0
39
0
31
0
0
0
20
0
a
32
0
33
0
35
0
0
0
20
0
6
50
43
52
61
74
64
9
66
69
6c
65
6e
61
6d
65
3d
14
4b
65
79
20
6c
6f
67
67
65
72
20
69
73
20
6e
6f
77
20
6f
6e
7
0
0
64
1c
1
0
0
13
55
73
65
72
2d
41
67
65
6e
74
3a
20
54
72
65
63
6b
d
a
14
ff
ff
ff
ff
c2
1f
96
9b
5f
3
d3
3d
43
e0
4f
8f
13
6e
76
82
a
32
0
32
0
37
0
0
0
20
0
a
32
0
34
0
33
0
0
0
20
0
3
2f
33
2f
a
f4
1
0
0
32
0
0
0
e8
3
10
5d
0
20
0
68
0
69
0
6b
0
69
0
74
0
3e
0
b
2f
70
75
62
6c
69
63
6b
65
79
2f
12
56
45
52
3a
47
48
4f
53
54
20
56
45
52
53
49
4f
4e
20
15
55
73
65
72
2d
41
67
65
6e
74
3a
20
49
6e
73
74
61
6c
6c
d
a
7
55
50
44
41
54
45
7c
a
32
0
31
0
35
0
0
0
20
0
a
32
0
33
0
34
0
0
0
20
0
a
33
0
30
0
35
0
0
0
20
0
b
21
64
6c
20
68
74
74
70
3a
2f
2f
3
5
0
0
a
32
0
31
0
31
0
0
0
20
0
b
2d
72
77
78
72
2d
78
72
2d
78
20
14
11
0
0
0
bd
b4
e8
be
b6
75
9c
a0
80
44
8b
eb
82
8b
a3
93
a
32
0
35
0
39
0
0
0
20
0
a
32
0
35
0
37
0
0
0
20
0
a
32
0
31
0
34
0
0
0
20
0
9
47
45
54
20
2f
33
30
31
30
7
3a
62
70
61
73
73
a
c
0
5
f3
d9
0
0
0
5
0
0
0
9
a
1f
8b
8
0
0
0
0
0
0
0
6
52
45
41
44
59
a
7
49
4e
46
45
43
54
7c
10
f6
f6
f6
f6
f6
f6
f6
f6
f6
f6
f6
f6
f6
f6
f6
f6
e
4a
4f
49
4e
20
23
6e
20
6a
6f
62
73
d
a
5
2e
64
6a
76
75
b
7c
4d
69
63
72
6f
73
6f
66
74
20
a
4f
6e
43
6f
6e
6e
65
63
74
7c
c
14
0
0
0
2
0
14
20
2
5
5
0
a
32
0
36
0
30
0
0
0
20
0
c
53
45
52
56
49
43
45
20
50
41
43
4b
e
53
65
72
76
65
72
3a
20
53
74
61
6c
69
6e
32
4a
4f
49
4e
20
23
74
65
73
74
31
20
7c
d
a
4a
4f
49
4e
20
23
74
65
73
74
32
20
7c
d
a
4a
4f
49
4e
20
23
74
65
73
74
33
20
28
6e
75
6c
6c
29
d
a
9
7c
57
69
6e
64
6f
77
73
20
a
32
0
31
0
39
0
0
0
20
0
10
4a
4f
49
4e
20
23
23
33
76
69
6c
20
6e
33
74
21
a
47
48
7a
d
b4
fa
c0
ed
d
20
f
26
73
74
61
74
70
61
73
73
3d
62
70
61
73
73
16
4f
4b
0
31
0
41
46
26
41
59
0
50
49
4e
47
5f
0
21
28
43
29
23
9
2f
67
61
74
65
2e
70
68
70
10
69
6e
73
64
62
2e
70
68
70
3f
74
61
62
6c
65
3d
9
2f
67
61
74
65
2e
70
68
70
c
2f
74
2f
64
32
68
73
64
57
46
33
4f
47
55
73
65
72
2d
41
67
65
6e
74
3a
20
4d
6f
7a
69
6c
6c
61
2f
35
2e
30
20
28
57
69
6e
64
6f
77
73
3b
20
55
3b
20
4d
53
49
45
20
39
2e
30
3b
20
57
69
6e
64
6f
77
73
20
4e
54
20
39
2e
30
3b
20
65
6e
2d
55
53
29
d
a
29
55
73
65
72
2d
41
67
65
6e
74
3a
20
4d
69
63
72
6f
73
6f
66
74
20
49
6e
74
65
72
6e
65
74
20
45
78
70
6c
6f
72
65
72
d
a
20
55
73
65
72
2d
41
67
65
6e
74
3a
20
55
70
64
61
74
65
73
20
64
6f
77
6e
6c
6f
61
64
65
72
d
a
5
47
68
30
73
74
20
93
aa
0
8a
1b
4f
47
c0
93
aa
0
8a
1b
4f
47
c0
93
aa
0
8a
1b
4f
47
c0
93
aa
0
8a
1b
4f
47
c0
d
21
2a
20
53
43
41
4e
4e
45
52
20
4f
4e
f
22
29
3b
a
d
a
3c
2f
73
63
72
69
70
74
3e
4
30
30
37
72
c
50
41
53
53
20
73
75
31
63
31
64
33
a
42
55
49
4c
44
20
58
38
36
a
7
67
65
74
6d
65
d
a
2a
0
28
42
37
41
30
33
41
34
32
37
32
44
39
36
34
42
32
43
30
35
38
39
37
43
39
32
37
33
31
38
34
37
37
36
43
39
46
35
32
36
45
8
50
41
53
53
2d
4f
4e
30
5
48
65
61
72
74
a
32
0
31
0
31
0
0
0
20
0
6
52
45
41
44
44
a
6
4d
58
74
66
33
54
e
55
53
45
52
20
41
53
5f
20
23
20
23
20
3a
a
32
0
36
0
34
0
0
0
20
0
12
77
1
0
e9
3
e9
3
0
0
0
0
0
0
3
0
0
0
d
15
2a
2f
61
64
76
3d
27
4f
72
62
69
74
57
68
69
74
65
27
2f
2a
20
3e
55
73
65
72
2d
41
67
65
6e
74
3a
20
4d
6f
7a
69
6c
6c
61
2f
34
2e
30
20
28
63
6f
6d
70
61
74
69
62
6c
65
3b
20
4d
53
49
45
20
35
2e
30
3b
20
57
69
6e
64
6f
77
73
20
4e
54
20
35
2e
30
29
14
3f
54
3d
6d
61
63
68
69
6e
65
69
6e
66
6f
26
26
4b
65
79
3d
d
48
4f
52
53
45
5f
41
53
53
45
52
54
21
5
70
69
6e
67
7c
4
0
5
f3
d9
1f
4f
70
65
72
61
74
69
6e
67
20
53
79
73
74
65
6d
20
49
6e
74
65
6c
20
52
65
63
6f
76
65
72
79
14
50
4f
53
54
20
2f
77
72
69
74
65
20
48
54
54
50
2f
31
2e
31
2a
0
28
45
33
41
38
38
30
39
30
31
37
44
44
37
36
42
44
32
36
35
35
37
41
35
42
39
32
33
41
42
32
41
45
31
36
43
30
43
44
42
33
12
50
43
5f
41
63
74
69
76
65
5f
54
69
6d
65
2e
74
78
74
a
32
0
31
0
30
0
0
0
20
0
e
78
5f
4d
2
64
19
1a
fa
8b
56
9f
51
de
7c
a
32
0
30
0
37
0
0
0
20
0
7
5b
74
8
4d
9b
39
c1
f
4a
4f
49
4e
20
23
72
61
70
65
20
61
6e
61
6c
1c
d
a
4c
6f
67
66
69
6c
65
20
6f
66
20
53
79
73
74
65
6d
49
6e
66
6f
4c
4f
47
d
a
3
5
0
0
a
32
0
36
0
33
0
0
0
20
0
f
26
53
54
41
54
50
41
53
53
3d
42
50
41
53
53
10
ce
d7
41
87
c6
9f
ac
87
2
73
da
87
7a
9b
5f
87
a
43
4f
4e
4e
45
43
54
45
44
3e
3e
55
73
65
72
2d
41
67
65
6e
74
3a
20
4d
6f
7a
69
6c
6c
61
2f
34
2e
30
20
28
63
6f
6d
70
61
74
69
62
6c
65
3b
20
4d
53
49
45
20
35
2e
30
3b
20
57
69
6e
64
6f
77
73
20
4e
54
20
35
2e
30
29
a
32
0
33
0
36
0
0
0
20
0
3
2f
33
2f
7
50
41
53
53
2d
4f
4e
a
47
48
7a
d
cd
e2
cd
f8
d
20
17
2f
73
74
61
72
67
61
6c
61
78
79
2e
70
68
70
3f
6e
65
62
75
6c
61
3d
a
0
0
0
57
69
6e
64
6f
77
73
12
2f
50
6f
73
74
2e
50
68
70
3f
55
73
65
72
4e
61
6d
65
c
ba
da
c2
f3
cd
f8
c2
e7
44
44
4f
53
b
2f
74
65
73
74
69
2e
6a
6e
6c
70
1e
67
65
74
45
6c
65
6d
65
6e
74
73
42
79
54
61
67
4e
61
6d
65
28
22
68
67
72
6f
75
70
22
29
18
70
78
27
3b
65
6c
65
6d
65
6e
74
2e
73
74
79
6c
65
2e
74
6f
70
3d
27
2d
5
58
59
54
76
6e
6
48
45
4c
4c
4f
a
e
43
6f
6f
6b
69
65
3a
20
63
61
74
69
64
3d
f
4a
4f
49
4e
20
23
62
69
7a
20
61
62
63
d
a
12
55
53
45
52
20
44
49
58
20
30
20
2a
20
3a
20
44
49
58
a
47
48
7a
d
c4
da
cd
f8
d
20
a
47
48
7a
d
ce
b4
d6
aa
d
20
4
2e
6d
6b
76
17
5f
30
64
61
79
32
5f
66
6c
61
c
4d
61
69
6e
54
69
6d
65
6c
69
6e
65
8
20
0
5
0
0
0
6
0
34
55
73
65
72
2d
41
67
65
6e
74
3a
20
4d
6f
7a
69
6c
6c
61
35
2e
31
20
28
63
6f
6d
70
61
74
69
62
6c
65
3b
20
4d
53
49
45
20
38
2e
30
3b
20
57
69
6e
33
32
29
27
48
0
50
0
20
0
4f
0
70
0
65
0
6e
0
56
0
69
0
65
0
77
0
20
0
4f
0
6d
0
6e
0
69
0
42
0
61
0
63
0
6b
e
3c
2f
74
69
74
6c
65
3e
3c
62
6f
64
79
3e
a
2f
73
74
61
74
3f
75
69
64
3d
a
32
0
36
0
35
0
0
0
20
0
8
3c
7c
49
6e
66
6f
7c
3e
c
0
5
f3
dd
0
0
0
2
0
0
0
6
c
31
0
30
0
39
0
32
0
0
0
20
0
3
75
72
0
a
32
0
31
0
36
0
0
0
20
0
c
31
0
30
0
39
0
31
0
0
0
20
0
a
32
0
33
0
35
0
0
0
20
0
6
50
43
52
61
74
64
9
66
69
6c
65
6e
61
6d
65
3d
14
4b
65
79
20
6c
6f
67
67
65
72
20
69
73
20
6e
6f
77
20
6f
6e
7
0
0
64
1c
1
0
0
13
55
73
65
72
2d
41
67
65
6e
74
3a
20
54
72
65
63
6b
d
a
14
ff
ff
ff
ff
c2
1f
96
9b
5f
3
d3
3d
43
e0
4f
8f
13
6e
76
82
a
32
0
32
0
37
0
0
0
20
0
a
32
0
34
0
33
0
0
0
20
0
3
2f
33
2f
a
f4
1
0
0
32
0
0
0
e8
3
10
5d
0
20
0
68
0
69
0
6b
0
69
0
74
0
3e
0
b
2f
70
75
62
6c
69
63
6b
65
79
2f
12
56
45
52
3a
47
48
4f
53
54
20
56
45
52
53
49
4f
4e
20
15
55
73
65
72
2d
41
67
65
6e
74
3a
20
49
6e
73
74
61
6c
6c
d
a
7
55
50
44
41
54
45
7c
a
32
0
31
0
35
0
0
0
20
0
a
32
0
33
0
34
0
0
0
20
0
a
33
0
30
0
35
0
0
0
20
0
b
21
64
6c
20
68
74
74
70
3a
2f
2f
3
5
0
0
a
32
0
31
0
31
0
0
0
20
0
b
2d
72
77
78
72
2d
78
72
2d
78
20
14
11
0
0
0
bd
b4
e8
be
b6
75
9c
a0
80
44
8b
eb
82
8b
a3
93
a
32
0
35
0
39
0
0
0
20
0
a
32
0
35
0
37
0
0
0
20
0
a
32
0
31
0
34
0
0
0
20
0
9
47
45
54
20
2f
33
30
31
30
7
3a
62
70
61
73
73
a
c
0
5
f3
d9
0
0
0
5
0
0
0
9
a
1f
8b
8
0
0
0
0
0
0
0
6
52
45
41
44
59
a
7
49
4e
46
45
43
54
7c
10
f6
f6
f6
f6
f6
f6
f6
f6
f6
f6
f6
f6
f6
f6
f6
f6
e
4a
4f
49
4e
20
23
6e
20
6a
6f
62
73
d
a
5
2e
64
6a
76
75
b
7c
4d
69
63
72
6f
73
6f
66
74
20
a
4f
6e
43
6f
6e
6e
65
63
74
7c
c
14
0
0
0
2
0
14
20
2
5
5
0
a
32
0
36
0
30
0
0
0
20
0
c
53
45
52
56
49
43
45
20
50
41
43
4b
e
53
65
72
76
65
72
3a
20
53
74
61
6c
69
6e
32
4a
4f
49
4e
20
23
74
65
73
74
31
20
7c
d
a
4a
4f
49
4e
20
23
74
65
73
74
32
20
7c
d
a
4a
4f
49
4e
20
23
74
65
73
74
33
20
28
6e
75
6c
6c
29
d
a
9
7c
57
69
6e
64
6f
77
73
20
a
32
0
31
0
39
0
0
0
20
0
10
4a
4f
49
4e
20
23
23
33
76
69
6c
20
6e
33
74
21
a
47
48
7a
d
b4
fa
c0
ed
d
20
f
26
73
74
61
74
70
61
73
73
3d
62
70
61
73
73
c
54
55
48
41
4f
49
53
52
49
47
48
54
9
2f
67
61
74
65
2e
70
68
70
10
69
6e
73
64
62
2e
70
68
70
3f
74
61
62
6c
65
3d
9
2f
67
61
74
65
2e
70
68
70
c
2f
74
2f
64
32
68
73
64
57
46
33
4f
47
55
73
65
72
2d
41
67
65
6e
74
3a
20
4d
6f
7a
69
6c
6c
61
2f
35
2e
30
20
28
57
69
6e
64
6f
77
73
3b
20
55
3b
20
4d
53
49
45
20
39
2e
30
3b
20
57
69
6e
64
6f
77
73
20
4e
54
20
39
2e
30
3b
20
65
6e
2d
55
53
29
d
a
29
55
73
65
72
2d
41
67
65
6e
74
3a
20
4d
69
63
72
6f
73
6f
66
74
20
49
6e
74
65
72
6e
65
74
20
45
78
70
6c
6f
72
65
72
d
a
20
55
73
65
72
2d
41
67
65
6e
74
3a
20
55
70
64
61
74
65
73
20
64
6f
77
6e
6c
6f
61
64
65
72
d
a
5
47
68
30
73
74
20
93
aa
0
8a
1b
4f
47
c0
93
aa
0
8a
1b
4f
47
c0
93
aa
0
8a
1b
4f
47
c0
93
aa
0
8a
1b
4f
47
c0
d
21
2a
20
53
43
41
4e
4e
45
52
20
4f
4e
f
22
29
3b
a
d
a
3c
2f
73
63
72
69
70
74
3e
4
30
30
37
72
c
50
41
53
53
20
73
75
31
63
31
64
33
a
42
55
49
4c
44
20
58
38
36
a
7
67
65
74
6d
65
d
a
2a
0
28
42
37
41
30
33
41
34
32
37
32
44
39
36
34
42
32
43
30
35
38
39
37
43
39
32
37
33
31
38
34
37
37
36
43
39
46
35
32
36
45
8
50
41
53
53
2d
4f
4e
30
5
48
65
61
72
74
a
32
0
31
0
31
0
0
0
20
0
6
52
45
41
44
44
a
6
4d
58
74
66
33
54
e
55
53
45
52
20
41
53
5f
20
23
20
23
20
3a
a
32
0
36
0
34
0
0
0
20
0
12
77
1
0
e9
3
e9
3
0
0
0
0
0
0
3
0
0
0
d
15
2a
2f
61
64
76
3d
27
4f
72
62
69
74
57
68
69
74
65
27
2f
2a
20
3e
55
73
65
72
2d
41
67
65
6e
74
3a
20
4d
6f
7a
69
6c
6c
61
2f
34
2e
30
20
28
63
6f
6d
70
61
74
69
62
6c
65
3b
20
4d
53
49
45
20
35
2e
30
3b
20
57
69
6e
64
6f
77
73
20
4e
54
20
35
2e
30
29
14
3f
54
3d
6d
61
63
68
69
6e
65
69
6e
66
6f
26
26
4b
65
79
3d
d
48
4f
52
53
45
5f
41
53
53
45
52
54
21
5
70
69
6e
67
7c
4
0
5
f3
d9
1f
4f
70
65
72
61
74
69
6e
67
20
53
79
73
74
65
6d
20
49
6e
74
65
6c
20
52
65
63
6f
76
65
72
79
14
50
4f
53
54
20
2f
77
72
69
74
65
20
48
54
54
50
2f
31
2e
31
2a
0
28
45
33
41
38
38
30
39
30
31
37
44
44
37
36
42
44
32
36
35
35
37
41
35
42
39
32
33
41
42
32
41
45
31
36
43
30
43
44
42
33
12
50
43
5f
41
63
74
69
76
65
5f
54
69
6d
65
2e
74
78
74
a
32
0
31
0
30
0
0
0
20
0
e
78
5f
4d
2
64
19
1a
fa
8b
56
9f
51
de
7c
a
32
0
30
0
37
0
0
0
20
0
7
5b
74
8
4d
9b
39
c1
f
4a
4f
49
4e
20
23
72
61
70
65
20
61
6e
61
6c
1c
d
a
4c
6f
67
66
69
6c
65
20
6f
66
20
53
79
73
74
65
6d
49
6e
66
6f
4c
4f
47
d
a
3
5
0
0
a
32
0
36
0
33
0
0
0
20
0
f
26
53
54
41
54
50
41
53
53
3d
42
50
41
53
53
10
ce
d7
41
87
c6
9f
ac
87
2
73
da
87
7a
9b
5f
87
a
43
4f
4e
4e
45
43
54
45
44
3e
3e
55
73
65
72
2d
41
67
65
6e
74
3a
20
4d
6f
7a
69
6c
6c
61
2f
34
2e
30
20
28
63
6f
6d
70
61
74
69
62
6c
65
3b
20
4d
53
49
45
20
35
2e
30
3b
20
57
69
6e
64
6f
77
73
20
4e
54
20
35
2e
30
29
a
32
0
33
0
36
0
0
0
20
0
3
2f
33
2f
7
50
41
53
53
2d
4f
4e
a
47
48
7a
d
cd
e2
cd
f8
d
20
17
2f
73
74
61
72
67
61
6c
61
78
79
2e
70
68
70
3f
6e
65
62
75
6c
61
3d
a
0
0
0
57
69
6e
64
6f
77
73
12
2f
50
6f
73
74
2e
50
68
70
3f
55
73
65
72
4e
61
6d
65
c
ba
da
c2
f3
cd
f8
c2
e7
44
44
4f
53
b
2f
74
65
73
74
69
2e
6a
6e
6c
70
1e
67
65
74
45
6c
65
6d
65
6e
74
73
42
79
54
61
67
4e
61
6d
65
28
22
68
67
72
6f
75
70
22
29
18
70
78
27
3b
65
6c
65
6d
65
6e
74
2e
73
74
79
6c
65
2e
74
6f
70
3d
27
2d
5
58
59
54
76
6e
6
48
45
4c
4c
4f
a
e
43
6f
6f
6b
69
65
3a
20
63
61
74
69
64
3d
f
4a
4f
49
4e
20
23
62
69
7a
20
61
62
63
d
a
12
55
53
45
52
20
44
49
58
20
30
20
2a
20
3a
20
44
49
58
a
47
48
7a
d
c4
da
cd
f8
d
20
a
47
48
7a
d
ce
b4
d6
aa
d
20
4
2e
6d
6b
76
17
5f
30
64
61
79
32
5f
66
6c
61
c
4d
61
69
6e
54
69
6d
65
6c
69
6e
65
8
20
0
5
0
0
0
6
0
34
55
73
65
72
2d
41
67
65
6e
74
3a
20
4d
6f
7a
69
6c
6c
61
35
2e
31
20
28
63
6f
6d
70
61
74
69
62
6c
65
3b
20
4d
53
49
45
20
38
2e
30
3b
20
57
69
6e
33
32
29
27
48
0
50
0
20
0
4f
0
70
0
65
0
6e
0
56
0
69
0
65
0
77
0
20
0
4f
0
6d
0
6e
0
69
0
42
0
61
0
63
0
6b
e
3c
2f
74
69
74
6c
65
3e
3c
62
6f
64
79
3e
a
2f
73
74
61
74
3f
75
69
64
3d
a
32
0
36
0
35
0
0
0
20
0
8
3c
7c
49
6e
66
6f
7c
3e
c
0
5
f3
dd
0
0
0
2
0
0
0
6
c
31
0
30
0
39
0
32
0
0
0
20
0
3
75
72
0
a
32
0
31
0
36
0
0
0
20
0
c
31
0
30
0
39
0
31
0
0
0
20
0
a
32
0
33
0
35
0
0
0
20
0
6
50
43
52
61
74
64
9
66
69
6c
65
6e
61
6d
65
3d
14
4b
65
79
20
6c
6f
67
67
65
72
20
69
73
20
6e
6f
77
20
6f
6e
7
0
0
64
1c
1
0
0
13
55
73
65
72
2d
41
67
65
6e
74
3a
20
54
72
65
63
6b
d
a
14
ff
ff
ff
ff
c2
1f
96
9b
5f
3
d3
3d
43
e0
4f
8f
13
6e
76
82
a
32
0
32
0
37
0
0
0
20
0
a
32
0
34
0
33
0
0
0
20
0
3
2f
33
2f
a
f4
1
0
0
32
0
0
0
e8
3
10
5d
0
20
0
68
0
69
0
6b
0
69
0
74
0
3e
0
b
2f
70
75
62
6c
69
63
6b
65
79
2f
12
56
45
52
3a
47
48
4f
53
54
20
56
45
52
53
49
4f
4e
20
15
55
73
65
72
2d
41
67
65
6e
74
3a
20
49
6e
73
74
61
6c
6c
d
a
7
55
50
44
41
54
45
7c
a
32
0
31
0
35
0
0
0
20
0
a
32
0
33
0
34
0
0
0
20
0
a
33
0
30
0
35
0
0
0
20
0
b
21
64
6c
20
68
74
74
70
3a
2f
2f
3
5
0
0
a
32
0
31
0
31
0
0
0
20
0
b
2d
72
77
78
72
2d
78
72
2d
78
20
14
11
0
0
0
bd
b4
e8
be
b6
75
9c
a0
80
44
8b
eb
82
8b
a3
93
a
32
0
35
0
39
0
0
0
20
0
a
32
0
35
0
37
0
0
0
20
0
a
32
0
31
0
34
0
0
0
20
0
9
47
45
54
20
2f
33
30
31
30
7
3a
62
70
61
73
73
a
c
0
5
f3
d9
0
0
0
5
0
0
0
9
a
1f
8b
8
0
0
0
0
0
0
0
6
52
45
41
44
59
a
7
49
4e
46
45
43
54
7c
10
f6
f6
f6
f6
f6
f6
f6
f6
f6
f6
f6
f6
f6
f6
f6
f6
e
4a
4f
49
4e
20
23
6e
20
6a
6f
62
73
d
a
5
2e
64
6a
76
75
b
7c
4d
69
63
72
6f
73
6f
66
74
20
a
4f
6e
43
6f
6e
6e
65
63
74
7c
c
14
0
0
0
2
0
14
20
2
5
5
0
a
32
0
36
0
30
0
0
0
20
0
c
53
45
52
56
49
43
45
20
50
41
43
4b
e
53
65
72
76
65
72
3a
20
53
74
61
6c
69
6e
32
4a
4f
49
4e
20
23
74
65
73
74
31
20
7c
d
a
4a
4f
49
4e
20
23
74
65
73
74
32
20
7c
d
a
4a
4f
49
4e
20
23
74
65
73
74
33
20
28
6e
75
6c
6c
29
d
a
9
7c
57
69
6e
64
6f
77
73
20
a
32
0
31
0
39
0
0
0
20
0
10
4a
4f
49
4e
20
23
23
33
76
69
6c
20
6e
33
74
21
a
47
48
7a
d
b4
fa
c0
ed
d
20
f
26
73
74
61
74
70
61
73
73
3d
62
70
61
73
73
5
e8
d5
fd
ff
ff
9
2f
67
61
74
65
2e
70
68
70
10
69
6e
73
64
62
2e
70
68
70
3f
74
61
62
6c
65
3d
9
2f
67
61
74
65
2e
70
68
70
c
2f
74
2f
64
32
68
73
64
57
46
33
4f
47
55
73
65
72
2d
41
67
65
6e
74
3a
20
4d
6f
7a
69
6c
6c
61
2f
35
2e
30
20
28
57
69
6e
64
6f
77
73
3b
20
55
3b
20
4d
53
49
45
20
39
2e
30
3b
20
57
69
6e
64
6f
77
73
20
4e
54
20
39
2e
30
3b
20
65
6e
2d
55
53
29
d
a
29
55
73
65
72
2d
41
67
65
6e
74
3a
20
4d
69
63
72
6f
73
6f
66
74
20
49
6e
74
65
72
6e
65
74
20
45
78
70
6c
6f
72
65
72
d
a
20
55
73
65
72
2d
41
67
65
6e
74
3a
20
55
70
64
61
74
65
73
20
64
6f
77
6e
6c
6f
61
64
65
72
d
a
5
47
68
30
73
74
20
93
aa
0
8a
1b
4f
47
c0
93
aa
0
8a
1b
4f
47
c0
93
aa
0
8a
1b
4f
47
c0
93
aa
0
8a
1b
4f
47
c0
d
21
2a
20
53
43
41
4e
4e
45
52
20
4f
4e
f
22
29
3b
a
d
a
3c
2f
73
63
72
69
70
74
3e
4
30
30
37
72
c
50
41
53
53
20
73
75
31
63
31
64
33
a
42
55
49
4c
44
20
58
38
36
a
7
67
65
74
6d
65
d
a
2a
0
28
42
37
41
30
33
41
34
32
37
32
44
39
36
34
42
32
43
30
35
38
39
37
43
39
32
37
33
31
38
34
37
37
36
43
39
46
35
32
36
45
8
50
41
53
53
2d
4f
4e
30
5
48
65
61
72
74
a
32
0
31
0
31
0
0
0
20
0
6
52
45
41
44
44
a
6
4d
58
74
66
33
54
e
55
53
45
52
20
41
53
5f
20
23
20
23
20
3a
a
32
0
36
0
34
0
0
0
20
0
12
77
1
0
e9
3
e9
3
0
0
0
0
0
0
3
0
0
0
d
15
2a
2f
61
64
76
3d
27
4f
72
62
69
74
57
68
69
74
65
27
2f
2a
20
3e
55
73
65
72
2d
41
67
65
6e
74
3a
20
4d
6f
7a
69
6c
6c
61
2f
34
2e
30
20
28
63
6f
6d
70
61
74
69
62
6c
65
3b
20
4d
53
49
45
20
35
2e
30
3b
20
57
69
6e
64
6f
77
73
20
4e
54
20
35
2e
30
29
14
3f
54
3d
6d
61
63
68
69
6e
65
69
6e
66
6f
26
26
4b
65
79
3d
d
48
4f
52
53
45
5f
41
53
53
45
52
54
21
5
70
69
6e
67
7c
4
0
5
f3
d9
1f
4f
70
65
72
61
74
69
6e
67
20
53
79
73
74
65
6d
20
49
6e
74
65
6c
20
52
65
63
6f
76
65
72
79
14
50
4f
53
54
20
2f
77
72
69
74
65
20
48
54
54
50
2f
31
2e
31
2a
0
28
45
33
41
38
38
30
39
30
31
37
44
44
37
36
42
44
32
36
35
35
37
41
35
42
39
32
33
41
42
32
41
45
31
36
43
30
43
44
42
33
12
50
43
5f
41
63
74
69
76
65
5f
54
69
6d
65
2e
74
78
74
a
32
0
31
0
30
0
0
0
20
0
e
78
5f
4d
2
64
19
1a
fa
8b
56
9f
51
de
7c
a
32
0
30
0
37
0
0
0
20
0
7
5b
74
8
4d
9b
39
c1
f
4a
4f
49
4e
20
23
72
61
70
65
20
61
6e
61
6c
1c
d
a
4c
6f
67
66
69
6c
65
20
6f
66
20
53
79
73
74
65
6d
49
6e
66
6f
4c
4f
47
d
a
3
5
0
0
a
32
0
36
0
33
0
0
0
20
0
f
26
53
54
41
54
50
41
53
53
3d
42
50
41
53
53
10
ce
d7
41
87
c6
9f
ac
87
2
73
da
87
7a
9b
5f
87
a
43
4f
4e
4e
45
43
54
45
44
3e
3e
55
73
65
72
2d
41
67
65
6e
74
3a
20
4d
6f
7a
69
6c
6c
61
2f
34
2e
30
20
28
63
6f
6d
70
61
74
69
62
6c
65
3b
20
4d
53
49
45
20
35
2e
30
3b
20
57
69
6e
64
6f
77
73
20
4e
54
20
35
2e
30
29
a
32
0
33
0
36
0
0
0
20
0
3
2f
33
2f
7
50
41
53
53
2d
4f
4e
a
47
48
7a
d
cd
e2
cd
f8
d
20
17
2f
73
74
61
72
67
61
6c
61
78
79
2e
70
68
70
3f
6e
65
62
75
6c
61
3d
a
0
0
0
57
69
6e
64
6f
77
73
12
2f
50
6f
73
74
2e
50
68
70
3f
55
73
65
72
4e
61
6d
65
c
ba
da
c2
f3
cd
f8
c2
e7
44
44
4f
53
b
2f
74
65
73
74
69
2e
6a
6e
6c
70
1e
67
65
74
45
6c
65
6d
65
6e
74
73
42
79
54
61
67
4e
61
6d
65
28
22
68
67
72
6f
75
70
22
29
18
70
78
27
3b
65
6c
65
6d
65
6e
74
2e
73
74
79
6c
65
2e
74
6f
70
3d
27
2d
5
58
59
54
76
6e
6
48
45
4c
4c
4f
a
e
43
6f
6f
6b
69
65
3a
20
63
61
74
69
64
3d
f
4a
4f
49
4e
20
23
62
69
7a
20
61
62
63
d
a
12
55
53
45
52
20
44
49
58
20
30
20
2a
20
3a
20
44
49
58
a
47
48
7a
d
c4
da
cd
f8
d
20
a
47
48
7a
d
ce
b4
d6
aa
d
20
4
2e
6d
6b
76
17
5f
30
64
61
79
32
5f
66
6c
61
c
4d
61
69
6e
54
69
6d
65
6c
69
6e
65
8
20
0
5
0
0
0
6
0
34
55
73
65
72
2d
41
67
65
6e
74
3a
20
4d
6f
7a
69
6c
6c
61
35
2e
31
20
28
63
6f
6d
70
61
74
69
62
6c
65
3b
20
4d
53
49
45
20
38
2e
30
3b
20
57
69
6e
33
32
29
27
48
0
50
0
20
0
4f
0
70
0
65
0
6e
0
56
0
69
0
65
0
77
0
20
0
4f
0
6d
0
6e
0
69
0
42
0
61
0
63
0
6b
e
3c
2f
74
69
74
6c
65
3e
3c
62
6f
64
79
3e
a
2f
73
74
61
74
3f
75
69
64
3d
a
32
0
36
0
35
0
0
0
20
0
8
3c
7c
49
6e
66
6f
7c
3e
c
0
5
f3
dd
0
0
0
2
0
0
0
6
c
31
0
30
0
39
0
32
0
0
0
20
0
3
75
72
0
a
32
0
31
0
36
0
0
0
20
0
c
31
0
30
0
39
0
31
0
0
0
20
0
a
32
0
33
0
35
0
0
0
20
0
6
50
43
52
61
74
64
9
66
69
6c
65
6e
61
6d
65
3d
14
4b
65
79
20
6c
6f
67
67
65
72
20
69
73
20
6e
6f
77
20
6f
6e
7
0
0
64
1c
1
0
0
13
55
73
65
72
2d
41
67
65
6e
74
3a
20
54
72
65
63
6b
d
a
14
ff
ff
ff
ff
c2
1f
96
9b
5f
3
d3
3d
43
e0
4f
8f
13
6e
76
82
a
32
0
32
0
37
0
0
0
20
0
a
32
0
34
0
33
0
0
0
20
0
3
2f
33
2f
a
f4
1
0
0
32
0
0
0
e8
3
10
5d
0
20
0
68
0
69
0
6b
0
69
0
74
0
3e
0
b
2f
70
75
62
6c
69
63
6b
65
79
2f
12
56
45
52
3a
47
48
4f
53
54
20
56
45
52
53
49
4f
4e
20
15
55
73
65
72
2d
41
67
65
6e
74
3a
20
49
6e
73
74
61
6c
6c
d
a
7
55
50
44
41
54
45
7c
a
32
0
31
0
35
0
0
0
20
0
a
32
0
33
0
34
0
0
0
20
0
a
33
0
30
0
35
0
0
0
20
0
b
21
64
6c
20
68
74
74
70
3a
2f
2f
3
5
0
0
a
32
0
31
0
31
0
0
0
20
0
b
2d
72
77
78
72
2d
78
72
2d
78
20
14
11
0
0
0
bd
b4
e8
be
b6
75
9c
a0
80
44
8b
eb
82
8b
a3
93
a
32
0
35
0
39
0
0
0
20
0
a
32
0
35
0
37
0
0
0
20
0
a
32
0
31
0
34
0
0
0
20
0
9
47
45
54
20
2f
33
30
31
30
7
3a
62
70
61
73
73
a
c
0
5
f3
d9
0
0
0
5
0
0
0
9
a
1f
8b
8
0
0
0
0
0
0
0
6
52
45
41
44
59
a
7
49
4e
46
45
43
54
7c
10
f6
f6
f6
f6
f6
f6
f6
f6
f6
f6
f6
f6
f6
f6
f6
f6
e
4a
4f
49
4e
20
23
6e
20
6a
6f
62
73
d
a
5
2e
64
6a
76
75
b
7c
4d
69
63
72
6f
73
6f
66
74
20
a
4f
6e
43
6f
6e
6e
65
63
74
7c
c
14
0
0
0
2
0
14
20
2
5
5
0
a
32
0
36
0
30
0
0
0
20
0
c
53
45
52
56
49
43
45
20
50
41
43
4b
e
53
65
72
76
65
72
3a
20
53
74
61
6c
69
6e
32
4a
4f
49
4e
20
23
74
65
73
74
31
20
7c
d
a
4a
4f
49
4e
20
23
74
65
73
74
32
20
7c
d
a
4a
4f
49
4e
20
23
74
65
73
74
33
20
28
6e
75
6c
6c
29
d
a
9
7c
57
69
6e
64
6f
77
73
20
a
32
0
31
0
39
0
0
0
20
0
10
4a
4f
49
4e
20
23
23
33
76
69
6c
20
6e
33
74
21
a
47
48
7a
d
b4
fa
c0
ed
d
20
f
26
73
74
61
74
70
61
73
73
3d
62
70
61
73
73
2
ea
0
9
ff
53
4d
42
25
0
0
0
0
30
4f
54
54
4f
0
b
0
80
0
3
0
30
43
46
46
20
c
1b
55
c1
0
0
c
54
0
0
ac
f2
47
50
4f
53
55
19
e1
1e
0
0
c1
50
0
0
2c
1c
47
53
55
42
5
ff
53
4d
42
32
5
ff
53
4d
42
32
6
fe
53
4d
42
40
0
9
ff
53
4d
42
2e
0
0
0
0
30
4f
54
54
4f
0
b
0
80
0
3
0
30
43
46
46
20
c
1b
55
c1
0
0
c
54
0
0
ac
f2
47
50
4f
53
55
19
e1
1e
0
0
c1
50
0
0
2c
1c
47
53
55
42
9
2f
67
61
74
65
2e
70
68
70
10
69
6e
73
64
62
2e
70
68
70
3f
74
61
62
6c
65
3d
9
2f
67
61
74
65
2e
70
68
70
c
2f
74
2f
64
32
68
73
64
57
46
33
4f
47
55
73
65
72
2d
41
67
65
6e
74
3a
20
4d
6f
7a
69
6c
6c
61
2f
35
2e
30
20
28
57
69
6e
64
6f
77
73
3b
20
55
3b
20
4d
53
49
45
20
39
2e
30
3b
20
57
69
6e
64
6f
77
73
20
4e
54
20
39
2e
30
3b
20
65
6e
2d
55
53
29
d
a
29
55
73
65
72
2d
41
67
65
6e
74
3a
20
4d
69
63
72
6f
73
6f
66
74
20
49
6e
74
65
72
6e
65
74
20
45
78
70
6c
6f
72
65
72
d
a
20
55
73
65
72
2d
41
67
65
6e
74
3a
20
55
70
64
61
74
65
73
20
64
6f
77
6e
6c
6f
61
64
65
72
d
a
5
47
68
30
73
74
20
93
aa
0
8a
1b
4f
47
c0
93
aa
0
8a
1b
4f
47
c0
93
aa
0
8a
1b
4f
47
c0
93
aa
0
8a
1b
4f
47
c0
d
21
2a
20
53
43
41
4e
4e
45
52
20
4f
4e
f
22
29
3b
a
d
a
3c
2f
73
63
72
69
70
74
3e
4
30
30
37
72
c
50
41
53
53
20
73
75
31
63
31
64
33
a
42
55
49
4c
44
20
58
38
36
a
7
67
65
74
6d
65
d
a
2a
0
28
42
37
41
30
33
41
34
32
37
32
44
39
36
34
42
32
43
30
35
38
39
37
43
39
32
37
33
31
38
34
37
37
36
43
39
46
35
32
36
45
8
50
41
53
53
2d
4f
4e
30
5
48
65
61
72
74
a
32
0
31
0
31
0
0
0
20
0
6
52
45
41
44
44
a
6
4d
58
74
66
33
54
e
55
53
45
52
20
41
53
5f
20
23
20
23
20
3a
a
32
0
36
0
34
0
0
0
20
0
12
77
1
0
e9
3
e9
3
0
0
0
0
0
0
3
0
0
0
d
15
2a
2f
61
64
76
3d
27
4f
72
62
69
74
57
68
69
74
65
27
2f
2a
20
3e
55
73
65
72
2d
41
67
65
6e
74
3a
20
4d
6f
7a
69
6c
6c
61
2f
34
2e
30
20
28
63
6f
6d
70
61
74
69
62
6c
65
3b
20
4d
53
49
45
20
35
2e
30
3b
20
57
69
6e
64
6f
77
73
20
4e
54
20
35
2e
30
29
14
3f
54
3d
6d
61
63
68
69
6e
65
69
6e
66
6f
26
26
4b
65
79
3d
d
48
4f
52
53
45
5f
41
53
53
45
52
54
21
5
70
69
6e
67
7c
4
0
5
f3
d9
1f
4f
70
65
72
61
74
69
6e
67
20
53
79
73
74
65
6d
20
49
6e
74
65
6c
20
52
65
63
6f
76
65
72
79
14
50
4f
53
54
20
2f
77
72
69
74
65
20
48
54
54
50
2f
31
2e
31
2a
0
28
45
33
41
38
38
30
39
30
31
37
44
44
37
36
42
44
32
36
35
35
37
41
35
42
39
32
33
41
42
32
41
45
31
36
43
30
43
44
42
33
12
50
43
5f
41
63
74
69
76
65
5f
54
69
6d
65
2e
74
78
74
a
32
0
31
0
30
0
0
0
20
0
e
78
5f
4d
2
64
19
1a
fa
8b
56
9f
51
de
7c
a
32
0
30
0
37
0
0
0
20
0
7
5b
74
8
4d
9b
39
c1
f
4a
4f
49
4e
20
23
72
61
70
65
20
61
6e
61
6c
1c
d
a
4c
6f
67
66
69
6c
65
20
6f
66
20
53
79
73
74
65
6d
49
6e
66
6f
4c
4f
47
d
a
3
5
0
0
a
32
0
36
0
33
0
0
0
20
0
f
26
53
54
41
54
50
41
53
53
3d
42
50
41
53
53
10
ce
d7
41
87
c6
9f
ac
87
2
73
da
87
7a
9b
5f
87
a
43
4f
4e
4e
45
43
54
45
44
3e
3e
55
73
65
72
2d
41
67
65
6e
74
3a
20
4d
6f
7a
69
6c
6c
61
2f
34
2e
30
20
28
63
6f
6d
70
61
74
69
62
6c
65
3b
20
4d
53
49
45
20
35
2e
30
3b
20
57
69
6e
64
6f
77
73
20
4e
54
20
35
2e
30
29
a
32
0
33
0
36
0
0
0
20
0
3
2f
33
2f
7
50
41
53
53
2d
4f
4e
a
47
48
7a
d
cd
e2
cd
f8
d
20
17
2f
73
74
61
72
67
61
6c
61
78
79
2e
70
68
70
3f
6e
65
62
75
6c
61
3d
a
0
0
0
57
69
6e
64
6f
77
73
12
2f
50
6f
73
74
2e
50
68
70
3f
55
73
65
72
4e
61
6d
65
c
ba
da
c2
f3
cd
f8
c2
e7
44
44
4f
53
b
2f
74
65
73
74
69
2e
6a
6e
6c
70
1e
67
65
74
45
6c
65
6d
65
6e
74
73
42
79
54
61
67
4e
61
6d
65
28
22
68
67
72
6f
75
70
22
29
18
70
78
27
3b
65
6c
65
6d
65
6e
74
2e
73
74
79
6c
65
2e
74
6f
70
3d
27
2d
5
58
59
54
76
6e
6
48
45
4c
4c
4f
a
e
43
6f
6f
6b
69
65
3a
20
63
61
74
69
64
3d
f
4a
4f
49
4e
20
23
62
69
7a
20
61
62
63
d
a
12
55
53
45
52
20
44
49
58
20
30
20
2a
20
3a
20
44
49
58
a
47
48
7a
d
c4
da
cd
f8
d
20
a
47
48
7a
d
ce
b4
d6
aa
d
20
4
2e
6d
6b
76
17
5f
30
64
61
79
32
5f
66
6c
61
c
4d
61
69
6e
54
69
6d
65
6c
69
6e
65
8
20
0
5
0
0
0
6
0
34
55
73
65
72
2d
41
67
65
6e
74
3a
20
4d
6f
7a
69
6c
6c
61
35
2e
31
20
28
63
6f
6d
70
61
74
69
62
6c
65
3b
20
4d
53
49
45
20
38
2e
30
3b
20
57
69
6e
33
32
29
27
48
0
50
0
20
0
4f
0
70
0
65
0
6e
0
56
0
69
0
65
0
77
0
20
0
4f
0
6d
0
6e
0
69
0
42
0
61
0
63
0
6b
e
3c
2f
74
69
74
6c
65
3e
3c
62
6f
64
79
3e
a
2f
73
74
61
74
3f
75
69
64
3d
a
32
0
36
0
35
0
0
0
20
0
8
3c
7c
49
6e
66
6f
7c
3e
c
0
5
f3
dd
0
0
0
2
0
0
0
6
c
31
0
30
0
39
0
32
0
0
0
20
0
3
75
72
0
a
32
0
31
0
36
0
0
0
20
0
c
31
0
30
0
39
0
31
0
0
0
20
0
a
32
0
33
0
35
0
0
0
20
0
6
50
43
52
61
74
64
9
66
69
6c
65
6e
61
6d
65
3d
14
4b
65
79
20
6c
6f
67
67
65
72
20
69
73
20
6e
6f
77
20
6f
6e
7
0
0
64
1c
1
0
0
13
55
73
65
72
2d
41
67
65
6e
74
3a
20
54
72
65
63
6b
d
a
14
ff
ff
ff
ff
c2
1f
96
9b
5f
3
d3
3d
43
e0
4f
8f
13
6e
76
82
a
32
0
32
0
37
0
0
0
20
0
a
32
0
34
0
33
0
0
0
20
0
3
2f
33
2f
a
f4
1
0
0
32
0
0
0
e8
3
10
5d
0
20
0
68
0
69
0
6b
0
69
0
74
0
3e
0
b
2f
70
75
62
6c
69
63
6b
65
79
2f
12
56
45
52
3a
47
48
4f
53
54
20
56
45
52
53
49
4f
4e
20
15
55
73
65
72
2d
41
67
65
6e
74
3a
20
49
6e
73
74
61
6c
6c
d
a
7
55
50
44
41
54
45
7c
a
32
0
31
0
35
0
0
0
20
0
a
32
0
33
0
34
0
0
0
20
0
a
33
0
30
0
35
0
0
0
20
0
b
21
64
6c
20
68
74
74
70
3a
2f
2f
3
5
0
0
a
32
0
31
0
31
0
0
0
20
0
b
2d
72
77
78
72
2d
78
72
2d
78
20
14
11
0
0
0
bd
b4
e8
be
b6
75
9c
a0
80
44
8b
eb
82
8b
a3
93
a
32
0
35
0
39
0
0
0
20
0
a
32
0
35
0
37
0
0
0
20
0
a
32
0
31
0
34
0
0
0
20
0
9
47
45
54
20
2f
33
30
31
30
7
3a
62
70
61
73
73
a
c
0
5
f3
d9
0
0
0
5
0
0
0
9
a
1f
8b
8
0
0
0
0
0
0
0
6
52
45
41
44
59
a
7
49
4e
46
45
43
54
7c
10
f6
f6
f6
f6
f6
f6
f6
f6
f6
f6
f6
f6
f6
f6
f6
f6
e
4a
4f
49
4e
20
23
6e
20
6a
6f
62
73
d
a
5
2e
64
6a
76
75
b
7c
4d
69
63
72
6f
73
6f
66
74
20
a
4f
6e
43
6f
6e
6e
65
63
74
7c
c
14
0
0
0
2
0
14
20
2
5
5
0
a
32
0
36
0
30
0
0
0
20
0
c
53
45
52
56
49
43
45
20
50
41
43
4b
e
53
65
72
76
65
72
3a
20
53
74
61
6c
69
6e
32
4a
4f
49
4e
20
23
74
65
73
74
31
20
7c
d
a
4a
4f
49
4e
20
23
74
65
73
74
32
20
7c
d
a
4a
4f
49
4e
20
23
74
65
73
74
33
20
28
6e
75
6c
6c
29
d
a
9
7c
57
69
6e
64
6f
77
73
20
a
32
0
31
0
39
0
0
0
20
0
10
4a
4f
49
4e
20
23
23
33
76
69
6c
20
6e
33
74
21
a
47
48
7a
d
b4
fa
c0
ed
d
20
f
26
73
74
61
74
70
61
73
73
3d
62
70
61
73
73
1a
22
4e
53
22
3a
22
43
4f
4c
44
46
55
53
49
4f
4e
2e
57
45
42
53
4f
43
4b
45
54
9
2f
67
61
74
65
2e
70
68
70
10
69
6e
73
64
62
2e
70
68
70
3f
74
61
62
6c
65
3d
9
2f
67
61
74
65
2e
70
68
70
c
2f
74
2f
64
32
68
73
64
57
46
33
4f
47
55
73
65
72
2d
41
67
65
6e
74
3a
20
4d
6f
7a
69
6c
6c
61
2f
35
2e
30
20
28
57
69
6e
64
6f
77
73
3b
20
55
3b
20
4d
53
49
45
20
39
2e
30
3b
20
57
69
6e
64
6f
77
73
20
4e
54
20
39
2e
30
3b
20
65
6e
2d
55
53
29
d
a
29
55
73
65
72
2d
41
67
65
6e
74
3a
20
4d
69
63
72
6f
73
6f
66
74
20
49
6e
74
65
72
6e
65
74
20
45
78
70
6c
6f
72
65
72
d
a
20
55
73
65
72
2d
41
67
65
6e
74
3a
20
55
70
64
61
74
65
73
20
64
6f
77
6e
6c
6f
61
64
65
72
d
a
5
47
68
30
73
74
20
93
aa
0
8a
1b
4f
47
c0
93
aa
0
8a
1b
4f
47
c0
93
aa
0
8a
1b
4f
47
c0
93
aa
0
8a
1b
4f
47
c0
d
21
2a
20
53
43
41
4e
4e
45
52
20
4f
4e
f
22
29
3b
a
d
a
3c
2f
73
63
72
69
70
74
3e
4
30
30
37
72
c
50
41
53
53
20
73
75
31
63
31
64
33
a
42
55
49
4c
44
20
58
38
36
a
7
67
65
74
6d
65
d
a
2a
0
28
42
37
41
30
33
41
34
32
37
32
44
39
36
34
42
32
43
30
35
38
39
37
43
39
32
37
33
31
38
34
37
37
36
43
39
46
35
32
36
45
8
50
41
53
53
2d
4f
4e
30
5
48
65
61
72
74
a
32
0
31
0
31
0
0
0
20
0
6
52
45
41
44
44
a
6
4d
58
74
66
33
54
e
55
53
45
52
20
41
53
5f
20
23
20
23
20
3a
a
32
0
36
0
34
0
0
0
20
0
12
77
1
0
e9
3
e9
3
0
0
0
0
0
0
3
0
0
0
d
15
2a
2f
61
64
76
3d
27
4f
72
62
69
74
57
68
69
74
65
27
2f
2a
20
3e
55
73
65
72
2d
41
67
65
6e
74
3a
20
4d
6f
7a
69
6c
6c
61
2f
34
2e
30
20
28
63
6f
6d
70
61
74
69
62
6c
65
3b
20
4d
53
49
45
20
35
2e
30
3b
20
57
69
6e
64
6f
77
73
20
4e
54
20
35
2e
30
29
14
3f
54
3d
6d
61
63
68
69
6e
65
69
6e
66
6f
26
26
4b
65
79
3d
d
48
4f
52
53
45
5f
41
53
53
45
52
54
21
5
70
69
6e
67
7c
4
0
5
f3
d9
1f
4f
70
65
72
61
74
69
6e
67
20
53
79
73
74
65
6d
20
49
6e
74
65
6c
20
52
65
63
6f
76
65
72
79
14
50
4f
53
54
20
2f
77
72
69
74
65
20
48
54
54
50
2f
31
2e
31
2a
0
28
45
33
41
38
38
30
39
30
31
37
44
44
37
36
42
44
32
36
35
35
37
41
35
42
39
32
33
41
42
32
41
45
31
36
43
30
43
44
42
33
12
50
43
5f
41
63
74
69
76
65
5f
54
69
6d
65
2e
74
78
74
a
32
0
31
0
30
0
0
0
20
0
e
78
5f
4d
2
64
19
1a
fa
8b
56
9f
51
de
7c
a
32
0
30
0
37
0
0
0
20
0
7
5b
74
8
4d
9b
39
c1
f
4a
4f
49
4e
20
23
72
61
70
65
20
61
6e
61
6c
1c
d
a
4c
6f
67
66
69
6c
65
20
6f
66
20
53
79
73
74
65
6d
49
6e
66
6f
4c
4f
47
d
a
3
5
0
0
a
32
0
36
0
33
0
0
0
20
0
f
26
53
54
41
54
50
41
53
53
3d
42
50
41
53
53
10
ce
d7
41
87
c6
9f
ac
87
2
73
da
87
7a
9b
5f
87
a
43
4f
4e
4e
45
43
54
45
44
3e
3e
55
73
65
72
2d
41
67
65
6e
74
3a
20
4d
6f
7a
69
6c
6c
61
2f
34
2e
30
20
28
63
6f
6d
70
61
74
69
62
6c
65
3b
20
4d
53
49
45
20
35
2e
30
3b
20
57
69
6e
64
6f
77
73
20
4e
54
20
35
2e
30
29
a
32
0
33
0
36
0
0
0
20
0
3
2f
33
2f
7
50
41
53
53
2d
4f
4e
a
47
48
7a
d
cd
e2
cd
f8
d
20
17
2f
73
74
61
72
67
61
6c
61
78
79
2e
70
68
70
3f
6e
65
62
75
6c
61
3d
a
0
0
0
57
69
6e
64
6f
77
73
12
2f
50
6f
73
74
2e
50
68
70
3f
55
73
65
72
4e
61
6d
65
c
ba
da
c2
f3
cd
f8
c2
e7
44
44
4f
53
b
2f
74
65
73
74
69
2e
6a
6e
6c
70
1e
67
65
74
45
6c
65
6d
65
6e
74
73
42
79
54
61
67
4e
61
6d
65
28
22
68
67
72
6f
75
70
22
29
18
70
78
27
3b
65
6c
65
6d
65
6e
74
2e
73
74
79
6c
65
2e
74
6f
70
3d
27
2d
5
58
59
54
76
6e
6
48
45
4c
4c
4f
a
e
43
6f
6f
6b
69
65
3a
20
63
61
74
69
64
3d
f
4a
4f
49
4e
20
23
62
69
7a
20
61
62
63
d
a
12
55
53
45
52
20
44
49
58
20
30
20
2a
20
3a
20
44
49
58
a
47
48
7a
d
c4
da
cd
f8
d
20
a
47
48
7a
d
ce
b4
d6
aa
d
20
4
2e
6d
6b
76
17
5f
30
64
61
79
32
5f
66
6c
61
c
4d
61
69
6e
54
69
6d
65
6c
69
6e
65
8
20
0
5
0
0
0
6
0
34
55
73
65
72
2d
41
67
65
6e
74
3a
20
4d
6f
7a
69
6c
6c
61
35
2e
31
20
28
63
6f
6d
70
61
74
69
62
6c
65
3b
20
4d
53
49
45
20
38
2e
30
3b
20
57
69
6e
33
32
29
27
48
0
50
0
20
0
4f
0
70
0
65
0
6e
0
56
0
69
0
65
0
77
0
20
0
4f
0
6d
0
6e
0
69
0
42
0
61
0
63
0
6b
e
3c
2f
74
69
74
6c
65
3e
3c
62
6f
64
79
3e
a
2f
73
74
61
74
3f
75
69
64
3d
a
32
0
36
0
35
0
0
0
20
0
8
3c
7c
49
6e
66
6f
7c
3e
c
0
5
f3
dd
0
0
0
2
0
0
0
6
c
31
0
30
0
39
0
32
0
0
0
20
0
3
75
72
0
a
32
0
31
0
36
0
0
0
20
0
c
31
0
30
0
39
0
31
0
0
0
20
0
a
32
0
33
0
35
0
0
0
20
0
6
50
43
52
61
74
64
9
66
69
6c
65
6e
61
6d
65
3d
14
4b
65
79
20
6c
6f
67
67
65
72
20
69
73
20
6e
6f
77
20
6f
6e
7
0
0
64
1c
1
0
0
13
55
73
65
72
2d
41
67
65
6e
74
3a
20
54
72
65
63
6b
d
a
14
ff
ff
ff
ff
c2
1f
96
9b
5f
3
d3
3d
43
e0
4f
8f
13
6e
76
82
a
32
0
32
0
37
0
0
0
20
0
a
32
0
34
0
33
0
0
0
20
0
3
2f
33
2f
a
f4
1
0
0
32
0
0
0
e8
3
10
5d
0
20
0
68
0
69
0
6b
0
69
0
74
0
3e
0
b
2f
70
75
62
6c
69
63
6b
65
79
2f
12
56
45
52
3a
47
48
4f
53
54
20
56
45
52
53
49
4f
4e
20
15
55
73
65
72
2d
41
67
65
6e
74
3a
20
49
6e
73
74
61
6c
6c
d
a
7
55
50
44
41
54
45
7c
a
32
0
31
0
35
0
0
0
20
0
a
32
0
33
0
34
0
0
0
20
0
a
33
0
30
0
35
0
0
0
20
0
b
21
64
6c
20
68
74
74
70
3a
2f
2f
3
5
0
0
a
32
0
31
0
31
0
0
0
20
0
b
2d
72
77
78
72
2d
78
72
2d
78
20
14
11
0
0
0
bd
b4
e8
be
b6
75
9c
a0
80
44
8b
eb
82
8b
a3
93
a
32
0
35
0
39
0
0
0
20
0
a
32
0
35
0
37
0
0
0
20
0
a
32
0
31
0
34
0
0
0
20
0
9
47
45
54
20
2f
33
30
31
30
7
3a
62
70
61
73
73
a
c
0
5
f3
d9
0
0
0
5
0
0
0
9
a
1f
8b
8
0
0
0
0
0
0
0
6
52
45
41
44
59
a
7
49
4e
46
45
43
54
7c
10
f6
f6
f6
f6
f6
f6
f6
f6
f6
f6
f6
f6
f6
f6
f6
f6
e
4a
4f
49
4e
20
23
6e
20
6a
6f
62
73
d
a
5
2e
64
6a
76
75
b
7c
4d
69
63
72
6f
73
6f
66
74
20
a
4f
6e
43
6f
6e
6e
65
63
74
7c
c
14
0
0
0
2
0
14
20
2
5
5
0
a
32
0
36
0
30
0
0
0
20
0
c
53
45
52
56
49
43
45
20
50
41
43
4b
e
53
65
72
76
65
72
3a
20
53
74
61
6c
69
6e
32
4a
4f
49
4e
20
23
74
65
73
74
31
20
7c
d
a
4a
4f
49
4e
20
23
74
65
73
74
32
20
7c
d
a
4a
4f
49
4e
20
23
74
65
73
74
33
20
28
6e
75
6c
6c
29
d
a
9
7c
57
69
6e
64
6f
77
73
20
a
32
0
31
0
39
0
0
0
20
0
10
4a
4f
49
4e
20
23
23
33
76
69
6c
20
6e
33
74
21
a
47
48
7a
d
b4
fa
c0
ed
d
20
f
26
73
74
61
74
70
61
73
73
3d
62
70
61
73
73
1e
45
0
4e
0
44
0
53
0
45
0
52
0
56
0
45
0
52
0
42
0
55
0
46
0
46
0
45
0
52
0
9
2f
67
61
74
65
2e
70
68
70
10
69
6e
73
64
62
2e
70
68
70
3f
74
61
62
6c
65
3d
9
2f
67
61
74
65
2e
70
68
70
c
2f
74
2f
64
32
68
73
64
57
46
33
4f
47
55
73
65
72
2d
41
67
65
6e
74
3a
20
4d
6f
7a
69
6c
6c
61
2f
35
2e
30
20
28
57
69
6e
64
6f
77
73
3b
20
55
3b
20
4d
53
49
45
20
39
2e
30
3b
20
57
69
6e
64
6f
77
73
20
4e
54
20
39
2e
30
3b
20
65
6e
2d
55
53
29
d
a
29
55
73
65
72
2d
41
67
65
6e
74
3a
20
4d
69
63
72
6f
73
6f
66
74
20
49
6e
74
65
72
6e
65
74
20
45
78
70
6c
6f
72
65
72
d
a
20
55
73
65
72
2d
41
67
65
6e
74
3a
20
55
70
64
61
74
65
73
20
64
6f
77
6e
6c
6f
61
64
65
72
d
a
5
47
68
30
73
74
20
93
aa
0
8a
1b
4f
47
c0
93
aa
0
8a
1b
4f
47
c0
93
aa
0
8a
1b
4f
47
c0
93
aa
0
8a
1b
4f
47
c0
d
21
2a
20
53
43
41
4e
4e
45
52
20
4f
4e
f
22
29
3b
a
d
a
3c
2f
73
63
72
69
70
74
3e
4
30
30
37
72
c
50
41
53
53
20
73
75
31
63
31
64
33
a
42
55
49
4c
44
20
58
38
36
a
7
67
65
74
6d
65
d
a
2a
0
28
42
37
41
30
33
41
34
32
37
32
44
39
36
34
42
32
43
30
35
38
39
37
43
39
32
37
33
31
38
34
37
37
36
43
39
46
35
32
36
45
8
50
41
53
53
2d
4f
4e
30
5
48
65
61
72
74
a
32
0
31
0
31
0
0
0
20
0
6
52
45
41
44
44
a
6
4d
58
74
66
33
54
e
55
53
45
52
20
41
53
5f
20
23
20
23
20
3a
a
32
0
36
0
34
0
0
0
20
0
12
77
1
0
e9
3
e9
3
0
0
0
0
0
0
3
0
0
0
d
15
2a
2f
61
64
76
3d
27
4f
72
62
69
74
57
68
69
74
65
27
2f
2a
20
3e
55
73
65
72
2d
41
67
65
6e
74
3a
20
4d
6f
7a
69
6c
6c
61
2f
34
2e
30
20
28
63
6f
6d
70
61
74
69
62
6c
65
3b
20
4d
53
49
45
20
35
2e
30
3b
20
57
69
6e
64
6f
77
73
20
4e
54
20
35
2e
30
29
14
3f
54
3d
6d
61
63
68
69
6e
65
69
6e
66
6f
26
26
4b
65
79
3d
d
48
4f
52
53
45
5f
41
53
53
45
52
54
21
5
70
69
6e
67
7c
4
0
5
f3
d9
1f
4f
70
65
72
61
74
69
6e
67
20
53
79
73
74
65
6d
20
49
6e
74
65
6c
20
52
65
63
6f
76
65
72
79
14
50
4f
53
54
20
2f
77
72
69
74
65
20
48
54
54
50
2f
31
2e
31
2a
0
28
45
33
41
38
38
30
39
30
31
37
44
44
37
36
42
44
32
36
35
35
37
41
35
42
39
32
33
41
42
32
41
45
31
36
43
30
43
44
42
33
12
50
43
5f
41
63
74
69
76
65
5f
54
69
6d
65
2e
74
78
74
a
32
0
31
0
30
0
0
0
20
0
e
78
5f
4d
2
64
19
1a
fa
8b
56
9f
51
de
7c
a
32
0
30
0
37
0
0
0
20
0
7
5b
74
8
4d
9b
39
c1
f
4a
4f
49
4e
20
23
72
61
70
65
20
61
6e
61
6c
1c
d
a
4c
6f
67
66
69
6c
65
20
6f
66
20
53
79
73
74
65
6d
49
6e
66
6f
4c
4f
47
d
a
3
5
0
0
a
32
0
36
0
33
0
0
0
20
0
f
26
53
54
41
54
50
41
53
53
3d
42
50
41
53
53
10
ce
d7
41
87
c6
9f
ac
87
2
73
da
87
7a
9b
5f
87
a
43
4f
4e
4e
45
43
54
45
44
3e
3e
55
73
65
72
2d
41
67
65
6e
74
3a
20
4d
6f
7a
69
6c
6c
61
2f
34
2e
30
20
28
63
6f
6d
70
61
74
69
62
6c
65
3b
20
4d
53
49
45
20
35
2e
30
3b
20
57
69
6e
64
6f
77
73
20
4e
54
20
35
2e
30
29
a
32
0
33
0
36
0
0
0
20
0
3
2f
33
2f
7
50
41
53
53
2d
4f
4e
a
47
48
7a
d
cd
e2
cd
f8
d
20
17
2f
73
74
61
72
67
61
6c
61
78
79
2e
70
68
70
3f
6e
65
62
75
6c
61
3d
a
0
0
0
57
69
6e
64
6f
77
73
12
2f
50
6f
73
74
2e
50
68
70
3f
55
73
65
72
4e
61
6d
65
c
ba
da
c2
f3
cd
f8
c2
e7
44
44
4f
53
b
2f
74
65
73
74
69
2e
6a
6e
6c
70
1e
67
65
74
45
6c
65
6d
65
6e
74
73
42
79
54
61
67
4e
61
6d
65
28
22
68
67
72
6f
75
70
22
29
18
70
78
27
3b
65
6c
65
6d
65
6e
74
2e
73
74
79
6c
65
2e
74
6f
70
3d
27
2d
5
58
59
54
76
6e
6
48
45
4c
4c
4f
a
e
43
6f
6f
6b
69
65
3a
20
63
61
74
69
64
3d
f
4a
4f
49
4e
20
23
62
69
7a
20
61
62
63
d
a
12
55
53
45
52
20
44
49
58
20
30
20
2a
20
3a
20
44
49
58
a
47
48
7a
d
c4
da
cd
f8
d
20
a
47
48
7a
d
ce
b4
d6
aa
d
20
4
2e
6d
6b
76
17
5f
30
64
61
79
32
5f
66
6c
61
c
4d
61
69
6e
54
69
6d
65
6c
69
6e
65
8
20
0
5
0
0
0
6
0
34
55
73
65
72
2d
41
67
65
6e
74
3a
20
4d
6f
7a
69
6c
6c
61
35
2e
31
20
28
63
6f
6d
70
61
74
69
62
6c
65
3b
20
4d
53
49
45
20
38
2e
30
3b
20
57
69
6e
33
32
29
27
48
0
50
0
20
0
4f
0
70
0
65
0
6e
0
56
0
69
0
65
0
77
0
20
0
4f
0
6d
0
6e
0
69
0
42
0
61
0
63
0
6b
e
3c
2f
74
69
74
6c
65
3e
3c
62
6f
64
79
3e
a
2f
73
74
61
74
3f
75
69
64
3d
a
32
0
36
0
35
0
0
0
20
0
8
3c
7c
49
6e
66
6f
7c
3e
c
0
5
f3
dd
0
0
0
2
0
0
0
6
c
31
0
30
0
39
0
32
0
0
0
20
0
3
75
72
0
a
32
0
31
0
36
0
0
0
20
0
c
31
0
30
0
39
0
31
0
0
0
20
0
a
32
0
33
0
35
0
0
0
20
0
6
50
43
52
61
74
64
9
66
69
6c
65
6e
61
6d
65
3d
14
4b
65
79
20
6c
6f
67
67
65
72
20
69
73
20
6e
6f
77
20
6f
6e
7
0
0
64
1c
1
0
0
13
55
73
65
72
2d
41
67
65
6e
74
3a
20
54
72
65
63
6b
d
a
14
ff
ff
ff
ff
c2
1f
96
9b
5f
3
d3
3d
43
e0
4f
8f
13
6e
76
82
a
32
0
32
0
37
0
0
0
20
0
a
32
0
34
0
33
0
0
0
20
0
3
2f
33
2f
a
f4
1
0
0
32
0
0
0
e8
3
10
5d
0
20
0
68
0
69
0
6b
0
69
0
74
0
3e
0
b
2f
70
75
62
6c
69
63
6b
65
79
2f
12
56
45
52
3a
47
48
4f
53
54
20
56
45
52
53
49
4f
4e
20
15
55
73
65
72
2d
41
67
65
6e
74
3a
20
49
6e
73
74
61
6c
6c
d
a
7
55
50
44
41
54
45
7c
a
32
0
31
0
35
0
0
0
20
0
a
32
0
33
0
34
0
0
0
20
0
a
33
0
30
0
35
0
0
0
20
0
b
21
64
6c
20
68
74
74
70
3a
2f
2f
3
5
0
0
a
32
0
31
0
31
0
0
0
20
0
b
2d
72
77
78
72
2d
78
72
2d
78
20
14
11
0
0
0
bd
b4
e8
be
b6
75
9c
a0
80
44
8b
eb
82
8b
a3
93
a
32
0
35
0
39
0
0
0
20
0
a
32
0
35
0
37
0
0
0
20
0
a
32
0
31
0
34
0
0
0
20
0
9
47
45
54
20
2f
33
30
31
30
7
3a
62
70
61
73
73
a
c
0
5
f3
d9
0
0
0
5
0
0
0
9
a
1f
8b
8
0
0
0
0
0
0
0
6
52
45
41
44
59
a
7
49
4e
46
45
43
54
7c
10
f6
f6
f6
f6
f6
f6
f6
f6
f6
f6
f6
f6
f6
f6
f6
f6
e
4a
4f
49
4e
20
23
6e
20
6a
6f
62
73
d
a
5
2e
64
6a
76
75
b
7c
4d
69
63
72
6f
73
6f
66
74
20
a
4f
6e
43
6f
6e
6e
65
63
74
7c
c
14
0
0
0
2
0
14
20
2
5
5
0
a
32
0
36
0
30
0
0
0
20
0
c
53
45
52
56
49
43
45
20
50
41
43
4b
e
53
65
72
76
65
72
3a
20
53
74
61
6c
69
6e
32
4a
4f
49
4e
20
23
74
65
73
74
31
20
7c
d
a
4a
4f
49
4e
20
23
74
65
73
74
32
20
7c
d
a
4a
4f
49
4e
20
23
74
65
73
74
33
20
28
6e
75
6c
6c
29
d
a
9
7c
57
69
6e
64
6f
77
73
20
a
32
0
31
0
39
0
0
0
20
0
10
4a
4f
49
4e
20
23
23
33
76
69
6c
20
6e
33
74
21
a
47
48
7a
d
b4
fa
c0
ed
d
20
f
26
73
74
61
74
70
61
73
73
3d
62
70
61
73
73
4
0
52
57
53
9
2f
67
61
74
65
2e
70
68
70
10
69
6e
73
64
62
2e
70
68
70
3f
74
61
62
6c
65
3d
9
2f
67
61
74
65
2e
70
68
70
c
2f
74
2f
64
32
68
73
64
57
46
33
4f
47
55
73
65
72
2d
41
67
65
6e
74
3a
20
4d
6f
7a
69
6c
6c
61
2f
35
2e
30
20
28
57
69
6e
64
6f
77
73
3b
20
55
3b
20
4d
53
49
45
20
39
2e
30
3b
20
57
69
6e
64
6f
77
73
20
4e
54
20
39
2e
30
3b
20
65
6e
2d
55
53
29
d
a
29
55
73
65
72
2d
41
67
65
6e
74
3a
20
4d
69
63
72
6f
73
6f
66
74
20
49
6e
74
65
72
6e
65
74
20
45
78
70
6c
6f
72
65
72
d
a
20
55
73
65
72
2d
41
67
65
6e
74
3a
20
55
70
64
61
74
65
73
20
64
6f
77
6e
6c
6f
61
64
65
72
d
a
5
47
68
30
73
74
20
93
aa
0
8a
1b
4f
47
c0
93
aa
0
8a
1b
4f
47
c0
93
aa
0
8a
1b
4f
47
c0
93
aa
0
8a
1b
4f
47
c0
d
21
2a
20
53
43
41
4e
4e
45
52
20
4f
4e
f
22
29
3b
a
d
a
3c
2f
73
63
72
69
70
74
3e
4
30
30
37
72
c
50
41
53
53
20
73
75
31
63
31
64
33
a
42
55
49
4c
44
20
58
38
36
a
7
67
65
74
6d
65
d
a
2a
0
28
42
37
41
30
33
41
34
32
37
32
44
39
36
34
42
32
43
30
35
38
39
37
43
39
32
37
33
31
38
34
37
37
36
43
39
46
35
32
36
45
8
50
41
53
53
2d
4f
4e
30
5
48
65
61
72
74
a
32
0
31
0
31
0
0
0
20
0
6
52
45
41
44
44
a
6
4d
58
74
66
33
54
e
55
53
45
52
20
41
53
5f
20
23
20
23
20
3a
a
32
0
36
0
34
0
0
0
20
0
12
77
1
0
e9
3
e9
3
0
0
0
0
0
0
3
0
0
0
d
15
2a
2f
61
64
76
3d
27
4f
72
62
69
74
57
68
69
74
65
27
2f
2a
20
3e
55
73
65
72
2d
41
67
65
6e
74
3a
20
4d
6f
7a
69
6c
6c
61
2f
34
2e
30
20
28
63
6f
6d
70
61
74
69
62
6c
65
3b
20
4d
53
49
45
20
35
2e
30
3b
20
57
69
6e
64
6f
77
73
20
4e
54
20
35
2e
30
29
14
3f
54
3d
6d
61
63
68
69
6e
65
69
6e
66
6f
26
26
4b
65
79
3d
d
48
4f
52
53
45
5f
41
53
53
45
52
54
21
5
70
69
6e
67
7c
4
0
5
f3
d9
1f
4f
70
65
72
61
74
69
6e
67
20
53
79
73
74
65
6d
20
49
6e
74
65
6c
20
52
65
63
6f
76
65
72
79
14
50
4f
53
54
20
2f
77
72
69
74
65
20
48
54
54
50
2f
31
2e
31
2a
0
28
45
33
41
38
38
30
39
30
31
37
44
44
37
36
42
44
32
36
35
35
37
41
35
42
39
32
33
41
42
32
41
45
31
36
43
30
43
44
42
33
12
50
43
5f
41
63
74
69
76
65
5f
54
69
6d
65
2e
74
78
74
a
32
0
31
0
30
0
0
0
20
0
e
78
5f
4d
2
64
19
1a
fa
8b
56
9f
51
de
7c
a
32
0
30
0
37
0
0
0
20
0
7
5b
74
8
4d
9b
39
c1
f
4a
4f
49
4e
20
23
72
61
70
65
20
61
6e
61
6c
1c
d
a
4c
6f
67
66
69
6c
65
20
6f
66
20
53
79
73
74
65
6d
49
6e
66
6f
4c
4f
47
d
a
3
5
0
0
a
32
0
36
0
33
0
0
0
20
0
f
26
53
54
41
54
50
41
53
53
3d
42
50
41
53
53
10
ce
d7
41
87
c6
9f
ac
87
2
73
da
87
7a
9b
5f
87
a
43
4f
4e
4e
45
43
54
45
44
3e
3e
55
73
65
72
2d
41
67
65
6e
74
3a
20
4d
6f
7a
69
6c
6c
61
2f
34
2e
30
20
28
63
6f
6d
70
61
74
69
62
6c
65
3b
20
4d
53
49
45
20
35
2e
30
3b
20
57
69
6e
64
6f
77
73
20
4e
54
20
35
2e
30
29
a
32
0
33
0
36
0
0
0
20
0
3
2f
33
2f
7
50
41
53
53
2d
4f
4e
a
47
48
7a
d
cd
e2
cd
f8
d
20
17
2f
73
74
61
72
67
61
6c
61
78
79
2e
70
68
70
3f
6e
65
62
75
6c
61
3d
a
0
0
0
57
69
6e
64
6f
77
73
12
2f
50
6f
73
74
2e
50
68
70
3f
55
73
65
72
4e
61
6d
65
c
ba
da
c2
f3
cd
f8
c2
e7
44
44
4f
53
b
2f
74
65
73
74
69
2e
6a
6e
6c
70
1e
67
65
74
45
6c
65
6d
65
6e
74
73
42
79
54
61
67
4e
61
6d
65
28
22
68
67
72
6f
75
70
22
29
18
70
78
27
3b
65
6c
65
6d
65
6e
74
2e
73
74
79
6c
65
2e
74
6f
70
3d
27
2d
5
58
59
54
76
6e
6
48
45
4c
4c
4f
a
e
43
6f
6f
6b
69
65
3a
20
63
61
74
69
64
3d
f
4a
4f
49
4e
20
23
62
69
7a
20
61
62
63
d
a
12
55
53
45
52
20
44
49
58
20
30
20
2a
20
3a
20
44
49
58
a
47
48
7a
d
c4
da
cd
f8
d
20
a
47
48
7a
d
ce
b4
d6
aa
d
20
4
2e
6d
6b
76
17
5f
30
64
61
79
32
5f
66
6c
61
c
4d
61
69
6e
54
69
6d
65
6c
69
6e
65
8
20
0
5
0
0
0
6
0
34
55
73
65
72
2d
41
67
65
6e
74
3a
20
4d
6f
7a
69
6c
6c
61
35
2e
31
20
28
63
6f
6d
70
61
74
69
62
6c
65
3b
20
4d
53
49
45
20
38
2e
30
3b
20
57
69
6e
33
32
29
27
48
0
50
0
20
0
4f
0
70
0
65
0
6e
0
56
0
69
0
65
0
77
0
20
0
4f
0
6d
0
6e
0
69
0
42
0
61
0
63
0
6b
e
3c
2f
74
69
74
6c
65
3e
3c
62
6f
64
79
3e
a
2f
73
74
61
74
3f
75
69
64
3d
a
32
0
36
0
35
0
0
0
20
0
8
3c
7c
49
6e
66
6f
7c
3e
c
0
5
f3
dd
0
0
0
2
0
0
0
6
c
31
0
30
0
39
0
32
0
0
0
20
0
3
75
72
0
a
32
0
31
0
36
0
0
0
20
0
c
31
0
30
0
39
0
31
0
0
0
20
0
a
32
0
33
0
35
0
0
0
20
0
6
50
43
52
61
74
64
9
66
69
6c
65
6e
61
6d
65
3d
14
4b
65
79
20
6c
6f
67
67
65
72
20
69
73
20
6e
6f
77
20
6f
6e
7
0
0
64
1c
1
0
0
13
55
73
65
72
2d
41
67
65
6e
74
3a
20
54
72
65
63
6b
d
a
14
ff
ff
ff
ff
c2
1f
96
9b
5f
3
d3
3d
43
e0
4f
8f
13
6e
76
82
a
32
0
32
0
37
0
0
0
20
0
a
32
0
34
0
33
0
0
0
20
0
3
2f
33
2f
a
f4
1
0
0
32
0
0
0
e8
3
10
5d
0
20
0
68
0
69
0
6b
0
69
0
74
0
3e
0
b
2f
70
75
62
6c
69
63
6b
65
79
2f
12
56
45
52
3a
47
48
4f
53
54
20
56
45
52
53
49
4f
4e
20
15
55
73
65
72
2d
41
67
65
6e
74
3a
20
49
6e
73
74
61
6c
6c
d
a
7
55
50
44
41
54
45
7c
a
32
0
31
0
35
0
0
0
20
0
a
32
0
33
0
34
0
0
0
20
0
a
33
0
30
0
35
0
0
0
20
0
b
21
64
6c
20
68
74
74
70
3a
2f
2f
3
5
0
0
a
32
0
31
0
31
0
0
0
20
0
b
2d
72
77
78
72
2d
78
72
2d
78
20
14
11
0
0
0
bd
b4
e8
be
b6
75
9c
a0
80
44
8b
eb
82
8b
a3
93
a
32
0
35
0
39
0
0
0
20
0
a
32
0
35
0
37
0
0
0
20
0
a
32
0
31
0
34
0
0
0
20
0
9
47
45
54
20
2f
33
30
31
30
7
3a
62
70
61
73
73
a
c
0
5
f3
d9
0
0
0
5
0
0
0
9
a
1f
8b
8
0
0
0
0
0
0
0
6
52
45
41
44
59
a
7
49
4e
46
45
43
54
7c
10
f6
f6
f6
f6
f6
f6
f6
f6
f6
f6
f6
f6
f6
f6
f6
f6
e
4a
4f
49
4e
20
23
6e
20
6a
6f
62
73
d
a
5
2e
64
6a
76
75
b
7c
4d
69
63
72
6f
73
6f
66
74
20
a
4f
6e
43
6f
6e
6e
65
63
74
7c
c
14
0
0
0
2
0
14
20
2
5
5
0
a
32
0
36
0
30
0
0
0
20
0
c
53
45
52
56
49
43
45
20
50
41
43
4b
e
53
65
72
76
65
72
3a
20
53
74
61
6c
69
6e
32
4a
4f
49
4e
20
23
74
65
73
74
31
20
7c
d
a
4a
4f
49
4e
20
23
74
65
73
74
32
20
7c
d
a
4a
4f
49
4e
20
23
74
65
73
74
33
20
28
6e
75
6c
6c
29
d
a
9
7c
57
69
6e
64
6f
77
73
20
a
32
0
31
0
39
0
0
0
20
0
10
4a
4f
49
4e
20
23
23
33
76
69
6c
20
6e
33
74
21
a
47
48
7a
d
b4
fa
c0
ed
d
20
f
26
73
74
61
74
70
61
73
73
3d
62
70
61
73
73
c
2c
0
0
0
2
0
0
0
1
0
c
24
9
2f
67
61
74
65
2e
70
68
70
10
69
6e
73
64
62
2e
70
68
70
3f
74
61
62
6c
65
3d
9
2f
67
61
74
65
2e
70
68
70
c
2f
74
2f
64
32
68
73
64
57
46
33
4f
47
55
73
65
72
2d
41
67
65
6e
74
3a
20
4d
6f
7a
69
6c
6c
61
2f
35
2e
30
20
28
57
69
6e
64
6f
77
73
3b
20
55
3b
20
4d
53
49
45
20
39
2e
30
3b
20
57
69
6e
64
6f
77
73
20
4e
54
20
39
2e
30
3b
20
65
6e
2d
55
53
29
d
a
29
55
73
65
72
2d
41
67
65
6e
74
3a
20
4d
69
63
72
6f
73
6f
66
74
20
49
6e
74
65
72
6e
65
74
20
45
78
70
6c
6f
72
65
72
d
a
20
55
73
65
72
2d
41
67
65
6e
74
3a
20
55
70
64
61
74
65
73
20
64
6f
77
6e
6c
6f
61
64
65
72
d
a
5
47
68
30
73
74
20
93
aa
0
8a
1b
4f
47
c0
93
aa
0
8a
1b
4f
47
c0
93
aa
0
8a
1b
4f
47
c0
93
aa
0
8a
1b
4f
47
c0
d
21
2a
20
53
43
41
4e
4e
45
52
20
4f
4e
f
22
29
3b
a
d
a
3c
2f
73
63
72
69
70
74
3e
4
30
30
37
72
c
50
41
53
53
20
73
75
31
63
31
64
33
a
42
55
49
4c
44
20
58
38
36
a
7
67
65
74
6d
65
d
a
2a
0
28
42
37
41
30
33
41
34
32
37
32
44
39
36
34
42
32
43
30
35
38
39
37
43
39
32
37
33
31
38
34
37
37
36
43
39
46
35
32
36
45
8
50
41
53
53
2d
4f
4e
30
5
48
65
61
72
74
a
32
0
31
0
31
0
0
0
20
0
6
52
45
41
44
44
a
6
4d
58
74
66
33
54
e
55
53
45
52
20
41
53
5f
20
23
20
23
20
3a
a
32
0
36
0
34
0
0
0
20
0
12
77
1
0
e9
3
e9
3
0
0
0
0
0
0
3
0
0
0
d
15
2a
2f
61
64
76
3d
27
4f
72
62
69
74
57
68
69
74
65
27
2f
2a
20
3e
55
73
65
72
2d
41
67
65
6e
74
3a
20
4d
6f
7a
69
6c
6c
61
2f
34
2e
30
20
28
63
6f
6d
70
61
74
69
62
6c
65
3b
20
4d
53
49
45
20
35
2e
30
3b
20
57
69
6e
64
6f
77
73
20
4e
54
20
35
2e
30
29
14
3f
54
3d
6d
61
63
68
69
6e
65
69
6e
66
6f
26
26
4b
65
79
3d
d
48
4f
52
53
45
5f
41
53
53
45
52
54
21
5
70
69
6e
67
7c
4
0
5
f3
d9
1f
4f
70
65
72
61
74
69
6e
67
20
53
79
73
74
65
6d
20
49
6e
74
65
6c
20
52
65
63
6f
76
65
72
79
14
50
4f
53
54
20
2f
77
72
69
74
65
20
48
54
54
50
2f
31
2e
31
2a
0
28
45
33
41
38
38
30
39
30
31
37
44
44
37
36
42
44
32
36
35
35
37
41
35
42
39
32
33
41
42
32
41
45
31
36
43
30
43
44
42
33
12
50
43
5f
41
63
74
69
76
65
5f
54
69
6d
65
2e
74
78
74
a
32
0
31
0
30
0
0
0
20
0
e
78
5f
4d
2
64
19
1a
fa
8b
56
9f
51
de
7c
a
32
0
30
0
37
0
0
0
20
0
7
5b
74
8
4d
9b
39
c1
f
4a
4f
49
4e
20
23
72
61
70
65
20
61
6e
61
6c
1c
d
a
4c
6f
67
66
69
6c
65
20
6f
66
20
53
79
73
74
65
6d
49
6e
66
6f
4c
4f
47
d
a
3
5
0
0
a
32
0
36
0
33
0
0
0
20
0
f
26
53
54
41
54
50
41
53
53
3d
42
50
41
53
53
10
ce
d7
41
87
c6
9f
ac
87
2
73
da
87
7a
9b
5f
87
a
43
4f
4e
4e
45
43
54
45
44
3e
3e
55
73
65
72
2d
41
67
65
6e
74
3a
20
4d
6f
7a
69
6c
6c
61
2f
34
2e
30
20
28
63
6f
6d
70
61
74
69
62
6c
65
3b
20
4d
53
49
45
20
35
2e
30
3b
20
57
69
6e
64
6f
77
73
20
4e
54
20
35
2e
30
29
a
32
0
33
0
36
0
0
0
20
0
3
2f
33
2f
7
50
41
53
53
2d
4f
4e
a
47
48
7a
d
cd
e2
cd
f8
d
20
17
2f
73
74
61
72
67
61
6c
61
78
79
2e
70
68
70
3f
6e
65
62
75
6c
61
3d
a
0
0
0
57
69
6e
64
6f
77
73
12
2f
50
6f
73
74
2e
50
68
70
3f
55
73
65
72
4e
61
6d
65
c
ba
da
c2
f3
cd
f8
c2
e7
44
44
4f
53
b
2f
74
65
73
74
69
2e
6a
6e
6c
70
1e
67
65
74
45
6c
65
6d
65
6e
74
73
42
79
54
61
67
4e
61
6d
65
28
22
68
67
72
6f
75
70
22
29
18
70
78
27
3b
65
6c
65
6d
65
6e
74
2e
73
74
79
6c
65
2e
74
6f
70
3d
27
2d
5
58
59
54
76
6e
6
48
45
4c
4c
4f
a
e
43
6f
6f
6b
69
65
3a
20
63
61
74
69
64
3d
f
4a
4f
49
4e
20
23
62
69
7a
20
61
62
63
d
a
12
55
53
45
52
20
44
49
58
20
30
20
2a
20
3a
20
44
49
58
a
47
48
7a
d
c4
da
cd
f8
d
20
a
47
48
7a
d
ce
b4
d6
aa
d
20
4
2e
6d
6b
76
17
5f
30
64
61
79
32
5f
66
6c
61
c
4d
61
69
6e
54
69
6d
65
6c
69
6e
65
8
20
0
5
0
0
0
6
0
34
55
73
65
72
2d
41
67
65
6e
74
3a
20
4d
6f
7a
69
6c
6c
61
35
2e
31
20
28
63
6f
6d
70
61
74
69
62
6c
65
3b
20
4d
53
49
45
20
38
2e
30
3b
20
57
69
6e
33
32
29
27
48
0
50
0
20
0
4f
0
70
0
65
0
6e
0
56
0
69
0
65
0
77
0
20
0
4f
0
6d
0
6e
0
69
0
42
0
61
0
63
0
6b
e
3c
2f
74
69
74
6c
65
3e
3c
62
6f
64
79
3e
a
2f
73
74
61
74
3f
75
69
64
3d
a
32
0
36
0
35
0
0
0
20
0
8
3c
7c
49
6e
66
6f
7c
3e
c
0
5
f3
dd
0
0
0
2
0
0
0
6
c
31
0
30
0
39
0
32
0
0
0
20
0
3
75
72
0
a
32
0
31
0
36
0
0
0
20
0
c
31
0
30
0
39
0
31
0
0
0
20
0
a
32
0
33
0
35
0
0
0
20
0
6
50
43
52
61
74
64
9
66
69
6c
65
6e
61
6d
65
3d
14
4b
65
79
20
6c
6f
67
67
65
72
20
69
73
20
6e
6f
77
20
6f
6e
7
0
0
64
1c
1
0
0
13
55
73
65
72
2d
41
67
65
6e
74
3a
20
54
72
65
63
6b
d
a
14
ff
ff
ff
ff
c2
1f
96
9b
5f
3
d3
3d
43
e0
4f
8f
13
6e
76
82
a
32
0
32
0
37
0
0
0
20
0
a
32
0
34
0
33
0
0
0
20
0
3
2f
33
2f
a
f4
1
0
0
32
0
0
0
e8
3
10
5d
0
20
0
68
0
69
0
6b
0
69
0
74
0
3e
0
b
2f
70
75
62
6c
69
63
6b
65
79
2f
12
56
45
52
3a
47
48
4f
53
54
20
56
45
52
53
49
4f
4e
20
15
55
73
65
72
2d
41
67
65
6e
74
3a
20
49
6e
73
74
61
6c
6c
d
a
7
55
50
44
41
54
45
7c
a
32
0
31
0
35
0
0
0
20
0
a
32
0
33
0
34
0
0
0
20
0
a
33
0
30
0
35
0
0
0
20
0
b
21
64
6c
20
68
74
74
70
3a
2f
2f
3
5
0
0
a
32
0
31
0
31
0
0
0
20
0
b
2d
72
77
78
72
2d
78
72
2d
78
20
14
11
0
0
0
bd
b4
e8
be
b6
75
9c
a0
80
44
8b
eb
82
8b
a3
93
a
32
0
35
0
39
0
0
0
20
0
a
32
0
35
0
37
0
0
0
20
0
a
32
0
31
0
34
0
0
0
20
0
9
47
45
54
20
2f
33
30
31
30
7
3a
62
70
61
73
73
a
c
0
5
f3
d9
0
0
0
5
0
0
0
9
a
1f
8b
8
0
0
0
0
0
0
0
6
52
45
41
44
59
a
7
49
4e
46
45
43
54
7c
10
f6
f6
f6
f6
f6
f6
f6
f6
f6
f6
f6
f6
f6
f6
f6
f6
e
4a
4f
49
4e
20
23
6e
20
6a
6f
62
73
d
a
5
2e
64
6a
76
75
b
7c
4d
69
63
72
6f
73
6f
66
74
20
a
4f
6e
43
6f
6e
6e
65
63
74
7c
c
14
0
0
0
2
0
14
20
2
5
5
0
a
32
0
36
0
30
0
0
0
20
0
c
53
45
52
56
49
43
45
20
50
41
43
4b
e
53
65
72
76
65
72
3a
20
53
74
61
6c
69
6e
32
4a
4f
49
4e
20
23
74
65
73
74
31
20
7c
d
a
4a
4f
49
4e
20
23
74
65
73
74
32
20
7c
d
a
4a
4f
49
4e
20
23
74
65
73
74
33
20
28
6e
75
6c
6c
29
d
a
9
7c
57
69
6e
64
6f
77
73
20
a
32
0
31
0
39
0
0
0
20
0
10
4a
4f
49
4e
20
23
23
33
76
69
6c
20
6e
33
74
21
a
47
48
7a
d
b4
fa
c0
ed
d
20
f
26
73
74
61
74
70
61
73
73
3d
62
70
61
73
73
e
53
54
4c
55
44
54
20
56
33
2e
33
20
2d
20
9
2f
67
61
74
65
2e
70
68
70
10
69
6e
73
64
62
2e
70
68
70
3f
74
61
62
6c
65
3d
9
2f
67
61
74
65
2e
70
68
70
c
2f
74
2f
64
32
68
73
64
57
46
33
4f
47
55
73
65
72
2d
41
67
65
6e
74
3a
20
4d
6f
7a
69
6c
6c
61
2f
35
2e
30
20
28
57
69
6e
64
6f
77
73
3b
20
55
3b
20
4d
53
49
45
20
39
2e
30
3b
20
57
69
6e
64
6f
77
73
20
4e
54
20
39
2e
30
3b
20
65
6e
2d
55
53
29
d
a
29
55
73
65
72
2d
41
67
65
6e
74
3a
20
4d
69
63
72
6f
73
6f
66
74
20
49
6e
74
65
72
6e
65
74
20
45
78
70
6c
6f
72
65
72
d
a
20
55
73
65
72
2d
41
67
65
6e
74
3a
20
55
70
64
61
74
65
73
20
64
6f
77
6e
6c
6f
61
64
65
72
d
a
5
47
68
30
73
74
20
93
aa
0
8a
1b
4f
47
c0
93
aa
0
8a
1b
4f
47
c0
93
aa
0
8a
1b
4f
47
c0
93
aa
0
8a
1b
4f
47
c0
d
21
2a
20
53
43
41
4e
4e
45
52
20
4f
4e
f
22
29
3b
a
d
a
3c
2f
73
63
72
69
70
74
3e
4
30
30
37
72
c
50
41
53
53
20
73
75
31
63
31
64
33
a
42
55
49
4c
44
20
58
38
36
a
7
67
65
74
6d
65
d
a
2a
0
28
42
37
41
30
33
41
34
32
37
32
44
39
36
34
42
32
43
30
35
38
39
37
43
39
32
37
33
31
38
34
37
37
36
43
39
46
35
32
36
45
8
50
41
53
53
2d
4f
4e
30
5
48
65
61
72
74
a
32
0
31
0
31
0
0
0
20
0
6
52
45
41
44
44
a
6
4d
58
74
66
33
54
e
55
53
45
52
20
41
53
5f
20
23
20
23
20
3a
a
32
0
36
0
34
0
0
0
20
0
12
77
1
0
e9
3
e9
3
0
0
0
0
0
0
3
0
0
0
d
15
2a
2f
61
64
76
3d
27
4f
72
62
69
74
57
68
69
74
65
27
2f
2a
20
3e
55
73
65
72
2d
41
67
65
6e
74
3a
20
4d
6f
7a
69
6c
6c
61
2f
34
2e
30
20
28
63
6f
6d
70
61
74
69
62
6c
65
3b
20
4d
53
49
45
20
35
2e
30
3b
20
57
69
6e
64
6f
77
73
20
4e
54
20
35
2e
30
29
14
3f
54
3d
6d
61
63
68
69
6e
65
69
6e
66
6f
26
26
4b
65
79
3d
d
48
4f
52
53
45
5f
41
53
53
45
52
54
21
5
70
69
6e
67
7c
4
0
5
f3
d9
1f
4f
70
65
72
61
74
69
6e
67
20
53
79
73
74
65
6d
20
49
6e
74
65
6c
20
52
65
63
6f
76
65
72
79
14
50
4f
53
54
20
2f
77
72
69
74
65
20
48
54
54
50
2f
31
2e
31
2a
0
28
45
33
41
38
38
30
39
30
31
37
44
44
37
36
42
44
32
36
35
35
37
41
35
42
39
32
33
41
42
32
41
45
31
36
43
30
43
44
42
33
12
50
43
5f
41
63
74
69
76
65
5f
54
69
6d
65
2e
74
78
74
a
32
0
31
0
30
0
0
0
20
0
e
78
5f
4d
2
64
19
1a
fa
8b
56
9f
51
de
7c
a
32
0
30
0
37
0
0
0
20
0
7
5b
74
8
4d
9b
39
c1
f
4a
4f
49
4e
20
23
72
61
70
65
20
61
6e
61
6c
1c
d
a
4c
6f
67
66
69
6c
65
20
6f
66
20
53
79
73
74
65
6d
49
6e
66
6f
4c
4f
47
d
a
3
5
0
0
a
32
0
36
0
33
0
0
0
20
0
f
26
53
54
41
54
50
41
53
53
3d
42
50
41
53
53
10
ce
d7
41
87
c6
9f
ac
87
2
73
da
87
7a
9b
5f
87
a
43
4f
4e
4e
45
43
54
45
44
3e
3e
55
73
65
72
2d
41
67
65
6e
74
3a
20
4d
6f
7a
69
6c
6c
61
2f
34
2e
30
20
28
63
6f
6d
70
61
74
69
62
6c
65
3b
20
4d
53
49
45
20
35
2e
30
3b
20
57
69
6e
64
6f
77
73
20
4e
54
20
35
2e
30
29
a
32
0
33
0
36
0
0
0
20
0
3
2f
33
2f
7
50
41
53
53
2d
4f
4e
a
47
48
7a
d
cd
e2
cd
f8
d
20
17
2f
73
74
61
72
67
61
6c
61
78
79
2e
70
68
70
3f
6e
65
62
75
6c
61
3d
a
0
0
0
57
69
6e
64
6f
77
73
12
2f
50
6f
73
74
2e
50
68
70
3f
55
73
65
72
4e
61
6d
65
c
ba
da
c2
f3
cd
f8
c2
e7
44
44
4f
53
b
2f
74
65
73
74
69
2e
6a
6e
6c
70
1e
67
65
74
45
6c
65
6d
65
6e
74
73
42
79
54
61
67
4e
61
6d
65
28
22
68
67
72
6f
75
70
22
29
18
70
78
27
3b
65
6c
65
6d
65
6e
74
2e
73
74
79
6c
65
2e
74
6f
70
3d
27
2d
5
58
59
54
76
6e
6
48
45
4c
4c
4f
a
e
43
6f
6f
6b
69
65
3a
20
63
61
74
69
64
3d
f
4a
4f
49
4e
20
23
62
69
7a
20
61
62
63
d
a
12
55
53
45
52
20
44
49
58
20
30
20
2a
20
3a
20
44
49
58
a
47
48
7a
d
c4
da
cd
f8
d
20
a
47
48
7a
d
ce
b4
d6
aa
d
20
4
2e
6d
6b
76
17
5f
30
64
61
79
32
5f
66
6c
61
c
4d
61
69
6e
54
69
6d
65
6c
69
6e
65
8
20
0
5
0
0
0
6
0
34
55
73
65
72
2d
41
67
65
6e
74
3a
20
4d
6f
7a
69
6c
6c
61
35
2e
31
20
28
63
6f
6d
70
61
74
69
62
6c
65
3b
20
4d
53
49
45
20
38
2e
30
3b
20
57
69
6e
33
32
29
27
48
0
50
0
20
0
4f
0
70
0
65
0
6e
0
56
0
69
0
65
0
77
0
20
0
4f
0
6d
0
6e
0
69
0
42
0
61
0
63
0
6b
e
3c
2f
74
69
74
6c
65
3e
3c
62
6f
64
79
3e
a
2f
73
74
61
74
3f
75
69
64
3d
a
32
0
36
0
35
0
0
0
20
0
8
3c
7c
49
6e
66
6f
7c
3e
c
0
5
f3
dd
0
0
0
2
0
0
0
6
c
31
0
30
0
39
0
32
0
0
0
20
0
3
75
72
0
a
32
0
31
0
36
0
0
0
20
0
c
31
0
30
0
39
0
31
0
0
0
20
0
a
32
0
33
0
35
0
0
0
20
0
6
50
43
52
61
74
64
9
66
69
6c
65
6e
61
6d
65
3d
14
4b
65
79
20
6c
6f
67
67
65
72
20
69
73
20
6e
6f
77
20
6f
6e
7
0
0
64
1c
1
0
0
13
55
73
65
72
2d
41
67
65
6e
74
3a
20
54
72
65
63
6b
d
a
14
ff
ff
ff
ff
c2
1f
96
9b
5f
3
d3
3d
43
e0
4f
8f
13
6e
76
82
a
32
0
32
0
37
0
0
0
20
0
a
32
0
34
0
33
0
0
0
20
0
3
2f
33
2f
a
f4
1
0
0
32
0
0
0
e8
3
10
5d
0
20
0
68
0
69
0
6b
0
69
0
74
0
3e
0
b
2f
70
75
62
6c
69
63
6b
65
79
2f
12
56
45
52
3a
47
48
4f
53
54
20
56
45
52
53
49
4f
4e
20
15
55
73
65
72
2d
41
67
65
6e
74
3a
20
49
6e
73
74
61
6c
6c
d
a
7
55
50
44
41
54
45
7c
a
32
0
31
0
35
0
0
0
20
0
a
32
0
33
0
34
0
0
0
20
0
a
33
0
30
0
35
0
0
0
20
0
b
21
64
6c
20
68
74
74
70
3a
2f
2f
3
5
0
0
a
32
0
31
0
31
0
0
0
20
0
b
2d
72
77
78
72
2d
78
72
2d
78
20
14
11
0
0
0
bd
b4
e8
be
b6
75
9c
a0
80
44
8b
eb
82
8b
a3
93
a
32
0
35
0
39
0
0
0
20
0
a
32
0
35
0
37
0
0
0
20
0
a
32
0
31
0
34
0
0
0
20
0
9
47
45
54
20
2f
33
30
31
30
7
3a
62
70
61
73
73
a
c
0
5
f3
d9
0
0
0
5
0
0
0
9
a
1f
8b
8
0
0
0
0
0
0
0
6
52
45
41
44
59
a
7
49
4e
46
45
43
54
7c
10
f6
f6
f6
f6
f6
f6
f6
f6
f6
f6
f6
f6
f6
f6
f6
f6
e
4a
4f
49
4e
20
23
6e
20
6a
6f
62
73
d
a
5
2e
64
6a
76
75
b
7c
4d
69
63
72
6f
73
6f
66
74
20
a
4f
6e
43
6f
6e
6e
65
63
74
7c
c
14
0
0
0
2
0
14
20
2
5
5
0
a
32
0
36
0
30
0
0
0
20
0
c
53
45
52
56
49
43
45
20
50
41
43
4b
e
53
65
72
76
65
72
3a
20
53
74
61
6c
69
6e
32
4a
4f
49
4e
20
23
74
65
73
74
31
20
7c
d
a
4a
4f
49
4e
20
23
74
65
73
74
32
20
7c
d
a
4a
4f
49
4e
20
23
74
65
73
74
33
20
28
6e
75
6c
6c
29
d
a
9
7c
57
69
6e
64
6f
77
73
20
a
32
0
31
0
39
0
0
0
20
0
10
4a
4f
49
4e
20
23
23
33
76
69
6c
20
6e
33
74
21
a
47
48
7a
d
b4
fa
c0
ed
d
20
f
26
73
74
61
74
70
61
73
73
3d
62
70
61
73
73
3
18
3
3
3
18
3
0
9
0
c4
67
9a
4
97
41
ef
47
17
16
6e
73
37
2d
37
37
37
2e
37
37
37
73
65
72
76
65
72
73
2e
63
6f
6d
3
18
3
3
3
18
3
2
3
18
3
3
24
23
73
65
72
76
65
72
2e
69
74
69
6c
74
72
61
69
6e
69
6e
67
63
65
72
74
77
6f
72
6b
73
68
6f
70
2e
63
6f
6d
b
a
63
68
61
74
73
6f
2e
63
6f
6d
3
18
3
2
3
18
3
1
3
18
3
2
3
18
3
1
19
32
32
31
20
47
6f
6f
64
62
79
65
20
68
61
70
70
79
20
72
30
30
74
69
6e
67
3
18
3
1
7
30
57
4e
53
20
4a
30
d
c
69
63
6c
61
73
73
68
64
2e
6e
65
74
1d
55
4
a
13
18
49
6e
74
65
72
6e
65
74
20
57
69
64
67
69
74
73
20
50
74
79
20
4c
74
64
13
12
76
65
6e
74
75
72
65
73
6f
6e
73
69
74
65
2e
63
6f
6d
3
18
3
2
3
18
3
1
3
18
3
0
12
11
6d
74
6e
6f
75
74
66
69
74
74
65
72
73
2e
63
6f
6d
12
11
61
63
65
73
65
63
75
72
65
73
68
6f
70
2e
63
6f
6d
13
12
74
72
75
64
65
61
75
73
6f
63
69
65
74
79
2e
63
6f
6d
3
18
3
0
11
10
2a
2e
39
39
39
73
65
72
76
65
72
73
2e
63
6f
6d
1f
1e
66
78
62
69
6e
67
70
61
6e
65
6c
2e
66
61
72
65
65
78
63
68
61
6e
67
65
2e
63
6f
2e
75
6b
3
18
3
0
3
18
3
3
9
2f
67
61
74
65
2e
70
68
70
10
69
6e
73
64
62
2e
70
68
70
3f
74
61
62
6c
65
3d
9
2f
67
61
74
65
2e
70
68
70
c
2f
74
2f
64
32
68
73
64
57
46
33
4f
47
55
73
65
72
2d
41
67
65
6e
74
3a
20
4d
6f
7a
69
6c
6c
61
2f
35
2e
30
20
28
57
69
6e
64
6f
77
73
3b
20
55
3b
20
4d
53
49
45
20
39
2e
30
3b
20
57
69
6e
64
6f
77
73
20
4e
54
20
39
2e
30
3b
20
65
6e
2d
55
53
29
d
a
29
55
73
65
72
2d
41
67
65
6e
74
3a
20
4d
69
63
72
6f
73
6f
66
74
20
49
6e
74
65
72
6e
65
74
20
45
78
70
6c
6f
72
65
72
d
a
20
55
73
65
72
2d
41
67
65
6e
74
3a
20
55
70
64
61
74
65
73
20
64
6f
77
6e
6c
6f
61
64
65
72
d
a
5
47
68
30
73
74
20
93
aa
0
8a
1b
4f
47
c0
93
aa
0
8a
1b
4f
47
c0
93
aa
0
8a
1b
4f
47
c0
93
aa
0
8a
1b
4f
47
c0
d
21
2a
20
53
43
41
4e
4e
45
52
20
4f
4e
f
22
29
3b
a
d
a
3c
2f
73
63
72
69
70
74
3e
4
30
30
37
72
c
50
41
53
53
20
73
75
31
63
31
64
33
a
42
55
49
4c
44
20
58
38
36
a
7
67
65
74
6d
65
d
a
2a
0
28
42
37
41
30
33
41
34
32
37
32
44
39
36
34
42
32
43
30
35
38
39
37
43
39
32
37
33
31
38
34
37
37
36
43
39
46
35
32
36
45
8
50
41
53
53
2d
4f
4e
30
5
48
65
61
72
74
a
32
0
31
0
31
0
0
0
20
0
6
52
45
41
44
44
a
6
4d
58
74
66
33
54
e
55
53
45
52
20
41
53
5f
20
23
20
23
20
3a
a
32
0
36
0
34
0
0
0
20
0
12
77
1
0
e9
3
e9
3
0
0
0
0
0
0
3
0
0
0
d
15
2a
2f
61
64
76
3d
27
4f
72
62
69
74
57
68
69
74
65
27
2f
2a
20
3e
55
73
65
72
2d
41
67
65
6e
74
3a
20
4d
6f
7a
69
6c
6c
61
2f
34
2e
30
20
28
63
6f
6d
70
61
74
69
62
6c
65
3b
20
4d
53
49
45
20
35
2e
30
3b
20
57
69
6e
64
6f
77
73
20
4e
54
20
35
2e
30
29
14
3f
54
3d
6d
61
63
68
69
6e
65
69
6e
66
6f
26
26
4b
65
79
3d
d
48
4f
52
53
45
5f
41
53
53
45
52
54
21
5
70
69
6e
67
7c
4
0
5
f3
d9
1f
4f
70
65
72
61
74
69
6e
67
20
53
79
73
74
65
6d
20
49
6e
74
65
6c
20
52
65
63
6f
76
65
72
79
14
50
4f
53
54
20
2f
77
72
69
74
65
20
48
54
54
50
2f
31
2e
31
2a
0
28
45
33
41
38
38
30
39
30
31
37
44
44
37
36
42
44
32
36
35
35
37
41
35
42
39
32
33
41
42
32
41
45
31
36
43
30
43
44
42
33
12
50
43
5f
41
63
74
69
76
65
5f
54
69
6d
65
2e
74
78
74
a
32
0
31
0
30
0
0
0
20
0
e
78
5f
4d
2
64
19
1a
fa
8b
56
9f
51
de
7c
a
32
0
30
0
37
0
0
0
20
0
7
5b
74
8
4d
9b
39
c1
f
4a
4f
49
4e
20
23
72
61
70
65
20
61
6e
61
6c
1c
d
a
4c
6f
67
66
69
6c
65
20
6f
66
20
53
79
73
74
65
6d
49
6e
66
6f
4c
4f
47
d
a
3
5
0
0
a
32
0
36
0
33
0
0
0
20
0
f
26
53
54
41
54
50
41
53
53
3d
42
50
41
53
53
10
ce
d7
41
87
c6
9f
ac
87
2
73
da
87
7a
9b
5f
87
a
43
4f
4e
4e
45
43
54
45
44
3e
3e
55
73
65
72
2d
41
67
65
6e
74
3a
20
4d
6f
7a
69
6c
6c
61
2f
34
2e
30
20
28
63
6f
6d
70
61
74
69
62
6c
65
3b
20
4d
53
49
45
20
35
2e
30
3b
20
57
69
6e
64
6f
77
73
20
4e
54
20
35
2e
30
29
a
32
0
33
0
36
0
0
0
20
0
3
2f
33
2f
7
50
41
53
53
2d
4f
4e
a
47
48
7a
d
cd
e2
cd
f8
d
20
17
2f
73
74
61
72
67
61
6c
61
78
79
2e
70
68
70
3f
6e
65
62
75
6c
61
3d
a
0
0
0
57
69
6e
64
6f
77
73
12
2f
50
6f
73
74
2e
50
68
70
3f
55
73
65
72
4e
61
6d
65
c
ba
da
c2
f3
cd
f8
c2
e7
44
44
4f
53
b
2f
74
65
73
74
69
2e
6a
6e
6c
70
1e
67
65
74
45
6c
65
6d
65
6e
74
73
42
79
54
61
67
4e
61
6d
65
28
22
68
67
72
6f
75
70
22
29
18
70
78
27
3b
65
6c
65
6d
65
6e
74
2e
73
74
79
6c
65
2e
74
6f
70
3d
27
2d
5
58
59
54
76
6e
6
48
45
4c
4c
4f
a
e
43
6f
6f
6b
69
65
3a
20
63
61
74
69
64
3d
f
4a
4f
49
4e
20
23
62
69
7a
20
61
62
63
d
a
12
55
53
45
52
20
44
49
58
20
30
20
2a
20
3a
20
44
49
58
a
47
48
7a
d
c4
da
cd
f8
d
20
a
47
48
7a
d
ce
b4
d6
aa
d
20
4
2e
6d
6b
76
17
5f
30
64
61
79
32
5f
66
6c
61
c
4d
61
69
6e
54
69
6d
65
6c
69
6e
65
8
20
0
5
0
0
0
6
0
34
55
73
65
72
2d
41
67
65
6e
74
3a
20
4d
6f
7a
69
6c
6c
61
35
2e
31
20
28
63
6f
6d
70
61
74
69
62
6c
65
3b
20
4d
53
49
45
20
38
2e
30
3b
20
57
69
6e
33
32
29
27
48
0
50
0
20
0
4f
0
70
0
65
0
6e
0
56
0
69
0
65
0
77
0
20
0
4f
0
6d
0
6e
0
69
0
42
0
61
0
63
0
6b
e
3c
2f
74
69
74
6c
65
3e
3c
62
6f
64
79
3e
a
2f
73
74
61
74
3f
75
69
64
3d
a
32
0
36
0
35
0
0
0
20
0
8
3c
7c
49
6e
66
6f
7c
3e
c
0
5
f3
dd
0
0
0
2
0
0
0
6
c
31
0
30
0
39
0
32
0
0
0
20
0
3
75
72
0
a
32
0
31
0
36
0
0
0
20
0
c
31
0
30
0
39
0
31
0
0
0
20
0
a
32
0
33
0
35
0
0
0
20
0
6
50
43
52
61
74
64
9
66
69
6c
65
6e
61
6d
65
3d
14
4b
65
79
20
6c
6f
67
67
65
72
20
69
73
20
6e
6f
77
20
6f
6e
7
0
0
64
1c
1
0
0
13
55
73
65
72
2d
41
67
65
6e
74
3a
20
54
72
65
63
6b
d
a
14
ff
ff
ff
ff
c2
1f
96
9b
5f
3
d3
3d
43
e0
4f
8f
13
6e
76
82
a
32
0
32
0
37
0
0
0
20
0
a
32
0
34
0
33
0
0
0
20
0
3
2f
33
2f
a
f4
1
0
0
32
0
0
0
e8
3
10
5d
0
20
0
68
0
69
0
6b
0
69
0
74
0
3e
0
b
2f
70
75
62
6c
69
63
6b
65
79
2f
12
56
45
52
3a
47
48
4f
53
54
20
56
45
52
53
49
4f
4e
20
15
55
73
65
72
2d
41
67
65
6e
74
3a
20
49
6e
73
74
61
6c
6c
d
a
7
55
50
44
41
54
45
7c
a
32
0
31
0
35
0
0
0
20
0
a
32
0
33
0
34
0
0
0
20
0
a
33
0
30
0
35
0
0
0
20
0
b
21
64
6c
20
68
74
74
70
3a
2f
2f
3
5
0
0
a
32
0
31
0
31
0
0
0
20
0
b
2d
72
77
78
72
2d
78
72
2d
78
20
14
11
0
0
0
bd
b4
e8
be
b6
75
9c
a0
80
44
8b
eb
82
8b
a3
93
a
32
0
35
0
39
0
0
0
20
0
a
32
0
35
0
37
0
0
0
20
0
a
32
0
31
0
34
0
0
0
20
0
9
47
45
54
20
2f
33
30
31
30
7
3a
62
70
61
73
73
a
c
0
5
f3
d9
0
0
0
5
0
0
0
9
a
1f
8b
8
0
0
0
0
0
0
0
6
52
45
41
44
59
a
7
49
4e
46
45
43
54
7c
10
f6
f6
f6
f6
f6
f6
f6
f6
f6
f6
f6
f6
f6
f6
f6
f6
e
4a
4f
49
4e
20
23
6e
20
6a
6f
62
73
d
a
5
2e
64
6a
76
75
b
7c
4d
69
63
72
6f
73
6f
66
74
20
a
4f
6e
43
6f
6e
6e
65
63
74
7c
c
14
0
0
0
2
0
14
20
2
5
5
0
a
32
0
36
0
30
0
0
0
20
0
c
53
45
52
56
49
43
45
20
50
41
43
4b
e
53
65
72
76
65
72
3a
20
53
74
61
6c
69
6e
32
4a
4f
49
4e
20
23
74
65
73
74
31
20
7c
d
a
4a
4f
49
4e
20
23
74
65
73
74
32
20
7c
d
a
4a
4f
49
4e
20
23
74
65
73
74
33
20
28
6e
75
6c
6c
29
d
a
9
7c
57
69
6e
64
6f
77
73
20
a
32
0
31
0
39
0
0
0
20
0
10
4a
4f
49
4e
20
23
23
33
76
69
6c
20
6e
33
74
21
a
47
48
7a
d
b4
fa
c0
ed
d
20
f
26
73
74
61
74
70
61
73
73
3d
62
70
61
73
73
4
1
6
77
42
9
2f
67
61
74
65
2e
70
68
70
10
69
6e
73
64
62
2e
70
68
70
3f
74
61
62
6c
65
3d
9
2f
67
61
74
65
2e
70
68
70
c
2f
74
2f
64
32
68
73
64
57
46
33
4f
47
55
73
65
72
2d
41
67
65
6e
74
3a
20
4d
6f
7a
69
6c
6c
61
2f
35
2e
30
20
28
57
69
6e
64
6f
77
73
3b
20
55
3b
20
4d
53
49
45
20
39
2e
30
3b
20
57
69
6e
64
6f
77
73
20
4e
54
20
39
2e
30
3b
20
65
6e
2d
55
53
29
d
a
29
55
73
65
72
2d
41
67
65
6e
74
3a
20
4d
69
63
72
6f
73
6f
66
74
20
49
6e
74
65
72
6e
65
74
20
45
78
70
6c
6f
72
65
72
d
a
20
55
73
65
72
2d
41
67
65
6e
74
3a
20
55
70
64
61
74
65
73
20
64
6f
77
6e
6c
6f
61
64
65
72
d
a
5
47
68
30
73
74
20
93
aa
0
8a
1b
4f
47
c0
93
aa
0
8a
1b
4f
47
c0
93
aa
0
8a
1b
4f
47
c0
93
aa
0
8a
1b
4f
47
c0
d
21
2a
20
53
43
41
4e
4e
45
52
20
4f
4e
f
22
29
3b
a
d
a
3c
2f
73
63
72
69
70
74
3e
4
30
30
37
72
c
50
41
53
53
20
73
75
31
63
31
64
33
a
42
55
49
4c
44
20
58
38
36
a
7
67
65
74
6d
65
d
a
2a
0
28
42
37
41
30
33
41
34
32
37
32
44
39
36
34
42
32
43
30
35
38
39
37
43
39
32
37
33
31
38
34
37
37
36
43
39
46
35
32
36
45
8
50
41
53
53
2d
4f
4e
30
5
48
65
61
72
74
a
32
0
31
0
31
0
0
0
20
0
6
52
45
41
44
44
a
6
4d
58
74
66
33
54
e
55
53
45
52
20
41
53
5f
20
23
20
23
20
3a
a
32
0
36
0
34
0
0
0
20
0
12
77
1
0
e9
3
e9
3
0
0
0
0
0
0
3
0
0
0
d
15
2a
2f
61
64
76
3d
27
4f
72
62
69
74
57
68
69
74
65
27
2f
2a
20
3e
55
73
65
72
2d
41
67
65
6e
74
3a
20
4d
6f
7a
69
6c
6c
61
2f
34
2e
30
20
28
63
6f
6d
70
61
74
69
62
6c
65
3b
20
4d
53
49
45
20
35
2e
30
3b
20
57
69
6e
64
6f
77
73
20
4e
54
20
35
2e
30
29
14
3f
54
3d
6d
61
63
68
69
6e
65
69
6e
66
6f
26
26
4b
65
79
3d
d
48
4f
52
53
45
5f
41
53
53
45
52
54
21
5
70
69
6e
67
7c
4
0
5
f3
d9
1f
4f
70
65
72
61
74
69
6e
67
20
53
79
73
74
65
6d
20
49
6e
74
65
6c
20
52
65
63
6f
76
65
72
79
14
50
4f
53
54
20
2f
77
72
69
74
65
20
48
54
54
50
2f
31
2e
31
2a
0
28
45
33
41
38
38
30
39
30
31
37
44
44
37
36
42
44
32
36
35
35
37
41
35
42
39
32
33
41
42
32
41
45
31
36
43
30
43
44
42
33
12
50
43
5f
41
63
74
69
76
65
5f
54
69
6d
65
2e
74
78
74
a
32
0
31
0
30
0
0
0
20
0
e
78
5f
4d
2
64
19
1a
fa
8b
56
9f
51
de
7c
a
32
0
30
0
37
0
0
0
20
0
7
5b
74
8
4d
9b
39
c1
f
4a
4f
49
4e
20
23
72
61
70
65
20
61
6e
61
6c
1c
d
a
4c
6f
67
66
69
6c
65
20
6f
66
20
53
79
73
74
65
6d
49
6e
66
6f
4c
4f
47
d
a
3
5
0
0
a
32
0
36
0
33
0
0
0
20
0
f
26
53
54
41
54
50
41
53
53
3d
42
50
41
53
53
10
ce
d7
41
87
c6
9f
ac
87
2
73
da
87
7a
9b
5f
87
a
43
4f
4e
4e
45
43
54
45
44
3e
3e
55
73
65
72
2d
41
67
65
6e
74
3a
20
4d
6f
7a
69
6c
6c
61
2f
34
2e
30
20
28
63
6f
6d
70
61
74
69
62
6c
65
3b
20
4d
53
49
45
20
35
2e
30
3b
20
57
69
6e
64
6f
77
73
20
4e
54
20
35
2e
30
29
a
32
0
33
0
36
0
0
0
20
0
3
2f
33
2f
7
50
41
53
53
2d
4f
4e
a
47
48
7a
d
cd
e2
cd
f8
d
20
17
2f
73
74
61
72
67
61
6c
61
78
79
2e
70
68
70
3f
6e
65
62
75
6c
61
3d
a
0
0
0
57
69
6e
64
6f
77
73
12
2f
50
6f
73
74
2e
50
68
70
3f
55
73
65
72
4e
61
6d
65
c
ba
da
c2
f3
cd
f8
c2
e7
44
44
4f
53
b
2f
74
65
73
74
69
2e
6a
6e
6c
70
1e
67
65
74
45
6c
65
6d
65
6e
74
73
42
79
54
61
67
4e
61
6d
65
28
22
68
67
72
6f
75
70
22
29
18
70
78
27
3b
65
6c
65
6d
65
6e
74
2e
73
74
79
6c
65
2e
74
6f
70
3d
27
2d
5
58
59
54
76
6e
6
48
45
4c
4c
4f
a
e
43
6f
6f
6b
69
65
3a
20
63
61
74
69
64
3d
f
4a
4f
49
4e
20
23
62
69
7a
20
61
62
63
d
a
12
55
53
45
52
20
44
49
58
20
30
20
2a
20
3a
20
44
49
58
a
47
48
7a
d
c4
da
cd
f8
d
20
a
47
48
7a
d
ce
b4
d6
aa
d
20
4
2e
6d
6b
76
17
5f
30
64
61
79
32
5f
66
6c
61
c
4d
61
69
6e
54
69
6d
65
6c
69
6e
65
8
20
0
5
0
0
0
6
0
34
55
73
65
72
2d
41
67
65
6e
74
3a
20
4d
6f
7a
69
6c
6c
61
35
2e
31
20
28
63
6f
6d
70
61
74
69
62
6c
65
3b
20
4d
53
49
45
20
38
2e
30
3b
20
57
69
6e
33
32
29
27
48
0
50
0
20
0
4f
0
70
0
65
0
6e
0
56
0
69
0
65
0
77
0
20
0
4f
0
6d
0
6e
0
69
0
42
0
61
0
63
0
6b
e
3c
2f
74
69
74
6c
65
3e
3c
62
6f
64
79
3e
a
2f
73
74
61
74
3f
75
69
64
3d
a
32
0
36
0
35
0
0
0
20
0
8
3c
7c
49
6e
66
6f
7c
3e
c
0
5
f3
dd
0
0
0
2
0
0
0
6
c
31
0
30
0
39
0
32
0
0
0
20
0
3
75
72
0
a
32
0
31
0
36
0
0
0
20
0
c
31
0
30
0
39
0
31
0
0
0
20
0
a
32
0
33
0
35
0
0
0
20
0
6
50
43
52
61
74
64
9
66
69
6c
65
6e
61
6d
65
3d
14
4b
65
79
20
6c
6f
67
67
65
72
20
69
73
20
6e
6f
77
20
6f
6e
7
0
0
64
1c
1
0
0
13
55
73
65
72
2d
41
67
65
6e
74
3a
20
54
72
65
63
6b
d
a
14
ff
ff
ff
ff
c2
1f
96
9b
5f
3
d3
3d
43
e0
4f
8f
13
6e
76
82
a
32
0
32
0
37
0
0
0
20
0
a
32
0
34
0
33
0
0
0
20
0
3
2f
33
2f
a
f4
1
0
0
32
0
0
0
e8
3
10
5d
0
20
0
68
0
69
0
6b
0
69
0
74
0
3e
0
b
2f
70
75
62
6c
69
63
6b
65
79
2f
12
56
45
52
3a
47
48
4f
53
54
20
56
45
52
53
49
4f
4e
20
15
55
73
65
72
2d
41
67
65
6e
74
3a
20
49
6e
73
74
61
6c
6c
d
a
7
55
50
44
41
54
45
7c
a
32
0
31
0
35
0
0
0
20
0
a
32
0
33
0
34
0
0
0
20
0
a
33
0
30
0
35
0
0
0
20
0
b
21
64
6c
20
68
74
74
70
3a
2f
2f
3
5
0
0
a
32
0
31
0
31
0
0
0
20
0
b
2d
72
77
78
72
2d
78
72
2d
78
20
14
11
0
0
0
bd
b4
e8
be
b6
75
9c
a0
80
44
8b
eb
82
8b
a3
93
a
32
0
35
0
39
0
0
0
20
0
a
32
0
35
0
37
0
0
0
20
0
a
32
0
31
0
34
0
0
0
20
0
9
47
45
54
20
2f
33
30
31
30
7
3a
62
70
61
73
73
a
c
0
5
f3
d9
0
0
0
5
0
0
0
9
a
1f
8b
8
0
0
0
0
0
0
0
6
52
45
41
44
59
a
7
49
4e
46
45
43
54
7c
10
f6
f6
f6
f6
f6
f6
f6
f6
f6
f6
f6
f6
f6
f6
f6
f6
e
4a
4f
49
4e
20
23
6e
20
6a
6f
62
73
d
a
5
2e
64
6a
76
75
b
7c
4d
69
63
72
6f
73
6f
66
74
20
a
4f
6e
43
6f
6e
6e
65
63
74
7c
c
14
0
0
0
2
0
14
20
2
5
5
0
a
32
0
36
0
30
0
0
0
20
0
c
53
45
52
56
49
43
45
20
50
41
43
4b
e
53
65
72
76
65
72
3a
20
53
74
61
6c
69
6e
32
4a
4f
49
4e
20
23
74
65
73
74
31
20
7c
d
a
4a
4f
49
4e
20
23
74
65
73
74
32
20
7c
d
a
4a
4f
49
4e
20
23
74
65
73
74
33
20
28
6e
75
6c
6c
29
d
a
9
7c
57
69
6e
64
6f
77
73
20
a
32
0
31
0
39
0
0
0
20
0
10
4a
4f
49
4e
20
23
23
33
76
69
6c
20
6e
33
74
21
a
47
48
7a
d
b4
fa
c0
ed
d
20
f
26
73
74
61
74
70
61
73
73
3d
62
70
61
73
73
b
53
45
52
56
45
4d
45
20
31
2e
58
9
2f
67
61
74
65
2e
70
68
70
10
69
6e
73
64
62
2e
70
68
70
3f
74
61
62
6c
65
3d
9
2f
67
61
74
65
2e
70
68
70
c
2f
74
2f
64
32
68
73
64
57
46
33
4f
47
55
73
65
72
2d
41
67
65
6e
74
3a
20
4d
6f
7a
69
6c
6c
61
2f
35
2e
30
20
28
57
69
6e
64
6f
77
73
3b
20
55
3b
20
4d
53
49
45
20
39
2e
30
3b
20
57
69
6e
64
6f
77
73
20
4e
54
20
39
2e
30
3b
20
65
6e
2d
55
53
29
d
a
29
55
73
65
72
2d
41
67
65
6e
74
3a
20
4d
69
63
72
6f
73
6f
66
74
20
49
6e
74
65
72
6e
65
74
20
45
78
70
6c
6f
72
65
72
d
a
20
55
73
65
72
2d
41
67
65
6e
74
3a
20
55
70
64
61
74
65
73
20
64
6f
77
6e
6c
6f
61
64
65
72
d
a
5
47
68
30
73
74
20
93
aa
0
8a
1b
4f
47
c0
93
aa
0
8a
1b
4f
47
c0
93
aa
0
8a
1b
4f
47
c0
93
aa
0
8a
1b
4f
47
c0
d
21
2a
20
53
43
41
4e
4e
45
52
20
4f
4e
f
22
29
3b
a
d
a
3c
2f
73
63
72
69
70
74
3e
4
30
30
37
72
c
50
41
53
53
20
73
75
31
63
31
64
33
a
42
55
49
4c
44
20
58
38
36
a
7
67
65
74
6d
65
d
a
2a
0
28
42
37
41
30
33
41
34
32
37
32
44
39
36
34
42
32
43
30
35
38
39
37
43
39
32
37
33
31
38
34
37
37
36
43
39
46
35
32
36
45
8
50
41
53
53
2d
4f
4e
30
5
48
65
61
72
74
a
32
0
31
0
31
0
0
0
20
0
6
52
45
41
44
44
a
6
4d
58
74
66
33
54
e
55
53
45
52
20
41
53
5f
20
23
20
23
20
3a
a
32
0
36
0
34
0
0
0
20
0
12
77
1
0
e9
3
e9
3
0
0
0
0
0
0
3
0
0
0
d
15
2a
2f
61
64
76
3d
27
4f
72
62
69
74
57
68
69
74
65
27
2f
2a
20
3e
55
73
65
72
2d
41
67
65
6e
74
3a
20
4d
6f
7a
69
6c
6c
61
2f
34
2e
30
20
28
63
6f
6d
70
61
74
69
62
6c
65
3b
20
4d
53
49
45
20
35
2e
30
3b
20
57
69
6e
64
6f
77
73
20
4e
54
20
35
2e
30
29
14
3f
54
3d
6d
61
63
68
69
6e
65
69
6e
66
6f
26
26
4b
65
79
3d
d
48
4f
52
53
45
5f
41
53
53
45
52
54
21
5
70
69
6e
67
7c
4
0
5
f3
d9
1f
4f
70
65
72
61
74
69
6e
67
20
53
79
73
74
65
6d
20
49
6e
74
65
6c
20
52
65
63
6f
76
65
72
79
14
50
4f
53
54
20
2f
77
72
69
74
65
20
48
54
54
50
2f
31
2e
31
2a
0
28
45
33
41
38
38
30
39
30
31
37
44
44
37
36
42
44
32
36
35
35
37
41
35
42
39
32
33
41
42
32
41
45
31
36
43
30
43
44
42
33
12
50
43
5f
41
63
74
69
76
65
5f
54
69
6d
65
2e
74
78
74
a
32
0
31
0
30
0
0
0
20
0
e
78
5f
4d
2
64
19
1a
fa
8b
56
9f
51
de
7c
a
32
0
30
0
37
0
0
0
20
0
7
5b
74
8
4d
9b
39
c1
f
4a
4f
49
4e
20
23
72
61
70
65
20
61
6e
61
6c
1c
d
a
4c
6f
67
66
69
6c
65
20
6f
66
20
53
79
73
74
65
6d
49
6e
66
6f
4c
4f
47
d
a
3
5
0
0
a
32
0
36
0
33
0
0
0
20
0
f
26
53
54
41
54
50
41
53
53
3d
42
50
41
53
53
10
ce
d7
41
87
c6
9f
ac
87
2
73
da
87
7a
9b
5f
87
a
43
4f
4e
4e
45
43
54
45
44
3e
3e
55
73
65
72
2d
41
67
65
6e
74
3a
20
4d
6f
7a
69
6c
6c
61
2f
34
2e
30
20
28
63
6f
6d
70
61
74
69
62
6c
65
3b
20
4d
53
49
45
20
35
2e
30
3b
20
57
69
6e
64
6f
77
73
20
4e
54
20
35
2e
30
29
a
32
0
33
0
36
0
0
0
20
0
3
2f
33
2f
7
50
41
53
53
2d
4f
4e
a
47
48
7a
d
cd
e2
cd
f8
d
20
17
2f
73
74
61
72
67
61
6c
61
78
79
2e
70
68
70
3f
6e
65
62
75
6c
61
3d
a
0
0
0
57
69
6e
64
6f
77
73
12
2f
50
6f
73
74
2e
50
68
70
3f
55
73
65
72
4e
61
6d
65
c
ba
da
c2
f3
cd
f8
c2
e7
44
44
4f
53
b
2f
74
65
73
74
69
2e
6a
6e
6c
70
1e
67
65
74
45
6c
65
6d
65
6e
74
73
42
79
54
61
67
4e
61
6d
65
28
22
68
67
72
6f
75
70
22
29
18
70
78
27
3b
65
6c
65
6d
65
6e
74
2e
73
74
79
6c
65
2e
74
6f
70
3d
27
2d
5
58
59
54
76
6e
6
48
45
4c
4c
4f
a
e
43
6f
6f
6b
69
65
3a
20
63
61
74
69
64
3d
f
4a
4f
49
4e
20
23
62
69
7a
20
61
62
63
d
a
12
55
53
45
52
20
44
49
58
20
30
20
2a
20
3a
20
44
49
58
a
47
48
7a
d
c4
da
cd
f8
d
20
a
47
48
7a
d
ce
b4
d6
aa
d
20
4
2e
6d
6b
76
17
5f
30
64
61
79
32
5f
66
6c
61
c
4d
61
69
6e
54
69
6d
65
6c
69
6e
65
8
20
0
5
0
0
0
6
0
34
55
73
65
72
2d
41
67
65
6e
74
3a
20
4d
6f
7a
69
6c
6c
61
35
2e
31
20
28
63
6f
6d
70
61
74
69
62
6c
65
3b
20
4d
53
49
45
20
38
2e
30
3b
20
57
69
6e
33
32
29
27
48
0
50
0
20
0
4f
0
70
0
65
0
6e
0
56
0
69
0
65
0
77
0
20
0
4f
0
6d
0
6e
0
69
0
42
0
61
0
63
0
6b
e
3c
2f
74
69
74
6c
65
3e
3c
62
6f
64
79
3e
a
2f
73
74
61
74
3f
75
69
64
3d
a
32
0
36
0
35
0
0
0
20
0
8
3c
7c
49
6e
66
6f
7c
3e
c
0
5
f3
dd
0
0
0
2
0
0
0
6
c
31
0
30
0
39
0
32
0
0
0
20
0
3
75
72
0
a
32
0
31
0
36
0
0
0
20
0
c
31
0
30
0
39
0
31
0
0
0
20
0
a
32
0
33
0
35
0
0
0
20
0
6
50
43
52
61
74
64
9
66
69
6c
65
6e
61
6d
65
3d
14
4b
65
79
20
6c
6f
67
67
65
72
20
69
73
20
6e
6f
77
20
6f
6e
7
0
0
64
1c
1
0
0
13
55
73
65
72
2d
41
67
65
6e
74
3a
20
54
72
65
63
6b
d
a
14
ff
ff
ff
ff
c2
1f
96
9b
5f
3
d3
3d
43
e0
4f
8f
13
6e
76
82
a
32
0
32
0
37
0
0
0
20
0
a
32
0
34
0
33
0
0
0
20
0
3
2f
33
2f
a
f4
1
0
0
32
0
0
0
e8
3
10
5d
0
20
0
68
0
69
0
6b
0
69
0
74
0
3e
0
b
2f
70
75
62
6c
69
63
6b
65
79
2f
12
56
45
52
3a
47
48
4f
53
54
20
56
45
52
53
49
4f
4e
20
15
55
73
65
72
2d
41
67
65
6e
74
3a
20
49
6e
73
74
61
6c
6c
d
a
7
55
50
44
41
54
45
7c
a
32
0
31
0
35
0
0
0
20
0
a
32
0
33
0
34
0
0
0
20
0
a
33
0
30
0
35
0
0
0
20
0
b
21
64
6c
20
68
74
74
70
3a
2f
2f
3
5
0
0
a
32
0
31
0
31
0
0
0
20
0
b
2d
72
77
78
72
2d
78
72
2d
78
20
14
11
0
0
0
bd
b4
e8
be
b6
75
9c
a0
80
44
8b
eb
82
8b
a3
93
a
32
0
35
0
39
0
0
0
20
0
a
32
0
35
0
37
0
0
0
20
0
a
32
0
31
0
34
0
0
0
20
0
9
47
45
54
20
2f
33
30
31
30
7
3a
62
70
61
73
73
a
c
0
5
f3
d9
0
0
0
5
0
0
0
9
a
1f
8b
8
0
0
0
0
0
0
0
6
52
45
41
44
59
a
7
49
4e
46
45
43
54
7c
10
f6
f6
f6
f6
f6
f6
f6
f6
f6
f6
f6
f6
f6
f6
f6
f6
e
4a
4f
49
4e
20
23
6e
20
6a
6f
62
73
d
a
5
2e
64
6a
76
75
b
7c
4d
69
63
72
6f
73
6f
66
74
20
a
4f
6e
43
6f
6e
6e
65
63
74
7c
c
14
0
0
0
2
0
14
20
2
5
5
0
a
32
0
36
0
30
0
0
0
20
0
c
53
45
52
56
49
43
45
20
50
41
43
4b
e
53
65
72
76
65
72
3a
20
53
74
61
6c
69
6e
32
4a
4f
49
4e
20
23
74
65
73
74
31
20
7c
d
a
4a
4f
49
4e
20
23
74
65
73
74
32
20
7c
d
a
4a
4f
49
4e
20
23
74
65
73
74
33
20
28
6e
75
6c
6c
29
d
a
9
7c
57
69
6e
64
6f
77
73
20
a
32
0
31
0
39
0
0
0
20
0
10
4a
4f
49
4e
20
23
23
33
76
69
6c
20
6e
33
74
21
a
47
48
7a
d
b4
fa
c0
ed
d
20
f
26
73
74
61
74
70
61
73
73
3d
62
70
61
73
73
c
2
0
8
6f
6e
53
74
61
74
75
73
0
11
1
2
0
0
0
0
0
4
2
0
0
0
0
0
0
0
2
a
2
0
6
5f
65
72
72
6f
72
0
a
2
0
6
5f
65
72
72
6f
72
0
a
2
0
6
5f
65
72
72
6f
72
0
9
2f
67
61
74
65
2e
70
68
70
10
69
6e
73
64
62
2e
70
68
70
3f
74
61
62
6c
65
3d
9
2f
67
61
74
65
2e
70
68
70
c
2f
74
2f
64
32
68
73
64
57
46
33
4f
47
55
73
65
72
2d
41
67
65
6e
74
3a
20
4d
6f
7a
69
6c
6c
61
2f
35
2e
30
20
28
57
69
6e
64
6f
77
73
3b
20
55
3b
20
4d
53
49
45
20
39
2e
30
3b
20
57
69
6e
64
6f
77
73
20
4e
54
20
39
2e
30
3b
20
65
6e
2d
55
53
29
d
a
29
55
73
65
72
2d
41
67
65
6e
74
3a
20
4d
69
63
72
6f
73
6f
66
74
20
49
6e
74
65
72
6e
65
74
20
45
78
70
6c
6f
72
65
72
d
a
20
55
73
65
72
2d
41
67
65
6e
74
3a
20
55
70
64
61
74
65
73
20
64
6f
77
6e
6c
6f
61
64
65
72
d
a
5
47
68
30
73
74
20
93
aa
0
8a
1b
4f
47
c0
93
aa
0
8a
1b
4f
47
c0
93
aa
0
8a
1b
4f
47
c0
93
aa
0
8a
1b
4f
47
c0
d
21
2a
20
53
43
41
4e
4e
45
52
20
4f
4e
f
22
29
3b
a
d
a
3c
2f
73
63
72
69
70
74
3e
4
30
30
37
72
c
50
41
53
53
20
73
75
31
63
31
64
33
a
42
55
49
4c
44
20
58
38
36
a
7
67
65
74
6d
65
d
a
2a
0
28
42
37
41
30
33
41
34
32
37
32
44
39
36
34
42
32
43
30
35
38
39
37
43
39
32
37
33
31
38
34
37
37
36
43
39
46
35
32
36
45
8
50
41
53
53
2d
4f
4e
30
5
48
65
61
72
74
a
32
0
31
0
31
0
0
0
20
0
6
52
45
41
44
44
a
6
4d
58
74
66
33
54
e
55
53
45
52
20
41
53
5f
20
23
20
23
20
3a
a
32
0
36
0
34
0
0
0
20
0
12
77
1
0
e9
3
e9
3
0
0
0
0
0
0
3
0
0
0
d
15
2a
2f
61
64
76
3d
27
4f
72
62
69
74
57
68
69
74
65
27
2f
2a
20
3e
55
73
65
72
2d
41
67
65
6e
74
3a
20
4d
6f
7a
69
6c
6c
61
2f
34
2e
30
20
28
63
6f
6d
70
61
74
69
62
6c
65
3b
20
4d
53
49
45
20
35
2e
30
3b
20
57
69
6e
64
6f
77
73
20
4e
54
20
35
2e
30
29
14
3f
54
3d
6d
61
63
68
69
6e
65
69
6e
66
6f
26
26
4b
65
79
3d
d
48
4f
52
53
45
5f
41
53
53
45
52
54
21
5
70
69
6e
67
7c
4
0
5
f3
d9
1f
4f
70
65
72
61
74
69
6e
67
20
53
79
73
74
65
6d
20
49
6e
74
65
6c
20
52
65
63
6f
76
65
72
79
14
50
4f
53
54
20
2f
77
72
69
74
65
20
48
54
54
50
2f
31
2e
31
2a
0
28
45
33
41
38
38
30
39
30
31
37
44
44
37
36
42
44
32
36
35
35
37
41
35
42
39
32
33
41
42
32
41
45
31
36
43
30
43
44
42
33
12
50
43
5f
41
63
74
69
76
65
5f
54
69
6d
65
2e
74
78
74
a
32
0
31
0
30
0
0
0
20
0
e
78
5f
4d
2
64
19
1a
fa
8b
56
9f
51
de
7c
a
32
0
30
0
37
0
0
0
20
0
7
5b
74
8
4d
9b
39
c1
f
4a
4f
49
4e
20
23
72
61
70
65
20
61
6e
61
6c
1c
d
a
4c
6f
67
66
69
6c
65
20
6f
66
20
53
79
73
74
65
6d
49
6e
66
6f
4c
4f
47
d
a
3
5
0
0
a
32
0
36
0
33
0
0
0
20
0
f
26
53
54
41
54
50
41
53
53
3d
42
50
41
53
53
10
ce
d7
41
87
c6
9f
ac
87
2
73
da
87
7a
9b
5f
87
a
43
4f
4e
4e
45
43
54
45
44
3e
3e
55
73
65
72
2d
41
67
65
6e
74
3a
20
4d
6f
7a
69
6c
6c
61
2f
34
2e
30
20
28
63
6f
6d
70
61
74
69
62
6c
65
3b
20
4d
53
49
45
20
35
2e
30
3b
20
57
69
6e
64
6f
77
73
20
4e
54
20
35
2e
30
29
a
32
0
33
0
36
0
0
0
20
0
3
2f
33
2f
7
50
41
53
53
2d
4f
4e
a
47
48
7a
d
cd
e2
cd
f8
d
20
17
2f
73
74
61
72
67
61
6c
61
78
79
2e
70
68
70
3f
6e
65
62
75
6c
61
3d
a
0
0
0
57
69
6e
64
6f
77
73
12
2f
50
6f
73
74
2e
50
68
70
3f
55
73
65
72
4e
61
6d
65
c
ba
da
c2
f3
cd
f8
c2
e7
44
44
4f
53
b
2f
74
65
73
74
69
2e
6a
6e
6c
70
1e
67
65
74
45
6c
65
6d
65
6e
74
73
42
79
54
61
67
4e
61
6d
65
28
22
68
67
72
6f
75
70
22
29
18
70
78
27
3b
65
6c
65
6d
65
6e
74
2e
73
74
79
6c
65
2e
74
6f
70
3d
27
2d
5
58
59
54
76
6e
6
48
45
4c
4c
4f
a
e
43
6f
6f
6b
69
65
3a
20
63
61
74
69
64
3d
f
4a
4f
49
4e
20
23
62
69
7a
20
61
62
63
d
a
12
55
53
45
52
20
44
49
58
20
30
20
2a
20
3a
20
44
49
58
a
47
48
7a
d
c4
da
cd
f8
d
20
a
47
48
7a
d
ce
b4
d6
aa
d
20
4
2e
6d
6b
76
17
5f
30
64
61
79
32
5f
66
6c
61
c
4d
61
69
6e
54
69
6d
65
6c
69
6e
65
8
20
0
5
0
0
0
6
0
34
55
73
65
72
2d
41
67
65
6e
74
3a
20
4d
6f
7a
69
6c
6c
61
35
2e
31
20
28
63
6f
6d
70
61
74
69
62
6c
65
3b
20
4d
53
49
45
20
38
2e
30
3b
20
57
69
6e
33
32
29
27
48
0
50
0
20
0
4f
0
70
0
65
0
6e
0
56
0
69
0
65
0
77
0
20
0
4f
0
6d
0
6e
0
69
0
42
0
61
0
63
0
6b
e
3c
2f
74
69
74
6c
65
3e
3c
62
6f
64
79
3e
a
2f
73
74
61
74
3f
75
69
64
3d
a
32
0
36
0
35
0
0
0
20
0
8
3c
7c
49
6e
66
6f
7c
3e
c
0
5
f3
dd
0
0
0
2
0
0
0
6
c
31
0
30
0
39
0
32
0
0
0
20
0
3
75
72
0
a
32
0
31
0
36
0
0
0
20
0
c
31
0
30
0
39
0
31
0
0
0
20
0
a
32
0
33
0
35
0
0
0
20
0
6
50
43
52
61
74
64
9
66
69
6c
65
6e
61
6d
65
3d
14
4b
65
79
20
6c
6f
67
67
65
72
20
69
73
20
6e
6f
77
20
6f
6e
7
0
0
64
1c
1
0
0
13
55
73
65
72
2d
41
67
65
6e
74
3a
20
54
72
65
63
6b
d
a
14
ff
ff
ff
ff
c2
1f
96
9b
5f
3
d3
3d
43
e0
4f
8f
13
6e
76
82
a
32
0
32
0
37
0
0
0
20
0
a
32
0
34
0
33
0
0
0
20
0
3
2f
33
2f
a
f4
1
0
0
32
0
0
0
e8
3
10
5d
0
20
0
68
0
69
0
6b
0
69
0
74
0
3e
0
b
2f
70
75
62
6c
69
63
6b
65
79
2f
12
56
45
52
3a
47
48
4f
53
54
20
56
45
52
53
49
4f
4e
20
15
55
73
65
72
2d
41
67
65
6e
74
3a
20
49
6e
73
74
61
6c
6c
d
a
7
55
50
44
41
54
45
7c
a
32
0
31
0
35
0
0
0
20
0
a
32
0
33
0
34
0
0
0
20
0
a
33
0
30
0
35
0
0
0
20
0
b
21
64
6c
20
68
74
74
70
3a
2f
2f
3
5
0
0
a
32
0
31
0
31
0
0
0
20
0
b
2d
72
77
78
72
2d
78
72
2d
78
20
14
11
0
0
0
bd
b4
e8
be
b6
75
9c
a0
80
44
8b
eb
82
8b
a3
93
a
32
0
35
0
39
0
0
0
20
0
a
32
0
35
0
37
0
0
0
20
0
a
32
0
31
0
34
0
0
0
20
0
9
47
45
54
20
2f
33
30
31
30
7
3a
62
70
61
73
73
a
c
0
5
f3
d9
0
0
0
5
0
0
0
9
a
1f
8b
8
0
0
0
0
0
0
0
6
52
45
41
44
59
a
7
49
4e
46
45
43
54
7c
10
f6
f6
f6
f6
f6
f6
f6
f6
f6
f6
f6
f6
f6
f6
f6
f6
e
4a
4f
49
4e
20
23
6e
20
6a
6f
62
73
d
a
5
2e
64
6a
76
75
b
7c
4d
69
63
72
6f
73
6f
66
74
20
a
4f
6e
43
6f
6e
6e
65
63
74
7c
c
14
0
0
0
2
0
14
20
2
5
5
0
a
32
0
36
0
30
0
0
0
20
0
c
53
45
52
56
49
43
45
20
50
41
43
4b
e
53
65
72
76
65
72
3a
20
53
74
61
6c
69
6e
32
4a
4f
49
4e
20
23
74
65
73
74
31
20
7c
d
a
4a
4f
49
4e
20
23
74
65
73
74
32
20
7c
d
a
4a
4f
49
4e
20
23
74
65
73
74
33
20
28
6e
75
6c
6c
29
d
a
9
7c
57
69
6e
64
6f
77
73
20
a
32
0
31
0
39
0
0
0
20
0
10
4a
4f
49
4e
20
23
23
33
76
69
6c
20
6e
33
74
21
a
47
48
7a
d
b4
fa
c0
ed
d
20
f
26
73
74
61
74
70
61
73
73
3d
62
70
61
73
73
1f
41
4f
4c
20
41
44
4d
49
4e
20
53
45
52
56
45
52
20
31
2e
31
20
42
59
20
43
48
45
45
53
45
52
9
2f
67
61
74
65
2e
70
68
70
10
69
6e
73
64
62
2e
70
68
70
3f
74
61
62
6c
65
3d
9
2f
67
61
74
65
2e
70
68
70
c
2f
74
2f
64
32
68
73
64
57
46
33
4f
47
55
73
65
72
2d
41
67
65
6e
74
3a
20
4d
6f
7a
69
6c
6c
61
2f
35
2e
30
20
28
57
69
6e
64
6f
77
73
3b
20
55
3b
20
4d
53
49
45
20
39
2e
30
3b
20
57
69
6e
64
6f
77
73
20
4e
54
20
39
2e
30
3b
20
65
6e
2d
55
53
29
d
a
29
55
73
65
72
2d
41
67
65
6e
74
3a
20
4d
69
63
72
6f
73
6f
66
74
20
49
6e
74
65
72
6e
65
74
20
45
78
70
6c
6f
72
65
72
d
a
20
55
73
65
72
2d
41
67
65
6e
74
3a
20
55
70
64
61
74
65
73
20
64
6f
77
6e
6c
6f
61
64
65
72
d
a
5
47
68
30
73
74
20
93
aa
0
8a
1b
4f
47
c0
93
aa
0
8a
1b
4f
47
c0
93
aa
0
8a
1b
4f
47
c0
93
aa
0
8a
1b
4f
47
c0
d
21
2a
20
53
43
41
4e
4e
45
52
20
4f
4e
f
22
29
3b
a
d
a
3c
2f
73
63
72
69
70
74
3e
4
30
30
37
72
c
50
41
53
53
20
73
75
31
63
31
64
33
a
42
55
49
4c
44
20
58
38
36
a
7
67
65
74
6d
65
d
a
2a
0
28
42
37
41
30
33
41
34
32
37
32
44
39
36
34
42
32
43
30
35
38
39
37
43
39
32
37
33
31
38
34
37
37
36
43
39
46
35
32
36
45
8
50
41
53
53
2d
4f
4e
30
5
48
65
61
72
74
a
32
0
31
0
31
0
0
0
20
0
6
52
45
41
44
44
a
6
4d
58
74
66
33
54
e
55
53
45
52
20
41
53
5f
20
23
20
23
20
3a
a
32
0
36
0
34
0
0
0
20
0
12
77
1
0
e9
3
e9
3
0
0
0
0
0
0
3
0
0
0
d
15
2a
2f
61
64
76
3d
27
4f
72
62
69
74
57
68
69
74
65
27
2f
2a
20
3e
55
73
65
72
2d
41
67
65
6e
74
3a
20
4d
6f
7a
69
6c
6c
61
2f
34
2e
30
20
28
63
6f
6d
70
61
74
69
62
6c
65
3b
20
4d
53
49
45
20
35
2e
30
3b
20
57
69
6e
64
6f
77
73
20
4e
54
20
35
2e
30
29
14
3f
54
3d
6d
61
63
68
69
6e
65
69
6e
66
6f
26
26
4b
65
79
3d
d
48
4f
52
53
45
5f
41
53
53
45
52
54
21
5
70
69
6e
67
7c
4
0
5
f3
d9
1f
4f
70
65
72
61
74
69
6e
67
20
53
79
73
74
65
6d
20
49
6e
74
65
6c
20
52
65
63
6f
76
65
72
79
14
50
4f
53
54
20
2f
77
72
69
74
65
20
48
54
54
50
2f
31
2e
31
2a
0
28
45
33
41
38
38
30
39
30
31
37
44
44
37
36
42
44
32
36
35
35
37
41
35
42
39
32
33
41
42
32
41
45
31
36
43
30
43
44
42
33
12
50
43
5f
41
63
74
69
76
65
5f
54
69
6d
65
2e
74
78
74
a
32
0
31
0
30
0
0
0
20
0
e
78
5f
4d
2
64
19
1a
fa
8b
56
9f
51
de
7c
a
32
0
30
0
37
0
0
0
20
0
7
5b
74
8
4d
9b
39
c1
f
4a
4f
49
4e
20
23
72
61
70
65
20
61
6e
61
6c
1c
d
a
4c
6f
67
66
69
6c
65
20
6f
66
20
53
79
73
74
65
6d
49
6e
66
6f
4c
4f
47
d
a
3
5
0
0
a
32
0
36
0
33
0
0
0
20
0
f
26
53
54
41
54
50
41
53
53
3d
42
50
41
53
53
10
ce
d7
41
87
c6
9f
ac
87
2
73
da
87
7a
9b
5f
87
a
43
4f
4e
4e
45
43
54
45
44
3e
3e
55
73
65
72
2d
41
67
65
6e
74
3a
20
4d
6f
7a
69
6c
6c
61
2f
34
2e
30
20
28
63
6f
6d
70
61
74
69
62
6c
65
3b
20
4d
53
49
45
20
35
2e
30
3b
20
57
69
6e
64
6f
77
73
20
4e
54
20
35
2e
30
29
a
32
0
33
0
36
0
0
0
20
0
3
2f
33
2f
7
50
41
53
53
2d
4f
4e
a
47
48
7a
d
cd
e2
cd
f8
d
20
17
2f
73
74
61
72
67
61
6c
61
78
79
2e
70
68
70
3f
6e
65
62
75
6c
61
3d
a
0
0
0
57
69
6e
64
6f
77
73
12
2f
50
6f
73
74
2e
50
68
70
3f
55
73
65
72
4e
61
6d
65
c
ba
da
c2
f3
cd
f8
c2
e7
44
44
4f
53
b
2f
74
65
73
74
69
2e
6a
6e
6c
70
1e
67
65
74
45
6c
65
6d
65
6e
74
73
42
79
54
61
67
4e
61
6d
65
28
22
68
67
72
6f
75
70
22
29
18
70
78
27
3b
65
6c
